#version: 0.2
Ġ t
Ġ a
h e
i n
e n
Ġt he
Ġ s
o n
e r
e s
a t
Ġ w
i s
Ġ c
Ġ <
r e
Ġ f
Ġ b
a n
o f
Ġ p
i t
o r
Ġa n
in g
o u
Ġ m
l e
i on
Ġ d
t e
Ġ in
Ġt o
Ġt h
a r
a s
Ġ is
a l
en t
Ġ n
e d
Ġ of
i c
x t
en d
Ġ h
Ġan d
Ġ g
o m
Ġ l
te xt
A N
E R
E S
I O
Q U
S W
T IO
| >
Ġ< |
of text
end oftext
AN SW
ES TIO
QU ESTIO
ANSW ER
QUESTIO N
c e
l l
o w
t ion
Ġ e
i v
Ġ y
q u
w er
u s
s wer
Ġ r
o t
Ġb e
i d
Ġw h
Ġ re
Ġ it
l y
c t
a m
Ġ qu
Ġ -
Ġan swer
o s
Ġth at
Ġth is
Ġ "
es tion
e t
a y
Ġqu estion
en ce
i r
o p
i m
Ġs ent
Ġ on
Ġp r
l d
Ġf or
Ġy ou
Ġ he
Ġs t
u r
u n
at ion
i g
v e
o d
Ġsent ence
er s
ou t
a d
Ġf o
c h
at e
k e
Ġf r
u t
Ġa re
i f
o l
it h
Ġn e
Ġc on
Ġw ith
Ġa s
Ġ 1
u m
i l
es t
Ġ v
Ġ or
iv e
' s
Ġc h
r i
a p
es s
Ġwh at
Ġa b
Ġw as
ll ow
a g
o v
Ġ j
a c
Ġd o
Ġs h
s e
b le
an t
i e
s t
Ġfo llow
Ġt e
o c
Ġc an
h t
t er
Ġn ot
Ġa t
he r
Ġs e
ou ld
Ġ k
Ġfollow ing
Ġfr om
Ġp l
Ġ le
Ġc om
p e
Ġ (
an d
ou n
i ll
a in
Ġw or
Ġ =
u l
as e
Ġd e
t he
Ġ i
Ġw e
Ġn o
Ġm e
Ġb y
Ġe x
Ġ 2
Ġg iv
Ġab out
t h
Ġ en
) .
ig ht
Ġgiv en
o re
is t
Ġ un
Ġt r
ic h
Ġthe y
it y
or t
Ġa l
us t
Ġ us
Ġp os
Ġl i
om e
Ġw he
a ve
. "
it e
u p
id e
am e
i es
d s
o k
al l
Ġm an
Ġs o
le d
Ġwh ich
e l
u d
Ġa r
Ġy es
Ġs p
on g
in e
te d
tion s
Ġ op
Ġli ke
m ent
ar t
at ed
Ġt w
an s
a ce
as t
an swer
ic e
Ġg o
a us
a ct
p l
Ġw ould
ow n
a k
Ġh ave
Ġ out
ar y
is h
u b
an g
on e
a ke
Ġw r
Ġd es
w h
i z
v er
Ġg r
a b
r y
s i
ag e
Ġc or
o ve
Ġs ome
Ġa d
Ġyou r
a ble
Ġp e
Ġbe c
Ġb ut
ou r
Ġh is
al ly
u e
Ġ '
Ġw ill
a v
Ġc l
Ġ if
Ġdo es
ar d
Ġh as
u re
Ġ Ġ
Ġa c
re ct
Ġ .
te p
p r
Ġa ll
le ase
ir st
Ġon e
Ġ o
aus e
en er
o ok
Ġf irst
Ġp re
ri b
Ġwh o
ot her
os e
Ġthe ir
i p
i an
u c
Ġ im
Ġa m
at ive
ou g
Ġre v
Ġfo od
ac k
Ġa f
Ġd at
i al
ou s
ie w
Ġpl ay
os t
um m
Ġthe re
Ġh ow
in d
oun d
at ing
op le
' t
as s
Ġdes c
si ble
ic k
Ġdat a
Ġin t
Ġcor rect
f or
Ġf e
Ġcom p
wh at
o g
Ġpe ople
oun t
i le
c l
Ġ ,
Ġb r
Ġbec ause
Ġg ener
Ġk n
at er
Ġrev iew
i a
Ġf am
Ġ1 9
i ly
a re
Ġc al
Ġp lease
Ġne w
d ay
p ort
w e
Ġs pe
p t
Ġ 5
Ġm ov
it t
Ġm ore
Ġthe se
is e
b er
ov er
Ġte ll
it ive
im e
Ġhe r
for m
Ġpr od
Ġp h
0 0
Ġwhe n
Ġpos sible
Ġa p
ar s
Ġwhe re
o y
Ġwor ds
k ing
u g
at es
Ġr est
Ġen g
Ġ q
Ġof f
Ġpr ov
Ġte xt
Ġtw o
i re
as on
Ġcon t
Ġ up
p ut
ap p
Ġdesc rib
i ld
Ġp ar
e ct
g ative
Ġad d
Ġhe l
Ġpos itive
u ct
or y
g e
Ġ other
Ġc ount
Ġr o
Ġcal led
Ġ 3
Ġs ay
Ġch o
Ġb l
a ur
as ed
ers on
Ġcon text
f er
Ġne gative
er e
Ġcom m
Ġhel p
a il
he s
im ent
Ġle t
ic al
Ġit s
Ġint o
ot h
Ġv er
a ch
Ġl oc
u ation
Ġwr ite
Ġrest aur
Ġrestaur ant
n e
s o
en s
Ġb est
Ġs c
Ġbe t
ul t
an ce
Ġp art
c es
Ġin d
Ġr es
Ġt ime
er m
Ġm ake
k s
Ġf l
Ġd r
Ġg et
Ġj ust
Ġc r
ing s
cl ud
Ġgener ate
or d
le ct
Ġfam ily
Ġs tep
t y
Ġthe m
on d
ic es
Ġs he
Ġs er
Ġs umm
Ġc o
Ġb u
l ish
Ġp erson
Ġpl ace
Ġm ar
Ġn ame
Ġhe re
Ġd is
it ed
Ġh app
oug h
Ġw ater
un ct
Ġaf ter
Ġst r
Ġab ove
Ġd id
as k
Ġne ed
Ġch ar
Ġse e
Ġa g
Ġs m
Ġ ke
Ġs ol
Ġmov ie
Ġm ost
Ġac c
ch o
re e
Ġy e
Ġc ar
id ent
Ġfr i
Ġop tions
. .
in k
Ġe v
Ġgo od
Ġc ap
Ġb oth
Ġar t
Ġfri end
Ġc ity
Ġb ig
Ġp unct
Ġin form
Ġ ent
iv ers
ad e
Ġeng lish
h ing
Ġs a
Ġs im
o od
p er
Ġh ad
Ġsh ould
Ġw ere
Ġe qu
Ġre ason
ang e
i i
Ġp er
Ġsent iment
Ġspe c
Ġf in
Ġwor k
Ġver y
? "
c re
a i
f f
Ġe m
Ġanswer s
Ġinform ation
y p
Ġin st
ce pt
Ġre m
Ġpr o
Ġa ir
er g
Ġc ould
Ġre c
o ld
Ġt it
it al
b r
Ġa ct
Ġe at
Ġf il
Ġpr oc
oc k
Ġpre m
Ġh ig
Ġg re
Ġfor m
s tep
Ġt al
he d
Ġd et
om et
w ay
Ġb o
it ion
or n
Ġd if
p le
Ġt ask
or s
Ġm us
Ġwh ile
e et
y s
Ġc he
om er
Ġbe l
op tions
Ġne xt
Ġfe el
Ġproc ess
Ġs ame
ent s
Ġme an
Ġ2 0
Ġtw eet
f ri
l and
Ġf act
Ġb ased
Ġth an
Ġj o
Ġtr ans
j ect
u tion
at h
Ġpr es
on s
Ġc ust
ig n
Ġsh ow
Ġpunct uation
fri end
Ġp o
Ġal so
iz e
Ġth r
Ġl ook
Ġst ate
Ġthe n
er ic
Ġth ink
Ġst ates
Ġkn ow
i ous
is s
Ġtit le
' ,
Ġs k
Ġs up
Ġl a
Ġr ating
Ġle ad
Ġcust omer
f e
i x
Ġ 4
Ġ z
ow er
Ġe ver
Ġne ar
ap h
Ġat t
Ġprod uct
Ġsumm ary
a ir
f ore
t ing
Ġin ter
Ġn um
Ġme ans
Ġprem ise
Ġw om
Ġb ir
Ġm ight
Ġun d
Ġun ited
itt le
Ġdif fer
a le
m s
Ġ over
Ġc re
Ġm y
Ġd own
ur n
Ġman y
Ġcount ry
friend ly
f ul
l es
Ġan y
Ġg u
if ic
id es
Ġre ad
we en
, "
e p
Ġ [
Ġs omet
ot hes
if y
Ġsh ort
at ur
Ġf un
Ġm ay
op er
oug ht
g et
Ġs u
Ġw ant
Ġc ol
Ġl ist
Ġd ay
Ġl ong
Ġl ittle
Ġr ight
Ġ +
en se
at ch
ou se
ation al
Ġare a
Ġcon s
Ġen erg
Ġbet ween
Ġc ent
Ġd i
ic t
Ġdo g
Ġex pl
Ġkn own
Ġdescrib es
al s
Ġhig h
Ġs ub
Ġm ak
Ġbe ing
Ġcap ital
Ġc ase
ate g
ac es
Ġdiffer ent
r a
an y
Ġm on
Ġin s
Ġloc ated
Ġequ ation
Ġenerg y
Ġh im
id ed
ve l
Ġsh op
Ġc am
Ġre l
yp othes
ypothes is
p h
w r
Ġop tion
Ġthr ough
Ġm ade
ion s
Ġl ang
Ġlang u
Ġw ay
Ġp ol
Ġm et
Ġfil m
b e
i ent
er t
Ġc ateg
re d
Ġsome one
Ġam eric
ty pe
Ġs ur
Ġp ass
Ġin clud
Ġh ouse
Ġg l
Ġl ar
Ġus ing
Ġb ook
Ġbe en
Ġpr oper
Ġcorrect ly
Ġchar act
Ġsa id
n ing
as es
Ġe ar
Ġon ly
Ġ2 00
en ces
Ġf ound
Ġb ack
Ġn ow
Ġbe fore
Ġbu ild
Ġsomet hing
i ence
r aph
s ent
w or
Ġs l
Ġs ing
Ġm ain
Ġin put
Ġv ers
Ġtr ue
wr ite
sent ence
g er
Ġcomm on
Ġsm all
] .
p os
Ġm in
op e
Ġte am
Ġwor ld
Ġus e
Ġsp aces
Ġprov ide
Ġeat type
Ġlangu age
f in
u ll
Ġ Ċ
Ġc le
Ġto p
ic le
ow s
Ġcho ose
Ġye ars
Ġever y
n ot
u al
Ġ 8
ar ing
Ġplay ing
r ic
Ġt ri
Ġp ub
Ġto get
Ġn am
Ġh old
Ġr ock
Ġser v
Ġ20 1
Ġtoget her
" ,
Ġth ings
Ġas k
Ġse c
Ġwom an
g an
i o
Ġ u
Ġs it
Ġf ind
od y
Ġex per
Ġus ed
Ġmus ic
j oy
m ber
es e
Ġd on
Ġl ess
Ġas s
a z
an c
Ġm iss
Ġe l
Ġre g
ag raph
Ġen joy
Ġpar agraph
ai led
i ed
Ġan im
ou p
pr ess
Ġcho ices
Ġspec ial
Ġ ed
in t
Ġw ar
Ġto o
Ġv al
Ġvers ion
i er
Ċ Ċ
es day
Ġb ar
Ġcon cept
Ġde c
Ġsol ve
h ow
Ġt ake
in a
Ġs ense
it ing
Ġh ypothesis
Ġr ivers
Ġre ally
Ġpl ant
Ġwor d
c tion
Ġ *
Ġc e
Ġf ast
Ġb us
Ġl ast
Ġst ud
ation s
Ġcon clud
." ?
a x
Ġw in
Ġw al
Ġm od
ar ds
ent ion
ic ally
and s
Ġcomp le
c ess
e f
o te
t on
en ch
Ġs un
id er
Ġo b
Ġnum ber
Ġrivers ide
u ce
in ess
Ġs et
Ġc ur
Ġb re
Ġin v
se l
ment s
Ġim port
Ġprov ided
Ġhapp y
a h
t r
y pe
in ce
Ġe le
Ġe xt
Ġe ach
Ġe lect
Ġ- -
Ġch ild
Ġcomp any
Ġke y
Ġconclud e
c an
Ġ end
en c
Ġb ody
ur ing
Ġart icle
Ġfin al
Ġgre at
b all
c om
Ġ 0
Ġwh y
ur es
ain s
Ġbet ter
Ġnam ed
Ġimport ant
en g
Ġh um
ers t
ate ly
Ġfamily friendly
Ġev en
g r
m e
in s
Ġw atch
Ġin cre
Ġre d
Ġit al
Ġyou n
ord ing
cho ol
Ġreason ing
) ,
c ted
y ing
Ġs chool
Ġp ut
as h
Ġpr ic
if e
Ġwith out
ble m
Ġk id
Ġde fin
" .
b ers
c er
r ase
v en
Ġa ust
Ġs ides
Ġc of
Ġto w
Ġh ome
Ġh ard
Ġg ir
Ġre t
Ġcan not
Ġap pr
ug g
ire d
Ġfriend s
Ġinst r
fe e
Ġcof fee
a w
m an
n ess
r o
y m
Ġp ick
it ies
Ġd iv
Ġg ame
Ġl ine
am es
Ġst re
Ġst ar
Ġ1 0
Ġhapp en
Ġlead er
Ġund erst
Ġcons ider
Ġbuild ing
p ly
Ġ 6
Ġ our
Ġw ind
an k
am p
Ġsent ences
Ġst ory
Ġex am
Ġpres ident
atur al
Ġyoun g
' re
c le
f t
r al
t her
Ġt ype
Ġs we
Ġm o
Ġe ff
Ġr un
Ġde l
Ġdoes n
ĠĠ Ġ
itt en
Ġacc ording
Ġbel ong
Ġcateg ory
Ġconcept s
Ġunderst and
Ġ ir
er ing
Ġd in
Ġre f
im es
one y
Ġprod uce
Ġph rase
Ġbl ood
Ġcent re
p tion
r es
s umm
Ġ ve
Ġt erm
Ġa ut
Ġs out
Ġn atural
Ġl ight
et s
ie ld
Ġwe ll
th is
Ġgr oup
Ġo ld
Ġdesc ri
Ġameric an
i b
he n
er ange
Ġ1 8
Ġwe e
Ġwr itten
Ġgr ow
Ġro om
Ġspec ific
Ġstate ment
Ġinter n
Ġinclud es
Ġpric erange
h ip
i ke
u ally
Ġ ok
he re
Ġs ong
is ion
or ies
Ġth ing
Ġl ot
qu e
Ġre qu
am m
Ġst art
Ġap pe
Ġtrans l
Ġsub ject
Ġcharact er
Ġexper ience
n er
o x
Ġ 7
Ġs w
Ġc at
Ġp op
ic s
Ġe as
ig in
st r
ain ing
iz ed
av ing
Ġoff ice
Ġmar k
Ġag ain
Ġbir d
? ?
d er
f l
p ing
at her
Ġb oy
Ġp air
Ġl iv
Ġex press
Ġcont r
ne y
Ġart ist
Ġper form
Ġmak ing
Ġce ll
t o
Ġc our
Ġf ix
an e
ar m
id ing
av or
Ġcount y
Ġsu ch
1 5
e m
p ick
Ġ /
is hed
Ġp at
it s
Ġm ove
Ġm oney
te m
ar k
Ġg ot
.. .
Ġbus iness
Ġg ive
Ġwh ite
Ġquestion s
ur s
ure d
Ġsim pl
Ġdet ailed
Ġbo at
b y
n ow
p ar
Ġ ident
Ġa way
en n
Ġw ed
Ġp ict
Ġd uring
Ġn or
ir t
un g
ut es
il ity
Ġle g
Ġcl ass
Ġdescrib e
Ġfact s
Ġmak es
a ut
c on
c ap
d o
Ġt re
Ġb ri
Ġm il
ar ch
Ġr us
id ay
Ġfr ench
ac her
Ġex c
Ġar ound
Ġ19 9
ail s
ail able
Ġpro blem
Ġair port
Ġsing le
e ver
h n
l ing
o b
y l
Ġs ide
Ġan other
Ġn ice
om m
os s
Ġst and
ol og
Ġor gan
Ġor igin
ul ar
Ġcont in
Ġloc ation
Ġpub l
Ġmiss ing
Ġanim al
Ġital ian
Ġinstr uc
d y
s ide
u ch
u ated
w ard
en e
Ġs ign
Ġb and
Ġb orn
Ġm en
Ġd ist
Ġh ol
Ġe ur
ap an
Ġse ason
ort s
Ġgo ing
og r
Ġdescrib ed
Ġsay s
Ġdis c
cept able
Ġear th
sel f
Ġwee k
Ġ own
Ġt urn
in es
en ted
is m
Ġf our
Ġf avor
Ġth ree
as ter
Ġfo ot
Ġv is
Ġv ar
Ġj apan
iz ation
Ġbr it
Ġprod uc
Ġph ot
Ġind ic
Ġres p
Ġtal k
Ġche ap
Ġcol or
Ġsec ond
Ġelect r
eng th
Ġgir l
p lease
y e
Ġa ver
Ġs ad
Ġw ood
Ġc aus
Ġp ot
Ġan n
Ġm ill
ar ize
ent ly
Ġl ow
Ġe ag
iv er
os p
out put
ag es
Ġun ivers
Ġoff ic
Ġye ar
way s
Ġmod er
Ġbri ef
c k
e ch
h le
s h
Ġ ide
Ġs ure
Ġs ince
er on
Ġc are
Ġf ull
Ġre le
Ġcon v
Ġch ang
Ġj an
Ġat hle
Ġsp ace
Ġpre t
Ġhow ever
ile y
Ġstr ong
cho ose
Ġinst it
Ġrem ove
wor ds
Ġcur r
ash a
Ġinstruc tions
b um
c ed
t en
u te
Ġ x
Ġs ys
Ġs asha
on t
Ġp ain
Ġp ast
Ġm ention
Ġin c
Ġl ive
Ġl ife
id ge
ir es
Ġhe ad
Ġcom b
ak es
Ġad v
uc k
are d
Ġap p
Ġser ies
Ġdet erm
Ġed uc
Ġtow n
n ame
p ed
Ġt v
Ġa v
Ġs ugg
Ġb ud
an n
an ation
an ted
an ish
Ġm uch
Ġg as
Ġl ove
Ġl ower
Ġst op
Ġas h
Ġch ange
Ġk ind
Ġal bum
Ġus es
Ġop en
ak ing
umm y
itt ing
Ġres ult
Ġtrans port
Ġlook ing
Ġsup er
Ġbir th
Ġsit uation
Ġkey words
Ġconsider ed
r en
y es
Ġs oc
is f
Ġf ree
Ġth ought
ri es
Ġwe aring
Ġlike ly
Ġout side
Ġplay s
Ġsol ution
Ġjo hn
Ġfoot ball
Ġaver age
3 9
a f
l ess
n o
n esday
r ing
t s
y cle
Ġs al
er r
at isf
Ġw a
Ġw on
is ter
Ġm at
Ġto day
Ġr ation
ad y
Ġ1 4
Ġv i
Ġdo ing
ant s
Ġte le
Ġo ce
Ġfam il
Ġ19 8
Ġnew s
Ġother s
Ġmean ing
Ġjo b
Ġla w
Ġmon th
Ġob ject
Ġeff ect
Ġident ify
Ġsys tem
Ġration ale
a e
a ug
b o
g ener
i ation
t w
u esday
Ġ oc
Ġ ice
Ġt uesday
Ġc ook
re y
Ġin te
Ġn ational
Ġy ummy
Ġre p
un d
Ġne cess
um e
Ġv ill
ac tion
se lect
pe ct
Ġme m
Ġo il
Ġplay ed
Ġtell s
Ġpar k
Ġro b
Ġbl ue
Ġpart y
Ġke ep
Ġev ent
Ġact iv
Ġlar ge
Ġswe et
Ġwed nesday
Ġrus si
v es
Ġt est
Ġa llow
Ġa ub
en a
Ġc all
Ġf ire
Ġd ate
Ġth ose
Ġg en
Ġg over
Ġre al
Ġre ce
Ġpr ogr
Ġ1 2
Ġor der
Ġcom e
ain ed
Ġme et
Ġspe ak
Ġacc ur
Ġrec omm
Ġtal king
Ġcre ate
Ġcharact ers
Ġcle an
Ġhum an
Ġdefin ition
Ġsout h
Ġeur ope
Ġrecomm end
i k
i que
s ol
v ed
x ic
y d
at s
Ġw ent
Ġc ause
Ġf all
Ġb ed
Ġb ad
Ġb ill
Ġb ab
Ġp ower
Ġm id
Ġm ag
Ġh aving
Ġg erm
Ġl og
iv ed
Ġre pe
im ately
Ġpr of
Ġst ill
Ġas king
Ġv o
Ġv ol
Ġch ina
Ġj ud
oc ks
Ġde ath
Ġwhe ther
Ġar r
Ġop er
Ġout put
wh ich
Ġ19 7
Ġeng ine
Ġind ian
Ġsup port
pos sible
Ġevery one
Ġreg ion
Ġwatch ing
Ġret urn
Ġappr ox
Ġbrit ish
Ġinstit ution
Ġtransport ation
Ġgover n
a j
n y
t le
Ġ ur
is on
Ġf ile
Ġb all
an ces
Ġan t
Ġm ed
ar n
Ġn ight
end ing
Ġr ich
Ġhe art
Ġ1 5
ag ine
Ġsh ip
Ġse par
Ġle ft
Ġwor king
Ġde cre
ist s
Ġgr ound
Ġdid n
Ġag o
Ġatt rib
Ġdi rect
ert ain
Ġcateg ories
Ġval id
Ġoffic ial
Ġbud dy
Ġoce an
2 7
a ff
f ect
r ess
r ist
Ġ 9
Ġt imes
Ġs and
Ġc ult
Ġf it
Ġf if
Ġf ield
Ġp ort
ou d
ou ble
Ġm ust
le x
Ġd en
Ġis land
al th
Ġl o
Ġbe aut
am s
Ġpr ess
Ġhe at
ad a
ter n
Ġsp orts
pl ic
Ġdes ign
Ġpre v
ack s
Ġfam ous
Ġro ad
Ġlet ter
Ġsee ms
Ġent ity
Ġcam br
Ġask ed
Ġcomple te
Ġchild ren
Ġdin ing
Ġintern ational
Ġathle te
aug ht
Ġoc c
Ġvill age
Ġapprox imately
1 0
_ _
m ing
r b
Ġ est
Ġs te
Ġw est
Ġw ond
Ġc up
Ġb at
ar r
ar ily
Ġh ist
ll ing
us h
Ġr ate
Ġbe h
am a
Ġpr om
if ied
Ġcon d
Ġcon f
st er
." ,
Ġar m
Ġgo al
ab or
Ġbec ome
Ġsay ing
Ġhelp s
cho ices
Ġbel ie
Ġund er
Ġexpl anation
Ġcam eron
Ġgl ass
Ġtop ic
Ġhold er
enc y
Ġterm s
Ġtransl ate
Ġagain st
Ġvis it
Ġconv ers
Ġdeterm ine
gener ate
+ ]
l o
u is
u ary
at ure
Ġc ost
Ġf re
or es
te en
Ġth in
as ing
Ġh and
om es
iv ing
iv al
Ġr iver
Ġfr ont
if ul
if ies
est s
Ġv ir
Ġch ain
Ġte x
Ġk ing
Ġpl an
Ġex p
Ġ2 7
av ailable
Ġim agine
Ġcomp ut
Ġadd ed
Ġstr uct
Ġgre en
Ġdet ails
Ġwom en
Ġpol it
Ġplant s
Ġwal king
Ġcomple x
str uct
Ġcour se
Ġeag le
Ġfamil ies
Ġaub rey
Ġcambr idge
' m
1 1
2 5
f ort
i um
p s
w ord
w ards
Ġ ?
in c
on es
Ġw all
Ġw anted
Ġp et
ent ial
end ed
Ġh our
Ġr ad
Ġre pr
ur t
ur ch
un e
il ar
Ġj um
Ġse en
th ought
Ġen ough
Ġun ique
Ġal ways
Ġus er
wh o
Ġcl os
Ġcl ose
Ġcomm un
Ġbu y
Ġem o
Ġpro te
Ġtal ks
Ġnum bers
Ġins ide
vel op
Ġpol ice
Ġass oc
Ġbre ak
Ġaut h
Ġdescri ption
Ġorigin al
Ġunivers ity
" ?
' ll
g g
i ans
r ation
y n
Ġ er
Ġ es
in ation
in put
in ese
at or
Ġp en
it c
Ġto ok
Ġof ten
Ġe p
ot t
id s
un ch
od e
Ġwith in
Ġch inese
Ġsh are
Ġno vel
ore d
Ġtr ain
Ġli k
own s
Ġwr ong
iz es
Ġim p
Ġpart ic
Ġreason able
Ġfeel ing
Ġcapital ize
ra el
ull y
summ ary
Ġrequ ires
Ġcontin ue
Ġjapan ese
Ġeduc ational
Ġmonth s
Ġbeaut iful
Ġauth or
1 2
1 4
1 9
b s
b re
g est
i ble
k y
l or
m m
m osp
Ġ :
Ġt yp
in ed
Ġs qu
Ġs itting
at ic
Ġc oun
Ġc ars
Ġf ur
Ġf ight
Ġp ie
it her
ion ed
te ad
Ġg ames
Ġe ating
iv es
Ġr om
Ġr ice
Ġbe g
Ġpr ices
Ġhe alth
Ġst at
Ġte m
Ġat mosp
Ġle e
ul ate
Ġde velop
Ġsp anish
av es
Ġac ceptable
Ġsc ale
Ġfl o
Ġsim ilar
ii i
Ġday s
Ġsur f
Ġinv ol
Ġfavor able
Ġbab y
Ġtex as
Ġatmosp here
2 0
d e
d le
f ully
i am
l ight
r om
r act
r ons
u ff
v ir
v ision
er c
es ted
Ġf ive
Ġm ent
Ġm ic
Ġd ire
Ġis ol
ent y
Ġg e
Ġg od
Ġe gg
ld en
um ent
ess ion
ag ue
her n
Ġse cre
Ġle ast
the re
Ġme xic
Ġ2 4
Ġal ong
iz z
iz ing
Ġpe ace
Ġaf ric
Ġplay er
Ġ19 5
Ġmov ies
Ġoff ers
Ġneed ed
Ġpunct uated
Ġpo int
Ġcapital ized
Ġins tead
Ġserv ice
Ġdiv ide
Ġstar ted
Ġref ers
Ġsimpl ify
Ġpict ure
Ġnor th
Ġhol iday
Ġcomb ine
Ġaccur ate
Ġeurope an
Ġrepe at
Ġvo ice
Ġgovern ment
Ġfif teen
Ġconvers ation
. ,
1 7
a q
e x
g ing
l ine
Ġ #
Ġ &
Ġt our
Ġa lex
Ġs atur
Ġs atisf
Ġb ur
Ġp an
Ġm ess
Ġm ult
Ġd ig
end all
Ġl ake
op h
Ġpr ice
Ġhe ard
Ġst ars
if t
ri ed
ap er
ag ed
ac ed
Ġte ch
Ġk il
Ġle arn
Ġno te
ok en
ment ioned
Ġgo lden
Ġgr amm
Ġo x
Ġgener ated
Ġph il
ens ive
Ġget ting
Ġco ol
Ġent ailed
Ġsim ple
Ġrec on
Ġform er
wor k
Ġmin ister
Ġstud ent
Ġincre ase
Ġwind ows
Ġbelong s
Ġdescri pt
Ġcell s
Ġcaus es
Ġmem bers
Ġsatur day
' d
a is
h ypothesis
i et
m en
n a
r ay
t ers
u es
z ech
Ġb ak
Ġb io
of f
Ġm ot
Ġm ary
Ġm ount
Ġd ie
Ġd av
te acher
Ġth ir
Ġth urs
Ġis rael
al ity
Ġn et
end er
Ġh or
Ġy or
Ġbe ach
im b
Ġpr im
Ġst ay
ur al
Ġne ver
Ġ1 3
est ing
ac y
Ġsh irt
Ġk endall
ore mentioned
ist an
Ġus ually
ave l
Ġar ch
Ġtw enty
Ġwr iting
Ġaf orementioned
ous ly
Ġcont ent
Ġhelp ed
Ġget s
ord an
Ġbu ying
Ġmar ch
Ġact or
Ġform ed
ep end
Ġameric a
Ġhold ing
ote l
Ġstre et
Ġir aq
Ġpop ular
Ġmark et
Ġstand ing
Ġpubl ished
Ġresp on
Ġann oun
Ġpret ty
Ġtele vision
Ġcomput er
Ġdescript ive
Ġthurs day
! !
c o
c hed
e en
g en
i ated
l ike
m ake
p art
u f
u el
Ġ )
Ġt on
Ġt err
in n
Ġs uc
Ġw ild
Ġc uis
Ġf ish
or ted
Ġm aj
Ġd ish
Ġd ivers
Ġn est
Ġl ing
Ġl ab
Ġl ond
Ġl ung
iv id
Ġr en
os ion
et h
ur ity
od s
Ġcon c
Ġ1 7
Ġch amp
Ġj ordan
Ġte acher
Ġse ver
Ġle vel
Ġle ague
th ing
Ġen vir
Ġtr ad
pl ace
Ġcl ub
Ġim possible
Ġbr ing
Ġspe ed
Ġph one
iment um
Ġsc ience
Ġdr ess
Ġche m
Ġche ck
Ġbel ow
Ġshow s
Ġproduct s
Ġcol le
Ġpass age
Ġsl ow
Ġval ue
Ġkid s
Ġaust in
Ġaust ral
Ġrun ning
res p
Ġok ay
Ġappe ar
Ġeas ier
con om
Ġsign ific
Ġdisc over
Ġvar ious
tw o
Ġrussi an
Ġmid dle
Ġep is
Ġsecre t
Ġrecon struct
Ġlond on
Ġenvir on
b ill
d am
e e
i ot
t t
t il
u ist
Ġ ess
Ġt aking
Ġs now
Ġc ou
Ġc zech
Ġf ar
Ġb it
Ġan al
Ġm other
Ġd ut
Ġd ial
ic tion
Ġl ength
Ġy ard
Ġhe n
Ġst ore
Ġ1 6
Ġch rist
ap or
ov ers
ie f
Ġcan y
oun ds
ul es
Ġi i
Ġex ce
Ġal imentum
Ġac tion
Ġ19 6
Ġloc al
Ġind epend
Ġind ivid
Ġfl ow
Ġstep s
Ġwater man
Ġafter wards
Ġcap t
Ġrem y
Ġpres ent
Ġpo ol
Ġgu it
Ġmay be
Ġwant s
Ġcapital ization
Ġcam p
Ġbook s
Ġear ly
Ġmin utes
Ġcle ar
Ġtri ple
Ġserv es
Ġsec urity
az ing
Ġanim als
ro om
Ġdel ight
summ arize
Ġpict ures
olog y
Ġmoder ate
Ġcurr ent
Ġsoc cer
Ġvi br
Ġattrib utes
Ġprev ious
Ġsurf ace
Ġisol ate
Ġyor k
Ġcuis ine
1 8
3 2
c ut
c hes
g es
h ol
i ally
o on
r up
w ith
y ne
Ġ os
he l
in ary
Ġs our
Ġc ame
Ġf ly
Ġf ace
Ġb a
Ġb en
Ġb ac
Ġan g
Ġm ix
Ġto m
Ġn ation
Ġl and
Ġe ast
Ġe conom
iv en
Ġr ain
out h
Ġfr iday
if orn
il es
Ġv ide
Ġse ed
Ġk ai
Ġle o
ul ation
Ġde f
Ġde ce
Ġtr y
ab ility
Ġint r
Ġcal iforn
Ġpar ents
Ġbl ack
ond ing
Ġsumm arize
Ġag ree
Ġper i
Ġfin ally
Ġem b
Ġpro ject
Ġsk ate
Ġatt ack
Ġ[ +]
Ġsomet imes
ify ing
Ġexpl ain
Ġshop ping
Ġlar gest
Ġel abor
Ġdec ided
Ġwal k
Ġelect ric
Ġlot s
Ġcontr ol
Ġtre es
Ġpubl ic
Ġphot os
Ġrob in
Ġgerm an
Ġjud ge
plic it
Ġwond ering
Ġtech n
Ġsuc cess
Ġmaj or
Ġsever al
Ġsignific ant
Ġcaliforn ia
2 00
b or
c us
l ic
m a
m ark
n s
n es
r ight
r ound
t al
y gen
Ġ ut
Ġt ur
Ġs of
Ġs ch
Ġs ym
er v
Ġc ut
Ġc art
re w
Ġf yne
Ġb ag
Ġb ase
Ġb ought
Ġp al
or r
Ġm ut
le y
Ġd ise
te ch
Ġto y
Ġis s
Ġh ands
Ġh otel
iv ity
Ġre fer
Ġqu ick
Ġqu een
et ic
ig h
um in
ov ed
Ġj ack
Ġcan ada
Ġse a
Ġle d
Ġcom es
Ġ2 8
Ġun til
Ġso ld
el s
Ġop in
pl ies
Ġpre p
uc tion
Ġam ong
Ġfe w
Ġbr o
Ġgener al
Ġmov ing
ber t
Ġfriend ly
Ġsk y
Ġbir ds
Ġfun ny
Ġdi ed
Ġdog s
Ġstre am
Ġhappen ed
Ġve h
Ġspecific ally
Ġperform ance
Ġmil it
Ġexc iting
Ġrele ased
Ġchang es
Ġmention ed
Ġlog ically
Ġsepar ate
Ġfur ther
Ġment ions
Ġox ygen
Ġthir d
Ġling uist
Ġchem ical
Ġdial og
Ġvibr ant
. ;
2 6
3 6
3 8
b u
b ook
b ian
f ield
g re
j a
o es
o le
Ġ ing
Ġa i
Ġs le
Ġs ar
er y
Ġc ertain
Ġf ut
it er
it able
Ġm orn
Ġto ld
al d
Ġg al
Ġl at
Ġl ost
ll a
Ġr oy
Ġr iding
Ġr iley
Ġon ce
Ġst uff
ve y
Ġcon ver
Ġch air
ri ate
ess e
Ġwas hing
Ġj u
Ġdo ct
Ġse x
Ġse ll
ill s
Ġwe l
Ġwe ather
Ġtr ying
Ġal tern
el t
pl es
Ġwr ote
Ġcor resp
Ġcl a
Ġac id
Ġthere fore
Ġcont ain
Ġcont rib
Ġpar aph
Ġpositive ly
Ġent er
Ġpro b
Ġform ulate
Ġpo ll
Ġz e
Ġcent er
Ġele ments
Ġexam ple
Ġide a
bo ard
Ġnecess ary
Ġsweet ie
Ġprof ession
Ġest ab
Ġbeh ind
Ġhour s
Ġrepr es
Ġimp act
Ġphil ip
Ġlung s
Ġguit ar
Ġba iley
Ġdece mber
Ġelabor ate
Ġdialog ue
Ġmorn ing
7 5
d ing
d om
d id
g o
m on
o en
r ases
s is
t ies
z y
z er
Ġ $
Ġ `
Ġt ou
in y
Ġs il
Ġs ound
Ġs yd
re c
Ġf ac
Ġb ust
Ġb ench
Ġb ike
it le
Ġm om
Ġm ath
Ġd ue
te e
Ġin fl
ic a
Ġh ot
Ġg ave
qu estion
us e
Ġr ace
Ġwh ose
Ġit self
ly m
Ġqu inn
op riate
Ġst ri
Ġfo cus
ch an
Ġfr ance
if f
Ġcon ne
ac ceptable
Ġsh ar
Ġsh aring
ie ve
Ġse lect
Ġse arch
Ġcom fort
Ġwor ks
Ġme as
Ġme mber
Ġme chan
Ġen s
Ġtr acy
ub e
si b
pr o
Ġpre ced
Ġph oen
Ġadd ison
Ġ3 0
Ġver b
Ġfl u
Ġstr ing
Ġneed s
Ġsa fe
Ġsim ply
Ġequ ip
Ġrem ains
Ġact ress
Ġbo x
Ġpres ented
Ġlook s
Ġmon day
Ġmet ers
Ġ200 6
Ġsit uated
anc ed
Ġital y
Ġgir aff
Ġintern et
Ġsw im
cap e
do es
Ġbrief ly
Ġchang ed
Ġwa iting
Ġmeet ing
Ġpress ure
Ġhist ory
Ġcommun ity
Ġtrad ition
Ġcou ple
Ġwashing ton
Ġsyd ney
Ġphoen ix
7 6
a ult
c he
c ould
i able
i ents
m ore
m ost
r os
r ac
w a
w ood
y ou
y le
z z
Ġt en
he m
at ches
is ing
Ġc op
Ġc oc
Ġf arm
Ġb urn
Ġp le
or ter
Ġm ass
Ġm ater
Ġd a
Ġd ouble
Ġh ar
Ġh un
Ġh ope
om b
Ġl ay
Ġl ater
Ġl ady
Ġe ither
Ġy et
qu id
us s
ot s
Ġbe er
Ġre ac
Ġre pl
Ġqu ality
Ġfor ce
ig er
Ġcon ven
Ġas ia
Ġ1 00
ri a
Ġwas te
Ġj ames
Ġde p
Ġi p
Ġex erc
Ġli quid
ite ly
ud e
Ġsp ir
Ġsp oken
Ġop pos
Ġgr ows
ab les
Ġbec omes
Ġam azing
Ġaf fect
Ġfe atur
Ġoff ering
Ġro le
Ġnegative ly
Ġlet ters
Ġsc re
Ġco ast
Ġhapp ens
ask et
Ġke ys
Ġsa w
?" ,
Ġhig her
land s
Ġsk yl
Ġcre ated
Ġany one
Ġsu itable
Ġcase y
Ġrel ations
Ġmet h
Ġinclud ing
Ġgl ob
Ġ200 5
Ġsmall er
Ġwar m
Ġwin ning
Ġappr opriate
Ġdin ner
cap ital
Ġexc ited
Ġav ailable
Ġsugg ested
Ġnecess arily
Ġactiv ities
Ġprogr am
Ġdecre ase
Ġdecre ases
Ġfit z
Ġthin king
Ġbeg in
Ġmexic o
Ġmess age
iet y
Ġmot or
Ġdav id
Ġchamp ions
Ġenviron ment
Ġdut ch
Ġdelight ful
cut ive
Ġvide o
Ġopin ion
Ġcorresp onding
Ġ` `
' .
b a
b ol
b ased
c r
c ar
e v
e ms
f rom
h am
i or
l rb
m y
o e
o id
p ose
r rb
s p
t ime
t itle
v ant
w al
x x
Ġt im
Ġa pr
Ġa ward
Ġc ir
Ġc ry
Ġf est
Ġf ill
Ġf elt
Ġb i
Ġb es
Ġb ay
Ġb ank
Ġb asket
Ġp u
Ġp erm
Ġm r
Ġm ir
Ġm ach
Ġm atch
Ġm outh
Ġd one
Ġd ance
Ġto tal
ic ated
Ġh ug
Ġg un
Ġe ye
Ġr ange
Ġbe gan
Ġre lease
Ġre ach
op t
im in
Ġon line
Ġfor ward
Ġst ation
ve land
ve mber
Ġfo re
Ġfr ank
Ġcon st
est er
ive ly
Ġch urch
Ġab s
ag er
Ġj our
Ġj esse
Ġsh orter
Ġcan cer
ter y
Ġat om
Ġse ven
Ġcom ing
Ġno vember
Ġex pe
Ġgiv es
ist ration
Ġal right
Ġpos t
Ġpos ition
ite ct
Ġman uf
Ġman ager
led ge
Ġgo es
pl oy
Ġout do
Ġad m
Ġbec ame
Ġ' '
ard ing
Ġim plicit
Ġbr owns
Ġspe ech
Ġmov es
Ġprov ides
app o
Ġcount ries
Ġcomm it
ne gative
Ġpart s
Ġfl at
Ġdr ug
Ġdr iving
Ġchar les
Ġsm o
Ġke pt
Ġmost ly
Ġbig ger
Ġmus ical
Ġread y
Ġcent ral
Ġhim self
Ġrel ax
Ġmet al
ient ly
Ġlar ger
Ġsing er
Ġmain t
Ġcle veland
Ġtri ed
Ġmusic ian
Ġinv est
sel ves
gr ound
Ġincre ases
Ġve get
Ġgrow th
Ġappe ars
Ġpop ulation
Ġliv ing
Ġpat rons
Ġindic ates
Ġpot ential
Ġactiv ity
Ġlo ch
Ġemo tion
Ġlik ed
Ġrom an
Ġtem per
Ġdevelop ment
Ġafric an
Ġaustral ian
bill ies
Ġing red
Ġparaph rases
Ġpreced ing
Ġrelations hip
Ġglob al
capital ize
Ġmanuf act
" ;
2 3
2 9
3 0
4 7
6 4
a u
b l
b orn
c u
d r
d en
m ed
n am
p or
p et
s et
Ġ @
Ġ ol
Ġt as
Ġt ree
Ġa ud
Ġa ug
in i
Ġs ug
Ġs ix
er al
at ors
Ġc ul
Ġc over
re l
Ġb in
Ġb al
Ġb ath
an a
an ch
Ġp ur
Ġp age
Ġp ack
Ġd v
Ġd est
Ġd ry
Ġin n
Ġto ol
ic o
ic y
Ġh al
Ġh am
Ġh ill
Ġh ab
Ġh arm
Ġg ather
Ġl as
ow l
iv ia
us ed
Ġr ide
Ġr ocks
ot to
Ġre port
ay lor
Ġhe ar
Ġhe av
Ġst age
Ġst ocks
ke y
Ġcon cer
Ġ1 1
il led
Ġv ict
Ġab le
Ġj une
Ġdo c
ant a
ant ic
her lands
Ġk ore
Ġwe ight
Ġex e
Ġex act
Ġtr ay
Ġtr ade
Ġtr avel
Ġal ph
ust ry
Ġpos sib
Ġso il
Ġar ms
pl ay
Ġgr and
Ġgr ass
ab ly
Ġad ult
Ġac r
Ġac tions
Ġo h
Ġam ount
Ġam ster
Ġfe at
Ġcomp et
og en
Ġcho ice
Ġfl ight
Ġdr aw
ord er
Ġthem selves
Ġco ll
Ġdis appo
Ġacc ess
Ġye llow
Ġwork ed
br uary
Ġdif f
Ġthan ks
Ġknow ing
Ġknow ledge
iss ion
Ġla und
Ġinter esting
Ġcre ating
ific ation
Ġread ing
Ġcol lect
Ġlong er
Ġhigh ly
Ġthrough out
Ġtri p
Ġ201 2
anc ing
Ġel se
Ġcur ry
com ing
Ġincre asing
Ġput ting
Ġaut om
Ġcour t
Ġmove ment
Ġproduc ed
Ġphot o
Ġcolor ful
ye ar
Ġrele vant
Ġpain t
Ġinc or
Ġbirth day
Ġwa it
Ġnews p
Ġcook ing
Ġnational ity
Ġrep orted
Ġrece ive
Ġmag n
Ġdirect or
Ġofficial s
Ġport ray
Ġfre qu
Ġvir us
Ġstruct ure
Ġpolit ic
Ġassoc iated
Ġflo or
Ġannoun ced
Ġdivers e
Ġepis ode
Ġindivid ual
Ġperi od
Ġmilit ary
Ġsle ep
Ġaltern ative
Ġze al
Ġphilip p
Ġtou ch
Ġbust ling
Ġequip ment
Ġmater ial
Ġskyl ar
Ġfitz billies
Ġbasket ball
Ġcul inary
Ġalph ab
Ġamster dam
! "
8 5
a el
b ur
c tions
c ient
d d
d ate
e w
e es
h us
i ant
k men
m as
m ic
p te
p erson
r or
s ome
t ic
w as
Ġt aylor
Ġa ch
in ted
Ġs n
Ġs us
Ġs ir
er n
at o
Ġw ife
is es
Ġc m
Ġc ycle
Ġf at
Ġb ul
Ġp up
Ġp ath
it es
or ry
Ġm ur
Ġd ark
Ġd aught
Ġis n
al es
Ġn ons
ic ed
ic ip
ic ient
ic ycle
Ġh all
Ġh ond
Ġh osp
Ġg ar
Ġl es
Ġl ands
ll o
Ġr ac
Ġr ais
id a
Ġanswer ed
os es
ir m
op s
Ġfor est
Ġhe ld
Ġst om
Ġst ad
Ġst yle
ad d
ch ange
ut ral
ol es
ol ution
Ġcon se
um ents
il ing
Ġv iew
Ġch ief
ap s
Ġwas n
ter ing
Ġse le
Ġse pte
Ġpl ate
Ġle ave
Ġde lect
Ġ2 1
Ġ2 5
Ġun acceptable
ast s
Ġo lym
Ġim pr
Ġim press
Ġfe bruary
og n
cl es
cl us
Ġph ys
00 0
Ġro bert
ens ical
ens ions
Ġsc ore
Ġsc ient
Ġind ustry
Ġres e
Ġdr a
Ġco ld
Ġdis s
Ġsm ok
Ġev apor
Ġper fect
Ġem ail
Ġform s
Ġfeel ings
Ġjo in
Ġsk in
Ġlead ing
Ġatt ract
Ġany thing
Ġ[ -
Ġcons um
Ġexpl osion
Ġrel ig
Ġrel ated
ph one
Ġsur round
Ġinclud e
Ġproper ty
Ġproper ties
Ġ201 0
Ġu k
Ġele ment
enc ed
me i
Ġdefin itely
Ġtow ards
Ġmo on
Ġold er
Ġsong s
Ġtre at
Ġorgan ization
Ġdisc uss
Ġfavor ite
Ġindic ate
Ġelectr ical
Ġwood s
Ġide al
Ġcurr ently
Ġadv ent
Ġcook ies
Ġgen re
sol ve
yd r
Ġcult ure
Ġbat tle
Ġpolit ical
Ġemo tions
Ġtyp es
Ġsqu are
Ġpie ce
Ġegg s
Ġarch itect
Ġcolle ge
Ġbac on
Ġseed s
Ġtur kmen
Ġveh icle
Ġroy al
Ġcla im
Ġinfl u
Ġmechan ical
Ġgiraff e
Ġconven iently
Ġfest ival
Ġmach ine
Ġaug ust
Ġacr oss
Ġfeat ured
Ġhosp ital
Ġsepte mber
Ġdelect able
Ġolym p
0 1
0 4
3 7
4 3
8 0
9 0
b ut
b el
c ol
c ome
f red
g h
g iven
o ber
p o
p re
r op
u ate
w ater
z e
Ġ um
Ġt enn
en ing
Ġs um
Ġs ick
Ġs orry
is ed
Ġc as
Ġc ow
Ġc iv
Ġc ath
Ġc ases
re ady
Ġf ig
Ġf ans
Ġf aster
Ġb ott
of t
Ġp ay
Ġp izz
it r
it or
it ch
Ġm ich
Ġd ed
Ġd om
Ġd ang
Ġin f
Ġin j
Ġin it
Ġto wer
Ġn ort
Ġn arr
ic ult
Ġh oc
Ġh ost
Ġh urt
Ġg ard
om as
Ġl im
Ġl ens
ow ing
Ġe u
Ġe yes
Ġr ow
Ġbe ar
id ence
Ġit ems
ct s
ct ober
Ġpr ot
Ġpr ime
Ġpr ize
un k
un t
ers e
ad es
Ġne ur
Ġcon vey
Ġv an
Ġch ann
ag n
ag ing
ac c
Ġsh ap
Ġk ong
Ġle aves
Ġcom ic
Ġde al
Ġme l
Ġme al
Ġex h
Ġen c
Ġun it
Ġal ready
Ġso on
Ġar g
Ġsp end
Ġsp ot
ast ic
act er
ak er
ub lic
av a
Ġcl oud
Ġcl imb
Ġo ctober
Ġim plies
Ġplay ers
Ġcomp an
Ġbr and
Ġ19 4
pt y
Ġeng aged
Ġtext ual
Ġhelp ing
ne w
ult ane
Ġind ia
Ġres our
Ġcr a
Ġsol id
Ġacc ident
Ġsim ultane
Ġem pty
Ġrec over
Ġrec ogn
Ġla ug
Ġshort s
Ġright s
Ġsub st
Ġpass ed
pos ed
Ġhold s
Ġexper i
Ġass ist
Ġsun day
Ġele v
Ġwind ow
Ġswe at
Ġmo le
Ġrun way
Ġdel ic
Ġsout hern
Ġgrow ing
Ġrequ ire
Ġstart s
Ġstart ing
Ġperform ing
Ġeag er
Ġjan uary
Ġstop ped
Ġthought s
Ġobject s
Ġrussi a
sol ution
Ġpower ful
Ġvol ume
Ġreturn ed
Ġvalid ate
Ġcult ural
Ġste el
Ġhist or
Ġbelie ve
Ġjum ping
Ġclos ed
itc hen
Ġlik es
Ġcoun ter
Ġsimilar ity
Ġmult i
Ġkil omet
Ġbak ers
Ġmount ains
Ġhor se
Ġanal y
Ġeconom ic
Ġagree ment
Ġskate board
Ġdise ase
Ġsar ah
Ġju ly
pro blem
Ġda ily
Ġrepl aced
Ġfeatur es
Ġchampions hip
Ġdiff icult
Ġlaund ry
Ġnons ensical
Ġstom ach
Ġrese arch
Ġciv il
Ġnort hern
Ġsimultane ously
' ]
2 1
2 4
b les
c ules
e mber
g ers
g ment
i est
k n
l ers
m ar
p unct
p red
r ant
r ict
s c
s on
u tions
v a
w ar
w hen
Ġ ill
Ġt able
Ġt iny
Ġa ri
he ad
he st
in o
in king
Ġs on
Ġs am
Ġs ite
Ġs ounds
er a
er o
at he
is c
is ite
Ġc hes
Ġc aught
re land
Ġf ing
Ġf iction
Ġb an
Ġb as
Ġb ored
an es
Ġp ock
Ġp ages
Ġp aper
it ic
or ia
Ġan cient
ou is
Ġm aster
le t
Ġd er
Ġd ad
Ġin se
Ġin fer
ar ies
al izes
Ġn on
Ġn ap
Ġn oun
Ġn uc
Ġh ong
Ġh ub
Ġh air
Ġh mm
Ġl ouis
ce ived
ll s
Ġe th
iv ating
qu isite
Ġr id
Ġr od
Ġr ound
ot ing
Ġqu ot
os ing
Ġpr op
Ġpr oud
Ġst ock
Ġst ories
ur b
od ies
od uct
ers hip
ch ar
ut ing
ol f
Ġne utral
Ġv ice
Ġch all
Ġch ick
ag o
Ġdo or
ie wer
Ġnot es
Ġat l
Ġse m
Ġk in
Ġle aving
ill y
Ġwor ry
Ġde m
Ġde cl
the se
the sis
Ġi reland
Ġex quisite
Ġtr ack
Ġtr aining
Ġtr ivia
Ġus ers
Ġsp ores
ace ae
own ed
Ġgr ad
Ġcl owns
Ġwho le
ian o
uc ed
Ġim ply
Ġam id
Ġcomp ound
Ġbr ain
Ġgener ally
we ll
Ġ5 0
Ġap art
Ġap ply
Ġprov ince
app ed
Ġpar ad
Ġ3 5
ere k
Ġhelp ful
ens ion
Ġjust ifies
Ġcr is
Ġcr imin
Ġser ious
Ġco zy
Ġdis hes
Ġev ents
Ġent ertain
Ġem erg
Ġrem ember
Ġact ive
Ġprem ier
Ġhig hest
Ġbo ard
Ġla unch
Ġatt ention
Ġover all
Ġ[ '
Ġdi et
Ġpol icy
Ġsur pr
Ġpass es
Ġ200 4
Ġ200 7
Ġfound ed
Ġsing ing
Ġteam s
Ġreg arding
int s
Ġstud ents
com ple
Ġaust ria
Ġdiv iding
Ġhappen ing
Ġir on
Ġir an
Ġeas y
Ġeas ily
Ġliv ed
Ġexpress ed
Ġwed ding
Ġown er
Ġproduc tion
Ġmill ion
Ġpret end
uck y
Ġeduc ation
Ġsuper her
af ter
Ġmat ter
Ġlaw n
Ġevent ually
Ġallow ed
Ġmag az
Ġant icip
Ġmed ical
Ġocc ur
Ġexp and
Ġprote ins
yn thesis
Ġpie ces
Ġstat us
Ġinvol ved
Ġdire cted
Ġ195 5
Ġsatisf action
Ġgramm at
Ġprim arily
Ġ) :
Ġton ight
Ġren owned
rup tion
Ġsym bol
Ġpal est
Ġfut ure
Ġdoct or
Ġpoll ution
Ġestab lish
Ġrepres ent
Ġverb alizes
Ġcoc um
Ġoppos ite
Ġexpe cted
Ġoutdo or
Ġhab it
Ġexact ly
Ġnewsp aper
Ġpolitic ian
Ġzeal and
Ġphilipp ines
Ġhond a
Ġlands cape
Ġdiss atisf
Ġded icated
Ġhoc key
Ġchann el
punct uation
pred ict
Ġnuc le
Ġchick en
a a
b an
b and
c il
f fer
h u
h old
i os
j o
m al
m et
m ail
n n
n ed
o o
p ite
r on
u ed
w ould
w here
Ġ iv
Ġ ult
Ġ __
Ġ overs
Ġt ar
Ġt ight
Ġt all
Ġa ven
in ent
en ed
Ġs an
Ġs ail
at ives
is l
is ted
Ġc atch
re at
Ġf red
Ġf uel
Ġb ol
Ġb ub
Ġb odies
Ġp ak
or ida
ou st
le g
le br
Ġd or
Ġto ys
Ġto dd
Ġth ough
Ġth omas
al ing
Ġn ative
ed y
ic it
Ġh ur
Ġh ind
Ġl u
Ġl ion
Ġl ov
Ġe ight
Ġr at
Ġr ather
Ġr ules
ot es
am in
Ġqu ite
ay s
im ate
Ġpr ince
Ġst or
ur y
od es
Ġfr u
if or
ol ic
Ġcon str
Ġas ks
um b
um p
est lers
Ġv it
Ġor ange
ri ll
Ġj im
Ġj oy
Ġnot hing
Ġk ill
Ġk itchen
Ġpl aces
pe c
pe te
Ġwor th
Ġde ep
the y
Ġi an
Ġex pect
Ġex change
th ough
Ġun cle
Ġun ifor
Ġal k
Ġal ab
Ġal though
Ġso y
Ġar ab
Ġsp ain
Ġsp ort
Ġwr iter
Ġwr estlers
Ġdes k
Ġdes pite
av ors
ip es
ip ed
Ġim m
Ġrev iewer
ick ing
Ġfe ll
Ġbr own
Ġkn ew
Ġcal c
Ġmov ed
Ġprov iding
Ġup on
Ġadd ress
Ġro ll
ne ys
Ġfl orida
Ġcr ow
Ġcr oss
Ġcr itic
Ġsumm er
Ġmar it
Ġmar ried
Ġdis p
Ġdis ney
Ġhapp iness
Ġstr ugg
Ġstr ength
Ġacc om
cho ice
Ġcar ry
Ġent hus
Ġequ al
Ġper ceived
Ġwork ers
Ġem ploy
Ġcould n
Ġrec ord
Ġact ually
Ġmus e
Ġfact ory
Ġsk ill
Ġ4 5
Ġnum eric
Ġsu ffer
Ġexpl icit
ra id
Ġins ur
Ġlangu ages
Ġway s
ert o
Ġsl ight
Ġcommon ly
pos itive
Ġtri ples
Ġserv ices
Ġed ition
Ġce lebr
Ġstud ying
Ġwin ter
Ġmod el
Ġsun light
Ġset ting
Ġbre ad
tr ans
Ġext ra
Ġkid neys
Ġstre t
Ġ6 5
Ġeff orts
Ġwee ks
Ġ7 5
Ġliv es
Ġexpress ing
Ġcontr act
Ġsimpl ifies
Ġleg al
olog ical
Ġdist rict
Ġvar iable
Ġresp ond
Ġelectr om
Ġelectr ons
Ġmoder n
Ġmoder ately
Ġcare fully
Ġsoc ial
Ġvi ol
Ġlaw y
Ġinte gr
Ġrep ublic
Ġallow s
Ġrece ived
Ġprogr ess
Ġclean ing
Ġgerm any
Ġoper ating
Ġregion al
Ġmed ic
Ġdirect ly
Ġwond er
Ġcond ens
Ġcond ition
Ġarm y
lo ad
Ġthin ks
Ġpartic ip
Ġpartic les
Ġcars on
Ġmic ros
Ġafric a
Ġdig it
Ġrespon se
Ġlevel s
Ġappear ance
Ġchrist mas
Ġcany on
Ġcany ons
Ġexce ption
Ġindepend ent
Ġben ef
Ġelectric ity
Ġbase ball
Ġsold ier
Ġprep aring
bu ild
Ġgal ax
Ġprofession al
Ġcomfort able
Ġmeas ure
Ġflu id
Ġswim ming
rac ted
Ġexerc ise
Ġspir it
Ġapr il
Ġmir ror
ester day
Ġjour ney
Ġcommit tee
Ġtemper ature
Ġingred ient
nam ent
Ġsug ar
Ġbath room
Ġdv d
Ġdoc ument
Ġautom atic
Ġach ieve
Ġstad ium
Ġ[- ]
Ġum bre
Ġmich ael
Ġdang er
Ġcompan ies
Ġresour ces
Ġdelic ious
mar ine
Ġnoun s
Ġhmm m
Ġcris is
Ġmagaz ine
Ġaven ue
Ġpak istan
Ġalab ama
Ġenthus i
) ;
2 2
2 8
3 4
3 5
6 5
7 7
8 3
[ +]
b on
b ig
b ody
c ent
c ast
c ious
c ycle
d ed
e per
l er
l ie
m er
m aker
n ic
r am
r ina
s er
t a
t es
t ical
u ing
u le
v an
v iation
w ise
y a
y an
Ġ ic
Ġ om
Ġt akes
Ġa ge
in ing
en ar
er ick
at ory
at rina
Ġw at
Ġw id
Ġw ire
Ġw aves
Ġc ab
Ġc otto
re am
Ġf ed
Ġb er
Ġb oss
Ġp us
Ġp urch
Ġp iano
or ge
or gan
Ġm os
Ġm ad
Ġm old
Ġd an
Ġd ir
Ġd irt
Ġd ancing
Ġto ky
Ġis ot
al i
Ġn ut
Ġn av
Ġn itr
ic ul
ic les
Ġh atches
Ġg ym
Ġg ift
om y
Ġl if
Ġl ap
Ġl ines
Ġl unch
ce l
ll iot
Ġe lliot
Ġy esterday
Ġr ise
ct ar
am ing
os er
Ġpr in
Ġfor ces
Ġhe ated
od uced
ut h
Ġare as
Ġas tr
Ġch ances
ri e
Ġab il
Ġj e
Ġj ason
ac hed
Ġdo ll
se m
ble ms
Ġcan did
ter ed
Ġpl aus
pe are
Ġde ad
Ġwe ap
Ġ2 2
Ġgiv ing
th at
Ġen h
Ġun ion
Ġtr ouble
Ġal most
Ġal fred
Ġsp ring
ast y
Ġgo og
Ġwould n
ub a
Ġgr ay
ab b
Ġwill iam
Ġcl ou
Ġcl othes
Ġac qu
Ġac ade
Ġ. .
ip hol
ian a
Ġim age
Ġim ages
Ġaf fe
Ġaf raid
Ġcomp ared
og raph
Ġoff er
Ġcont act
Ġadd ing
Ġadd ition
Ġother wise
Ġro of
Ġcho osing
Ġbl ock
Ġbl ank
Ġsc hed
Ġres ist
Ġfl avors
Ġdr ink
Ġdr inking
Ġcr ash
Ġcr ude
Ġco ord
Ġchar ge
Ġchar ming
Ġsee king
Ġag es
Ġcar ried
ff icient
Ġinst ance
Ġair pl
Ġrec ent
Ġfil led
Ġmus cles
Ġpo aceae
Ġsup ply
Ġz one
Ġz izz
Ġz ero
Ġcre am
Ġcol ors
Ġcons cious
Ġdi ox
Ġmon ica
Ġameric ans
Ġsur v
Ġgl uc
Ġsl ower
Ġevery thing
Ġnam es
Ġserv ed
Ġ201 4
Ġ201 5
Ġ201 8
anc y
Ġenjoy ing
Ġenjoy ed
Ġwar rant
Ġwin ds
Ġwin ner
Ġsun g
Ġbre tt
Ġhum ans
gr oup
Ġinstr ument
aw are
Ġconsider ing
Ġ18 9
Ġfix ed
Ġleg s
Ġbrit ain
Ġstrong er
akes peare
Ġapp rec
Ġsal ient
tw are
Ġinte ger
Ġinte gers
Ġbed room
Ġsupport ing
Ġrich ard
Ġship s
Ġbat tery
Ġprom pt
Ġprom inent
Ġconf irm
Ġglass es
Ġvir g
Ġstruct ures
Ġwall s
Ġrad io
Ġjum p
Ġer osion
bre viation
Ġstat ue
Ġdire ction
Ġmexic an
ex pl
Ġbur ger
Ġisrael i
Ġnet herlands
Ġlab el
Ġdress ed
Ġess ential
Ġindepend ence
Ġcamp us
Ġpictures que
Ġsour ce
Ġintr oduced
Ġsof tware
Ġsch iphol
orr ow
Ġquick ly
Ġbro ad
Ġlat in
Ġlat est
Ġacid ic
Ġprob ably
Ġconne ction
Ġip od
Ġscre en
Ġmeth ods
wal k
Ġpu erto
Ġabs or
Ġdrug s
Ġmaint aining
Ġveget ables
Ġhal f
Ġheav y
Ġkore an
Ġexe cutive
Ġsleep ing
Ġalphab et
Ġphys ical
Ġsmok ing
Ġevapor ation
Ġturkmen istan
Ġbott om
Ġpizz a
Ġgard en
Ġcra ig
Ġinse cts
Ġentertain ment
comple te
Ġnucle ar
Ġbub bles
trans l
Ġelectrom agn
Ġexception al
Ġumbre lla
Ġtoky o
Ġisot ope
Ġastr on
Ġgoog le
Ġzizz i
Ġdiox ide
Ġwarrant y
. '
1 3
4 8
6 8
8 6
a id
a ired
b ar
b ack
c ount
d es
e ll
f r
f am
h d
h r
h ai
h ouse
i ar
i ac
i pe
j ust
k i
k ins
l in
l ong
l ook
l ished
l ines
m us
m art
o ot
p p
r un
r ig
r ad
r ate
t c
t ain
t own
v ing
w ich
Ġ id
Ġ oun
Ġ ?"
Ġ err
Ġt ick
Ġt ax
Ġt iger
Ġa ld
in ian
Ġthe r
Ġs ed
Ġs ave
Ġs ize
Ġw et
Ġw ine
Ġw ax
Ġw avel
is ation
Ġc a
Ġc it
Ġc ave
Ġc ard
re g
re t
Ġf a
Ġf ant
Ġf air
Ġf ert
Ġb id
Ġb one
Ġb ands
Ġb ib
Ġb order
Ġb acter
it a
Ġm art
Ġm ax
Ġm eron
Ġd al
Ġd erek
Ġth reat
ar a
ar an
ent ina
Ġn ic
Ġn ations
Ġn urs
Ġh y
Ġh us
Ġh av
Ġh yp
Ġh ah
Ġh ole
Ġg ases
Ġg ained
om i
Ġl in
Ġl ate
Ġl ak
Ġl ack
ll y
iv a
iv ate
Ġy ip
Ġr ul
Ġr ub
Ġr anch
Ġr ico
Ġit em
ly s
os omes
et ers
ir ing
im s
Ġon es
Ġfor um
Ġst ands
ig g
ig s
od le
od ied
Ġfo ld
Ġfr ame
ol ine
Ġne igh
Ġas her
il ton
Ġv ac
Ġv ote
Ġv apor
Ġch at
Ġch rom
Ġab breviation
Ġj ose
Ġj ones
Ġsh ared
Ġsh akespeare
ant ly
Ġse at
Ġse qu
Ġk atrina
pe e
ul a
ul f
Ġde v
Ġde te
Ġwe b
Ġno odle
ist ry
Ġun able
Ġtr im
Ġal i
Ġal an
Ġal arm
Ġli ber
up er
Ġar th
Ġsp oon
ast ing
ish ing
Ġdes ert
iz ab
ry s
ĠĠ ĠĠĠ
Ġ. ..
ip le
ous es
ick s
Ġint est
for d
Ġbr oken
Ġeng land
Ġtext s
Ġcont ains
Ġcont aining
Ġup set
Ġcomm a
Ġcomm ission
Ġver ifying
Ġres ident
Ġres pect
Ġfl ower
Ġcr own
Ġperson al
Ġdis play
Ġchar ges
Ġag re
ree k
Ġcar bon
Ġent ers
Ġreason s
Ġem ph
Ġrem oved
Ġpro blems
Ġtit s
Ġgre ater
Ġbo asts
orn o
Ġthan k
Ġtrans fer
Ġpres c
Ġshow ing
Ġz oo
Ġund erg
Ġcre ator
Ġgu ard
Ġsub marine
Ġrel ation
Ġrel ief
Ġrock et
Ġ201 1
az a
Ġmiss ion
Ġel ena
Ġel izab
Ġdec ide
Ġdec ision
Ġset t
tr act
Ġext ract
Ġhum or
Ġeven ing
Ġdiv ision
Ġdel aware
Ġsout he
Ġtransl ation
Ġmark ets
Ġliv er
Ġfix ing
Ġ199 3
Ġ199 8
Ġstand ard
Ġtalk ed
Ġsad ly
Ġcaus ing
Ġcaus ed
Ġunivers e
Ġide as
Ġcare er
Ġpain ting
Ġadv ice
ann a
Ġsal t
pect s
Ġaccur ately
Ġarr ived
Ġoper a
Ġrich ards
Ġden mark
Ġocc up
Ġocc urs
Ġcost ume
Ġplan et
inc ia
Ġrad ical
Ġassoc iation
Ġauthor ities
19 9
Ġtyp ically
Ġcoun cil
Ġpeace ful
Ġpoint s
Ġtour nament
Ġgramm ar
imb ap
Ġprim ary
Ġiraq i
Ġrespon sible
Ġannoun ce
Ġwild wood
Ġconc ise
Ġconc ert
Ġslow ly
Ġepis odes
Ġhen ry
Ġcapt ivating
Ġang ry
Ġemb odied
Ġphotos ynthesis
Ġtechn ology
Ġiss ue
Ġrefer ring
Ġjack et
Ġlinguist ically
Ġconver ted
Ġwel coming
Ġmom ent
Ġtradition al
Ġple as
Ġhun ting
Ġcry st
Ġperm an
Ġatom s
Ġemotion al
Ġmanufact ur
Ġtas te
Ġbal ance
Ġham ilton
Ġdisappo inted
Ġincor rect
Ġsele ction
Ġimpr ove
Ġtenn is
Ġneur ons
Ġrecover y
Ġexperi enced
Ġmole cules
kn own
Ġches s
Ġbas ic
Ġparad ise
Ġsuperher o
Ġgrammat ically
Ġpalest inian
Ġconstr uction
Ġaccom pl
Ġmuse um
Ġslight ly
Ġmicros oft
Ġcab in
Ġdir ty
icul ously
Ġabil ene
Ġclou ds
expl anation
transl ate
Ġoun ces
Ġwavel ength
Ġcit iz
Ġmeron ym
Ġyip pee
Ġelizab eth
" )
' ve
0 3
3 1
4 2
4 4
5 0
8 2
8 7
= =
a ul
b oy
c a
c her
c ase
c ia
e ar
f ast
f ire
g u
h is
h um
i llow
l a
l im
m l
n et
n ect
o ted
p y
p ie
p ted
r in
r it
r oy
s en
s es
s ing
s un
s yl
u an
u ous
v i
v ar
v ent
v ol
v iew
w w
w om
w ill
w ide
z an
Ġ _
Ġ ign
Ġ eric
Ġ owl
Ġt an
Ġt am
Ġt ub
Ġt one
Ġt rib
Ġt ank
in se
in ated
Ġthe ory
Ġs end
Ġs ings
Ġs yn
Ġs anta
es h
at i
Ġw ave
Ġw ide
Ġw ound
is k
Ġc d
Ġc y
Ġc ig
Ġc um
Ġc ows
Ġc ute
re cted
Ġf os
Ġf ired
Ġf ancy
Ġb h
Ġb or
Ġb ost
Ġb atch
Ġb ending
Ġb icycle
an ut
Ġp ou
Ġp enn
or a
or igin
Ġan ger
Ġm al
Ġm ind
Ġm ars
Ġm ike
Ġm iam
Ġd u
Ġd ies
Ġd ia
Ġd uck
Ġd anish
Ġin fe
Ġin complete
Ġth ous
ar es
ar ning
as a
al led
al og
Ġn in
Ġn ar
Ġn ick
Ġn ix
Ġn ature
ic i
Ġh it
Ġh ate
Ġh ans
Ġh ors
Ġh ired
Ġh oney
Ġh amm
Ġh arr
Ġh ydr
Ġh ints
Ġh oust
Ġg us
Ġg iant
Ġg athe
om ing
Ġl it
Ġl acks
Ġl isted
ll ig
Ġr ue
Ġr ose
Ġr oles
id ers
id den
am an
Ġqu al
Ġqu iz
os is
os ed
ir ation
Ġpr ivate
Ġhe y
Ġst un
Ġst ating
ad i
ad o
Ġfr esh
ut tle
Ġne ck
Ġne ctar
Ġas ian
il s
il ities
Ġv irt
Ġv ault
Ġch lor
ri an
ap t
ap ers
ag en
ov a
Ġj r
ac a
ac le
ac hes
Ġsh oe
st ud
Ġte en
oc king
Ġcan al
Ġat tem
Ġse ct
Ġpl ot
Ġpl ans
Ġle arning
Ġcom edy
pe ople
Ġ( -
and er
Ġ= ==
ul ated
the ir
Ġi ii
th ree
Ġun s
Ġtr uth
Ġal ask
Ġpos s
Ġman aged
Ġsp ent
Ġsp ending
Ġop port
art ist
pl ant
wh y
ver t
Ġgr ove
Ġgr ade
Ġgr anted
ab el
Ġcor ruption
Ġpe anut
Ġbut ton
Ġcl aus
Ġcl ue
pr es
pr ov
pr oduct
Ġpre fer
Ġint ric
Ġint ended
Ġbr other
we et
Ġtell ing
Ġher self
ug u
Ġup date
Ġ3 2
Ġ3 8
Ġcomm as
Ġcomm and
ens ity
Ġsc ott
Ġsc enar
Ġfl avor
Ġdr op
Ġdr um
Ġjust ice
Ġcr ust
Ġcr uc
Ġser ver
Ġsumm ar
Ġco at
Ġco ach
Ġco oper
Ġmar vel
Ġstr ateg
Ġag nes
Ġsm iling
Ġsol ar
Ġcar r
Ġcar pet
Ġev idence
Ġent ail
Ġsim ps
Ġfin anc
Ġfin ished
Ġair lines
br a
Ġact s
Ġact ing
Ġbo ot
Ġche er
Ġche ese
ign it
Ġpo et
Ġlook ed
Ġmy th
Ġgu est
Ġread s
Ġfun g
Ġfun ction
Ġmay or
Ġsu z
Ġcons erv
Ġexpl or
Ġmon itor
Ġmet iculously
be e
be ll
Ġpass ing
Ġpass ion
Ġback ground
wor ks
Ġsl ide
Ġsl ip
Ġmin eral
fin ed
Ġ8 7
Ġserv ing
Ġdon ald
Ġass um
anc er
Ġenjoy able
Ġanim ated
Ġbar rel
Ġele ction
Ġext racted
enc ies
me xic
aw s
Ġstar red
Ġ10 5
Ġgroup s
ib iot
Ġtransl ates
Ġexpress es
Ġartist s
Ġsimpl er
Ġboat s
Ġmil k
Ġdist rib
Ġhol es
Ġearth qu
Ġweek ly
Ġturn ing
Ġelectr on
sh ot
Ġfull y
Ġx p
Ġinc ident
Ġdeterm ined
Ġav oid
Ġsugg estion
Ġsugg ests
Ġgas oline
Ġresult s
Ġbirth place
Ġmat hem
Ġeffect s
Ġinte llig
Ġgen es
Ġspeak er
Ġprof ile
Ġur ine
Ġant ibiot
Ġsepar ated
Ġattrib ute
Ġisland s
acks on
Ġexp ensive
Ġpet er
Ġpet ers
Ġprote in
Ġprote ct
Ġpen is
Ġpen et
Ġpartic ular
Ġrom antic
Ġbeg ins
Ġflo ors
Ġinvol ve
Ġ195 0
Ġsatisf ied
Ġkil led
Ġmount ain
Ġterr or
Ġfish ing
Ġnest led
Ġaustral ia
Ġdiscover ed
Ġbac he
Ġang el
Ġeconom y
Ġattack ed
Ġsof t
Ġiss ues
Ġprep ared
Ġchemical s
Ġdoct ors
Ġwel come
Ġestab lished
Ġrepres ents
Ġfocus es
Ġens uring
Ġbegin ning
Ġmotor cycle
Ġcir cu
Ġmr s
Ġhug e
Ġfore ver
Ġsmo oth
Ġol ive
Ġbin ignit
Ġdest ination
Ġvict oria
Ġfrequ ency
Ġvirus es
Ġrac hel
Ġrais ed
Ġconse cutive
Ġimpress ive
Ġdra ft
Ġrelig ious
Ġinflu ence
Ġolymp ic
po ol
Ġfig ure
Ġenc our
Ġrecogn ized
urb ation
Ġchall eng
Ġkin etic
Ġsurpr ised
Ġestablish ment
Ġ__ __
Ġlov es
Ġcrow d
Ġmarit ime
Ġemploy ees
Ġsuffer ing
Ġinsur ance
Ġcelebr ate
Ġviol in
Ġlawy er
build ing
Ġgalax ies
Ġdocument ary
van ia
Ġpus hing
Ġcandid ate
Ġweap ons
Ġconscious ness
Ġsurv ive
Ġgluc ose
Ġabsor b
Ġastron aut
just ification
Ġfert il
Ġbib imbap
Ġbacter ia
Ġneigh bor
Ġintest ine
Ġemph as
ear th
syl vania
Ġbost on
Ġpenn sylvania
Ġmiam i
Ġhors es
Ġhoust on
Ġgathe red
Ġvault s
stud ent
Ġalask a
Ġopport un
Ġintellig ence
Ġcircu it
1 6
4 5
5 6
6 6
7 8
\ $
] ,
a he
a led
a ver
b c
b ase
b oth
c s
c ow
c king
c ra
c ope
d ie
e ven
f irst
g a
g ar
g as
g ot
g ans
g ames
h i
h ar
h igh
h ydr
i j
i us
i ers
i ate
j ames
k en
l ittle
l ife
m un
m ented
n al
n ish
o tion
p an
p ire
r is
r ow
r ich
r ock
s u
s he
t op
t weet
u a
u led
u ted
u als
u ism
v as
v est
w est
w are
z en
Ċ ĠĠ
Ġ od
Ġ ore
Ġt er
Ġt ag
Ġt ale
Ġt ired
Ġt aught
Ġa w
Ġa y
Ġa ar
Ġa ired
Ġa ids
he w
he not
in ct
in st
in oc
in ia
Ġs ate
Ġs ud
Ġs av
Ġs ens
Ġs oup
Ġs ib
Ġs orr
Ġs illy
er d
er ig
at al
at omy
is ms
Ġc ub
Ġc ode
Ġc ube
re ut
re pe
Ġf ake
Ġf are
Ġf ought
Ġb ow
Ġb um
Ġb old
Ġb ik
Ġb ible
Ġb omb
an aman
of the
Ġp c
Ġp ow
Ġp il
Ġp ul
Ġp urs
Ġp aul
Ġp henot
it ory
it zer
Ġm er
Ġm is
Ġm it
Ġm or
Ġm un
le ton
Ġd re
Ġd ave
Ġd ick
Ġd yn
te ll
Ġin m
Ġto led
Ġth ri
ar ant
as ion
as hing
Ġis abel
al so
ent o
ent er
Ġn s
Ġn ov
Ġn ba
ed ed
ic ago
end ers
end ra
Ġh i
Ġh op
Ġh amp
Ġh ouses
Ġg h
Ġg ag
Ġg ender
Ġg iles
Ġl ord
Ġl ym
Ġl oud
Ġl abor
Ġl ift
Ġl oved
Ġl ava
Ġl ucky
Ġe tc
Ġr a
Ġr ig
Ġr ap
Ġr ip
Ġr ack
Ġr ings
Ġr abb
Ġr inse
ot ic
id ance
Ġre ve
Ġre action
Ġre plic
os ted
Ġ" "
ir o
Ġpr act
Ġst ain
Ġst ick
Ġst aff
Ġst ores
ad ed
ad el
Ġfo l
if ts
Ġcon nect
Ġas ad
Ġas sem
Ġas pects
Ġ1 11
Ġ1 12
il le
Ġv en
Ġor d
Ġor gans
Ġch ile
ri ble
ri ption
ess ed
ess ions
Ġj a
Ġj er
Ġsh all
Ġsh own
Ġsh oes
Ġsh uttle
ie l
st and
st ream
Ġte l
oc r
oc ese
Ġnot ice
Ġse ar
Ġse am
Ġse lling
Ġse gment
Ġk h
Ġk ant
Ġk ills
Ġpl ates
Ġpl aza
Ġcom ments
Ġcom pete
pe ar
Ġ( "
ain t
Ġde b
Ġde ar
Ġde pos
Ġde part
the w
Ġwe bs
Ġex clus
Ġex posed
Ġ2 3
Ġ2 15
ight s
Ġun w
Ġun fort
Ġun like
Ġtr aff
Ġtr oph
Ġal p
Ġal one
Ġar res
Ġar ena
Ġar omi
Ġsp y
ab at
age ment
Ġcor rected
Ġad are
Ġad vert
Ġbut ter
Ġcl ar
Ġcl ay
Ġcl are
Ġcl ients
Ġcl imate
ĠĠ ĠĠ
Ġac cept
Ġpre d
Ġam y
Ġam erig
Ġaf gh
Ġplay ground
ind er
ass ed
ass oc
Ġint ense
Ġfe ar
Ġfe ed
Ġfe llow
Ġfe ature
Ġcomp oser
og a
cl ass
Ġbr ows
Ġbr az
Ġreview s
Ġ19 18
Ġcal m
port s
Ġph ones
Ġrest r
Ġoff ensive
Ġprov incia
Ġcont ents
Ġup d
Ġdescrib ing
Ġpar is
Ġpar ent
Ġcomm ons
Ġdr iver
Ġdr ops
Ġcr ick
Ġser ve
Ġsumm it
Ġbu zz
Ġmar ia
Ġwater lo
Ġchar ging
Ġsee k
Ġsee m
Ġsm ile
Ġsol utions
Ġacc ount
Ġcar l
Ġcar ries
Ġgood s
Ġart work
Ġent ire
Ġsa le
Ġsa uce
Ġequ ival
Ġfin ance
Ġfin nish
Ġrem aining
Ġrem ark
Ġair base
Ġact ors
Ġfil es
Ġfil ms
Ġgre y
Ġform at
Ġche cking
Ġfeel s
Ġjo ke
Ġjo int
Ġtrans it
Ġpres ence
Ġshow c
ious ly
Ġsk ills
Ġsup plies
Ġsup pose
Ġlead s
Ġatt ended
Ġatt ached
Ġdiffer ence
Ġany more
Ġgu y
Ġgu ess
Ġgu ests
Ġgu aran
Ġsu fficient
ict s
Ġexpl ained
Ġsub tract
Ġins pe
Ġcam era
ph ia
Ġmet ric
Ġlar ry
Ġbook ing
Ġ200 1
Ġfound er
Ġback up
fin al
Ġ8 3
Ġ8 5
Ġ8 87
ric s
Ġ201 3
Ġ201 6
Ġsec ure
Ġexper iment
Ġmusic ians
Ġass ign
Ġass ume
anc o
Ġspecial izing
Ġdec or
Ġbus h
Ġstud y
Ġwal t
tr ess
Ġele ph
Ġext ension
Ġend ed
Ġhum ph
Ġincre ased
Ġpric ed
Ġkid ney
Ġdefin ed
Ġtow ard
Ġret ail
Ġmo tion
Ġrun s
Ġdel hi
Ġunderstand ing
Ġref le
Ġref lect
Ġblood stream
summ er
Ġlight ing
ib an
ib ility
hen s
hen tic
Ġroom s
Ġappe ared
Ġcat s
Ġboy s
Ġleg isl
Ġclass ify
Ġclass ified
Ġ199 4
Ġ199 5
Ġ199 6
olog ies
Ġmen u
Ġdist ance
Ġdist inct
ogr ams
Ġweek end
Ġturn ed
aster n
Ġvar iety
Ġproduc er
Ġindic ating
Ġgirl s
Ġgirl friend
Ġsad ness
Ġwood en
Ġpot ato
Ġmention ing
Ġinc ome
Ġhead s
Ġcomb ined
Ġadv anced
Ġav ail
ann ed
Ġfree zer
Ġjohn son
Ġfootball er
Ġkeep ing
Ġallow ing
Ġgen us
Ġorder ed
Ġmid summer
Ġoper ation
Ġ197 1
Ġur ban
Ġball s
Ġnight s
Ġ15 00
27 76
Ġsand wich
Ġfield s
Ġlo ose
Ġdesign ed
Ġbeh old
Ġbelie ved
Ġking dom
Ġplan ning
Ġexp ans
Ġes cape
Ġfight ing
Ġge orge
Ġmess ages
Ġmult iple
Ġdig est
Ġbak ed
!! !
Ġterr itory
Ġdivers ity
Ġchamp ion
Ġcolle ction
Ġdiscover y
Ġsecret ary
Ġenviron ments
Ġexce ll
Ġindivid uals
Ġclear ly
Ġmix ed
Ġtom orrow
Ġdef ense
Ġperi ods
Ġemb arr
Ġsuccess ful
Ġsuccess fully
Ġsignificant ly
Ġut il
Ġdise ases
umin ous
Ġbro ke
Ġveh icles
Ġlinguist ic
Ġfut ures
Ġweather ing
Ġenter ed
Ġprob able
Ġfac ing
Ġfac ility
Ġconne cted
Ġshar es
Ġens ure
Ġcop y
Ġreac hed
Ġconst it
Ġsmo ke
Ġinvest ig
au x
Ġpur pose
Ġdest roy
Ġharm on
Ġconcer ns
Ġpossib ly
Ġincor por
Ġmagn ifying
bur g
Ġsus p
Ġconse qu
clus ion
Ġscient ific
Ġsurround ed
Ġadvent ures
Ġolymp ics
Ġcas ual
Ġcow per
Ġdom in
Ġinit ial
Ġnarr ator
Ġlaug hing
Ġrequire ments
Ġanaly tical
sc ale
Ġari ane
Ġfing ers
Ġban anaman
Ġpock et
Ġeth nic
Ġcrimin al
Ġpremier ed
Ġhabit ats
Ġdissatisf ied
Ġfred erick
Ġdor ian
Ġhur ry
Ġlu x
Ġfru its
Ġvit amin
Ġarab ic
Ġstrugg le
Ġexplicit ly
Ġstret ched
Ġintegr ity
Ġdanger ous
organ isation
Ġmos cow
Ġnav ig
Ġprin cess
Ġplaus ible
Ġaffe cted
Ġvirg inia
fam ily
Ġald rin
Ġsed iment
Ġfa ith
Ġhav en
Ġrub ber
Ġjose ph
Ġdev ice
Ġdete ct
Ġcrown e
Ġagre ed
Ġsett ings
Ġrichards on
Ġoccup ation
Ġcabin et
Ġsyn t
Ġdia lect
Ġthous ands
Ġharr is
Ġsect or
Ġintric ate
Ġscenar io
Ġcruc ial
Ġsummar izes
Ġfinanc ial
mexic an
Ġantibiot ics
Ġsorr ento
reut ers
repe at
Ġpul led
Ġphenot ype
itzer land
Ġtoled o
Ġisabel le
Ġrig id
adel phia
Ġdepos it
Ġunfort un
Ġunlike ly
Ġtraff ic
Ġarres ted
Ġamerig as
Ġafgh an
Ġbraz il
Ġcommons ense
Ġwaterlo o
Ġequival ent
Ġremark able
' ?
0 2
0 5
4 9
8 00
9 8
a way
b i
b al
b us
b et
b ag
b ox
c as
c all
c ard
c ars
c orn
c ons
c amp
c otto
d an
d ave
d more
e k
e ed
f a
f en
f al
g on
g ed
g ir
g ian
g ia
h o
h al
h all
h ard
i led
i ating
i ere
i ences
j i
j an
k er
l it
l ar
l ace
l ake
l ier
l aw
m r
m at
m om
m am
m ain
m ary
m ale
n ers
o h
o or
o ll
p on
p orted
r ated
r ans
r ick
r ants
s id
s pe
s how
s erv
s uper
t ar
t im
u k
v in
w in
w ick
w ax
w agen
y our
y rics
z i
Ġ il
Ġ \$
Ġt un
Ġt ong
Ġt ip
Ġt ire
Ġt ink
Ġt ensions
Ġt asty
Ġt sun
Ġa id
Ġa wards
Ġa uf
he t
in h
in ch
in istration
Ġthe ater
Ġs i
Ġs y
Ġs oph
on i
on er
on ds
on ary
on ym
er ve
er ness
Ġw it
Ġw ise
Ġc ind
Ġc ater
Ġc ured
Ġc akes
Ġc reek
re ason
Ġf i
Ġf lex
Ġf ault
Ġb ot
Ġb ain
Ġb ang
Ġb are
Ġb ond
Ġb owl
Ġp y
Ġp ic
Ġp ac
Ġp enc
Ġp ump
it age
it ob
or o
Ġan x
Ġan th
Ġan ton
Ġan ahe
Ġan atomy
ou b
ou ri
Ġm l
Ġm ig
Ġm ac
Ġm ist
Ġm erc
ion e
Ġd am
Ġd od
Ġd ess
Ġd na
te l
te ed
Ġto mm
Ġth us
Ġth rew
ar ter
as per
Ġis part
al a
Ġn r
Ġn od
Ġn ose
Ġn ik
Ġn iger
ed en
ic ians
ic aca
end s
Ġh u
Ġh on
Ġh at
Ġh orn
Ġh ung
Ġh idden
Ġh osted
Ġand ra
Ġg i
Ġg all
Ġg able
Ġg amp
Ġg ently
Ġg rill
Ġg ifts
om s
om al
om ers
Ġl os
Ġl ose
Ġl aur
Ġl akes
Ġl iter
Ġl oses
Ġl yrics
ll ite
ll ular
Ġe c
Ġe ater
iv ated
iv ores
us ion
Ġr ing
Ġr am
Ġr ail
Ġr ib
Ġr ene
Ġr ising
Ġr yan
ot al
Ġbe es
Ġwh ate
Ġre ply
Ġre fined
ly nn
am eric
am azing
Ġqu it
Ġqu ote
os en
ay a
im ed
im plicit
Ġon to
Ġpr ok
Ġpr iest
Ġfor t
Ġfor th
Ġhe llo
Ġst ove
Ġst ocking
Ġst oner
ers ion
ad ian
ch a
ch ang
if ier
ol ai
um ph
il t
il ion
est ic
Ġv oc
Ġv ast
Ġv ary
Ġv ision
Ġch ance
Ġch icago
Ġch osen
ri ents
ap ore
ess el
Ġab und
ag on
Ġj on
Ġj os
Ġj ane
Ġj ackson
ac on
ac ing
ac us
ac char
st ay
Ġfollow s
Ġcan vas
Ġnot able
Ġnot iced
Ġk ans
Ġk az
Ġpl aster
Ġpl anned
Ġcom pr
Ġcom press
Ġcom ics
and on
ain e
Ġwor ried
Ġde but
the n
Ġme ant
Ġme als
Ġex ist
Ġ2 9
Ġen light
ist ic
ist ure
Ġun icycle
Ġtr ail
Ġal co
Ġli es
Ġli br
ite ment
ok es
Ġman ual
Ġso ap
el and
ud i
Ġar tery
Ġar dmore
Ġsp am
Ġsp art
Ġtw ice
ak a
ak ed
ak les
ary otes
Ġdes ire
wh ile
Ġgr oc
av ilion
Ġac ids
pr iced
Ġpre c
Ġam b
ative ly
Ġaf ford
Ġdat es
ass er
ass es
ass ion
Ġcomp are
Ġcomp assion
og s
Ġbr ight
Ġbr ought
Ġkn itting
Ġnew ly
itt ers
itive ly
Ġher itage
Ġph arm
Ġap plic
ug s
Ġtext book
Ġ3 1
fer ence
Ġhelp ers
Ġlet ting
oth ing
ne ither
Ġsc r
Ġsc and
Ġpart ner
Ġres ort
ks wagen
Ġfl ag
Ġcr ab
Ġcr acks
Ġcr ush
Ġshe ep
Ġser ene
Ġbu ilt
Ġperson y
Ġmar cia
Ġdis put
Ġdis order
Ġstr a
Ġchar lie
Ġsee ing
Ġag ent
Ġacc um
.. ..
Ġgood ness
Ġcap ac
Ġbig gest
Ġshould er
Ġper cent
Ġfin ish
Ġem ir
Ġinst ant
Ġinst all
Ġinst ances
Ġinst alled
Ġrem ained
Ġpro ce
Ġair ways
erg er
Ġrec ipes
Ġtit icaca
Ġfil ip
Ġtal ent
Ġtal ented
Ġtal iban
Ġbo iling
Ġprocess es
Ġ20 68
Ġjo e
Ġjo h
Ġpo ison
Ġpo lys
Ġstate ments
Ġknow s
Ġsk ating
Ġsk illed
Ġsup posed
Ġla un
Ġz omb
Ġproduct ivity
Ġinter est
Ġdiffer ences
Ġcre ates
Ġdown town
Ġgu ards
Ġgu iana
Ġgu idance
Ġlist en
Ġlist ening
Ġexpl ore
Ġexpl ains
any e
Ġmon arch
Ġins p
Ġins ul
Ġshop s
Ġrel ieve
Ġrel atives
Ġpol ish
be c
Ġsur vey
Ġinclud ed
Ġear lier
Ġ200 2
Ġfound ation
Ġbuild ings
Ġsing apore
Ġmain ly
Ġvers e
Ġsmall est
Ġuse ful
Ġevery body
Ġ8 0
Ġtri umph
Ġfind ing
Ġreg istration
Ġenjoy ment
Ġed ited
Ġed ward
Ġbar b
Ġbar ny
Ġdec is
Ġdec ades
Ġfast est
Ġstud ied
Ġstud ios
Ġmod i
Ġob st
Ġset ence
Ġinv ented
Ġext ern
can oes
enc ing
com fort
ins ky
Ġdefin itively
Ġinstr uments
Ġpick ing
Ġstar ter
Ġstar ring
Ġ6 23
Ġswe ats
Ġmo isture
Ġve gan
Ġaut hentic
Ġrequ est
Ġtransl ated
Ġ7 2
Ġsw itzerland
str ong
Ġliv orno
Ġcontr overs
Ġcell phone
15 2
em ploy
Ġpat ient
Ġpat tern
Ġpat rick
by e
Ġident ified
enn y
enn ial
Ġnor the
Ġnor mal
con text
Ġexc itement
Ġ199 1
omm y
Ġorgan ism
Ġcontin ues
Ġturn s
Ġproduc es
Ġindic ation
Ġmill ions
Ġoffic ially
sh ire
Ġrele ases
Ġconv ention
Ġathle tes
Ġinstit ute
Ġhead qu
Ġsugg est
Ġopen ed
af ted
Ġtele phone
Ġ198 3
Ġ198 4
Ġ198 6
Ġlaw maker
Ġeffect ive
Ġcall ing
Ġprogr ams
Ġfall ing
Ġrepe ated
Ġarr ay
Ġ197 8
Ġengine ering
Ġport land
alth y
Ġroad s
Ġest ate
Ġconf ident
Ġarm strong
Ġgoal ie
Ġvisit ors
Ġcost s
Ġfre t
Ġplan ets
Ġexp ands
Ġcomput ers
Ġgreen land
inc ome
Ġrad iation
Ġrepr od
Ġjum ps
Ġclos er
Ġclos est
Ġbreak s
Ġnovel ist
Ġdevelop ed
Ġinvol ves
Ġmic row
Ġdire ctions
oph y
Ġkil ograms
Ġlearn ed
Ġnote book
Ġphil adelphia
Ġ13 7
Ġren al
Ġess ence
Ġchrist ian
Ġ196 3
Ġos bor
Ġos car
Ġsour ces
Ġcame l
Ġdef enders
Ġut ility
Ġcart r
Ġmut ation
Ġmut ations
36 5
gre en
gre at
ole on
Ġgal vest
Ġconver ts
Ġsex ual
Ġsell er
Ġcontrib ute
Ġstri ke
wa it
zz le
Ġcop per
Ġfarm er
Ġlay s
Ġreac hes
Ġmeth od
Ġapr on
Ġbes ides
Ġfore ign
Ġconst ant
Ġjour nal
Ġposition s
Ġinvest ors
Ġingred ients
47 2
Ġtas ks
Ġpur ple
Ġpack age
Ġdry er
Ġtool s
Ġreport s
Ġvict ory
Ġkore a
Ġoh io
Ġcompet itive
Ġcompet ition
Ġdraw ing
Ġalphab ets
Ġbul bs
Ġbul gar
Ġpup il
Ġdaught ers
Ġgar th
Ġles bian
Ġattract ing
Ġtreat ment
Ġadvent ure
pre m
Ġcath olic
Ġinj ured
Ġnarr ative
Ġlens es
Ġshap e
Ġshap es
Ġexh ib
Ġbrand on
Ġlaug h
Ġsubst it
Ġassist ant
Ġelev ation
Ġeager ly
Ġsteel ers
Ġkilomet ers
Ġskateboard er
Ġfing er
Ġfiction al
Ġpock ets
Ġnap oleon
Ġatl antic
Ġgrad uate
Ġamid st
Ġapply ing
Ġcrimin als
Ġemerg ency
Ġrepresent atives
Ġdissatisf action
Ġovers e
Ġbol t
Ġstor age
Ġunifor m
Ġunifor ms
Ġcalc ulate
Ġdisp ute
Ġmedic ine
Ġenthusi astic
Ġfed eral
Ġnut rients
Ġdoll ars
Ġacade mic
Ġaddition al
Ġsched ule
Ġresist ance
Ġairpl anes
Ġbroad cast
Ġelectromagn etic
des c
Ġther mal
reg istration
Ġnurs ing
Ġlak ers
Ġfold ed
Ġchrom osomes
Ġflower ing
Ġperman ent
Ġcitiz ens
hum ans
net herlands
sing er
view s
wom an
Ġwide ly
Ġcum shot
Ġbatch oy
Ġnin ja
Ġnar endra
Ġnix on
Ġhans on
Ġhydr ogen
Ġstun ning
Ġteen age
plant es
Ġcarr ots
Ġconserv ative
Ġexplor ation
Ġearthqu ake
Ġmathem at
Ġpeters field
Ġbache lor
Ġchalleng es
cra ft
Ġore gon
Ġtag alog
Ġsate llite
Ġcub es
Ġdre ams
Ġthri lling
Ġgag a
Ġrap id
Ġseam less
Ġbrows er
Ġupd ates
Ġinspe ction
Ġavail ability
Ġsusp ended
Ġlux ur
bus iness
bet ween
fen ring
gir l
wax ed
Ġtink er
Ġwit ness
Ġbot tle
itob a
Ġanahe im
Ġdod ge
Ġdess ert
Ġispart of
Ġnod ded
Ġgable d
Ġeater y
Ġwhate ver
americ an
acchar ides
Ġkans as
Ġalco hol
Ġspart acus
Ġafford able
Ġpolys accharides
Ġzomb ie
Ġ623 5
Ġosbor ne
Ġgalvest on
& #
( -
) ?
- -
. ?
0 7
2 10
6 0
6 7
6 00
7 4
9 5
b ine
b one
b hai
c or
c ity
d v
d on
d ies
d ong
d own
d erson
d ouble
e b
e lect
f k
f s
f ace
f act
f are
f old
f urt
g ree
g ood
h ou
h om
h ang
h ire
h app
h ood
h inoc
i en
j u
j ob
k es
k il
k ia
k now
l as
l ow
l ad
l oc
l led
l ove
l av
l ink
l iam
m i
m ot
m ay
m od
m ess
m ill
m el
m ice
m og
m ates
m ower
m ission
m itters
n d
n or
n as
n ity
o at
o qu
o ke
o ach
o ja
o ala
p at
p al
p op
p ol
p ace
p ack
p ost
p ower
p enter
r ise
r ene
r ush
s ion
s im
s ub
s hip
s pec
t v
t ube
u j
u v
u ency
u wait
v ii
w an
w and
w ave
y et
y kes
z ar
Ġ ow
Ġ ."
Ġ ure
Ġ ug
Ġ ions
Ġt ie
Ġt ide
Ġt ab
Ġt ack
Ġt ough
Ġt ons
Ġt ense
Ġt urt
Ġt ube
Ġa k
Ġa z
Ġa is
Ġa ke
Ġa unt
Ġa head
Ġa imed
he ar
he llo
in form
in ting
en ate
en st
en ous
en ge
en ger
Ġthe ore
Ġs ke
Ġs ag
Ġs ort
Ġs ous
Ġs ister
Ġs enate
on ch
on ut
on ia
er os
es ome
es ena
es pie
at the
at ile
at tering
Ġw ish
Ġw ake
Ġw ings
Ġw ires
Ġw ik
Ġw olf
Ġw igg
is si
is ible
Ġc ant
Ġc her
Ġc ine
Ġc ast
Ġc ake
Ġc aut
Ġc ries
Ġc esena
re v
re ll
re ad
re ally
re me
Ġf an
Ġf ay
Ġf ine
Ġb on
Ġb ion
Ġb ent
Ġb iting
an z
an ak
an ales
an ova
Ġp d
Ġp iv
Ġp ad
Ġp our
Ġp omer
Ġp ull
Ġp uck
Ġp ush
Ġp ais
Ġp lym
Ġp illow
Ġp apers
Ġp avilion
it is
it ate
it ivity
it ude
or ds
or gia
Ġan ab
ing an
ou l
ou ver
Ġm b
Ġm as
Ġm ine
Ġm ast
Ġm ound
Ġm ood
Ġm ower
Ġm ale
Ġm atur
Ġm ah
Ġm umb
Ġm ommy
le e
Ġd m
Ġd ar
Ġd ll
Ġd im
Ġd il
Ġd ust
Ġd ip
Ġd une
Ġd rew
Ġd well
Ġd ancer
Ġd ykes
te ms
Ġin ev
Ġth y
Ġth ick
ar ity
as se
al is
al ism
ent ially
Ġn u
Ġn om
Ġn ine
Ġn one
Ġn ails
Ġn atal
Ġn erve
ed om
ic ing
ic ation
ic ate
ic ial
Ġh om
Ġh ang
Ġh az
Ġh ugg
Ġh aw
Ġh omes
Ġand y
Ġand rew
Ġg ur
Ġg ill
Ġg ain
Ġg olf
om a
om acc
Ġl ic
Ġl ie
Ġl one
Ġl ank
Ġl ane
Ġl ush
Ġl omb
Ġl ww
Ġe en
iv als
Ġy ug
Ġy ach
Ġy ale
us er
us es
us si
Ġr im
Ġr if
Ġr af
ot a
ot rans
Ġbe an
Ġbe ll
Ġbe am
Ġbe ef
Ġbe lls
id ity
id ae
id ency
Ġwh it
Ġre act
Ġre bel
am ent
am ed
am ic
am ination
Ġqu iet
Ġanswer ing
os ys
os lav
et er
ir a
op a
im um
Ġpr on
Ġpr ay
Ġpr ide
Ġpr inc
Ġfor ests
Ġfor tress
Ġyou th
Ġhe x
Ġst er
Ġst one
Ġst ack
Ġst ood
Ġst yl
Ġst ye
Ġst unt
ur ities
ig or
ig enous
ve ys
ad ow
ad ers
ad ict
ad der
ad ron
ch ant
ch ild
ch ina
ch rist
ke ep
ke eper
Ġfr ust
ut en
ut ch
ol a
ol ve
ol ate
ol ina
Ġcon veys
Ġ1 10
um es
um ber
il ation
il ty
est o
est y
est ig
Ġv on
Ġv ic
Ġv ow
Ġv ine
Ġv otes
Ġch op
Ġch oc
Ġch ip
Ġch asing
Ġch rys
ri p
ri ev
ap es
ap pear
ess or
Ġab use
Ġwas her
ag m
ag ull
ag ena
ov en
Ġj un
Ġj ac
Ġj ail
Ġj az
Ġj ava
ac l
ac o
ac he
Ġsh ot
Ġsh iny
Ġsh iva
se in
ble bee
ant i
ant ry
ant age
ant ically
st ars
Ġte ach
Ġte eth
oc a
Ġcan s
Ġcan adian
ter ies
Ġse g
Ġse an
Ġse vent
Ġse agull
Ġk m
Ġk ent
Ġk ay
Ġk arn
Ġk arant
Ġk anye
Ġk link
Ġk oala
Ġk uwait
Ġpl ane
Ġpl aced
Ġle a
Ġle ap
Ġle ak
Ġle mon
Ġle ban
Ġcom pl
pe ace
and a
and el
ill a
Ġwor se
Ġwor st
ul ates
ul ses
Ġde er
Ġde ed
Ġde br
Ġde press
Ġde bu
Ġde mon
Ġde gree
Ġwe ar
Ġno kia
Ġby lo
Ġby product
Ġex cept
Ġex ped
Ġ2 6
Ġ2 32
th r
Ġen vel
Ġen ron
ist ics
ist icated
Ġun known
Ġtr ist
Ġtr ust
Ġtr ud
Ġtr apped
Ġal g
Ġal ger
Ġal umin
Ġal ham
Ġal leg
Ġus b
Ġus ual
Ġpos itivity
Ġli z
." .
Ġman ning
Ġman iac
Ġman zan
Ġman agement
ud a
ud er
Ġar ist
Ġar af
Ġar teries
Ġsp ar
Ġsp ice
Ġsp ons
Ġsp ray
Ġsp iders
Ġop ens
art ers
ace llular
ast a
Ġgo als
aus ted
act ically
ish ment
ang dong
iz ers
Ġgr ant
Ġgr own
Ġgr ab
Ġgr av
Ġgr ains
Ġgr ae
Ġgr inder
ab i
ab ase
Ġcor p
Ġcor ner
Ġcor ps
Ġcor onary
Ġpe ach
Ġbec oming
av our
Ġcl ick
Ġcl int
Ġcl iff
Ġcl othing
ard o
pr oc
pr ice
Ġpre y
rib e
Ġam en
Ġam bian
Ġrev ision
Ġdat abase
ial s
ous in
for ce
Ġfe wer
Ġfe et
Ġfe ars
Ġcomp ar
Ġcomp ilation
og ging
cl ick
Ġbr om
Ġbr us
Ġbr ace
Ġbr enn
Ġbr ush
Ġbr onch
Ġgener ations
Ġgener ators
Ġ19 25
we ight
Ġspe aking
itt y
form ed
Ġap at
ars at
oy al
Ġrest less
Ġcont amination
Ġup coming
Ġup scale
app ing
Ġpar as
Ġpar liam
Ġhel met
Ġ3 3
Ġ3 43
Ġbl ows
Ġbl owing
Ġbl adder
ical artist
Ġsc ared
Ġsc ored
Ġind eed
Ġind igenous
Ġres olution
erm ark
Ġfl uff
Ġdr ive
Ġdr afted
Ġser ie
Ġco e
Ġco hom
Ġwater mel
Ġstr aw
Ġchar m
Ġag ents
Ġsm art
Ġsm ell
Ġke vin
Ġsol anales
Ġcar penter
Ġcar olina
Ġgood bye
Ġart ur
Ġper f
Ġper t
Ġper ennial
Ġspec ify
Ġfin ds
Ġfin land
Ġwork man
Ġem br
Ġem pire
Ġrem ov
Ġrem ain
Ġrec ently
Ġrec ords
Ġeat s
Ġfil ter
Ġgre g
Ġgre w
Ġgre ase
Ġform ation
hed ral
ple as
ors che
Ġcust omers
Ġshow ed
Ġpo or
Ġpo le
Ġthr ow
Ġthr owing
iss an
Ġsup ple
Ġsup ermark
Ġla h
Ġla zar
Ġrating s
Ġlead ers
Ġlead ership
Ġ4 3
Ġ4 6
Ġz ingan
Ġnear ly
Ġnear by
Ġatt end
Ġinter action
Ġinter views
Ġcre d
Ġcre w
Ġmy ster
Ġdown load
Ġgu ide
Ġgu ides
Ġgu ilty
Ġgu angdong
Ġread ability
oper ation
Ġcol our
Ġcons ists
Ġdi aries
Ġdi ocese
Ġmon ument
Ġins ights
Ġrel atively
Ġmet s
Ġmet als
be y
be in
be ef
ert aining
Ġpass ive
Ġpass eng
Ġgl uten
Ġlar va
Ġbook er
Ġproper ly
Ġear fl
Ġ200 0
Ġ200 3
Ġ200 9
wor king
Ġsl ows
Ġmain ten
Ġmin i
Ġmin ing
Ġteam mates
fin ite
Ġtop s
Ġtri al
Ġserv ants
Ġ201 7
Ġsit s
Ġexper ts
anc ur
Ġel ite
Ġreg ister
Ġreg istry
Ġed ges
int ment
Ġwar ming
Ġwar ns
Ġbar ry
Ġbar ack
Ġdec iding
Ġtake over
Ġce o
Ġbus y
Ġstud ies
Ġstud io
Ġwal ter
Ġmod ified
Ġsun ny
Ġsun rise
Ġob ama
Ġob ser
Ġob tain
Ġset s
Ġset up
Ġcur ious
Ġbre at
Ġbre ath
Ġinv ention
Ġinv aders
tr ack
Ġext ensions
Ġend s
com p
com ics
Ġ0 800
eng lish
ins ula
Ġred uce
Ġred head
Ġred tube
Ġyoun ger
Ġschool s
Ġaust rian
Ġhard er
Ġret ired
Ġappr ov
ness ee
ro ll
ro ad
Ġdiv ided
Ġdiv isible
Ġstre ets
Ġswe ater
Ġeff ort
Ġeff icient
Ġdel iver
Ġref res
Ġve il
Ġve gas
Ġterm in
Ġspecific ation
Ġintern al
Ġrequ ired
Ġsw iss
Ġcat hedral
Ġeas tern
Ġexpress ion
Ġcontr asting
Ġcontr adict
Ġtre ated
Ġmil f
Ġmil est
yl um
Ġside ways
Ġside walk
oss il
Ġorgan ell
Ġorgan isms
Ġorigin ally
Ġcontin ued
Ġsign als
Ġhol onym
Ġhol bein
Ġeur opa
Ġown ers
Ġfour th
Ġphot ograph
Ġcheap er
Ġcolor ado
Ġsecond ary
Ġsad dam
Ġpot ter
Ġann oy
Ġann ual
Ġunivers al
sh ake
Ġchang ing
Ġpret ending
Ġpast a
Ġlive ly
Ġhead aches
Ġcomb ining
Ġadv ance
Ġadv antage
ann ah
Ġlove ly
Ġlower case
Ġresult ing
Ġsituation s
Ġsoc iety
Ġmat thew
Ġtele x
Ġoce ans
Ġfamil iar
Ġ198 0
Ġ198 1
Ġjob s
Ġeffect ively
Ġidentify ing
bo at
bo ards
Ġrep air
Ġmem or
Ġpark er
Ġkeep s
Ġtest ing
Ġrece ption
Ġrece iving
Ġ12 0
Ġ12 6
Ġlog an
Ġvol kswagen
Ġvol canoes
Ġjud gment
Ġarr est
Ġarr ive
Ġarr ival
Ġ197 0
Ġ197 2
Ġengine ers
Ġsupport ers
Ġinstitution al
Ġant ique
Ġmed ia
Ġheart s
27 5
Ġ9 0
Ġden ver
Ġden oting
Ġpress ing
Ġprev iew
Ġocc asion
Ġcup board
Ġbeh av
Ġconf used
Ġarm ed
Ġgoal keeper
Ġbelie ves
Ġconvers ations
lo ch
Ġfre edom
Ġvir al
Ġstruct ured
inc inn
Ġclos ing
Ġassoc iating
Ġer a
Ġer up
Ġes te
Ġpen al
Ġpen insula
itc ase
itc hes
Ġimp ulses
Ġsqu adron
Ġcoun ted
Ġfur long
Ġhealth y
Ġtem ple
Ġtem por
20 15
Ġmic hel
Ġge off
Ġholiday s
Ġtour ists
Ġbur g
Ġpan ama
Ġgramm y
Ġcool s
Ġnet work
Ġarch ive
Ġrespon ds
iated mus
Ġterr ain
Ġwild e
Ġwild erness
Ġconc ent
Ġspeed s
Ġdress es
ee ee
Ġsnow y
Ġsnow man
Ġanal ys
Ġhen na
Ġhen derson
Ġ196 5
Ġflow ing
Ġflow ers
Ġsour ced
Ġfly ing
iven ess
Ġdef ensive
Ġintr uder
Ġattack ing
Ġcontrol led
Ġtechn ologies
Ġmajor ity
Ġsym b
Ġcart oon
Ġmut ant
umin ated
Ġamong st
26 7
Ġconver t
Ġcla udi
Ġcontrib utions
Ġcontrib uting
Ġenter pr
go ing
Ġsil k
Ġsound wave
Ġstri ker
iff y
Ġshar ks
Ġmeas ures
Ġbox er
Ġgiraff es
rac ial
Ġten nessee
Ġcop ies
Ġcoc onut
Ġmass ive
Ġda a
Ġhar old
Ġreac tions
Ġdep ending
Ġdep iction
Ġdep icts
Ġfeatur ing
Ġscre aming
ba an
Ġcir c
Ġpu zzle
Ġfrank furt
Ġatom ic
Ġoutdo ors
Ġadm ired
Ġadm inistration
Ġrelax ing
Ġroman ian
Ġrelationship s
Ġmanufact ure
30 85
cu le
rel ated
Ġpack aging
Ġharm ful
Ġpossib ility
Ġpossib ilities
Ġcoll abor
Ġincreasing ly
Ġportray ing
Ġportray ed
Ġfrequ ently
Ġassociated band
bur gh
Ġsn ack
Ġpath ogen
Ġmur m
Ġmur der
Ġdark ness
Ġdaught er
Ġdaught ry
Ġgar age
Ġ25 0
Ġscient ists
Ġattract ive
Ġconsum er
Ġsurround ing
Ġdiscuss ion
Ġarchitect ure
Ġturkmen abat
Ġtenn ant
Ġsum er
Ġcas ino
Ġcow boy
Ġcath y
Ġinf antry
Ġhost age
Ġneur otrans
Ġexh austed
Ġarg entina
Ġspot less
Ġclimb ing
Ġaccident ally
Ġsubst ance
Ġelev ator
Ġmole cule
Ġhistor ic
Ġhistor ical
Ġcounter part
Ġkilomet re
Ġanaly ze
Ġill uminated
Ġdad dy
Ġrod rig
char acter
Ġchall enge
Ġatl anta
Ġsem antically
Ġkin ds
Ġdem ocr
Ġdecl ine
Ġlawn mower
Ġanticip ation
Ġexpand ing
Ġhabit at
hu a
jo hn
Ġiv anova
Ġsail ors
Ġhind uism
Ġlion el
Ġfru it
Ġkill ing
Ġuncle ar
Ġalk ali
iped ia
Ġcalc io
Ġskill fully
Ġ45 275
Ġstret ch
Ġintegr al
Ġwonder land
Ġcondens ing
Ġcondition s
Ġbenef its
35 28
Ġic cs
Ġwid ows
Ġber th
Ġber lin
Ġpurch ase
Ġnitr ogen
cel ium
Ġdoll ar
Ġenh ances
Ġacqu ire
Ġacqu ired
Ġacade my
Ġsched uled
Ġcoord inated
Ġairpl ane
Ġwinds or
Ġerr or
Ġerr ors
Ġtick ets
Ġwax ml
Ġca fe
ret urn
Ġfant as
Ġfant astic
Ġdal ton
Ġhy br
Ġhus sein
Ġhah n
Ġrul ing
Ġvac ation
Ġsequ ences
Ġarth ur
Ġpresc ription
Ġsouthe ast
Ġsouthe astern
Ġannounce ment
Ġpleas ant
Ġpleas ure
Ġcryst al
Ġcryst als
Ġmanufactur er
Ġmanufactur ers
vol ume
Ġtrib une
Ġcig are
Ġpou red
Ġdies el
Ġinfe ction
Ġnick name
ici ary
Ġfresh water
Ġvirt ual
Ġattem pted
Ġstrateg y
Ġsimps ons
Ġfung al
Ġassum ed
Ġsmooth ly
Ġastronaut s
Ġneighbor hood
Ġopportun ities
Ġaw esome
Ġsud den
Ġsav annah
Ġfare well
Ġbum blebee
Ġpow ys
Ġpaul o
Ġinm arsat
Ġstain less
Ġfol k
Ġ112 64
Ġven ue
Ġchile an
Ġsear ched
Ġdepart ment
Ġadvert ise
assoc iatedmus
Ġcrick eters
Ġguaran teed
Ġexperiment s
Ġeleph ant
Ġhumph rys
Ġlegisl ative
Ġdigest ive
Ġexcell ent
Ġembarr assed
Ġsynt actically
Ġafghan istan
Ġtong ue
Ġsoph isticated
reason ing
Ġanx iety
Ġml b
Ġmig rants
Ġdam age
Ġtomm y
Ġniger ia
Ġhorn ady
Ġlaur a
Ġec osys
chang ing
Ġabund ant
Ġjos hua
Ġkaz em
Ġcompr ising
istic origin
Ġgroc ery
Ġapplic ation
Ġdisput es
Ġstra ight
Ġcapac ity
Ġproce ed
Ġlaun ched
Ġbarb ie
Ġdecis ions
Ġobst acle
Ġextern al
Ġheadqu arters
Ġreprod uction
Ġcartr idge
desc ribe
Ġluxur ious
happ y
rene es
Ġturt les
Ġais le
Ġake em
Ġtheore m
Ġsous a
Ġwik ipedia
Ġbion ico
Ġbent ancur
Ġpiv otal
Ġpomer anz
Ġplym outh
Ġanab olic
Ġmast urbation
Ġmumb ai
asse h
Ġnatal ie
Ġhugg y
Ġgur ian
Ġgill espie
omacc one
Ġlank a
Ġyug oslav
ussi a
Ġrim fire
Ġrif le
Ġstyl isticorigin
Ġchoc olate
Ġsevent h
Ġkarn ar
Ġkarant h
Ġdebu ted
Ġdemon str
Ġexped ition
Ġenvel ope
Ġtrud ging
Ġalumin um
Ġalham bra
Ġaraf at
Ġspons ors
Ġspray er
Ġgrae me
Ġclint on
Ġambian ce
Ġbrenn an
Ġparliam ent
Ġfluff y
Ġcohom ology
Ġwatermel on
Ġsupermark et
Ġmyster y
Ġpasseng ers
Ġearfl aps
Ġmainten ance
Ġredhead ed
Ġorganell es
incinn ati
Ġclaudi omaccone
3085 39
Ġneurotrans mitters
Ġrodrig o
Ġdemocr atic
associatedmus icalartist
" "
) :
) ",
. ).
/ /
0 15
0 75
3 39
4 00
4 17
5 3
5 7
5 12
8 49
: //
; &#
_ ).
a ud
a ign
a fl
a ism
a ids
b en
b ir
b ad
b est
b iz
b age
b our
b ling
b ush
b aked
b nd
c n
c up
c ertain
c umin
d i
d ess
d el
d av
d og
d ra
d erek
e king
e ign
f ly
f un
f il
f ight
f ish
f our
f ro
g i
g am
g un
g od
g ant
g ame
g age
g ure
h os
h ate
h and
h ave
h ong
h our
h ope
h med
i h
i xt
i ors
i ations
i ately
i ables
j e
j ar
j our
j oe
j amin
k o
k at
k um
k uba
k ota
l iv
l ay
l ide
l ime
l ings
l ob
l ength
l ery
l asses
m o
m one
m ult
m ade
m ets
m ike
m arch
m aking
m atches
m iffy
n x
n ings
n atural
n iest
n ivores
o ian
o ons
o ops
p m
p se
p tions
p ard
p ath
p ins
p hen
p hew
r oc
r ine
r ish
r ates
r ance
r ences
r ont
s w
s y
s z
s qu
s ince
s ports
s lide
t ly
t os
t ake
t ains
t ails
t ops
u y
u en
u ly
u ke
u um
u able
v y
v is
v oc
v ents
v ada
v iii
v ille
w he
w ed
w id
x w
x pse
y oun
y ards
y ton
z ione
Ġ ous
Ġ ott
Ġt et
Ġt ig
Ġt ies
Ġt ast
Ġt ail
Ġt orn
Ġt ib
Ġt amm
Ġt ummy
Ġt iff
Ġt iant
Ġa er
Ġa le
Ġa te
Ġa ce
Ġa ur
Ġa ds
Ġa wa
Ġa aa
Ġa ims
Ġa hmed
he le
he ll
he ir
he se
in v
in en
in ic
in os
in ate
in ter
in and
in ces
in fl
en al
Ġthe at
Ġthe res
Ġs b
Ġs in
Ġs ri
Ġs ac
Ġs ust
Ġs led
Ġs ang
Ġs ind
Ġs over
Ġs urn
Ġs ought
Ġs ank
Ġs uck
Ġs ession
Ġs ynthesis
Ġs aint
on a
on y
on ing
on ated
on so
on ants
on bur
er en
er ed
er ce
er ie
er ies
er ia
er ting
er ved
at in
at able
at ial
at ting
at ivity
Ġw i
Ġw ore
Ġw are
Ġw ars
Ġw ides
Ġw itch
Ġw illow
is en
is ers
is rael
is dom
Ġc er
Ġc ore
Ġc ased
Ġc ock
Ġc ull
Ġc az
Ġc yl
Ġc bs
Ġc nn
Ġc asting
re m
re et
re hens
Ġf led
Ġf erm
Ġf ax
Ġf ather
Ġf ires
Ġf uck
Ġf iring
Ġf ulf
Ġf erd
Ġb m
Ġb other
Ġb uc
Ġb ass
Ġb erm
Ġb ung
Ġb unk
Ġb orrow
an ing
an ou
Ġp un
Ġp all
Ġp ause
Ġp ia
Ġp itt
Ġp int
Ġp ets
Ġp itc
Ġp iles
Ġp unk
Ġp ints
Ġp orsche
Ġp sy
it z
it ors
it ism
it ants
or i
Ġan ne
ing the
ing red
ou ve
Ġm ow
Ġm pe
Ġm ul
Ġm ort
Ġm all
Ġm ile
Ġm ug
Ġm ates
Ġm amm
Ġm ik
Ġm oles
Ġm aid
Ġm erger
Ġm ixt
le ep
Ġd c
Ġd d
Ġd ur
Ġd ill
Ġd up
Ġd air
Ġd ah
Ġd amm
Ġd ye
Ġd ada
Ġd itch
Ġd war
Ġd rill
Ġd ream
te in
Ġin h
Ġin clusion
Ġin finite
Ġto oth
Ġth irst
Ġth ail
ar cas
as m
as p
as il
as ca
Ġis t
al o
al ist
al ows
al fred
al uate
ent le
Ġn i
Ġn ost
Ġn ath
Ġn ope
Ġn aj
Ġn urt
Ġn erv
Ġn ana
Ġn asa
ic ht
ic ity
ic ide
ic ially
Ġh o
Ġh ul
Ġh ust
Ġh ide
Ġh ated
Ġh ook
Ġh ip
Ġh omer
Ġh atch
Ġh rist
Ġh tt
Ġh mr
Ġand ers
Ġand ro
Ġg le
Ġg am
Ġg ast
Ġg one
Ġg ab
Ġg ree
Ġg ene
Ġg igg
Ġg ulf
Ġg reek
Ġg entle
om ar
om otion
om enal
Ġl ol
Ġl ary
Ġl ugg
Ġl oss
Ġl uck
Ġl icking
Ġl uminous
Ġl oyal
Ġl anou
ll i
ll inen
Ġe ld
Ġe ine
Ġe ile
Ġe cl
Ġe iff
iv ation
Ġy ards
Ġy ield
Ġy uen
qu ality
us ale
Ġr an
Ġr ou
Ġr ent
Ġr ic
Ġr os
Ġr ay
Ġr all
Ġr og
Ġr are
Ġr ug
Ġr ates
Ġr ough
Ġr ides
Ġr aces
Ġr amp
Ġr aining
Ġr na
Ġr ita
Ġr isk
Ġr hinoc
ot hed
Ġbe ars
id ens
Ġwh om
Ġre pt
Ġre form
Ġre put
Ġre tr
Ġre place
Ġre bec
Ġre ju
ly cer
am atic
Ġqu e
Ġqu ench
Ġqu ery
Ġqu ora
os al
os ch
os ke
os ph
os pect
os omal
Ġ" -
Ġ" ?
et o
et ime
et hese
ir ring
op l
im on
im et
im port
im agine
im bs
im eters
Ġon tar
Ġpr ison
Ġpr ior
Ġfor ks
Ġfor ty
Ġfor ced
Ġfor got
Ġhe ir
Ġhe ight
Ġhe ating
Ġhe aring
Ġhe mog
Ġst an
Ġst ry
Ġst ere
Ġst ones
Ġst ored
Ġst ability
ur a
ur ies
ur ab
ur able
ur dy
ur va
ur face
un waxed
ig an
ig ently
od isc
ad ays
Ġfo lic
ate ful
ate les
Ġfr is
Ġfr act
ut ical
if iable
ol i
ol is
ol led
ol ip
Ġne at
Ġne ph
Ġne got
Ġne phew
Ġne vada
Ġcon gr
Ġcon struct
Ġcon clusion
Ġcon ference
Ġas ex
Ġas leep
il i
il ies
Ġv s
Ġv iv
Ġv ot
Ġv ia
Ġv anc
Ġv ries
Ġv inc
Ġv essel
Ġch ose
Ġch ased
ri er
ri pt
Ġab b
Ġab ility
Ġab sol
Ġab andon
Ġwas hed
ag s
ag ment
ag ree
ag ger
ag ues
ov ative
ov ethese
Ġj p
Ġj ar
Ġj am
Ġj ul
Ġj ak
Ġj ung
Ġj erse
Ġj ury
Ġj fk
Ġj ogging
ac ted
ac les
ac ier
Ġdo ck
Ġsh red
Ġsh ady
Ġsh oot
se a
se e
se ll
se qu
ble d
ie v
ie ved
st at
st ar
st art
st yle
Ġfollow ed
oc ar
Ġcan nes
ht ub
ht aking
ter m
ter ly
Ġat v
Ġat kins
Ġat hens
her ent
Ġse es
Ġk c
Ġk oun
Ġk iss
Ġk enn
Ġk ush
Ġk ham
Ġpl astic
Ġpl acing
Ġle ith
Ġle ather
Ġcom pe
Ġcom ment
Ġ( _).
and an
ill o
Ġwor ms
Ġwor ship
ul atory
Ġde le
Ġde fe
Ġde bian
Ġde gre
Ġde eper
Ġde hydr
Ġi q
Ġwe ary
Ġwe althy
Ġno ted
Ġno bel
Ġme gan
Ġex oske
Ġex agger
Ġun a
Ġun ve
Ġun ne
Ġun fl
Ġun off
Ġun employ
Ġun gure
Ġtr end
Ġtr ains
Ġtr icks
Ġtr uly
Ġal ign
Ġal ike
Ġal ley
Ġal mam
Ġal onso
Ġal omar
Ġli king
Ġwhe at
up adi
Ġman e
Ġman or
Ġman uel
Ġman itoba
Ġso ho
el ess
Ġar k
Ġar cher
Ġar sen
Ġsp l
Ġsp in
Ġsp it
Ġsp ill
Ġsp ook
Ġsp erm
Ġsp okes
ted ly
Ġop pon
art ender
Ġtw igs
ans son
ace ans
ace utical
ast onbur
Ġgo ose
aus age
act ory
pl om
ak rish
Ġout law
Ġout post
ang el
wh ite
Ġgr en
Ġgr an
Ġgr ams
Ġgr asper
Ġgr apes
Ġgr ateful
ab ilities
ab har
ab itants
ab ovethese
si x
Ġcor y
Ġcor por
Ġsome where
Ġsome body
Ġad orn
Ġad ams
Ġad hd
Ġad apt
Ġpe te
Ġpe eking
Ġpe yton
av ers
Ġcl ut
Ġcl ip
Ġcl ock
Ġcl amp
Ġcl inic
ard ed
Ġac know
Ġpre par
rib ed
ip se
ip ping
Ġim ple
Ġim med
Ġim pec
Ġam ity
Ġam big
Ġam mun
Ġam dav
ack ets
Ġaf c
ous y
Ġthere by
Ġhow ard
ind a
ind ers
ass y
Ġint act
Ġint ention
Ġint rons
Ġint ensity
Ġfe m
Ġfe ud
Ġcomp rehens
og lycer
ount ain
cl ue
cl ists
Ġbr ave
Ġbr ick
Ġbr idge
Ġbr icks
Ġbr asil
Ġbr ackets
Ġgener ation
Ġgener ating
Ġgener ates
Ġ19 12
Ġ19 38
are cr
Ġnew ton
day s
we lling
Ġspe ct
Ġ5 7
ise um
ise ase
ber to
Ġher o
form ing
Ġap o
Ġap ple
Ġap par
Ġwhere as
ug al
Ġeng age
Ġprov inces
ire cted
Ġup per
Ġup right
put er
Ġadd iction
Ġhel ena
Ġhel mets
Ġ3 7
Ġcho oses
Ġbl end
Ġbl ond
Ġbl essed
ere lla
Ġcomm erc
Ġcomm erce
Ġhelp er
hes ive
Ġver ifiable
ach t
ach ment
Ġloc k
ens tein
Ġsc ar
Ġsc ot
Ġsc rew
Ġsc ript
Ġind ians
Ġres on
Ġres ign
Ġres olve
erm aus
erm arcas
Ġfl ies
Ġfl ood
Ġdr ove
Ġjust ify
Ġcr est
Ġcr unch
Ġcr ashing
clud ed
ond eb
Ġshe ik
Ġshe pard
Ġco x
Ġco hen
Ġco herent
Ġbu ff
Ġbu ys
Ġmar ian
Ġdis fl
Ġdis like
Ġdis ruption
Ġdis comfort
Ġstr ings
Ġstr ands
Ġstr eng
Ġag round
Ġsm ith
Ġsm ight
Ġke m
Ġke ik
Ġcar ter
Ġcar bo
Ġcar go
Ġcar rie
ident ified
ink y
Ġev a
Ġev olution
Ġev aluate
Ġcap s
Ġcap tion
Ġart icles
Ġinform ed
Ġinform ative
Ġent ering
Ġent rop
Ġent ertaining
ivers ary
Ġsa f
Ġequ ator
Ġfin est
Ġfin ite
Ġem blem
Ġem oss
Ġrem ote
br anes
Ġact ual
Ġact ively
Ġfil tered
Ġproc ed
Ġgre et
Ġform ats
Ġform ula
Ġtal ia
Ġdet ention
Ġdet onated
Ġbo b
Ġbo arding
Ġmus cle
Ġmus lim
ys se
Ġche l
Ġche w
Ġche ering
Ġbel t
Ġbel insky
Ġ20 21
Ġjo el
Ġtrans ported
Ġtrans mission
ath on
Ġpres idency
Ġpo x
Ġpo ems
Ġthr ive
Ġthr illed
Ġstates man
Ġsk ane
Ġsk irt
Ġla zy
fe w
fe it
Ġ4 32
Ġ4 64
Ġz u
Ġz ur
Ġnear est
Ġatt acks
air port
Ġinter im
Ġinter ested
Ġinter pol
Ġinter racial
Ġnum er
Ġund oub
ale vel
ms on
Ġcre ative
Ġcre ations
Ġmy celium
Ġgu fa
ific ent
Ġread ers
Ġfun niest
get ing
Ġsu icide
Ġwant ing
Ġcol on
Ġcol iseum
Ġlist ing
Ġday time
Ġlong est
Ġcons ist
Ġcons onants
Ġcent imeters
Ġdi agn
Ġdi plom
Ġhigh way
Ġsub sid
Ġsub lime
Ġsub sequ
ra im
any a
Ġmon a
Ġmon t
Ġins ured
wr iter
Ġpol es
Ġpol and
Ġmet rop
be fore
Ġsur p
Ġsur r
Ġsur ge
Ġsur ger
Ġpass port
Ġpass enger
Ġgl astonbur
Ġlar a
Ġlar k
Ġear ned
Ġ200 8
Ġnow adays
Ġbuild s
wor m
wor ld
Ġsl ice
Ġsl ides
Ġinput s
Ġmin ds
Ġworld wide
Ġcle ans
Ġcle mson
Ġrock ets
Ġsec onds
Ġu lys
Ġdon t
Ġless on
Ġass ault
Ġmiss ouri
Ġmiss issi
Ġel a
Ġreg ions
Ġreg ular
Ġreg ulatory
Ġenjoy s
Ġspecial izes
Ġval ues
Ġval ley
Ġval uable
Ġbar king
Ġbar ney
Ġlast s
Ġwal mart
Ġmod esto
Ġcomple ted
cess ary
Ġsun s
Ġob t
Ġob serv
Ġnumber of
Ġcur ved
Ġbre athe
Ġbre eden
Ġele cted
Ġele gant
Ġext r
Ġext ent
Ġext end
Ġext ensive
Ġelect ro
Ġ-- "
Ġend e
com b
com mun
com puter
Ġhum idity
Ġschool bag
Ġkid do
Ġhome made
Ġhard wood
Ġret ire
Ġret rie
ro lling
Ġpick ed
Ġline ar
Ġ6 7
Ġstory boards
Ġexam ined
Ġexam ples
Ġyoung est
Ġmo e
Ġmo ore
Ġir ish
Ġir oqu
Ġdin er
Ġref ug
Ġref ract
Ġve ins
Ġaut osomal
Ġlight s
Ġ18 86
Ġok ri
Ġsong writer
Ġappe al
Ġappe aring
Ġ7 339
Ġsw ed
Ġsw atches
Ġpop pins
Ġmark ed
?? ??
fl ies
fl oor
Ġpair s
Ġcontr ast
Ġperform ed
to o
Ġcour age
15 8
15 78
em ed
Ġmove ments
ark ed
Ġsimpl icity
par ents
Ġnor anda
Ġclass es
Ġclass ic
Ġclass ification
con cept
con tr
cap s
Ġbri anna
Ġmil o
Ġmil es
Ġrus hed
Ġrus sel
Ġ199 7
yl ene
Ġnice ly
Ġorgan izers
Ġorigin ated
ene i
Ġsign ed
Ġband e
Ġmen iere
Ġdist ant
Ġeur o
Ġseason s
Ġown s
Ġvis ual
Ġvar iables
Ġproduc ers
Ġcolor ing
Ġann iversary
Ġmill er
Ġspace walk
Ġstrong ly
Ġstrong hold
Ġcurr encies
ute ly
Ġx ham
Ġx xx
Ġsys tems
Ġpain e
Ġpast ries
Ġinc hes
Ġsugg esting
Ġopen ing
no on
Ġsal v
Ġsal es
Ġsal im
Ġwa its
Ġ14 9
Ġfamil ia
Ġ198 2
Ġ198 5
Ġ198 9
Ġmeaning ful
Ġoc cluded
Ġrep aired
Ġmem ory
Ġmem branes
Ġrob bers
Ġaub urn
Ġfire men
Ġfire works
Ġgen ome
Ġreal ized
Ġreal izing
Ġprogr amm
Ġmeet ings
Ġsouth west
Ġrecommend ed
sol id
Ġfall s
Ġbed rock
Ġbill y
Ġbill ion
Ġbab ies
Ġmag ic
Ġmag nes
Ġgerm inate
Ġlog o
Ġlog ic
Ġprof essor
Ġvo ices
Ġvol umes
Ġjud aism
Ġdeath place
Ġoper ated
Ġ197 3
Ġ197 5
Ġ197 7
Ġ197 9
Ġsupport ive
Ġreturn s
Ġgovern or
Ġgovern ments
aj ji
Ġur l
Ġur inary
Ġur ugu
Ġant enn
Ġ15 6
Ġ15 26
Ġship ping
Ġsepar ation
Ġattrib uted
Ġvalid ity
Ġocean ia
27 31
Ġsand y
Ġsand burg
Ġfif th
Ġmust ang
Ġdesign s
Ġprev ent
Ġcomplete ly
Ġste ep
Ġste aling
Ġwest field
Ġwest ern
Ġbat t
Ġbat htub
Ġprom oting
Ġcond uct
Ġconf idence
Ġconf ront
Ġbelie f
Ġbelie ving
Ġunder water
Ġfre w
Ġhand le
Ġ27 76
Ġrepr oduct
Ġcommun ic
Ġcommun ities
Ġcommun alism
Ġbuy ers
Ġbreak fast
Ġes pec
Ġpen yet
ids on
Ġshare hold
Ġnovel s
Ġimp urities
14 9
14 65
19 42
Ġsqu ares
Ġsqu atting
Ġfight ers
Ġrom ance
Ġdevelop ing
Ġinvol ving
de ath
Ġment al
Ġmic ro
Ġmic hele
Ġge orgia
Ġgod dess
Ġsecre ts
there fore
Ġ24 98
Ġalong side
ex c
Ġtour ist
Ġalex ander
Ġsatisf actory
Ġbur ied
Ġox ides
Ġcool er
Ġbak ery
off ensive
Ġmot ivated
Ġdav is
Ġdav idson
Ġthir ty
Ġhor iz
Ġstay s
Ġstay ing
Ġshirt s
Ġterr ace
Ġdish was
Ġlab ial
Ġ17 64
Ġteacher s
Ġtrad ed
Ġcheck po
Ġslow ing
iot ic
Ġess entially
Ġ16 2
Ġ16 3
Ġ16 23
Ġexce eded
Ġ196 4
Ġ196 9
Ġcapt ure
Ġpresent er
Ġpool s
Ġguit ars
Ġcamp aign
Ġprevious ly
18 5
hol es
Ġos aka
hel ped
Ġben jamin
Ġmix es
Ġtom b
Ġnation wide
Ġrain for
Ġrain water
Ġvide odisc
Ġintr ig
Ġproject s
Ġpublic ation
Ġtechn ical
200 0
200 5
Ġtur bine
Ġcut lery
Ġbag p
Ġbag s
Ġbag hd
Ġpal mone
Ġpal atial
Ġmut ual
Ġiss ued
Ġrefer red
Ġ28 3
Ġsold iers
36 7
38 9
gre g
Ġsle pt
Ġcertain ly
Ġsell s
Ġsell ers
Ġcontrib utes
Ġprob ability
Ġprofession als
Ġguitar ist
Ġtou ched
rec ipes
Ġfac ial
Ġbust le
tee llinen
Ġinfl atable
Ġhot ter
Ġstri p
Ġshar p
Ġsearch ing
Ġmechan ics
Ġflu ent
Ġbox ing
Ġtradition s
che ck
zz ia
Ġfarm ing
Ġburn ing
Ġple ased
Ġhar bor
Ġhar ley
Ġhun t
Ġhun ger
Ġhope ful
Ġlay ing
Ġip o
Ġexerc ising
Ġexerc ises
Ġoppos ition
Ġcoast al
Ġwarm th
cr imin
ev ent
sp im
sp anish
wal king
xx x
Ġtim ber
Ġcir cle
Ġcry ing
Ġbi ological
Ġbes ch
Ġbes ide
Ġbank er
Ġhug h
Ġexpe lled
Ġpost card
Ġadm iration
Ġflat ten
Ġflat tering
Ġrelax es
Ġmaint ain
Ġveget able
Ġroman ia
Ġtemper ate
bl ue
Ġol sen
Ġaud i
Ġaud ience
Ġaud io
Ġsug ars
Ġdv ds
Ġgather ing
Ġlas erd
Ġheav en
Ġconcer n
Ġconcer ning
Ġ11 6
Ġsoil s
play ing
Ġgrand ma
Ġgrand parents
Ġgrass es
Ġcompet ing
Ġdisappo intment
Ġcollect ing
Ġnewsp apers
Ġmagn ificent
Ġfrequ encies
Ġpolitic ians
Ġphilipp ine
Ġmaterial s
person x
some one
Ġsn ugg
ato a
Ġpup py
Ġmur ray
Ġles lie
Ġrac ing
olution izing
aps es
Ġsele cted
Ġplate ado
Ġphys ically
Ġscient ist
Ġdra wer
Ġdra upadi
Ġevapor ates
Ġperfect ly
Ġconsum ption
Ġrelig ion
Ġrelig ions
Ġarchitect ural
Ġinflu enced
pre ad
Ġsick ness
Ġbott les
Ġpizz eria
Ġdom estic
Ġinf am
Ġinit ially
Ġlim it
Ġlim ited
Ġprot ons
Ġprot ests
Ġprot esting
acc ording
Ġmel bour
Ġarg uments
Ġ194 9
Ġcra ft
Ġsolid arity
Ġaccident s
Ġsubst ances
Ġsweat ers
Ġrunway name
Ġcounter feit
Ġkilomet res
Ġcivil ians
sc ience
war wick
Ġsam uel
isc over
Ġbored om
Ġnon stand
Ġhub airport
Ġeth ylene
Ġprop osal
Ġproud ly
Ġdem and
Ġdecl ared
Ġapart ment
Ġparad orn
Ġ35 76
Ġserious ly
Ġemerg ing
Ġsurpr ise
Ġpretend s
Ġsuperher oes
Ġanticip ated
Ġanticip ating
Ġoccur ring
Ġoccur rences
Ġgrammat ical
Ġsymbol ism
Ġpalest ine
Ġiv ory
Ġult imate
Ġtar geting
Ġcatch ing
leg al
Ġtodd ler
Ġdeep ly
Ġimm ig
Ġimm ense
Ġcrow ds
Ġcarry ing
Ġ45 267
Ġinsur er
Ġ75 7
Ġ75 82
Ġsocial ist
Ġviol ence
Ġlawy ers
Ġrepublic an
Ġprogress ive
Ġmedic ation
load s
Ġparticip ate
Ġgalax y
Ġspirit ual
Ġpakistan i
Ġenthusi asm
77 7
Ġic eland
Ġwat ers
Ġwat ched
Ġpurch ased
Ġdan iel
Ġnitr oglycer
Ġlif ted
Ġlif etime
Ġje an
Ġplaus ibility
Ġaffe ction
ograph y
Ġblock ed
Ġcoord ination
Ġsung lasses
group s
Ġ189 4
Ġapprec iation
Ġapprec iated
Ġprompt ing
Ġprompt ly
Ġvirg il
Ġelectromagn ets
count ry
look ing
pp i
Ġfair y
Ġmart in
Ġthreat ened
Ġhyp ermarcas
Ġlak i
Ġrul er
Ġvac uum
Ġchat ting
Ġsequ el
Ġliber als
Ġresident s
Ġrespect ively
Ġpresc ribed
Ġunderg round
Ġliver pool
Ġradical s
Ġperman ently
Ġaccompl ishment
Ġwavelength s
Ġcitiz en
pie ce
Ġeric a
Ġtan zan
Ġtam il
Ġtam atoa
Ġcd ma
Ġcig ars
Ġfos ter
Ġfos tering
Ġbh ajji
Ġbor is
Ġbor ing
Ġmars hall
Ġinfe ctions
ici ency
Ġhamm er
Ġlit ter
Ġrose bush
Ġqual ifier
Ġneck lace
Ġattem pt
Ġuns ure
Ġpeanut s
Ġbutton holes
pres ent
Ġprefer ences
Ġcrust aceans
Ġcooper ation
Ġcooper ate
Ġsimps on
Ġcheer ful
Ġpoet ry
Ġmonitor ing
Ġassum ing
Ġdistrib ution
Ġelectron ics
Ġincident s
Ġpenet ration
Ġparticular ly
Ġterror ists
Ġangel a
Ġangel es
Ġencour age
Ġabsorb ed
Ġfertil ization
Ġemphas izes
Ġopportun ity
ij n
Ġter rible
Ġay am
Ġaar hus
inst all
Ġbow a
Ġbik es
Ġbik ini
Ġpil ot
Ġpurs uing
Ġmit osis
Ġmor ant
Ġns a
Ġhop es
Ġhamp i
Ġhamp shire
Ġgh urab
Ġlym m
Ġlym ph
Ġra ise
Ġra ider
Ġrabb i
Ġrabb it
Ġreve aled
Ġpract ices
Ġconnect ivity
Ġord ers
Ġord ering
Ġwebs ite
Ġwebs ites
Ġexclus ive
Ġexclus ively
Ġunw anted
Ġtroph ies
Ġspy ware
Ġbutter fly
Ġclar ifies
Ġpred icate
Ġintense ly
Ġfeed back
class ify
Ġrestr ained
Ġshowc asing
Ġassign ment
Ġdecor ate
Ġretail er
Ġrefle ction
2776 25
2776 03
Ġexpans ive
Ġutil ize
Ġconstit uency
Ġdestroy ed
Ġharmon ica
Ġconsequ ences
Ġdomin ant
Ġethnic group
Ġnavig ate
Ġsediment ary
Ġunfortun ate
Ġunfortun ately
camp ings
fal se
hard y
spe ed
Ġil legal
inch y
Ġsy ria
Ġcind erella
Ġfi ber
Ġfault ing
Ġbang les
Ġpic nic
Ġpac ific
Ġpenc il
Ġanth ology
Ġanton ym
Ġmerc ury
Ġnik olai
Ġhung ry
Ġliter ature
Ġram akrish
Ġrib osomes
Ġprok aryotes
Ġpriest ley
Ġstocking s
Ġlibr aries
Ġamb ul
Ġcompassion ate
Ġpharm aceutical
Ġtextbook s
Ġscand al
Ġaccum ulates
Ġemir ates
Ġfilip ino
Ġjoh ansson
Ġinsp ired
Ġinsul in
Ġcontrovers y
Ġpattern s
Ġnorthe ast
Ġgreenland ic
Ġmicrow aves
Ġchristian ity
Ġjournal ist
Ġbulgar ia
prem ise
Ġelevation abovethese
Ġoverse ers
Ġmathemat ics
girl s
Ġtinker bell
74 66
elect ric
ien te
kil omet
las er
loc ated
may be
sub ject
spec ial
Ġure ters
Ġug andan
inform ation
Ġwigg um
Ġcine ma
Ġcaut iously
rev olutionizing
anak o
Ġmas que
Ġmine craft
Ġmatur es
Ġmah abhar
Ġdil igently
Ġlic ense
Ġyach ting
Ġraf ael
Ġwhit field
Ġpron oun
child ren
Ġfrust ration
Ġchip s
Ġchrys alis
appear ance
Ġseg mented
Ġleban on
Ġdeed les
Ġdebr is
Ġdepress ion
Ġtrist ram
Ġalger ia
Ġgrav ity
Ġamen ities
Ġcompar ison
Ġparas itism
Ġcoe fficient
Ġpert urbation
pleas urable
Ġlah ore
Ġlazar o
Ġbreat htaking
comics character
Ġcontradict ory
Ġmemor able
Ġeste emed
Ġtempor arily
Ġconcent rate
Ġsymb iotic
Ġenterpr ises
Ġcollabor ation
Ġberth a
Ġecosys tem
417 2
849 6
bnd xw
fro zen
lob in
mult i
squ are
whe els
Ġous ted
Ġott enstein
Ġtet ris
Ġtast es
Ġtib et
Ġtamm y
Ġtiff any
Ġtiant ian
Ġale mi
Ġaur akles
Ġtheat re
Ġtheres a
Ġsover eign
Ġsurn ame
Ġwides pread
Ġcaz ar
Ġcyl inders
Ġfled ermaus
Ġferm i
Ġferd inand
Ġberm uda
Ġbung alows
Ġpia zzia
Ġpint o
ouve au
Ġmpe g
Ġmixt ure
Ġdill in
Ġdair y
Ġdah l
Ġthail and
Ġnath an
Ġnaj af
Ġnerv ous
Ġhul k
Ġhook s
Ġhrist ov
Ġhtt p
Ġandro id
Ġgree ce
Ġlary nx
Ġlugg age
Ġeile en
Ġecl ipse
Ġeiff el
usale m
Ġros ie
Ġrog ers
Ġrept iles
Ġrebec ca
Ġreju ven
osph olip
import ant
Ġontar io
Ġhemog lobin
Ġstry der
Ġstere ot
Ġfract ures
Ġneph rons
Ġasex ual
Ġvanc ouver
Ġabsol utely
Ġjung le
Ġjerse y
Ġshred ded
Ġshady ac
Ġkoun nas
Ġkenn edy
Ġkush ner
Ġkham enei
Ġdefe at
Ġdegre es
Ġexoske leton
Ġunfl attering
Ġunoff icially
Ġungure asca
Ġalmam ater
Ġarcher y
Ġarsen al
Ġspokes man
Ġoppon ent
Ġoutpost s
Ġcorpor ate
Ġadorn ed
Ġimmed iately
Ġimpec c
Ġambig uous
Ġammun ition
Ġamdav ad
Ġcomprehens ive
Ġbrasil ia
arecr ow
Ġcommerc ial
Ġcrunch y
ondeb osch
Ġsheik h
Ġbuff alo
Ġkeik o
Ġcarbo hydr
Ġentrop y
Ġemoss on
Ġskane ateles
Ġ432 4
Ġundoub tedly
Ġsubsid iar
Ġsurger y
Ġglastonbur y
Ġulys ses
Ġmississi ppi
Ġelectro ly
Ġretrie ve
Ġiroqu oian
1578 8
Ġxham ster
Ġxxx dan
Ġmagnes ium
Ġurugu ay
Ġ2776 25
Ġreproduct ive
Ġespec ially
Ġsharehold ers
Ġ2498 1
Ġdishwas her
Ġ1764 2
Ġcheckpo int
Ġbaghd ad
crimin al
Ġmelbour ne
Ġnonstand ard
Ġnitroglycer in
Ġghurab aa
Ġramakrish na
Ġelevationabovethese alevel
Ġmahabhar at
ospholip ids
! )
" ).
' "
) "
) *
* "
- )
- ]
1 39
1 30
2 38
3 36
3 34
4 26
5 00
5 17
5 13
6 9
7 1
7 2
7 9
7 00
7 27
7 26
8 39
8 43
8 86
8 44
9 2
9 4
: "
; ...
; -)
? .
[ ]
[ -]
a o
a an
a it
a ed
a am
a ad
a ust
a igh
a oning
b p
b es
b it
b ed
b ow
b ly
b ac
b the
b ile
b ai
b ons
b ows
b ina
b artender
c f
c g
c m
c y
c ing
c ot
c am
c um
c ill
c ust
c ue
c ost
c over
c ond
c ock
c ution
c yl
c aster
c uff
c zech
c off
c ester
c ipes
c ends
c asser
c ousin
c incinnati
d h
d k
d ar
d ist
d up
d ish
d uring
d ained
d ges
d rew
d elt
d oria
d well
d ensity
d utch
d ials
d isease
d irected
e c
e y
e er
e le
e qu
e ur
e ating
e gre
e ze
e era
f h
f o
f u
f y
f le
f ive
f all
f ree
f ood
f ax
f ox
f action
f irm
f usion
f ossil
g l
g y
g ain
g ang
g one
g ard
g ical
g erm
g ade
g az
g ote
g ae
g ender
g iles
g olf
g abat
g ativity
h s
h y
h ot
h im
h ity
h ost
h air
h ote
h ae
h ats
h room
h oon
h aired
h ouses
h otic
i y
i in
i as
i qu
i ir
i op
i ad
i pl
i ak
i ang
i ative
i ams
i ades
i ership
i hu
i ography
j p
j v
j y
j un
j ac
j ax
j une
j ays
j ackson
k a
k h
k t
k u
k in
k ar
k al
k ap
k ab
k ind
k ai
k itchen
k aryotes
k urva
l u
l en
l at
l id
l am
l ig
l ies
l ak
l ost
l ock
l iss
l ins
l ik
l ived
l iving
l ined
l illy
l anco
m t
m is
m os
m ig
m ad
m ast
m ick
m ia
m eet
m any
m ax
m bers
m ung
m akes
m und
m iet
n ar
n ation
n ap
n ov
n ight
n el
n ast
n ah
n ica
n hem
n apped
n osis
n esty
n acl
o z
o is
o om
o ch
o ong
o ost
o ors
o be
o ee
o ots
o ises
o oting
o ached
o oga
p ot
p ri
p ul
p ies
p old
p ods
p ounds
p erse
p ublic
p iano
q q
q t
r d
r u
r ou
r as
r if
r ast
r ub
r ating
r ange
r ances
r ada
r uis
r asing
r ored
r ini
r ites
r aine
r agm
r ussia
s k
s an
s it
s se
s oc
s ore
s ave
s ite
s ab
s cre
s ions
s ush
s igh
s cient
s lee
s burgh
t u
t te
t end
t om
t am
t est
t ie
t ry
t erson
t ra
t ied
t imes
t ics
t akes
t omas
t inchy
u i
u at
u ent
u un
u ating
u ks
u cho
u its
u zz
u ki
u zi
u essel
v o
v ide
v ious
v anced
v lak
w l
w at
w ong
w art
w atch
w arch
w hel
w isdom
w bthe
x in
x im
x iang
y en
y ll
y ak
y ard
y les
y gote
z es
z ing
z et
z ize
z ym
z omi
z burg
z hou
z ona
z bndxw
Ġ ou
Ġ ion
Ġ uc
Ġ ere
Ġ erg
Ġ ought
Ġ vel
Ġ ),
Ġ ida
Ġ oust
Ġ ugu
Ġ !!!
Ġ igor
Ġ oven
Ġt at
Ġt or
Ġt ed
Ġt end
Ġt id
Ġt ant
Ġt ul
Ġt ort
Ġt ame
Ġt ai
Ġt iss
Ġt ina
Ġt ft
Ġt ories
Ġt ung
Ġt ails
Ġt yl
Ġt ended
Ġt ested
Ġt su
Ġt anya
Ġt xxx
Ġa qu
Ġa rib
Ġa we
Ġa pt
Ġa ep
Ġa uction
Ġa zer
Ġa job
Ġa jax
he ed
he art
he me
in am
in ds
in ating
in cre
in als
in be
in ction
in que
in ner
in ators
in antly
in burgh
en z
en es
en os
en ary
en tee
en ico
en ya
Ġthe e
Ġs at
Ġs id
Ġs od
Ġs ap
Ġs ant
Ġs ie
Ġs ight
Ġs ally
Ġs ars
Ġs app
Ġs amp
Ġs que
Ġs ik
Ġs ams
Ġs acks
Ġs orted
Ġs abb
Ġs rich
Ġs essions
Ġs omal
Ġs oul
Ġs ausage
Ġs fu
on n
on ic
on ce
on et
on aug
on ald
on days
on ka
er is
er tion
er ri
er ry
er ge
er als
er ves
er de
er ald
er baan
es a
es co
es mer
es cia
es py
at t
at ou
at ar
at oc
at ric
at ically
at tr
at ories
at ants
at oes
at ta
at tered
at insky
at warch
Ġw en
Ġw ing
Ġw ick
Ġw ets
Ġw akes
Ġw ither
Ġw ives
Ġw ounds
Ġw isc
Ġw iped
Ġw agena
is a
is y
is able
is hes
is ner
is yan
is iac
Ġc ed
Ġc age
Ġc umm
Ġc ass
Ġc ere
Ġc br
Ġc oup
Ġc ash
Ġc tt
Ġc overs
Ġc umin
Ġc ables
Ġc itr
Ġc oven
Ġc ousin
Ġc incinnati
Ġc sz
Ġc uy
Ġc qq
Ġc inque
re a
re ds
re led
re el
re ver
re pr
re ating
re po
Ġf u
Ġf end
Ġf ul
Ġf el
Ġf art
Ġf ail
Ġf ond
Ġf ade
Ġf urn
Ġf ash
Ġf ife
Ġf err
Ġf ender
Ġf ills
Ġf ior
Ġf aded
Ġf ouri
Ġf usion
Ġf uj
Ġf lee
Ġf avour
Ġf ossil
Ġf ountain
Ġf wl
Ġf erry
Ġb p
Ġb ov
Ġb ant
Ġb st
Ġb oun
Ġb ish
Ġb av
Ġb ure
Ġb ere
Ġb ail
Ġb ens
Ġb any
Ġb ows
Ġb its
Ġb und
Ġb ats
Ġb urt
Ġb inary
Ġb iped
Ġb apt
Ġb bc
Ġb ugs
Ġb erger
Ġb oca
an or
an al
an ic
an et
an ke
an other
an ning
an oid
of ri
of fer
of lu
Ġp m
Ġp as
Ġp ly
Ġp ok
Ġp ace
Ġp aus
Ġp ound
Ġp ere
Ġp ne
Ġp ens
Ġp ale
Ġp aw
Ġp hen
Ġp orts
Ġp ires
Ġp ants
Ġp aj
Ġp ods
Ġp ounds
Ġp ills
Ġp ensions
Ġp itch
Ġp aid
Ġp igs
Ġp orno
Ġp inoc
Ġp iir
it an
it ation
it ers
it ish
it ry
it ents
it ably
it ocr
it helped
it nov
it rea
or ing
or ance
or ax
or light
or cycle
or amic
or ocar
Ġan c
Ġan e
Ġan u
Ġan bar
Ġan ita
ing t
ou che
ou bles
ou cher
ou cester
Ġm am
Ġm op
Ġm ate
Ġm ant
Ġm ong
Ġm ice
Ġm our
Ġm ail
Ġm ask
Ġm br
Ġm ert
Ġm az
Ġm iley
Ġm ott
Ġm ounds
Ġm orr
Ġm ba
Ġm ales
Ġm oses
Ġm acc
Ġm aver
Ġm oga
Ġm wan
Ġm itty
Ġm kap
Ġm esmer
le o
le ly
le ans
le af
le tt
le hem
le bl
le pool
Ġd ent
Ġd end
Ġd us
Ġd os
Ġd ol
Ġd ap
Ġd ort
Ġd ame
Ġd all
Ġd ian
Ġd ai
Ġd ying
Ġd err
Ġd ns
Ġd anced
Ġd umb
Ġd ensity
Ġd bal
Ġd oub
Ġd enny
Ġd rip
Ġd andel
te o
te inh
te wart
Ġin qu
Ġin her
Ġin cl
Ġin com
Ġin ner
Ġin ex
Ġin line
Ġin coming
Ġin hal
Ġto ile
Ġto kat
Ġto bac
Ġto xin
Ġth rill
Ġth aws
Ġth orax
ar te
ar ry
ar ia
ar ese
ar ium
ar itate
ar illo
ar athon
as an
as ers
as hed
as ants
as car
Ġis le
Ġis ma
Ġis lam
al c
al p
al t
al an
al ine
al ph
al ities
al ized
al mic
al ya
al bhai
al gam
ent he
ent ity
ent ine
ent rop
Ġn a
Ġn d
Ġn g
Ġn es
Ġn ur
Ġn ab
Ġn int
Ġn ash
Ġn uis
Ġn anch
Ġn asty
Ġn iro
Ġn aked
Ġn acl
Ġn ouveau
ed ian
ed uc
ed ek
ic on
ic tions
end e
end o
end ower
Ġh p
Ġh an
Ġh ay
Ġh ars
Ġh ire
Ġh ym
Ġh ob
Ġh itting
Ġh und
Ġh ues
Ġh oon
Ġh uss
Ġh iro
Ġh oll
Ġh utch
Ġh anako
Ġg p
Ġg os
Ġg ate
Ġg ol
Ġg il
Ġg ore
Ġg ust
Ġg ary
Ġg ates
Ġg aza
Ġg riev
Ġg erald
om on
om ac
om bian
om ites
Ġl ag
Ġl ace
Ġl av
Ġl ange
Ġl eric
Ġl ama
Ġl ender
Ġl overs
Ġl xx
Ġl ini
Ġl illy
Ġl ousy
Ġl wbthe
ce ive
ce all
ce ful
ce pted
ll or
ll ah
ll apses
ow th
ow een
ow job
Ġe in
Ġe el
Ġe ud
Ġe uc
Ġe ject
Ġe ph
Ġe tern
Ġe hd
Ġe hs
iv ol
iv ian
Ġy o
Ġy ir
Ġy od
Ġy ok
Ġy og
Ġy ower
Ġy ah
Ġy arn
Ġy tt
Ġy uan
Ġy uk
Ġy asser
Ġy anke
qu et
qu ests
qu oted
qu agm
us a
us b
us ted
us ual
us amm
Ġr ut
Ġr um
Ġr and
Ġr ust
Ġr ome
Ġr ong
Ġr ink
Ġr ope
Ġr io
Ġr az
Ġr ider
Ġr enn
Ġr aster
Ġr idge
Ġr ena
Ġr aj
Ġr ica
Ġr ule
Ġr aid
Ġr uled
Ġr ondebosch
Ġr ucho
Ġr onald
Ġr alph
ot he
ot ube
ot uks
Ġbe ers
Ġbe th
Ġbe ast
Ġbe ams
Ġbe asts
Ġbe aches
Ġbe acon
Ġbe avers
id i
id en
id ation
id ges
id jan
Ġwh is
Ġwh ist
Ġwh ale
Ġwh isk
Ġre ar
Ġre ag
Ġre ds
Ġre cre
Ġre write
Ġre ese
Ġre ef
Ġre ward
Ġre aff
Ġre els
Ġre hear
ct uary
am u
am bers
am bian
am eter
am weight
Ġqu ad
Ġqu ant
Ġqu art
Ġqu int
Ġqu oted
Ġqu arant
Ġqu arter
Ġqu arry
os id
os ome
os ure
os aur
os pects
os cope
Ġ" ,
Ġ" @
et y
et te
et op
et im
et izing
et nam
ay wa
ay ati
ir in
ir ted
ir cle
ir ley
ir rit
op en
op ing
op her
op ens
op les
op ping
op sis
im al
im ir
im ated
im als
im ination
im ori
im mung
Ġon going
Ġpr ist
Ġpr ague
Ġpr ais
Ġpr estig
ld s
ld ud
ld espy
Ġfor d
Ġfor age
Ġfor get
Ġyou sse
Ġhe i
Ġhe t
Ġhe ed
Ġhe ap
Ġhe ats
Ġhe bre
Ġhe els
Ġhe aling
Ġhe dges
Ġst ant
Ġst ated
Ġst able
Ġst uck
Ġst iff
Ġst oja
Ġst urdy
Ġst inky
Ġst yles
ur z
ur as
ur ation
ur ally
ur ope
ur bs
un a
un u
un y
un ion
un answer
un ning
un der
un ways
un acceptable
ig e
ig on
ig el
ig hed
ig ins
ig uration
ve led
ve get
ve oli
od ic
od ation
od ro
od ities
od bor
od ua
od isiac
ers ed
out ing
ad s
ad or
ad ing
ad os
ad able
ad ier
ad vanced
Ġfo x
ch u
ch ain
ch ies
ch ip
ch ological
ate ur
Ġfr ol
Ġfr ight
Ġfr ost
Ġfr anch
Ġfr anco
Ġfr ogs
Ġfr aud
Ġfr itz
Ġfr ivol
ut ary
Ġare m
if ully
ol o
ol us
ol ation
ol ol
ol ian
ol ens
ol ism
ol ves
ol ites
ol ga
ol itan
ith m
Ġne ut
Ġne gr
Ġne ither
Ġne oph
Ġne gativity
Ġcon so
Ġcon not
Ġcon fl
Ġcon go
Ġcon fined
Ġcon quests
Ġwith drew
Ġas p
Ġas he
Ġas ylum
Ġ1 15
um pt
um ented
um ps
um ns
um pet
um onia
um asan
il er
il st
il ai
il nah
il opsis
est ant
est ab
est ry
Ġv or
Ġv ent
Ġv ul
Ġv og
Ġv ests
Ġv iii
Ġv acc
Ġv oting
Ġv lad
Ġv estig
Ġor gr
Ġor nament
Ġor acle
Ġor leans
Ġor igins
Ġch ap
Ġch ah
Ġch uck
Ġch ores
Ġch ihu
Ġch ambers
Ġch ilopsis
ri ers
ri um
ap e
ap n
ap y
ap se
ap her
ap ted
ap pro
ap leton
ap olis
ap arte
ess ing
ess ive
ess ential
ess els
Ġab el
Ġab bey
Ġab road
Ġab idjan
ag us
ag ons
ag ascar
ov ial
ov ana
Ġj c
Ġj ake
Ġj int
Ġj enn
Ġj ew
Ġj orge
Ġj okes
Ġj eter
Ġj olo
Ġj ovial
ac ion
ac ch
ac tions
ac com
ac ros
Ġdo ve
Ġdo zen
Ġsh and
Ġsh ore
Ġsh ang
Ġsh ook
Ġsh aving
Ġsh arm
Ġsh ark
Ġsh ines
Ġsh ift
Ġsh uv
Ġsh adow
Ġsh oots
Ġsh rub
Ġsh amu
Ġsh irley
se x
se ok
se par
se arch
se lling
ie ga
st en
st ation
st ate
st ra
st ro
st ories
st ocks
st oria
st icks
st irring
Ġfollow er
Ġte a
Ġte les
Ġte em
Ġte ilnah
oc ent
oc ul
oc ative
Ġcan e
Ġcan aver
Ġcan aan
ht p
ter ms
ter rey
Ġnot ices
her es
her cules
Ġse l
Ġse v
Ġse w
Ġse ky
Ġse van
Ġse ctar
Ġse oul
Ġse ura
Ġk an
Ġk it
Ġk ar
Ġk im
Ġk ate
Ġk and
Ġk ass
Ġk old
Ġk ale
Ġk ah
Ġk itten
Ġk rist
Ġk ago
Ġk icking
Ġk uba
Ġk lim
Ġk itty
Ġk ruis
Ġk enya
Ġk odua
Ġpl ain
Ġpl ug
Ġpl ough
Ġpl ains
Ġpl atin
Ġle on
Ġle ase
Ġle wand
Ġle uke
Ġle vy
Ġle aning
Ġle iden
Ġcom anc
Ġcom fy
Ġcom edian
pe cted
and the
and em
oun ted
ill ate
ill ies
ill aries
Ġwor rell
ul ted
ul ose
ul ging
ul itis
Ġde ll
Ġde ity
Ġde cept
Ġde gener
Ġde kal
Ġi pl
Ġi ae
Ġi bs
Ġi jy
Ġno ble
Ġno ise
Ġno zomi
Ġno isy
Ġex other
Ġex ile
Ġex clud
Ġex cess
Ġex em
Ġex its
Ġex ports
Ġ2 27
Ġ2 10
Ġ2 20
th s
th us
th age
th almic
Ġen cl
Ġen ric
Ġen sem
Ġen lar
Ġen chant
Ġen force
Ġen comp
Ġen caps
Ġen vious
Ġen zym
). "
ist ical
Ġun ity
Ġun for
Ġun to
Ġun sh
Ġun ified
Ġun but
Ġun certain
Ġun identified
Ġun lock
Ġun esco
Ġun usual
Ġtr ave
Ġtr ick
Ġtr amp
Ġtr ained
Ġtr unk
Ġtr ump
Ġtr oops
Ġtr idens
Ġtr oubles
Ġtr umpet
Ġal ive
Ġal ter
Ġal bert
Ġal tering
Ġal vis
Ġal berto
Ġal veoli
ust ri
Ġus eless
Ġus cg
Ġpos ed
Ġpos ter
Ġpos ted
Ġli am
Ġli able
Ġli ps
Ġli pp
Ġli aoning
Ġwhe els
." "
up s
ide mic
ies en
ds aywa
ok ing
ok ov
all tel
Ġman ic
Ġman go
Ġman che
Ġman asseh
Ġman sions
Ġman uzz
Ġso x
Ġso ars
Ġso jour
Ġso lely
el ve
el led
el ines
el ids
el aya
ud io
Ġar on
Ġar av
Ġar nhem
Ġsp r
Ġsp ur
Ġsp illed
Ġsp read
ine a
ine e
ine er
ine ken
Ġop t
Ġop per
Ġop ra
Ġop ium
Ġop ec
art a
art i
art lepool
Ġtw ins
Ġtw ene
Ġtw elve
ans k
ast ically
aus s
act ic
pl us
pl ess
pl ied
pl aced
ak s
ak en
ak isyan
Ġout f
Ġout land
Ġout bre
Ġout come
ary a
ub er
ang ed
ang les
ang ra
ang ler
one xt
Ġwr en
Ġwr ight
Ġwr ath
Ġwr ists
Ġwr ites
Ġwr iters
Ġwr angler
Ġdes olation
iz ations
ver y
ver ing
ver ne
Ġgr ace
Ġgr ah
Ġgr ants
Ġgr apt
Ġgr uber
ab out
ab ad
ab and
ab usa
ab olism
Ġcor n
Ġcor ners
Ġad a
Ġad op
Ġad ds
Ġad ject
Ġad hesive
Ġad equ
Ġad apted
Ġyour self
Ġpe g
Ġpe el
Ġpe asants
Ġpe oples
Ġhis pan
ue ira
Ġwill ing
Ġwill iams
av c
av at
av ed
av otube
Ġcl ause
Ġcl aps
Ġcl aws
Ġcl imbs
Ġcl iente
ard y
ard ous
ĠĠ Ċ
Ġac f
Ġac es
Ġac res
Ġac cepted
Ġ. ;
pr of
pr ay
pr ices
pr oud
pr omotion
Ġall ama
Ġone piece
Ġo at
Ġo au
Ġo bey
Ġpre ven
Ġpre dom
ip t
ip er
ip an
ip al
ip ly
ip itation
uc ted
Ġim ag
Ġim ped
Ġam ic
Ġam ple
Ġam use
Ġam nesty
Ġam atric
Ġam isa
Ġam arillo
Ġam algam
Ġrev ive
Ġrev ival
Ġrev olution
Ġrev erse
Ġaf p
Ġaf ram
Ġaf firm
Ġplay ful
ind ing
ind ales
ass ing
Ġint ent
Ġint im
Ġint ens
Ġcomp ens
Ġcomp aring
og as
og ens
og hed
og ames
og ooga
ount s
cl a
cl uj
Ġbr ag
Ġbr ink
Ġbr its
Ġbr anch
Ġbr uun
Ġbr escia
Ġbr avotube
Ġkn ives
Ġkn ee
ater nity
ia zione
Ġfam ine
Ġ19 27
Ġ19 10
Ġ19 11
Ġ19 17
Ġ19 23
Ġ19 01
Ġ19 21
Ġ19 16
Ġ19 07
are a
are m
are it
Ġcal i
Ġcal dwell
Ġnew cast
we h
we ek
we gian
we iler
Ġspe lling
Ġspe lls
pt ing
pt oph
pt oms
Ġ5 1
Ġ5 4
Ġ5 8
Ġ5 00
Ġ5 25
Ġ5 18
Ġ5 47
ise ly
ber y
ber ry
ber land
ber ts
over all
Ġher ald
form at
Ġprod uk
Ġph rases
Ġph ara
Ġph ylum
Ġph illies
Ġap olog
Ġap ples
Ġap hr
Ġap ologies
Ġap hotic
oy a
oy s
king ham
ug ht
Ġrest ric
Ġrest repo
Ġeng ines
Ġeng agement
Ġq aed
Ġq atar
Ġoff ended
Ġprov en
Ġprov ed
Ġprov iders
Ġtext ured
ire fle
Ġcont acted
Ġcont rolling
Ġcont estant
Ġup s
Ġup ward
Ġup welling
app le
app br
ild hall
Ġpar a
Ġpar ish
Ġpar king
Ġpar ram
Ġpar anoid
Ġhel ens
ge ted
ge ment
Ġcount down
Ġro h
Ġro em
Ġro lling
Ġro ald
Ġro ots
Ġro oted
Ġro berts
Ġ3 00
Ġ3 65
Ġ3 308539
Ġsay ings
Ġcho ir
Ġbl oc
Ġbl ind
Ġbl az
Ġbl ocks
Ġbl ogs
Ġbl amed
Ġbl inds
aur akles
Ġcontext s
ere cipes
Ġcomm ack
Ġcomm odities
oth y
Ġver te
Ġver ify
ach im
Ġloc ally
Ġloc als
ne xt
ne ll
ne ft
ne utral
ne apolis
Ġbest sell
Ġsc ene
Ġsc ores
Ġsc uba
Ġsc iences
Ġsc arecrow
Ġsc heme
Ġsc enes
Ġbet a
ult z
Ġpart ition
Ġpart ners
Ġind ex
Ġind oor
Ġind oors
Ġind ulging
Ġres erv
Ġres erved
Ġres cue
Ġres ulted
Ġmake up
Ġmake over
Ġfl op
Ġfl air
Ġfl ows
Ġfl aws
Ġfl iega
Ġdr m
Ġdr ama
Ġdr ives
Ġdr iven
Ġdr unk
Ġdr oghed
Ġjust in
Ġcr ime
Ġcr uis
Ġcr oat
Ġcr ashed
ord ance
ord ech
Ġstep hen
Ġshe l
Ġshe et
Ġshe ath
Ġshe male
Ġser bian
Ġsumm ert
Ġsumm ability
Ġco b
Ġco ated
Ġco ating
Ġco hn
Ġco iled
Ġbu ken
Ġperson s
Ġplace ment
Ġmar c
Ġmar in
Ġmar ion
Ġmar ble
Ġmar ie
Ġmar ine
Ġmar ry
Ġmar ks
Ġmar io
Ġmar ina
Ġmar ines
Ġmar co
Ġmar col
Ġmar ius
Ġmar lins
Ġmar veled
Ġdis se
Ġdis cre
Ġdis arm
Ġdis rup
Ġdis agree
Ġdis dained
Ġhapp ily
Ġwater ways
Ġstr ain
Ġstr ange
Ġstr ouse
Ġstr ives
Ġstr itch
Ġstr atoc
Ġstr auss
ask er
Ġchar ter
Ġchar ity
Ġchar co
Ġsee ping
Ġsee ming
Ġsee med
Ġag ed
Ġag ency
Ġsm iley
Ġsm iles
Ġsm igel
Ġsm olens
Ġke ith
Ġke lly
Ġsol o
Ġsol ent
Ġsol vents
Ġsol omon
Ġacc ents
Ġacc omm
Ġacc ordance
cho ir
Ġye ast
Ġye lling
Ġcar ing
Ġcar lo
Ġcar roll
Ġcar thage
Ġfri ed
Ġev ocative
Ġcap sid
Ġcap abilities
Ġcap illaries
Ġart s
Ġinform al
Ġent ities
Ġent ails
Ġent icing
Ġent rance
Ġent repr
ade miet
Ġenglish man
Ġsim ulated
Ġsim sion
per y
per ary
Ġshould n
Ġshould ers
Ġequ ality
Ġequ idae
Ġper u
Ġper il
Ġper ished
Ġper tain
Ġper uv
Ġspec ies
Ġfin ishing
Ġwork place
?" .
cre d
ff icking
Ġem ile
Ġem erge
Ġinst antly
Ġrem ake
Ġpro xim
Ġair s
Ġair line
Ġair pods
Ġrec ording
Ġrec ipe
Ġrec uper
Ġrec ru
Ġrec essive
Ġtit led
Ġtit anic
br ing
br ation
br ass
br acht
br itish
Ġeat en
Ġfil tr
Ġfil ament
Ġprem iere
Ġprem iership
Ġgre the
omet er
Ġbo ost
Ġbo ards
Ġbo oming
Ġbo bc
Ġbo zize
Ġmus har
Ġmus hroom
Ġche ers
Ġche st
Ġche fs
Ġbel oved
Ġbel fast
Ġbel gian
Ġprocess ing
Ġmean while
Ġtweet ing
fri lls
Ġfact o
Ġfact ors
Ġfact ual
Ġfact oid
Ġjo anna
Ġjo achim
Ġtrans gr
Ġtrans action
ath kum
ons in
Ġshow er
Ġshow biz
Ġshow times
Ġpo ate
Ġpo ales
Ġpo oja
Ġpo inting
Ġthr own
Ġthr iving
Ġthr oat
iss ing
iss ioned
Ġsk i
Ġsk id
Ġsk ye
Ġsk ipping
Ġsup ported
Ġsup reme
Ġla id
Ġla wr
Ġla verne
Ġlead ert
fe mer
Ġ4 4
Ġ4 8
Ġ4 38
Ġ4 75
Ġ4 29
Ġ4 43
Ġ4 98
Ġz inc
Ġz oe
Ġz hu
Ġz hang
Ġz hong
Ġz ijn
Ġz ygote
Ġz elaya
Ġever est
aph an
aph or
aph ase
aph ragm
Ġatt ire
Ġatt ending
Ġatt racted
Ġatt ache
Ġatt achment
Ġinter ests
Ġinter rup
Ġinter ior
Ġinter med
Ġinter change
Ġinter ference
Ġwom bs
Ġund ert
Ġover use
Ġover power
Ġover looking
Ġover whel
Ġcre ation
Ġcre ature
Ġmy ers
Ġdown er
Ġdown ward
urn s
Ġcountry side
ful ness
Ġgu jar
Ġgu erri
Ġgu inea
Ġgu ildhall
Ġread able
ep th
Ġshort com
Ġshort ness
Ġfun d
Ġfun ds
Ġfun house
Ġmay a
oper ated
Ġsu it
Ġsu ite
Ġsu ki
Ġsu itcase
Ġcol ombian
Ġlist ener
Ġday light
Ġlong time
Ġenerg ies
Ġenerg iak
Ġcent res
Ġcent iped
Ġdi ary
Ġdi arr
Ġdi ameter
Ġdi aphragm
ict ures
Ġhigh light
Ġsub urb
Ġsub fossil
Ġsub urbs
ra f
ra ught
Ġmon te
Ġmon uments
Ġmon aco
Ġmon terrey
Ġins ult
Ġins pect
Ġequation s
Ġcam illa
Ġrel iable
ph il
ph rase
ph ospholipids
Ġpol o
Ġpol ar
Ġpol ite
Ġmet abolism
Ġfilm nation
be an
be it
be aut
be used
be hold
Ġameric as
Ġsur fer
Ġsur rey
Ġsur gical
Ġsur inam
Ġsur plus
Ġpass word
Ġgl en
Ġgl ory
Ġgl aring
Ġgl anced
Ġgl adi
Ġgl acier
Ġgl oucester
Ġgl endower
Ġear n
Ġear ning
Ġfound ing
Ġback wards
Ġback bone
Ġback pack
wor ms
Ġsl ain
Ġsl iding
Ġsl ashing
Ġsing ular
Ġmain ingred
Ġvers a
Ġvers atile
ger ing
ger ry
pos ter
Ġmin ist
Ġmin ute
Ġmin met
Ġmin istry
Ġmin imum
Ġmin erals
Ġmin neapolis
ope c
Ġteam work
Ġworld s
fin itely
ĠĊ Ċ
Ġcle ver
Ġtop ics
ows ki
Ġ8 2
ric hello
Ġtri es
Ġtri als
Ġtri angles
Ġnam ib
Ġserv ant
Ġsec tion
Ġu h
Ġu v
Ġu ldud
Ġsit com
Ġsit uate
Ġmusic fusion
Ġdon or
Ġdon al
Ġass erting
anc is
Ġmiss ed
Ġmiss iles
Ġel ton
Ġel ves
Ġel aine
Ġel bows
Ġreg gae
Ġed it
Ġed win
Ġed inburgh
int rig
Ġwar ds
Ġwar ning
Ġwar ned
Ġwar wick
Ġwar fare
Ġwar nings
Ġval ence
Ġval ais
Ġval des
Ġval entina
ier ende
Ġbar ren
Ġbar nes
Ġbar gain
Ġbar reled
Ġbar riers
Ġbar richello
Ġdec k
Ġdec om
Ġdec imals
Ġword less
Ġce pt
Ġbus hes
Ġconclud es
Ġconclud ed
."? .
Ġwin s
Ġwal ks
Ġcomple ting
ef ta
ton ed
Ġsun ray
Ġsun set
Ġsun dials
ider ing
Ġob struct
Ġob liv
Ġcur tains
Ġbre aking
Ġbre asts
Ġinv ited
Ġinv iting
Ġinv asion
Ġinv ersion
sel s
sel ors
Ġimport ance
ah a
ah ar
ah ua
ah oga
tr ue
tr uck
tr ivia
tr uth
tr ophy
Ġele ven
Ġext rad
Ġext reme
Ġext rem
Ġext inction
Ġkey nes
can not
Ġend ing
Ġend less
Ġbody building
Ġbody style
Ġgreat ly
Ġ0 1
Ġ0 3
Ġ0 7
Ġ0 600
eng ineer
gr and
gr owing
gr ims
gr asper
gr owth
gr adable
me as
me mbers
me anor
Ġincre d
Ġred uc
Ġred uced
Ġput s
Ġkid napped
ven i
Ġhard lex
Ġhard ened
Ġhard top
Ġhard ware
Ġret aining
Ġret riev
Ġappr oach
Ġappr oached
aw ian
aw asa
man itoba
Ġdiv ing
Ġdiv ination
Ġstre ams
Ġ10 1
Ġ6 4
Ġwind ing
Ġwind mill
Ġwind rush
amp s
Ġstory line
Ġexam ination
Ġpresident ial
cle ar
Ġmo o
Ġmo ll
Ġmo ana
Ġmo bile
Ġmo qt
Ġmo ogooga
Ġeff iciency
Ġbelong ing
Ġunderstand able
Ġir rit
Ġir rever
Ġdin o
Ġdin osaur
Ġref uel
Ġref used
Ġaut o
Ġaut ob
Ġdescri ptions
hen ry
Ġ18 10
Ġ18 32
Ġ18 85
Ġ18 04
Ġ18 90
Ġ18 65
Ġ18 66
Ġ18 72
Ġrequ ested
amm atory
Ġstart up
Ġtransl ating
Ġcharacter istics
ner ed
Ġ7 1
Ġ7 8
Ġ7 11
Ġ7 18
Ġsw ap
Ġsw ine
Ġsw ings
Ġsw ann
Ġsw ift
Ġsw apped
Ġcat alog
Ġcat enary
Ġpop up
Ġpop py
Ġpop corn
Ġeas iest
Ġmark ers
Ġbird ie
fl ow
fl ight
fl ower
fl akes
Ġboy ne
Ġexpress ions
Ġcontr ary
Ġperform s
Ġcell ulose
Ġcour ts
ane lla
15 3
15 26
em otion
em pire
pick away
Ġpat ted
Ġpat ents
Ġpat ients
Ġpat iently
Ġpat terson
Ġbusiness man
Ġsimpl ified
Ġident ity
enn is
Ġnor way
Ġnor wegian
Ġleg end
Ġleg uminous
Ġleg nica
con t
con nor
cap t
cap es
cap tain
Ġtre ason
Ġtre ats
Ġmil ton
Ġmil ky
arch i
arch itect
Ġrus sis
Ġexc use
Ġ199 9
ling uist
ob us
olog ist
olog ists
Ġorgan ic
Ġorgan ize
Ġorgan ized
Ġorgan isation
Ġorigin ates
Ġcontin ent
Ġcontin ually
Ġinstruc tion
Ġsign al
Ġsign ifying
Ġband wid
Ġdist ances
Ġdist urb
Ġdist illate
Ġdist raught
Ġhol by
ogr apher
Ġdisc ounts
Ġearth worm
Ġown ed
Ġown ership
Ġvis ited
Ġvis its
Ġproduc ing
Ġphot ographer
Ġindic ators
Ġresp ir
Ġresp onding
Ġresp iration
Ġelectr opl
ye ars
Ġaver ted
Ġsad r
Ġpot atoes
Ġpot omac
Ġann elids
Ġlow est
ages imal
Ġoffic er
Ġoffic ers
sh ort
sh irt
sh iva
sh aya
sh ooting
sh areit
Ġrele asing
Ġathle tic
Ġathle tics
Ġpret ension
Ġinstit ut
Ġcurr ency
Ġx c
Ġx d
Ġx ser
Ġx cel
Ġx box
Ġx abi
Ġx ilai
ont ally
Ġpain ters
Ġpast or
Ġpast ure
Ġlife boat
Ġadv ised
Ġadv isable
Ġapp o
Ġapp ian
Ġav iv
Ġav ant
Ġbud dh
Ġlove lace
Ġlower ed
Ġstop ping
Ġash amed
Ġash anti
Ġash gabat
Ġchange over
Ġkind le
Ġsuper ior
Ġsuper humans
Ġsuper computer
Ġfree zes
ries arese
less ness
Ġsal ts
Ġsal mon
Ġsal aam
Ġmat a
Ġmat vi
Ġmat tress
Ġmat sush
Ġmat teo
Ġ14 7
Ġvi etnam
Ġtele caster
Ġ198 7
Ġnews let
Ġmonth ly
Ġobject ive
Ġobject ives
Ġeffect iveness
ae ologist
bo a
tw itches
Ġcook ed
und i
und erst
Ġvill a
Ġvill as
Ġpark ed
Ġrob bery
Ġactiv ist
Ġlarge ly
Ġtest es
Ġtest imon
Ġallow ance
Ġaub ach
Ġfire place
Ġfire wood
Ġfire flies
Ġfire fox
Ġfire truck
Ġgen etic
Ġreal ity
Ġrece ipt
Ġspeak s
Ġspeak ers
Ġhuman ities
Ġrecommend ation
ik unt
ved ev
Ġbed s
Ġbed izz
Ġbad ge
Ġbad gering
Ġbill s
Ġbab yl
Ġpower ed
Ġmid as
Ġmid field
Ġlog ical
Ġrepe ats
Ġprof it
Ġprof its
Ġvo iced
Ġvol t
Ġvol es
Ġvol atile
Ġjud ges
Ġjud iciary
Ġdeath matches
Ġarr ivals
Ġarr anged
Ġoper ations
Ġoper atic
Ġ197 4
Ġsupport s
ny kh
Ġur g
Ġur bina
Ġball oon
Ġball ots
Ġant i
Ġant alya
Ġmed vedev
Ġheart y
Ġheart land
Ġship ments
Ġship building
Ġdirect ors
Ġ9 4
Ġ9 5
Ġ9 04
Ġsand bag
Ġcult ures
Ġcult ivation
Ġfif a
Ġport ugal
Ġden y
Ġden is
Ġden ied
Ġden tell
Ġlo oser
Ġlo ading
Ġbeaut y
Ġbeaut ifully
Ġpress ures
Ġdesign ation
Ġdesign ers
Ġdesign ated
Ġprev ents
Ġcambr ai
10 24
Ġste ve
Ġste ven
Ġste inbe
Ġbat ter
Ġbeh aves
Ġprom ote
Ġcond on
Ġcond em
Ġconf ession
Ġconf iguration
ster oid
Ġarm and
Ġbelie v
Ġvisit ation
Ġcost a
Ġfre ight
Ġhand led
Ġhand les
Ġhand cuff
Ġvir a
Ġtex aco
Ġplan te
Ġstruct ural
Ġgreen house
Ġpolit ics
11 00
25 0
25 2
Ġwall flower
Ġpet ition
Ġrad ar
Ġrad iate
Ġrepr oach
urch ase
ilar ating
Ġjum ped
Ġunique ly
Ġclos et
Ġclose ly
Ġer otic
Ġer itrea
Ġer asers
Ġes cap
Ġes oph
Ġes iin
Ġpen itents
Ġep idemic
ode gradable
12 1
12 85
12 80
14 0
14 2
19 47
19 79
Ġ: *
Ġtyp ical
Ġtyp hoon
Ġsqu irted
atic ian
Ġcoun selors
Ġfur ry
Ġfight s
Ġhealth ier
Ġstat istics
Ġtem p
Ġflo ating
Ġsurf ing
20 10
20 20
de finitely
de meanor
rom at
Ġment hol
Ġisol ated
Ġge ar
Ġge omet
Ġge ering
Ġ24 0
Ġ24 6
Ġpeace fully
Ġpeace keep
Ġ195 7
Ġ195 9
17 0
17 22
Ġ& #
Ġalex and
Ġalex ey
Ġsatisf ying
Ġbur gers
Ġbur undi
Ġpan el
Ġpan oramic
Ġmult itude
Ġmult iply
Ġdig ital
oph ase
Ġcool ing
work ers
Ġmembers hip
men te
Ġbak ili
Ġdie go
Ġnet works
Ġnet working
Ġhor ror
Ġhor wich
Ġhor rible
Ġyor uba
Ġprim ord
Ġprim eros
Ġarch ie
Ġarch di
Ġarch aeologist
Ġcontent ious
Ġmarch ing
epend ent
otel ia
Ġmarket able
!! !!
co llapses
gen re
part y
Ġton k
Ġton y
Ġterr itor
Ġsuc c
Ġmaj estic
Ġdivers ions
Ġling erie
Ġlab rad
Ġren en
Ġren zi
eth iop
Ġ17 1
Ġ17 2
Ġ17 9
Ġ17 22
Ġsever e
Ġtrad ing
Ġclub s
Ġbring ing
Ġspeed ing
Ġspeed way
Ġchem istry
Ġcheck out
Ġcolle agues
resp onding
Ġappear ances
conom ic
Ġsignific ance
Ġdiscover er
Ġdiscover ies
Ġsecret ive
dam n
tt es
Ġess ex
Ġsnow flakes
Ġcou ch
Ġfar ms
Ġdut y
Ġdut rou
Ġhen k
Ġhen ri
Ġ16 8
Ġ16 92
Ġchrist ine
Ġ196 0
Ġ196 1
Ġ196 6
Ġcapt ain
Ġcapt uring
Ġcapt ains
Ġcapt cha
Ġpresent ation
Ġcamp ana
Ġcamp anella
Ġdelight s
Ġvibr ating
32 17
cut ives
rup tc
with out
with price
Ġos cars
Ġos cill
Ġface book
Ġba it
Ġben on
Ġben edek
Ġang ina
Ġmix ing
Ġtom ato
Ġland ed
Ġland mark
Ġeast pear
Ġrain bow
Ġdef ender
Ġdece iving
Ġtry ptoph
Ġintr acellular
Ġemb ody
Ġemb assy
Ġemb arked
Ġdecided ly
Ġjudge ment
Ġtechn icians
Ġtechn iqu
200 4
200 80
lic ate
ma o
ma ar
ns aids
tal ia
Ġut ens
Ġut ah
Ġut terly
Ġtur key
Ġsof a
Ġsch orr
Ġsch uessel
Ġsch ultz
Ġsym path
Ġcut s
Ġcut ting
Ġcart agena
Ġcart oons
Ġbag ging
Ġhands ets
Ġrefer ence
Ġrefer ences
Ġjack ie
Ġjack pot
Ġ28 6
Ġ28 05
els ava
els kab
Ġopin ions
Ġbro om
Ġbro oke
Ġstream lined
Ġmilit ants
Ġlinguist ics
38 3
bu y
bu oys
Ġing var
Ġsar a
Ġsar athkum
Ġgal actic
Ġchair man
Ġju an
Ġju vent
Ġsex agesimal
Ġaltern ating
Ġacid ity
Ġcontrib uted
Ġparaph rase
Ġpoll en
Ġpoll uting
Ġpoll inators
Ġze eland
Ġcenter ed
Ġguitar ists
ding ton
dom ain
mon y
ties elskab
zer o
Ġsil ver
Ġsil va
Ġsil encing
Ġsil hou
Ġsil icon
Ġsound track
rec ipe
Ġfac ade
Ġmom ents
Ġmath isen
Ġmath iesen
Ġrace way
Ġstri ps
Ġfocus ed
Ġconne ctions
Ġshar ply
Ġcomfort ing
Ġmeas ured
Ġens ued
Ġpreced ed
Ġstring ed
Ġequip ped
che er
che stra
Ġten or
hem eris
Ġfarm houses
Ġburn s
Ġburn t
Ġburn ed
Ġple iades
Ġmater nity
Ġhar i
Ġhun ted
Ġrepl ied
Ġ100 0
Ġip a
Ġliquid ifies
Ġspir al
Ġspir ited
Ġspir its
Ġspoken in
Ġoppos ing
Ġscre am
Ġcoast line
Ġskyl ine
Ġmeth ane
Ġwarm er
Ġprogram me
Ġfitz sim
Ġenvironment al
Ġenvironment ally
bol shaya
cr acks
cr ude
sp am
sp oon
Ġtim othy
Ġaward ed
Ġfill ing
Ġbi ology
Ġbi ogas
Ġbi odegradable
Ġbay ern
Ġbay liss
Ġbay max
Ġbay onet
Ġbank ruptc
Ġpu ya
Ġperm ou
Ġperm ission
Ġmir afl
Ġmir rored
Ġmach ines
Ġgun men
Ġfore ground
Ġconst antly
Ġabs entee
Ġsmo othed
Ġmaint ains
Ġinvest ment
Ġveget ation
Ġpopulation density
Ġtemper ament
Ġmanufact ured
29 6
bl as
dr iver
dr ugs
dr amatic
dr unways
den mark
pet ent
Ġol faction
Ġaud iences
Ġcover ed
Ġbin ocul
Ġbal anced
Ġbal ancing
Ġbal tim
Ġdry ers
Ġinn ovative
Ġinn ocent
Ġhal phen
Ġham ary
Ġhab er
Ġharm ed
Ġheav ily
Ġconcer ned
Ġdoc uments
Ġdoc umented
Ġweight s
Ġexe cution
Ġexe cutives
Ġtravel s
Ġgrand stand
Ġadult s
Ġamount s
Ġcoll apse
Ġdisappo inting
Ġdiff ers
Ġlaund romat
Ġcollect s
Ġtrip ped
Ġautom atically
Ġpaint ings
Ġbirthday s
Ġmagn um
Ġmagn etic
Ġindividual ity
Ġalternative ly
mas q
Ġach arya
Ġsn ake
Ġsus an
Ġsus pect
Ġsus pected
Ġsir ion
ato llah
Ġfat ty
Ġfat alities
Ġpup ils
icip al
Ġhall oween
Ġhond uras
Ġgar bage
Ġgar nered
Ġles ion
Ġlands capes
Ġrac ial
Ġrais es
Ġrais ing
Ġstad io
add ers
Ġsele bi
Ġ25 3
Ġ25 6
Ġimpr oved
Ġimpress ions
Ġcold er
Ġdiss ident
Ġsmok in
Ġsmok ers
Ġconsum ed
Ġconsum ers
Ġuk raine
Ġdiscuss es
Ġdiscuss ing
Ġdiscuss ions
Ġadvent ur
Ġclaim ing
Ġaugust o
Ġhospital s
04 43
bel ieve
col o
col or
col ored
rop ods
Ġcath ode
Ġfig ures
Ġfig ured
Ġpay pal
Ġmich igan
Ġdom enico
Ġdang ers
Ġinf o
Ġinj uring
Ġinj ury
Ġinj uries
Ġtower s
Ġhost s
Ġgard ena
Ġlim a
Ġlim erick
Ġeu karyotes
Ġrow an
Ġrow boat
Ġconvey or
Ġconvey ed
Ġvan ity
Ġvan uat
Ġvan unu
Ġdeal ers
Ġdeal ership
Ġmel ting
Ġmel odic
Ġexh ilarating
Ġenc ircle
Ġarg ument
Ġarg entine
Ġspot light
Ġ194 5
Ġ194 6
Ġ194 8
Ġresour ceful
Ġrecogn ition
Ġrecogn izing
Ġexperi ences
Ġexperi encing
Ġelev ated
Ġrunway length
Ġdelic ate
Ġhistor ian
Ġchampionship s
Ġcivil ian
Ġcivil ization
Ġill ness
Ġari anes
Ġari zona
Ġson ja
Ġsam ple
Ġsam ples
Ġsam ira
Ġches hire
Ġder by
Ġnon union
Ġnap kins
Ġnap kin
Ġhub ble
Ġeth ical
Ġround worms
Ġquot a
Ġprop osed
Ġprop het
Ġatl as
Ġsem ester
Ġsem antic
Ġworry ing
Ġdem o
Ġgrad uation
Ġgrad uating
Ġemerg ed
Ġlaunch site
Ġdiet er
comple ting
Ġoccur red
Ġrepresent ing
Ġnucle us
Ġult ut
Ġult imately
Ġult ram
Ġ__ _
Ġtar p
Ġtar geted
Ġtight ly
Ġsan ctuary
Ġsail ing
isl as
isl aus
Ġfred ag
Ġfred die
Ġbol atinsky
Ġbol ivian
leg ation
Ġdor m
Ġdor al
Ġhur ting
Ġhind i
Ġhind rances
Ġlu ke
Ġlov ing
Ġeight h
Ġrat io
Ġrat atou
Ġprince ton
Ġstor m
Ġstor my
Ġvit us
Ġvit esse
Ġjim bo
Ġexpect s
Ġuncle an
Ġalk o
Ġalk aline
Ġalk maar
Ġsport iva
Ġimm erse
Ġaddress ed
Ġroll er
Ġcross on
Ġmarit zburg
Ġdisp atch
Ġstrugg ling
Ġaccom pan
Ġemploy ee
Ġmuse veni
Ġcelebr ations
Ġwinter hardy
Ġ65 7
Ġdistrict s
Ġrespond er
Ġprogress ing
Ġoperating organisation
Ġmedic ations
Ġwonder ful
Ġcondens es
Ġcondens ed
Ġcondens ation
load ing
Ġparticip ation
Ġparticip ated
Ġbenef it
Ġbenef icial
Ġbenef iciary
Ġachieve ments
35 76
cent ral
ser ved
Ġic onic
Ġom its
Ġom nivores
enar beit
Ġwat kins
Ġwid ow
Ġwid th
Ġfed ora
organ isms
Ġmos ul
Ġmad agascar
Ġmold s
Ġnut s
Ġnav al
Ġnitr ous
Ġgym nast
Ġlif ting
Ġlap se
Ġlap top
Ġprin ze
Ġje ans
Ġje ff
Ġcandid ates
Ġweap on
Ġenh ancer
Ġoffer ed
Ġoffer ings
Ġaddition ally
Ġblock ers
Ġblank et
Ġresist ant
Ġcoord inating
Ġsurv ival
Ġgluc agon
Ġ189 2
Ġapprec iate
Ġbroad way
Ġabsor bs
Ġheavy weight
Ġastron omy
count riesarese
fr agment
iac in
mus ic
mus icians
run s
rig id
rad uate
Ġid ol
Ġid yll
Ġald egre
Ġsed uction
Ġwet land
Ġwet lands
Ġca ution
Ġcard inals
Ġmart ial
Ġmax imum
Ġdal ai
Ġdal pat
Ġthreat ening
Ġnic er
Ġnic olai
Ġnurs es
Ġhy un
Ġhus k
Ġhus band
Ġhav arti
Ġhyp hae
Ġhah aha
Ġlin en
Ġframe work
Ġasher ton
Ġseat tle
Ġdete cts
Ġtrim ming
Ġtrim mer
Ġtrim archi
Ġali ens
Ġalarm a
Ġliber ia
Ġliber ty
Ġarth rit
Ġarth ropods
Ġcommission er
Ġagre es
Ġtransfer red
Ġunderg oes
Ġunderg raduate
Ġoccup ational
199 3
199 5
199 8
Ġimprove ment
Ġaccompl ished
Ġaccompl ishing
Ġmuseum s
Ġmeronym y
") :
03 75
44 4
gu est
gu ard
la unch
lim ited
sun day
var iation
var iety
wom en
will iam
Ġign ore
Ġign ored
Ġign orance
Ġowl s
Ġtub es
Ġtrib utary
Ġtank er
Ġsend s
Ġcy cles
Ġcy clists
Ġcum berland
Ġbh angra
Ġbh asker
Ġpou l
origin al
Ġmal t
Ġmal ice
Ġmal awian
Ġmars ay
Ġdu ke
Ġnin th
Ġnar cot
Ġhoney comb
Ġhamm ers
Ġhydr ated
Ġlit re
Ġqual ified
Ġstun ts
adi ja
Ġvirt uous
Ġchlor ide
Ġchlor ophy
Ġchlor oflu
Ġposs essed
Ġposs essions
prov incia
Ġprefer ence
Ġstrateg ically
Ġcarr ara
Ġmyth s
Ġmyth ology
Ġmyth ological
Ġfunction al
Ġmayor al
Ġsuz uki
Ġpassion ate
Ġslip pery
Ġ87 0
Ġ87 1
Ġdistrib uting
Ġearthqu akes
Ġmathem atician
Ġpeter house
Ġpeters en
Ġprotect ive
Ġpenet rate
Ġpenet rating
Ġinvolve ment
Ġmountain ous
Ġterror ist
Ġbache let
Ġsoft lay
Ġencour aged
Ġencour aging
Ġchalleng ing
Ġfertil izes
Ġemphas izing
high ly
high volume
ij k
su z
su itcase
Ġod d
Ġod er
Ġod ysse
Ġter re
Ġay atollah
Ġaar on
hew lett
Ġsud an
Ġsav ed
Ġsens itive
Ġsib ling
Ġsib lings
Ġsib neft
Ġbow ling
Ġbold rini
ofthe m
Ġpow ers
Ġpil grims
Ġpurs es
Ġmer chant
Ġmer itocr
Ġmis placed
Ġmis demeanor
Ġmor mon
Ġmun ich
Ġmun ster
Ġmun icipal
Ġdick ens
Ġdyn a
Ġdyn asty
Ġinm ate
Ġhop ing
Ġgh ost
Ġlabor atories
Ġreve aling
Ġreplic a
Ġreplic as
Ġreplic ation
Ġassem ble
Ġassem bly
Ġven ice
Ġjer ks
Ġjer usalem
Ġtel ugu
Ġnotice able
Ġsear ches
Ġkh odro
Ġkh adija
Ġ(" []
Ġdeb ate
Ġdeb ated
Ġtroph ic
Ġalp ine
Ġalp ena
Ġalp aca
Ġaccept ance
Ġfellow s
Ġrestr aint
Ġcrick et
Ġaccount ants
Ġentire ly
Ġsale m
Ġshowc ased
Ġguaran tee
Ġassign ed
Ġeleph anta
Ġhumph ries
Ġretail ers
Ġrefle cted
Ġreflect ing
Ġexcell ence
Ġutil izing
Ġinvestig ated
Ġinvestig ators
Ġdestroy er
Ġincorpor ating
Ġincorpor ates
Ġconsequ ently
Ġcasual ties
Ġdomin ic
Ġnavig ating
Ġfaith fulness
Ġsynt ax
Ġdialect s
mexican recipe
Ġdeposit ors
Ġbrazil ian
box ers
cons um
cons idering
lar ry
mam und
main dish
oh ama
spe aking
show ing
super b
win ning
Ġil iad
Ġtun a
Ġtun is
Ġtip perary
Ġtsun am
inh abitants
Ġwise cracks
Ġcind y
Ġcater ing
Ġflex ible
Ġflex ibility
Ġbare ly
Ġpy ros
Ġpy renees
Ġpic colo
Ġpenc ils
Ġanth ony
Ġanton io
Ġmac greg
Ġmist ress
Ġmerc y
Ġnik ki
Ġhon ors
Ġgi ants
Ġgall ery
Ġgall oping
Ġram blas
Ġrail ing
Ġrib osome
Ġrene wal
Ġrene gade
Ġprok opec
cha ft
Ġvoc alist
Ġvary ing
Ġchance llor
agon al
Ġcompress ion
Ġcompress ed
Ġexist ence
Ġenlight en
Ġenlight ened
Ġlibr ary
Ġprec ipitation
Ġprec isely
Ġpharm acy
Ġscr ub
Ġscr umpt
Ġscand ium
Ġcharlie card
Ġaccum ulation
Ġinstall ation
Ġfilip inos
Ġjoe y
Ġjoh ann
Ġpoison ing
Ġinsp iration
Ġinsul ator
bec ause
Ġtriumph antly
Ġcontrovers ial
employ ees
Ġnorthe astern
Ġmicrow ave
green land
Ġbulgar ian
prem ier
Ġexhib ition
Ġexhib itors
Ġsubstit ute
Ġsubstit uting
Ġoverse as
Ġmathemat ical
Ġrapid ly
Ġwitness es
210 3
cor responding
dies el
hang er
love ly
mot orcycle
mot ogames
mess aging
pal ms
Ġow en
Ġow ens
Ġtack le
Ġak bar
Ġak tieselskab
Ġaz al
enst urz
Ġsag an
Ġsag rada
Ġwolf gang
Ġcher nykh
Ġfay e
Ġbon us
Ġbon aparte
Ġpd a
Ġpd f
Ġpad dle
Ġpad dington
Ġpour ing
Ġpull ing
Ġpais a
Ġpais ley
Ġmb ta
Ġdm x
Ġdm itry
Ġdar ius
Ġdim ensions
Ġdip ped
Ġinev itable
Ġinev itably
Ġthick ness
Ġnom inated
Ġnom inee
Ġnine teen
Ġhom entrop
Ġhaz ardous
Ġlone ly
Ġlomb ardo
Ġlomb ardy
Ġbean ie
Ġquiet ly
Ġprinc iple
Ġprinc ipal
Ġyouth s
Ġhex agons
Ġhex agonal
Ġster oid
christ ine
Ġvic ar
Ġvow els
Ġvine yards
Ġchop sticks
Ġjun iors
Ġjac ob
Ġjaz z
Ġjaz eera
Ġteach ing
Ġkent ucky
Ġkay ak
Ġkay la
Ġcompl iment
andel ier
thr ough
Ġalg oma
Ġalleg ed
Ġalleg ations
Ġmanzan o
Ġmanzan as
Ġarist akisyan
Ġarist otelia
Ġpeach leaf
proc ess
Ġbrus hed
Ġbrus sels
Ġbrace let
Ġbronch ial
Ġbronch itis
Ġ33 3
Ġstraw berry
Ġperf ume
Ġperf used
Ġembr ace
Ġremov es
issan and
Ġsupple ment
Ġsupple ments
Ġcred it
Ġcred its
Ġobser ve
comp any
Ġapprov als
Ġdeliver ed
Ġrefres hing
Ġtermin al
Ġeastern most
Ġmilest one
Ġmilest ones
Ġannoy ed
Ġreception ist
Ġpreview ing
Ġoccasion al
Ġbehav ior
Ġpenal ty
Ġmichel le
Ġmichel angel
Ġanalys is
Ġanalys ed
Ġcirc ulated
Ġpathogen ic
Ġmurm ur
Ġmurm ured
Ġmurder er
Ġsumer ians
Ġfantas y
Ġfantas ies
Ġhybr id
Ġhybr ids
Ġcigare tte
Ġcigare ttes
Ġneighborhood s
Ġsudden ly
Ġadvertise ments
Ġexpedition ary
Ġparliament ary
400 142
bir th
del ivers
dra w
four teen
gun fight
god less
game games
hos tel
tops atwarch
youn g
Ġtig uan
Ġace tic
Ġads it
Ġawa iting
Ġahmed abad
inv ersion
infl ammatory
Ġsust ains
Ġsind y
Ġsank t
Ġwi ener
Ġware house
Ġcer ro
Ġcull ins
Ġfulf illed
Ġbuc kingham
Ġbunk er
Ġpun ter
Ġpall an
Ġpitt sburgh
Ġpitc her
Ġpsy chological
Ġanne x
Ġmow ry
Ġmul uzi
Ġmort gage
Ġmamm als
Ġmik an
Ġdur rell
Ġdwar fs
Ġnost aa
Ġnurt ured
icht ung
Ġhust ling
Ġhatch back
Ġgle isner
Ġgam bling
Ġgab e
Ġgene va
Ġgigg le
Ġeld ers
Ġeine m
Ġrou en
Ġrent al
Ġric ardo
Ġrall o
Ġreput ation
Ġretr ospect
imet res
Ġstan islaus
urface type
Ġfris bee
Ġnegot iations
Ġcongr ess
Ġviv ud
Ġvot ers
Ġvinc ent
Ġabb ott
Ġjul ie
Ġjak arta
Ġdock weiler
Ġshoot er
stat us
Ġkiss ed
Ġcompe ted
Ġworship ped
Ġdehydr ates
Ġiq bal
Ġunve ils
Ġunne cessary
Ġunemploy ment
Ġspl itting
Ġspin off
Ġspook iness
white fish
Ġgren adier
Ġgran ola
Ġadapt ation
Ġclut tered
Ġclip per
Ġacknow led
Ġprepar atory
Ġimple mented
Ġfem dom
Ġapo llo
Ġappar ent
Ġupper case
Ġlock heed
Ġscot ch
Ġscript s
Ġreson ance
Ġresign ed
Ġflood ing
Ġdisfl uent
Ġstreng then
Ġcaps ulitis
Ġsaf ety
Ġproced ural
Ġgreet ings
Ġchel sea
Ġ464 517
Ġzur ich
Ġnumer ous
Ġconsist ently
Ġdiagn osed
Ġdiplom at
Ġsubsequ ent
Ġmont ana
Ġmetrop olitan
Ġsurp assing
Ġsurr ender
Ġcleans ed
Ġobt aining
Ġobserv ing
Ġnumberof employees
Ġextr acellular
Ġextensive ly
Ġende avour
commun ication
Ġretire ment
Ġrefug ee
Ġswed ish
Ġbande ja
Ġsalv ador
Ġprogramm er
Ġantenn a
Ġbatt les
Ġcommunic ations
exc ited
Ġhoriz ontally
Ġrainfor est
Ġintrig uing
Ġbagp iper
Ġmutual ism
Ġtimber lake
Ġbesch ichtung
blue jays
Ġlaserd isk
Ġinfam ous
Ġimmig rant
Ġtanzan ian
Ġlymph oma
Ġfiber con
Ġambul ift
kilomet res
information en
Ġrejuven ating
Ġstereot ype
Ġimpecc able
Ġcarbohydr ate
Ġsubsidiar ity
Ġelectroly tes
Ġuruguay an
727 9
839 4
aad hity
bai jan
cf cs
cam eron
cock tails
cyl inder
coff set
delt a
gard e
gaz zet
hy un
hot mail
hote ldespy
hats u
jv t
jac ob
kt ierende
kar en
lat est
lived it
mast i
nap oca
oong ames
oost baan
oee c
pul se
pold erbaan
soc cer
sab ah
scient ific
slee pless
tend ency
tie teellinen
tra fficking
tied je
tomas z
vide o
wat an
wisdom sunday
yen ko
yak i
Ġou chies
Ġuc onn
Ġere ction
Ġerg ometer
Ġought red
Ġvel ayati
Ġoust s
Ġugu eth
Ġigor ot
Ġtat too
Ġtor ch
Ġtul ip
Ġtort oises
Ġtai wan
Ġtiss ue
Ġtft p
Ġtung sten
Ġtyl er
Ġtsu ji
Ġaqu arium
Ġapt osid
Ġauction eer
Ġazer baijan
Ġajob lanco
Ġsid cup
Ġsod ium
Ġsap indales
Ġsant ander
Ġsapp hire
Ġsamp doria
Ġsque eze
Ġsik ua
Ġsabb ath
Ġsrich aphan
Ġsomal ia
onaug ust
ondays withprice
erde en
Ġwick er
Ġwither spoon
Ġwisc onsin
Ġwagena ar
Ġced ar
Ġcumm ins
Ġcass ie
Ġcere mony
Ġcitr us
Ġcoven ant
Ġcuy ahoga
Ġful ham
Ġfel ipe
Ġfart her
Ġfail ure
Ġfash ion
Ġferr ara
Ġfior entina
Ġfouri er
Ġfuj imori
Ġfavour ite
Ġbov idae
Ġbant amweight
Ġbish op
Ġbav aria
Ġbure au
Ġbere its
Ġbens on
Ġbany umasan
Ġbiped al
Ġbapt ist
Ġpas te
Ġpok er
Ġpere z
Ġpne umonia
Ġpale y
Ġphen omenal
Ġports tewart
Ġpaj itnov
Ġpinoc het
Ġpiir ikunt
ithelped me
orocar bons
Ġmam noon
Ġmant ova
Ġmong olian
Ġmour ning
Ġmert a
Ġmaz zy
Ġmott a
Ġmorr ison
Ġmacc abi
Ġmaver ick
Ġmwan awasa
Ġmkap a
lebl ower
Ġdend rites
Ġdus k
Ġdol omites
Ġdort mund
Ġdall as
Ġdian e
Ġdai hatsu
Ġderr ick
Ġdns masq
Ġdoub t
Ġdandel ion
teinh aus
Ġinher itor
Ġincom petent
Ġtoile t
Ġtokat yan
Ġtobac co
Ġthrill er
Ġisma el
Ġnur se
Ġnab okov
Ġnint endo
Ġnuis ance
Ġnanch ang
Ġhay abusa
Ġhars h
Ġhym ns
Ġhuss ain
Ġholl and
Ġgos hen
Ġgol onka
Ġgil bert
Ġgust av
Ġgriev ous
Ġgerald ine
Ġlag i
Ġleric i
Ġlwbthe marine
ceall aigh
Ġeud p
Ġeuc lid
Ġeph raim
Ġehd otuks
Ġyir en
Ġyod o
Ġyok ohama
Ġyog urt
Ġyower i
Ġyah weh
Ġytt rium
Ġyuk os
Ġyanke es
quagm ire
usamm enarbeit
Ġrut te
Ġraz orlight
Ġrenn ie
Ġraj a
Ġbeth lehem
Ġwhist leblower
Ġwhisk ers
Ġreag an
Ġrecre ational
Ġreward ing
Ġrehear se
Ġquart z
Ġquint essential
Ġquarant ined
Ġprist ine
Ġprestig ious
Ġforget ting
Ġyousse f
Ġhebre w
Ġstant on
unanswer able
odbor g
odisiac s
Ġfrol ics
Ġfright ened
Ġfranch ise
Ġfranco is
Ġfrivol ous
Ġnegr ouche
Ġneoph rons
Ġconso le
Ġconfl icts
Ġvul ner
Ġvog el
Ġvacc ine
Ġvlad imir
Ġvestig ial
Ġorgr an
Ġornament al
Ġchah ine
Ġchuck le
Ġchihu ahua
appro ach
Ġjint ao
Ġjenn ings
Ġjew ish
Ġshand y
Ġshang hai
Ġsharm a
Ġshuv alan
Ġshrub s
separ ated
stro ke
Ġteles cope
Ġteem ing
Ġteilnah me
Ġcanaver al
Ġseky ere
Ġsectar ian
Ġseura avat
Ġkand ahar
Ġkass ensturz
Ġkold ing
Ġklim t
Ġplatin um
Ġlewand owski
Ġleuke mia
Ġcomanc he
Ġdecept ive
Ġdegener ative
Ġdekal b
Ġiae a
Ġexother mic
Ġexclud es
Ġ227 6
Ġencl osure
Ġensem ble
Ġenlar gement
Ġencaps ulated
Ġenzym es
Ġunsh ui
Ġunbut toned
Ġuncertain ty
Ġuscg c
dsaywa its
Ġmanche ster
Ġmanuzz i
Ġsojour n
Ġarav inda
Ġopper vlak
Ġopra h
Ġtwene boa
Ġoutland ish
Ġgrah ame
Ġgrapt olites
Ġadject ive
Ġadequ ately
Ġpeoples oft
Ġhispan o
Ġcliente le
promotion al
Ġonepiece motogames
Ġobey ed
Ġpreven ted
Ġpredom inantly
Ġimped ing
Ġamuse ment
Ġamatric iana
Ġamalgam ation
Ġaffirm ative
Ġcompens ation
Ġnewcast le
week ly
Ġphara oh
Ġaphr odisiacs
Ġrestric tions
Ġqaed a
Ġqatar i
irefle ktierende
appbr ain
Ġparram atta
Ġroem er
Ġbestsell ers
Ġreserv ations
Ġfliega uf
Ġdroghed a
Ġcroat ia
ordech ai
Ġsummert ime
Ġbuken ya
Ġmarcol ini
Ġdiscre tion
Ġdisagree ments
Ġstratoc aster
Ġcharco al
Ġsmolens k
Ġaccomm odation
Ġentrepr ene
Ġperuv ian
Ġproxim ity
Ġrecuper ating
Ġrecru it
Ġfiltr ation
Ġbobc at
Ġmushar raf
Ġtransgr essions
Ġlawr ence
Ġleadert itle
femer idi
Ġ438 7
Ġzoe y
Ġzhu hai
Ġzhang zhou
Ġzhong xiang
Ġintermed iate
Ġundert ake
Ġoverpower ed
Ġgujar at
Ġguerri lla
Ġshortcom ings
Ġsuki yaki
Ġenergiak ademiet
Ġcentiped es
Ġdiarr he
Ġhighlight s
beaut iful
Ġgladi olus
Ġmainingred ient
Ġminmet als
Ġnamib ian
Ġmusicfusion genre
intrig uing
Ġobstruct ing
Ġobliv ion
Ġextrad ition
Ġextrem ist
Ġretriev ers
Ġmoqt ada
Ġmoogooga ipan
Ġirrever ent
Ġrefuel ing
Ġautob iography
Ġrussis k
Ġbandwid th
Ġelectropl ated
Ġxser ve
Ġmatvi yenko
Ġmatsush ita
Ġnewslet ter
Ġtestimon ials
Ġbedizz ole
Ġmidfield er
Ġdentell es
Ġsteinbe ck
Ġconfession al
Ġhandcuff s
Ġerotic ism
Ġesoph agus
Ġpeacekeep ers
Ġarchdi ocese
Ġterritor ial
Ġlabrad or
ethiop ia
Ġdutrou x
Ġoscill oscope
Ġeastpear l
Ġtryptoph an
Ġtechniqu es
20080 9
Ġsympath y
Ġ2805 00
Ġsarathkum ar
Ġjuvent us
Ġsilhou ette
Ġfitzsim ons
Ġbankruptc y
Ġmirafl ores
drunways urfacetype
Ġbinocul ars
Ġbaltim ore
Ġvanuat u
Ġarianes pace
Ġultram arathon
Ġratatou ille
Ġaccompan ied
countriesarese lling
Ġidyll ic
Ġaldegre ver
Ġdalpat bhai
Ġarthrit is
Ġnarcot ics
Ġchlorophy ll
Ġchloroflu orocarbons
Ġsoftlay er
Ġodysse y
Ġmeritocr acy
Ġ("[] ")
Ġmacgreg or
Ġscrumpt ious
Ġhomentrop ic
Ġmichelangel o
topsatwarch ild
Ġbuckingham shire
Ġretrospect ivity
Ġ464517 90
aadhity an
gazzet ta
hoteldespy renees
Ġpiirikunt a
Ġehdotuks et
" !
" ),
% .
' '
' ).
' ?"
' ".
' ??
' ";
) /
) "?
) --
* .
, '
, )
, .
. )
. :
. <
. \
. ?"
/ -
0 6
0 8
0 9
0 23
0 90
1 00
1 10
1 36
1 000
2 32
3 18
3 308539
4 6
4 32
4 38
4 76
4 13
4 308539
4 023
5 2
5 8
5 9
5 25
5 53
6 3
6 12
6 04
6 77
7 29
7 05
8 15
8 17
8 149
9 1
9 3
9 6
9 9
9 00
9 39
9 30
9 85
9 705
: -
: @
: *"
; .
; @
? _
@ _
_ (
a ol
a ac
a ub
a ise
a ited
a fe
a its
a une
a oo
b b
b h
b m
b t
b ing
b as
b xt
b id
b il
b ri
b ore
b ust
b ab
b ound
b ass
b ild
b ors
b ys
b urn
b als
b ins
b ym
b ank
b ib
b ung
b less
b acks
b arr
b ster
b owl
b order
b icycle
b anco
b ivores
b acon
b assy
b attered
c c
c q
c z
c ou
c ion
c al
c id
c ence
c op
c oc
c ave
c led
c ine
c art
c ub
c ook
c are
c ade
c ateg
c ro
c ob
c ute
c iation
c yn
c uel
c urity
c hel
c ube
c ogn
c apped
c aa
c alled
c ancer
c atal
c iences
c arecrow
d a
d at
d is
d it
d ent
d ll
d ow
d iv
d et
d im
d ers
d ut
d ag
d oc
d and
d ome
d ine
d ated
d ick
d ens
d les
d ef
d em
d irt
d anish
d ancing
d umb
d iscover
d ansk
d epth
d ennis
d ependent
e it
e op
e ve
e led
e ates
e ats
e arn
e lling
e ither
e wa
e ceived
e finite
e zing
e conomic
e femeridi
e aub
f i
f re
f an
f ar
f ur
f ers
f est
f ac
f th
f ind
f ens
f ired
f res
f ather
f ont
f ires
f iving
f elt
f owl
f used
f illed
f oot
f ret
f atal
f icial
f reet
f itz
g n
g it
g ion
g iv
g ence
g ig
g ive
g ag
g ds
g all
g art
g ings
g old
g ger
g io
g ism
g rey
g uis
g iving
g itc
g ives
g lad
g mt
g zbndxw
g ueira
g amps
h l
h p
h as
h op
h ad
h ould
h ist
h ome
h ated
h ish
h ack
h ind
h og
h ug
h yp
h omer
h ield
h ner
h aving
h und
h yd
h ones
h iam
h otel
h oe
h aps
h oot
h pp
h asa
h idden
h life
h adow
h raim
h ku
h artlepool
h aved
i at
i ite
i age
i ates
i ink
i ented
i une
i enced
j en
j er
j es
j id
j ay
j im
j ud
j ose
j ack
j ason
j apan
j ordan
j esse
j unk
j uan
j aded
j enny
j fk
j usted
k m
k im
k ok
k ors
k ah
k ene
k endall
k illed
k atrina
k endra
k ko
k odborg
k bxt
l c
l g
l x
l ion
l if
l ap
l st
l ore
l ast
l one
l ose
l og
l ations
l iness
l ah
l can
l ady
l aug
l aught
l imb
l iger
l anta
l ucky
l aid
l abel
l uminous
l cn
l ilies
l acier
l ousy
l albhai
l erecipes
l mao
m d
m in
m es
m it
m or
m id
m ate
m ag
m ov
m ust
m all
m ang
m ally
m ind
m ass
m are
m ors
m ont
m ik
m ones
m atic
m ites
m ays
m bar
m otion
m inistration
m issi
m issing
m ordechai
m cc
n u
n in
n on
n us
n um
n oc
n ies
n ok
n ice
n one
n ove
n our
n av
n ical
n oth
n atur
n ote
n ox
n ae
n ny
n ership
n asa
n ights
n oni
n umber
n acles
n ijn
n iy
n iacin
n issanand
n drunwaysurfacetype
n lc
o a
o i
o ad
o il
o her
o ine
o tions
o ating
o choose
o zen
o oms
p i
p en
p ur
p up
p ine
p ast
p ub
p age
p air
p ox
p ared
p ids
p aper
p aced
p ensive
p athe
p aceae
p igs
p aul
p enny
p asta
p orsche
p heres
p aternity
p ictures
p urchase
q m
r id
r um
r il
r ul
r ust
r ome
r ave
r ite
r ak
r ack
r uct
r ail
r ade
r ific
r ides
r oper
r ations
r ider
r iding
r ented
r action
r acks
r ift
r aged
r uction
r ery
r iger
r ze
r ades
r aging
r ino
r hinoc
r uses
r ondebosch
r imination
r drunwaysurfacetype
s n
s at
s ir
s ur
s od
s ad
s il
s ri
s ac
s and
s up
s ong
s av
s ure
s pr
s ound
s omet
s ign
s chool
s ym
s ized
s now
s uch
s asha
s itting
s ats
s ama
s de
s orry
s head
s ays
s mart
s ara
s iders
s inst
s itate
s ville
s ausage
s night
s othe
s chaft
s teinhaus
s mall
t p
t un
t ight
t ary
t ub
t able
t ally
t og
t ise
t orn
t ower
t ale
t othes
t ically
t ling
t ender
t aylor
t omy
t ommy
t othed
t ura
t anya
t reating
t othe
t urns
t jes
u er
u et
u ence
u ad
u est
u itive
u ild
u ents
u ished
u iling
u zzle
u ered
u vering
v or
v al
v all
v ine
v ice
v ise
v ens
v ices
v als
v ention
v irt
v esting
v ana
v ati
v iously
v illa
v oucher
v essels
w it
w ent
w ic
w os
w el
w ine
w ind
w ond
w ling
w eth
w ills
w aging
w ipe
w mt
w olves
w ijk
w iink
x d
x on
x id
x am
x ii
x name
x ba
x emotion
y x
y on
y or
y od
y ke
y se
y ond
y ale
y der
y time
y ucky
y esterday
y rie
y rin
y rian
y bad
y cled
z o
z w
z ed
z wer
z ess
z act
z one
z ens
z ung
z ene
z iation
z uel
z ler
z ambian
z cz
| |
Ġ !
Ġ ;
Ġ ie
Ġ ost
Ġ ict
Ġ oup
Ġ ."?
Ġ icy
Ġ ;-)
Ġ ||
Ġt ent
Ġt um
Ġt il
Ġt ap
Ġt pe
Ġt ah
Ġt ugg
Ġt une
Ġt ender
Ġt ables
Ġt ension
Ġt pp
Ġt iring
Ġt ij
Ġt iers
Ġt ugs
Ġt apping
Ġt inchy
Ġt outing
Ġt andem
Ġt aken
Ġt lx
Ġt yke
Ġa a
Ġa it
Ġa us
Ġa ol
Ġa est
Ġa ide
Ġa irst
Ġa ime
Ġa uch
Ġa ja
Ġa war
Ġa ho
Ġa wait
Ġa xon
he j
he y
he at
he ent
he ment
he av
he ard
he ars
he way
he ism
he arr
he bee
he althy
he ineken
he company
he countriesareselling
he xam
in in
in ar
in od
in the
in wh
in ks
in clud
in ently
in ister
in tern
in ator
in bill
in ald
in eral
in vest
in thew
in humans
in force
in ags
in etim
in fused
in heat
en on
en ess
en ue
en joy
en mark
en etic
en met
en ishing
Ġthe oper
Ġthe ae
Ġthe first
Ġthe danish
Ġs om
Ġs ov
Ġs ain
Ġs ok
Ġs ans
Ġs ia
Ġs ne
Ġs ink
Ġs way
Ġs ons
Ġs ided
Ġs aving
Ġs ending
Ġs ift
Ġs ender
Ġs ensical
Ġs cel
Ġs ulf
Ġs ights
Ġs ighed
Ġs qm
on an
on ed
on ly
on se
on st
on ian
on ial
on ach
on ents
on ese
on tr
on ins
on ther
on this
on str
on na
on key
on their
on product
on your
on start
on nell
er vision
er ior
er oses
er iest
er ien
er thr
er lies
es o
es an
es of
es ul
es ign
es ix
es ired
es lig
es mang
es pair
at im
at ol
at ter
at ist
at ver
at ab
at our
at ia
at form
at les
at io
at ics
at ism
at tle
at ids
at ulate
at iven
at otal
at appbrain
at lanta
Ġw s
Ġw re
Ġw ow
Ġw ir
Ġw if
Ġw age
Ġw ard
Ġw ip
Ġw iss
Ġw aving
Ġw enn
Ġw atches
Ġw oo
Ġw ishing
Ġw ww
Ġw ander
Ġw itches
Ġw eren
Ġw isdom
Ġw ags
Ġw ishes
Ġw oher
is an
is us
is her
is pr
is cl
is ons
is que
is oss
is right
is wa
is hem
is cr
is pose
is noth
is rented
is zcz
Ġc od
Ġc ove
Ġc ure
Ġc ener
Ġc ens
Ġc ough
Ġc ask
Ġc ree
Ġc ym
Ġc ities
Ġc af
Ġc ister
Ġc asket
Ġc add
Ġc bc
Ġc asser
Ġc gi
Ġc unning
Ġc uad
re le
re ed
re ction
re ply
re ality
re make
re my
re bel
re main
re present
re perse
re public
re alized
re ceive
re buy
re onan
re esix
Ġf c
Ġf le
Ġf al
Ġf et
Ġf ence
Ġf ame
Ġf ab
Ġf av
Ġf oug
Ġf ost
Ġf aces
Ġf ailed
Ġf ails
Ġf itting
Ġf rey
Ġf ats
Ġf aced
Ġf ern
Ġf ades
Ġf aker
Ġf isc
Ġb ou
Ġb end
Ġb om
Ġb un
Ġb out
Ġb ast
Ġb ake
Ġb ip
Ġb ound
Ġb og
Ġb ree
Ġb ert
Ġb ases
Ġb ene
Ġb ones
Ġb ids
Ġb unch
Ġb ald
Ġb icy
Ġb ern
Ġb anco
Ġb anned
Ġb onds
Ġb ends
Ġb itters
Ġb ju
Ġb artender
Ġb fi
Ġb zw
an qu
an age
an ian
an ial
an ix
an int
an ah
an ba
an atomy
an iel
an asseh
an imated
an accom
an bring
an freet
an intern
of ff
of gr
of con
of ten
of abb
of aman
of mat
of him
of public
of truth
of natur
of rail
of sign
Ġp or
Ġp ed
Ġp ig
Ġp oc
Ġp ity
Ġp led
Ġp ud
Ġp ang
Ġp ab
Ġp ure
Ġp ond
Ġp ink
Ġp anc
Ġp ier
Ġp aving
Ġp ung
Ġp unch
Ġp aced
Ġp iven
Ġp orter
Ġp add
Ġp ino
Ġp ension
Ġp aws
Ġp ga
Ġp inch
Ġp ione
Ġp acht
Ġp umps
Ġp aternity
Ġp issing
Ġp inags
Ġp eso
it led
it ud
it ted
it ated
it one
it ure
it for
it ge
it ution
it ious
it ational
it ics
it err
it tering
it amin
it osis
it ados
it cannot
it dag
it hebee
it onach
or ow
or us
or se
or other
or ian
or ously
or bed
or ithm
or obus
or chestra
or cion
Ġan ou
Ġan em
Ġan ew
Ġan son
Ġan aphase
Ġan atol
ing le
ing ent
ing us
ing ly
ing tos
ing bp
ing una
ing countriesareselling
ou vel
ou red
ou can
ou lli
Ġm u
Ġm out
Ġm ol
Ġm um
Ġm ap
Ġm and
Ġm ud
Ġm age
Ġm ick
Ġm ia
Ġm ild
Ġm ere
Ġm oth
Ġm erg
Ġm ouse
Ġm ient
Ġm ired
Ġm ails
Ġm err
Ġm itc
Ġm itch
Ġm owing
Ġm ali
Ġm tv
Ġm anti
Ġm iffy
Ġm cn
Ġm uy
Ġm ounted
Ġm ordechai
Ġm sn
Ġm ingle
le in
le te
le ag
le led
le ast
le av
le cted
le ft
le ister
le tal
le vi
le ih
le fth
Ġd as
Ġd ot
Ġd and
Ġd ome
Ġd ub
Ġd over
Ġd ug
Ġd way
Ġd ors
Ġd ys
Ġd ual
Ġd ench
Ġd ances
Ġd izz
Ġd ais
Ġd uel
Ġd umps
Ġd ansk
Ġd ennis
te ent
te am
te ve
te ering
te ams
te lling
te hr
te fact
Ġin ce
Ġin ap
Ġin act
Ġin ver
Ġin land
Ġin und
Ġin fect
Ġin ability
Ġin clus
Ġin anna
Ġto ast
Ġto ying
Ġto xic
Ġto ads
Ġto lst
Ġto tally
Ġth x
Ġth ad
Ġth og
Ġth ai
Ġth reating
Ġth under
ar er
ar ation
ar ian
ar ge
ar ail
ar cer
ar ama
ar ians
ar iana
ar cher
ar ered
ar gitc
as at
as as
as ad
as ted
as ure
as ian
as ms
as aw
as now
as well
as they
as oline
as hell
as asp
as cends
as prof
as growth
as carecrow
as yon
Ġis ht
Ġis ps
Ġis aac
al un
al up
al ia
al ittle
al ert
al iation
al tern
al izing
al imentum
al fal
al gia
al leled
ent ive
ent ail
ent als
ent res
ent ails
ent uated
ent ino
ent ola
ent ertaining
Ġn t
Ġn w
Ġn y
Ġn at
Ġn ct
Ġn ir
Ġn ong
Ġn our
Ġn ord
Ġn ys
Ġn ull
Ġn fl
Ġn igg
Ġn iel
Ġn issan
Ġn iacin
Ġn caa
Ġn hl
Ġn lah
Ġn inguna
Ġn ouvel
ed al
ed ap
ed ge
ed ience
ed to
ed dy
ed that
ed ogging
ed volume
ed ingt
ed tomy
Ġof c
Ġof the
ic ion
ic ould
ic ies
ic ted
ic ile
ic ia
ic ited
ic ious
ic de
ic ients
ic cent
ic enter
ic inetim
xt h
xt ap
xt ra
end ar
end al
end ent
end ly
end ering
end less
end erse
Ġh ive
Ġh ac
Ġh ast
Ġh ose
Ġh ates
Ġh ood
Ġh ai
Ġh ailed
Ġh its
Ġh ails
Ġh yd
Ġh ats
Ġh ague
Ġh anna
Ġh aud
Ġh agues
Ġh ku
Ġh artlepool
Ġand er
Ġand eren
Ġand rze
Ġg m
Ġg ly
Ġg ad
Ġg est
Ġg ov
Ġg own
Ġg ian
Ġg ately
Ġg aining
Ġg em
Ġg na
Ġg orge
Ġg aming
Ġg asses
Ġg rip
Ġg ait
Ġg bp
Ġg nar
Ġg aol
Ġg onna
om ments
om ising
om ancy
Ġl g
Ġl end
Ġl us
Ġl id
Ġl am
Ġl ad
Ġl oun
Ġl over
Ġl ink
Ġl ote
Ġl ping
Ġl ob
Ġl yn
Ġl ined
Ġl yne
Ġl anced
Ġl iger
Ġl ester
Ġl aps
Ġl anes
Ġl osing
Ġl ump
Ġl enders
Ġl ilies
Ġl albhai
Ġl acros
Ġl mao
Ġl adders
Ġl hasa
ce ly
ce ased
ce llular
ll an
ll as
ll ten
ll iant
ow ess
ow se
ow prices
ow asthey
Ġe t
Ġe ve
Ġe ase
Ġe ars
Ġe ased
Ġe co
Ġe wa
Ġe erie
Ġe gy
Ġe femeridi
Ġe yrie
iv ative
iv ind
iv ering
iv ares
iv itamin
iv arama
Ġy a
Ġy ay
Ġy up
Ġy umm
Ġy ucky
Ġy bc
Ġy elled
qu el
qu ire
qu ier
qu ired
qu ois
wer den
wer ben
us ing
us et
us ade
us erst
us pect
us ingthe
us without
us status
Ġr op
Ġr ite
Ġr ated
Ġr ang
Ġr over
Ġr ere
Ġr ows
Ġr ah
Ġr ains
Ġr aw
Ġr ented
Ġr ival
Ġr ode
Ġr aced
Ġr ural
Ġr iot
Ġr iles
Ġr ude
Ġr ises
Ġr oses
Ġr olf
Ġr ays
Ġr ump
Ġr ims
Ġr ocking
Ġr udi
Ġr nas
Ġr anak
Ġr ivals
Ġr ih
Ġr olled
Ġr yder
Ġr inald
Ġr isque
ot os
ot ive
ot ine
ot ted
ot hel
Ġbe ans
Ġbe ver
Ġbe ard
Ġbe ating
Ġbe aring
Ġbe gg
Ġbe aker
Ġbe lly
Ġbe arded
Ġbe pi
Ġbe yond
Ġbe atles
Ġbe leag
id o
id os
id ad
id ate
id ess
id ia
id ates
id ize
id ual
id isc
id hu
id uous
id ifier
id iscover
id aniel
Ġwh os
Ġwh ales
Ġwh oles
Ġwh ilst
Ġre y
Ġre is
Ġre ly
Ġre ct
Ġre ch
Ġre ass
Ġre cept
Ġre ign
Ġre wr
Ġre be
Ġre yn
Ġre use
Ġre used
Ġre ining
Ġre organ
Ġre working
Ġre cla
Ġre buy
Ġre bound
Ġre eve
Ġre hears
Ġre inforce
Ġit h
Ġit ch
Ġit pre
ly nes
ly sis
ly important
ly aust
ly gl
ct ing
ct ic
ct ure
ct ivores
am y
am en
am as
am pt
am ple
am ina
am ics
am eters
am etop
am ateur
am bh
Ġqu i
Ġqu est
Ġqu aint
Ġqu eries
Ġqu attr
Ġanswer able
os h
os the
os ition
os how
os aka
os ophy
os uspect
Ġthat even
Ġ" #
Ġ" (
Ġ" *
Ġ" .
Ġ" ;-)
Ġ" :*"
et t
et ing
et ag
et st
et ter
et her
et ary
et ry
et ose
et itive
et ration
et wa
et hem
et tel
et guard
ay n
ay ing
ay ings
Ġquestion e
ence ofsign
ir y
ir it
ir ot
ir ds
ir ting
ir red
ir ling
ir ming
ir aq
ir med
ir anian
ir omancy
ir oshow
op o
op y
op ed
op ol
op the
op ped
op thalmic
im ation
im ul
im age
im ater
im ates
im ized
im ming
im mer
im oni
Ġon ions
Ġon ofri
Ġon yx
Ġon iszcz
Ġpr ol
Ġpr ides
Ġpr int
Ġpr osp
Ġpr inted
Ġpr ospect
Ġpr ospects
Ġpr ophase
Ġpr aise
Ġpr isons
Ġpr asat
Ġpr owess
Ġpr ivind
Ġpr osthe
ld t
ld ing
ld est
ld dine
Ġfor bes
Ġfor cing
Ġfor bid
Ġyou re
Ġyou ll
Ġyou find
Ġhe j
Ġhe al
Ġhe ars
Ġhe isen
Ġhe mis
Ġhe sit
Ġhe ineken
Ġhe sitate
Ġst a
Ġst v
Ġst if
Ġst um
Ġst il
Ġst up
Ġst ake
Ġst ance
Ġst air
Ġst aring
Ġst ations
Ġst amp
Ġst amm
Ġst aining
Ġst ained
Ġst ances
Ġst itch
Ġst umb
Ġst icking
Ġst irring
Ġst apleton
Ġst amina
Ġst irred
Ġst imul
ur d
ur en
ur ate
ur ry
ur ance
ur ama
ur gence
ur kbxt
ur ispr
un ent
un ate
un ge
un ited
un til
un happy
un identified
un ciation
un teering
ation voucher
ig o
ig t
ig il
ve z
od ivers
od iles
od ysse
od niy
ers ive
ers field
ers lik
ers ofthem
ers hey
ers idiscover
out rust
ad ion
ad ily
ad ful
ad ows
ad iction
ad ding
ad vant
ad ora
ad vert
ad without
ad ministration
Ġfo e
Ġfo g
Ġfo ol
Ġfo gg
Ġfo rec
Ġfo lly
ch air
ch amp
ch urch
ch ini
ch ris
ch icago
ch iev
ch andelier
ch opped
ate l
ate xtra
ate opthalmic
ke ted
Ġfr y
Ġfr at
Ġfr ag
Ġfr idge
Ġfr action
Ġfr iction
Ġfr ites
Ġfr aming
Ġfr agment
Ġfr ancis
Ġfr ozen
ut c
ut er
ut ter
ut ure
ut iny
ut rock
ut coffset
ut tling
Ġare atotal
if ted
if ace
if fer
if ne
if ting
ol ing
ol ar
ol af
ol ving
ol wand
ol erecipes
ol idate
ith andthe
Ġne o
Ġne mat
Ġne far
Ġcon cre
Ġcon tem
Ġcon jo
Ġcon jun
Ġwith its
Ġwith draw
Ġas hip
Ġas pect
Ġas certain
Ġas cends
Ġ1 39
um a
um an
um ing
um ble
um st
um nus
il ers
il ience
il xx
il iar
il ijk
est ly
est ay
est one
est ood
est amp
est ob
est ret
est imated
Ġv ind
Ġv oy
Ġv ree
Ġv ii
Ġv ai
Ġv ign
Ġv ale
Ġv ince
Ġv ane
Ġv ene
Ġv aug
Ġv ivid
Ġv iewer
Ġv ille
Ġv iel
Ġv igor
Ġv oucher
Ġv essels
Ġv inod
Ġv enderse
Ġv idhu
Ġv etter
Ġv igil
Ġor ph
Ġor nam
Ġor ogen
Ġor bit
Ġor chestra
Ġor iented
Ġor rery
ive before
Ġch ov
Ġch ill
Ġch ime
Ġch ases
Ġch ains
Ġch ills
Ġch ris
Ġch ili
Ġch urns
Ġch andelier
Ġch lore
Ġch rome
Ġch uzzle
ri ke
ri ever
ri oles
ri pon
ri zione
ap en
ap ot
ap ist
ap art
ap hern
ap sis
ap prov
ess es
ess and
ess hould
Ġwhat s
Ġwhat inter
Ġab c
Ġab st
Ġab orted
Ġab rup
Ġab dom
Ġab origin
Ġab del
Ġab erdeen
Ġab orbed
Ġwas h
Ġwas ted
Ġwas giv
llow ingus
ag a
ag ent
ag ious
ag reet
ag gy
ag reed
ov es
ov ing
ov ation
Ġj en
Ġj ay
Ġj th
Ġj ere
Ġj ailed
Ġj ets
Ġj em
Ġj unk
Ġj enny
Ġj otted
Ġj urispr
ac re
ac ies
ac ud
ac uation
ac ade
ac ious
ac ular
ac iers
ac quired
Ġdo ors
Ġdo zens
Ġsh y
Ġsh out
Ġsh ut
Ġsh ame
Ġsh ake
Ġsh ade
Ġsh ale
Ġsh aking
Ġsh ots
Ġsh ahe
Ġsh ifts
Ġsh rine
Ġsh imon
Ġsh outing
Ġsh aken
Ġsh iite
Ġsh atter
Ġsh ivarama
Ġsh immer
Ġsh ifting
Ġsh aggy
se p
se ver
se ason
se ven
se cond
se enthe
se enon
se attle
se lected
se edvolume
ant h
ant in
ant cor
ant ireflektierende
ant oine
ant hecountriesareselling
ant adora
st a
st d
st v
st one
st able
st aining
st acks
st ret
st itches
st reet
st urdy
st inky
st opping
st unning
st apleton
st heent
Ġfollow ers
Ġfollow up
Ġte ab
Ġte aches
Ġte bb
Ġte apot
oc cup
oc limb
oc odiles
Ġcan dle
Ġcan cel
Ġcan dies
Ġcan dles
Ġcan opy
ht tp
ter ance
ter rible
ter lies
Ġnot re
Ġnot ably
Ġat the
Ġat ok
Ġat oll
Ġat heism
Ġat least
her ents
her self
her ige
Ġse it
Ġse al
Ġse ite
Ġse ine
Ġse ated
Ġse ating
Ġse pt
Ġse per
Ġse als
Ġse af
Ġse ats
Ġse issan
Ġse greg
Ġse ashell
Ġk y
Ġk irst
Ġk ra
Ġk ied
Ġk ro
Ġk ann
Ġk urt
Ġk aran
Ġk urva
Ġk wiink
Ġk onst
Ġk lein
Ġpl c
Ġpl s
Ġpl us
Ġpl umm
Ġpl ush
Ġpl enty
Ġpl ural
Ġpl atform
Ġpl unge
Ġle ist
Ġle asing
Ġle ander
Ġle cture
Ġcom rades
pe i
pe ed
pe aking
pe jo
Ġ( '
Ġ( \$
Ġ( ,)
and o
and ly
and ish
and one
and anish
and yes
and itc
and with
and gu
and his
and roll
and israel
and install
and host
and many
and sex
and pray
and choir
and laid
and wond
oun e
oun ce
oun ger
oun cil
oun tered
ill ery
ill otine
ain leav
Ġwor n
ul ent
ul ic
ul ary
ul ian
ul ative
ul ous
ul ations
ul sion
ul inin
ase lcan
Ġde ject
Ġde be
Ġde af
Ġde acon
Ġde je
Ġde legation
Ġde hyd
the st
the app
the me
the phone
the war
the ned
the tract
the first
the corn
the low
the inform
the floor
the appearance
the barr
the hind
the jud
the alfal
the apart
Ġi ba
Ġi phone
Ġi bel
Ġi went
Ġwe ver
Ġwe ars
Ġwe lds
Ġwe ighed
Ġwe lding
Ġno on
Ġno tion
Ġno body
Ġme w
Ġme at
Ġme ets
Ġme ck
Ġme lden
Ġme igs
Ġme adow
Ġme eeee
Ġme adows
Ġby gone
Ġex pos
Ġex otic
Ġex chang
Ġex ertion
Ġ2 39
Ġ2 34
th an
th ia
th ath
th ra
th any
th ank
th atic
th rew
th inking
th irds
th atextra
Ġen able
Ġen velop
Ġen zy
Ġen ables
Ġen cu
Ġen rich
ight ing
ight ful
ight track
ight return
ore fres
ist ol
ist ening
ist rier
ist rations
Ġun tr
Ġun com
Ġun its
Ġun par
Ġun sol
Ġun ending
Ġun eth
Ġun cut
Ġun wa
Ġun cles
Ġun ser
Ġun aware
Ġun count
Ġun fam
Ġun fast
Ġun mat
Ġun comfort
Ġun fold
Ġun changing
Ġun happy
Ġun natural
Ġun contr
Ġun important
Ġun cover
Ġun kind
Ġun limited
Ġun rave
Ġun realized
Ġun idos
Ġun stable
Ġtr ace
Ġtr act
Ġtr ous
Ġtr uck
Ġtr acks
Ġtr na
Ġtr uism
Ġtr apping
Ġtr avers
Ġtr igon
Ġtr aits
Ġtr anqu
ich o
ort oper
ort tim
Ġal ast
Ġal ert
Ġal tr
Ġal ters
Ġal fa
Ġal erting
Ġal sothe
Ġal tog
Ġal levi
Ġal umnus
Ġal essand
ust ration
ust immung
Ġus a
Ġus age
Ġpos e
Ġpos ible
Ġpos ters
Ġli bert
Ġli pids
ome hidden
ome anthecountriesareselling
ave corn
ite are
up gr
up ply
up dat
ies asprof
ds on
ok ay
all ing
all our
all this
all there
all important
all ofthem
all theinform
Ġman age
Ġman ip
Ġman ner
Ġman cha
Ġman sion
Ġman gueira
Ġso ak
Ġso oth
Ġso othes
Ġso aring
Ġso othing
Ġso llten
led igt
el ists
el come
ud ence
Ġar ise
Ġar ying
Ġar der
Ġar by
Ġar ithm
Ġar bore
Ġar tefact
Ġar ctic
Ġsp ite
Ġsp ire
Ġsp ices
Ġsp ouse
Ġsp ra
Ġsp ying
Ġsp amm
Ġsp ont
Ġsp af
Ġsp ots
Ġsp lit
Ġsp oke
Ġsp oons
Ġsp arked
Ġsp anning
Ġsp heres
Ġsp asms
Ġsp acious
ong ed
ong ated
ine z
ine allofthem
ted by
Ġop p
Ġop el
Ġop ry
Ġop tic
Ġop tical
Ġop thalmic
ment ing
ment ally
ment hol
ment isrented
art en
art icle
art isan
ated esign
Ġtw in
Ġtw ist
Ġtw ink
Ġtw isted
ans hip
ast ers
ast ated
ast sp
ast rop
ast rak
Ġgo in
Ġgo op
Ġgo ld
aus ible
pl an
pl ing
pl ates
pl ane
pl ished
pl ants
pl ifies
pl ural
pl ifying
pl atedesign
pl ausible
own erslik
ak ov
ak ul
ak ali
Ġout er
Ġout ing
Ġout ward
Ġout look
Ġout stand
Ġout going
Ġout dated
Ġout raged
Ġout siders
ary school
ish ings
ub t
ub ate
ub floor
ang led
ang ley
one of
one zer
one iromancy
Ġwr af
Ġwr apped
Ġdes per
Ġdes ired
Ġdes ires
Ġdes erves
wh ilst
wh owasthey
iz a
ver b
ver tical
Ġgr es
Ġgr ain
Ġgr ind
Ġgr ime
Ġgr ower
Ġgr aph
Ġgr imes
Ġgr ounds
Ġgr ades
Ġgr oot
Ġgr oom
Ġgr apple
ab c
ab ove
ab we
ab ens
ab ited
ab ini
ab breviation
ab rated
ab andon
ab lerecipes
ab ulary
ry n
ry wipe
age ous
age lla
Ġcor te
Ġcor al
Ġcor rec
Ġcor rel
Ġcor mor
Ġcor vall
Ġcor rection
Ġsome what
Ġsome how
Ġsome hel
Ġad am
Ġad here
Ġad em
Ġad oles
Ġad rian
Ġad justed
Ġad herents
Ġpe w
Ġpe on
Ġpe ars
Ġpe pp
Ġpe ered
Ġpe aks
Ġbut idisc
our ing
our ce
our ces
our aged
our jo
our spam
our sac
our staining
ally oursac
av on
av ation
av ings
av ada
av alt
Ġcl ap
Ġcl air
Ġcl ient
Ġcl ash
Ġcl ones
Ġcl ots
Ġcl apped
Ġcl inch
Ġcl oned
Ġcl imates
Ġif yet
ard tim
ure ofhim
ĠĠ ĠĠĠĠĠ
Ġac ad
Ġac ted
Ġac oust
Ġac cla
rect or
pr int
pr ote
pr ogr
pr opriate
pr ivate
pr icing
pr ospects
pr angley
Ġall ies
Ġall ian
Ġall prices
Ġo e
Ġo le
Ġo ar
Ġfirst name
Ġfirst born
Ġfirst aired
Ġpre forming
Ġpre fers
Ġpre gn
rib ution
Ġwho osh
other apy
Ġtheir s
ip ation
ip ient
ip ped
ip inos
ip oli
ip pine
ip adwithout
ip ulative
ian oni
uc her
uc tions
uc cess
uc hen
uc asian
uc chini
Ġim pos
Ġim posed
Ġim agen
Ġim plied
Ġam ach
Ġam ph
Ġam az
Ġam ending
Ġam mon
Ġam ino
Ġam ara
Ġam ateur
Ġam ounted
Ġam orus
Ġam igo
Ġam plifies
Ġam abini
Ġrev amp
Ġrev ised
Ġrev olves
Ġrev enue
Ġrev olving
Ġfood s
ack out
ack age
Ġaf und
Ġaf fil
Ġdat ing
ial mente
ous ine
Ġplay a
Ġplay fully
Ġplay off
Ġplay time
ost opthe
Ġthere gion
Ġthere lations
Ġhow s
Ġhow ie
ind ed
ind ustry
ind mill
ind icate
ind epth
ind ependent
ind enmark
ind espair
ople ts
ass ic
ass ment
ass ination
ick et
Ġint end
Ġint ently
Ġint imate
Ġint ends
Ġint uitive
Ġcorrect ing
for ash
for ced
for fre
for having
for theme
Ġfe ces
Ġfe aring
Ġfe ather
Ġfe ats
Ġfe male
Ġfe lds
Ġcomp act
Ġcomp ounds
Ġcomp osed
Ġcomp onents
Ġcomp osition
og ical
og ists
og ues
ount ries
cl ing
cl ose
cl ock
cl owns
cl iff
cl ients
cl osing
cl oser
cl imbs
cl utter
Ġbr ide
Ġbr itt
Ġbr ings
Ġbr ons
Ġbr anc
Ġbr aving
Ġbr aced
Ġbr idges
Ġbr una
Ġbr gds
Ġbr owse
Ġbr imming
Ġbr istol
Ġgener ous
Ġkn it
Ġkn ot
Ġkn ots
ater al
Ġreview ed
Ġ19 39
Ġ19 14
Ġ19 36
Ġ19 30
Ġ19 47
Ġ19 28
Ġ19 31
Ġ19 238
are tem
are oft
are green
are character
are quoted
are lif
Ġcal ories
Ġcal endar
Ġnew est
Ġnew ark
day you
day sex
port ugal
we ar
we bs
we would
we eper
we offer
we bster
Ġspe ll
Ġspe lled
pt ian
pt ics
Ġ5 6
ber g
ber eit
over thephone
Ġtell tale
Ġher cules
Ġher mos
Ġher bivores
form ance
form ulate
form acon
form anasseh
Ġph n
Ġph ase
Ġph ospholipids
Ġph rasing
Ġwhen ever
Ġwhen thefloor
Ġap ology
Ġap plies
Ġap plied
oy ald
oy ourspam
king dom
ug rif
Ġrest ive
Ġrest ore
Ġrest rict
Ġrest oring
Ġeng ere
Ġeng aging
Ġeng ulf
Ġq m
Ġoff end
Ġoff ens
Ġoff ices
Ġoff ense
Ġoff set
Ġoff spr
Ġprov ider
Ġprov ena
Ġprov inc
Ġprov oke
ire plates
Ġcont ested
Ġcont ender
Ġcont ingent
Ġcont agious
Ġup be
Ġup gr
Ġup ping
Ġup load
Ġup bring
put ting
app ly
ild erness
Ġpar te
Ġpar ade
Ġpar vati
Ġpar ameters
Ġpar aphern
Ġhel ms
uct ing
uct ured
ge was
ge orgia
ge oning
ge bracht
ge bung
Ġcount ing
Ġro berto
Ġ3 80
Ġ3 35
Ġ3 42
Ġ3 16
Ġ3 69
Ġbl ess
Ġbl ame
Ġbl ast
Ġbl own
Ġbl ake
Ġbl ah
Ġbl oss
Ġbl ending
Ġbl ended
Ġbl uff
Ġbl unt
Ġbl inking
Ġbl ocking
Ġbl owjob
Ġbl essing
Ġbl urry
Ġbl andly
erson thehind
Ġcontext ual
fer ed
fer til
Ġcomm ens
Ġcomm ands
Ġcomm ented
Ġcomm uter
ail ants
hes ion
oth reesix
Ġver ified
Ġver tical
Ġver bra
Ġver leih
ach uset
Ġloc ate
Ġloc ker
Ġloc omotion
ne ver
ne eded
ne edingt
so b
so il
so aps
so icould
ens er
ens ing
Ġsc i
Ġsc an
Ġsc ouse
Ġsc oot
Ġsc attered
Ġsc anning
Ġsc oring
Ġsc opo
Ġsc uttling
Ġsc ouring
Ġbet ting
ult ural
Ġpart ies
Ġpart icle
Ġpart nership
Ġind ones
Ġind ustri
Ġind efinite
Ġind iffer
Ġres ided
Ġres em
Ġres ume
Ġres idence
Ġres erve
Ġres idual
Ġres urgence
Ġres uming
Ġres ilience
Ġtime piece
erm ine
erm inated
ks en
Ġfl ack
Ġfl aring
Ġfl ash
Ġfl aw
Ġfl ores
Ġfl aming
Ġfl ashing
Ġfl ipping
Ġfl irting
Ġfl agella
Ġfl ipped
Ġdr ank
Ġdr amatic
Ġdr astically
Ġdr inks
Ġdr ifted
Ġdr oplets
Ġget away
Ġjust ified
Ġjust ification
Ġjust icia
Ġcr op
Ġcr ap
Ġcr ater
Ġcr ates
Ġcr az
Ġcr aw
Ġcr ank
Ġcr imes
Ġcr amm
Ġcr uel
Ġcr ises
Ġcr oft
Ġcr afted
Ġcr oqu
Ġcr amps
Ġcr itics
Ġcr usade
Ġcr umble
Ġcr ocodiles
Ġcr avings
ings ign
ings represent
ings indenmark
ord inary
Ġstep ping
Ġstep ped
ty ard
Ġthem e
Ġthem es
ond ria
ond edtomy
ices andpray
Ġshe er
Ġshe ds
Ġshe ets
Ġshe lls
Ġshe weth
Ġser j
Ġser is
Ġser ial
Ġser ra
Ġser gio
Ġco in
Ġco al
Ġco il
Ġco ins
Ġco aster
Ġco ined
Ġco heir
Ġco hesive
Ġco oped
Ġco hesion
Ġbu u
Ġbu ll
Ġbu enos
lish ae
Ġperson ality
Ġmar i
Ġmar king
Ġmar ica
Ġmar athon
Ġmar mos
Ġmar git
Ġmar wijk
Ġmar keted
Ġname ly
Ġhere wewould
Ġdis gr
Ġdis cer
Ġdis aster
Ġdis rael
Ġdis solve
Ġdis jo
Ġdis appear
Ġdis pleas
Ġdis appearance
Ġdis guis
Ġdis approv
ited to
Ġhapp ier
Ġwater ing
Ġwater log
Ġafter thought
Ġafter aver
Ġafter noon
Ġafter thewar
Ġstr ay
Ġstr ive
Ġstr aining
Ġstr uck
Ġstr ained
Ġstr essed
Ġneed ing
Ġchar ism
Ġchar ged
Ġsee ps
Ġag ing
Ġag ric
Ġag encies
Ġag lacier
Ġag itated
Ġag asoline
Ġsm iled
Ġsm arter
Ġsm elled
Ġsm elling
Ġke en
Ġke yp
Ġke eper
Ġsol ves
Ġsol ved
Ġsol ving
Ġacc use
Ġacc used
Ġacc uses
Ġacc entuated
cho ogists
Ġye ll
Ġcar es
Ġcar ds
Ġcar ib
Ġcar ney
Ġcar ved
Ġcar men
Ġcar maker
Ġcar nivores
Ġcar rier
ident ify
ident ifier
.. ."
.. ...
.. .".
Ġev il
Ġev ident
Ġev oking
Ġev acuation
Ġcap e
Ġcap able
Ġart ific
Ġart works
Ġart esan
Ġart illery
Ġcity served
Ġbig noni
Ġent ry
Ġent ices
Ġent sp
Ġent hr
Ġent itled
Ġent angled
hing ton
Ġsa fer
Ġsim ulation
Ġsim mer
ood ed
per ing
per fect
per ennial
per formed
per forming
per ienced
per formance
Ġhad n
Ġequ ate
Ġequ als
ange ment
ange bracht
Ġper es
Ġper cap
Ġper ceive
Ġper haps
Ġper vez
Ġsentiment s
Ġspec ified
Ġspec ifies
Ġspec ially
Ġspec ulation
Ġfin ale
Ġfin na
Ġfin ancing
Ġfin ishes
Ġwork er
Ġwork force
Ġwork station
?" )
?" ;
?" ?
cre w
cre am
cre ase
cre tary
ai ian
ff ers
ff les
ff icients
Ġem it
Ġem iss
Ġem its
Ġem ails
Ġem itting
Ġem ulate
Ġem erick
yp ically
yp hones
cept ible
Ġrem it
Ġrem inding
Ġrem orse
Ġrem inded
Ġpro be
Ġpro lly
Ġair es
erg ence
erg enc
erg arten
Ġrec all
Ġrec ount
Ġrec ycle
Ġrec overs
Ġrec ycled
Ġrec ipient
old sville
ital ian
br es
br and
br ave
br own
br ae
br acing
br oad
Ġeat ers
Ġproc rast
Ġproc esul
Ġprem ium
Ġprem ises
Ġgre ys
Ġform ing
Ġform al
Ġform ular
step s
Ġtal es
Ġtal ents
hed esired
Ġdet ail
Ġdet ained
Ġdet ali
Ġbo om
Ġbo one
Ġbo ating
Ġbo ister
Ġbo hr
Ġbo asting
Ġbo osted
Ġbo iled
Ġbo asted
Ġbo ilers
Ġdif eren
ple atthe
ors ed
ors hip
Ġmus ter
Ġmus ume
ys ers
ys ical
ys ym
ys cr
ys hack
omer ror
Ġbel ts
ents from
Ġmean ings
Ġ20 7
Ġ20 20
Ġfact or
Ġfact ually
Ġjo an
Ġjo ins
Ġjo ined
Ġtrans formed
Ġtrans forming
Ġtrans actions
Ġtrans mit
ath otel
ath rine
Ġpres o
Ġpres ents
Ġpres ides
Ġpres erv
Ġpres erved
ons er
Ġcust ody
Ġshow case
Ġpunctuation s
Ġpo inted
Ġpo lynes
Ġpo irot
Ġthr ived
Ġthr ift
iss a
iss n
iss ance
Ġsk ates
Ġsk odborg
Ġsk yscr
Ġsup rem
fe bruary
Ġ4 2
Ġ4 47
Ġz z
Ġz ip
Ġz imb
Ġz esty
Ġz bndxw
Ġz ambian
Ġz etim
Ġz usammenarbeit
Ġz ooms
Ġz endal
Ġz olwand
Ġz ustimmung
Ġz ucchini
Ġz ugrif
Ġever age
Ġever green
Ġnear er
Ġatt ic
Ġatt ach
Ġatt itude
Ġatt raction
Ġatt itud
Ġproduct ive
air n
air craft
fore urope
Ġinter act
Ġinter pre
Ġinter ruption
Ġinter actions
Ġinter vals
Ġnum eral
Ġund erse
Ġund iscl
ale mi
Ġover man
Ġover bl
Ġover come
Ġover view
Ġover hear
Ġover thr
Ġover eating
Ġover night
Ġover consum
Ġover lap
Ġover heard
Ġover threw
Ġcre atur
Ġcre ativity
Ġcre vices
Ġmy self
Ġdown s
Ġdown to
Ġdown welling
Ġdown playing
Ġdown turns
urn away
ful soicould
les lie
Ġany way
Ġgu ys
Ġgu iding
Ġgu ettel
Ġgu illotine
ific antcor
Ġread ily
ep ly
ep hemeris
ep hraim
Ġshort ening
Ġfun dam
Ġfun ctions
ought heir
ought fortheme
get table
Ġsu itc
Ġsu ffers
Ġcol omb
Ġcol umns
Ġlist ens
Ġlist ings
ational orchestra
Ġcons omm
Ġcons ume
Ġcons olidate
Ġenerg etic
Ġcent ury
Ġcent uries
Ġcent rioles
Ġdi os
Ġdi agon
Ġdi enst
ict ive
ict able
ict ureofhim
Ġdog ging
Ġexpl aining
Ġexpl ode
Ġexpl odes
als ciences
als peaking
als omeanthecountriesareselling
als oyourspam
Ġsub str
Ġsub tle
Ġsub serv
Ġsub tly
Ġmak er
Ġcapital izing
Ġdifferent ly
ra ims
ra ulic
any more
Ġmon etary
Ġmon opol
Ġmon unent
Ġins ist
Ġins ides
Ġins ert
Ġins ists
Ġins ightful
Ġshop ah
Ġcam ping
Ġcam ped
Ġcam ryn
Ġrel ay
Ġrel ook
Ġrel ative
Ġrel ieved
ph y
ph ones
ph otos
ph ysical
ph raims
wr ought
wr itten
wr ightreturn
Ġpol ished
Ġpol itely
Ġpol ishing
Ġpol icies
Ġmet er
Ġmet re
Ġmet res
Ġmet ros
Ġmet ius
Ġmet aphor
Ġmet aphase
Ġmet zler
be es
be am
be ans
be ach
be more
be lls
be haved
be enmet
ert s
red tub
Ġsur char
Ġpass ports
Ġhouse work
Ġgl ow
Ġgl ad
Ġgl ide
Ġgl iding
Ġgl obe
Ġgl ittering
Ġgl oves
Ġgl aciers
Ġgl istening
Ġlar ks
Ġear mark
Ġear nings
Ġback ed
Ġback ward
Ġback yard
Ġback fired
Ġnow here
Ġsl a
Ġsl o
Ġsl ot
Ġsl ate
Ġsl ack
Ġsl oth
Ġsl ices
Ġsl icing
Ġsl umber
Ġsl aved
Ġsl ayings
Ġsl apen
Ġsing h
Ġsing ers
Ġmain land
Ġvers es
Ġvers ions
Ġsmall pox
Ġmin or
Ġmin nes
Ġmin aya
Ġmin imoni
Ġspaces hip
fin ance
ull sh
Ġcle ment
Ġcle ars
Ġtop speed
Ġtop soil
Ġevery where
not esof
not left
ual ty
Ġ8 6
Ġ8 8
Ġtri ps
Ġtri ump
Ġtri assic
Ġnam ing
Ġhold ers
Ġrock ed
Ġrock star
Ġsec uring
Ġsec ular
Ġsec urities
io xid
Ġu ae
Ġu hr
Ġu fo
Ġu itdag
Ġsit es
Ġfind et
Ġexper tly
Ġexper tise
ese en
Ġdon ate
Ġdon ated
Ġless ons
Ġass ess
Ġass ures
Ġass isted
Ġass ertion
Ġass yrian
Ġass assination
Ġass ailants
Ġass erts
az ione
anc estry
Ġel its
Ġel ae
Ġel imin
Ġel ias
Ġel ongated
Ġreg ain
Ġreg iment
Ġreg ards
Ġreg ulation
Ġreg arded
Ġreg istrations
ied schaft
Ġanim ation
oup androll
Ġspecial s
Ġed ge
Ġed na
Ġed onkey
int in
int ent
int ments
Ġwar k
Ġwar n
Ġwar ring
Ġval iant
ier en
ĊĊ Ċ
Ġbar ks
Ġbar ra
Ġbar rac
Ġbar cel
Ġbar rier
Ġbar nacles
Ġbar racks
Ġdec ent
Ġdec ree
Ġdec ade
Ġdec omm
Ġdec ays
Ġdec iduous
Ġdec aying
how ever
how atthe
how tom
Ġword ing
Ġword ed
ction al
Ġce ase
Ġce cum
Ġlast ing
Ġlast aired
Ġlast seenon
ations ource
ax onaugust
Ġwin es
Ġwin ners
Ġwin eries
Ġwal es
Ġwal ruses
Ġmod e
Ġmod o
Ġmod est
Ġmod ify
Ġmod els
ands on
ands know
ands oughtfortheme
Ġcomple tion
Ġcomple ments
Ġcomple tes
ef ly
ef its
ef cn
Ġob lig
Ġob viously
Ġob edience
Ġob amas
Ġset tle
Ġcur led
Ġcur ling
Ġcur ios
Ġbre wed
Ġinv aded
Ġinv igor
Ġinv itados
Ġinv entive
sel ft
ments ofthe
Ġimport s
ah ardtim
tr ain
tr ouble
tr avel
tr idens
tr igon
Ġele ctions
Ġext ending
Ġext ended
Ġext ends
Ġext erior
Ġext erminated
Ġchild care
can o
can vas
Ġend em
Ġend orsed
enc umber
enc ontr
enc ountries
Ġfinal flight
Ġgreat est
ball s
com ed
com ment
com pete
com rad
com bine
Ġ0 4
Ġ0 5
Ġ0 9
Ġhum ble
Ġhum idifier
erst othel
Ġeven ly
gr ass
gr andson
me ans
me mber
me igs
ins ide
ins tead
ins kodborg
ins urance
Ġwatch dog
Ġred one
Ġred ress
Ġred uction
Ġred iscover
Ġred dit
ash inheat
Ġpric ing
Ġwithout paper
Ġkid man
Ġkid ding
Ġdefin es
Ġdefin ing
cer ity
Ġtow el
Ġhome work
Ġhome lessness
Ġhard y
Ġhard in
Ġret ina
Ġret ains
Ġret ained
Ġret reat
Ġret aliation
Ġret riever
Ġappr ove
Ġappr oved
Ġfriends hip
Ġinstr ucting
aw n
aw arn
aw aited
man asseh
man ysym
ro achment
ro oom
ro organisms
ro ofrail
Ġpick s
Ġpick away
Ġdiv ides
Ġdiv ergence
Ġgame cube
Ġstar z
Ġstar ve
Ġstar ch
Ġ10 11
Ġ10 36
Ġ10 252
Ġunderst ood
Ġunderst ands
Ġconsider ation
Ġconsider ate
Ġconsider ably
Ġconsider azione
Ġ6 0
Ġ6 6
Ġ6 00
Ġ6 000
Ġ6 44
Ġour s
Ġour selves
Ġour dent
Ġwind tight
Ġstory book
Ġstory telling
Ġexam ining
ther more
ther oyal
ther estood
Ġmo tions
Ġmo lly
Ġrun ner
Ġdel ay
Ġdel ivers
Ġdel igh
Ġdel ivering
Ġdoesn t
Ġaccording ly
Ġbelong ings
Ġdin ed
Ġref use
Ġref riger
Ġref uer
Ġref fered
res ult
res cuel
res ources
Ġve hement
Ġve ldt
Ġterm ination
Ġlight er
Ġlight hear
ield ing
this page
Ġgroup ed
ib ly
ib ians
ib cm
hen ce
hen ated
hen de
Ġ18 8
Ġ18 00
Ġ18 15
Ġ18 78
Ġ18 74
Ġroom mate
Ġintern acion
hip between
ually awarn
Ġok ie
Ġok to
Ġlot tery
que country
Ġrequ ests
Ġrequ iring
amm es
amm onia
Ġappe als
Ġappe aling
Ġappe aled
Ġsubject s
Ġsubject ive
Ġcharacter ized
Ġcharacter istic
Ġcharacter izations
Ġ7 0
Ġ7 01
Ġ7 68
Ġ7 42
Ġsw ing
Ġsw amp
Ġsw oll
Ġsw eden
Ġsw apping
Ġsw oops
Ġsw irling
Ġcat tle
Ġcat ches
Ġcat cher
Ġcat alp
Ġcat acch
Ġcat alun
Ġcat astrop
Ġpop ulous
Ġeas terlies
str uction
ized by
Ġmark ieren
?? ?
Ġboy friend
Ġboy band
Ġliv eth
Ġexpress iveness
Ġcontr action
Ġcontr aband
Ġartist ic
Ġcour tyard
Ġfix es
ane an
ane ous
ane wand
ane conomic
arm ed
iding hish
15 6
em ail
em otions
em bracing
pick s
pick ing
Ġpat s
Ġpat ent
Ġpat ty
Ġpat io
Ġpat ton
Ġpat ios
Ġpat ron
Ġpat rolling
Ġgot ten
Ġgot ta
Ġbusiness woman
urs ion
urs hip
Ġboat loads
by ists
by greenland
by status
now ephraim
par ation
Ġident ically
Ġident ities
Ġident ification
Ġnor a
Ġnor mally
ung sz
Ġleg ging
Ġleg umes
Ġleg gings
Ġclass ical
Ġclass ifying
aut hentic
con ds
con struct
con cent
con tains
con cave
do ing
do alittle
Ġtre etop
Ġtre mors
Ġtre vor
Ġtre asure
Ġbri lliant
Ġmil wa
Ġrus h
Ġrus hing
Ġexc uses
Ġexc avation
Ġexc ursion
Ġ199 0
ever ytime
ob ic
ob il
ob ject
yl owprices
omm argitc
Ġstand off
olog ically
Ġorgan ise
Ġorgan izing
Ġorgan ising
Ġorgan isers
Ġorgan izations
Ġorigin ate
Ġorigin ating
Ġorigin als
Ġcontin uation
Ġcontin ents
Ġcontin uing
Ġcontin uous
Ġpubl isher
Ġinstruc ted
Ġinstruc ions
dy na
side andmany
uch stat
uch closer
Ġsign s
Ġsign aling
Ġsign aled
Ġdist ress
Ġdist ract
Ġdist racted
Ġhol mes
Ġeur os
Ġeur onext
Ġseason ed
Ġdisc ord
Ġdisc ription
Ġdisc rimination
Ġdisc ouraged
Ġearth y
ented approach
ism uchcloser
Ġfour s
Ġvis iting
Ġvis ually
Ġvis ible
Ġvis count
Ġvis ibility
Ġvar gas
Ġproduc tions
Ġphot on
Ġphot ons
Ġindic ated
Ġresp ite
Ġresp uest
Ġresp onser
please check
Ġaver t
Ġaver ages
Ġwood working
Ġwood workers
Ġcaus ation
Ġpot ty
Ġpot entially
Ġlow e
osp ace
Ġunivers ally
Ġyear ly
Ġyear ofcon
ck o
sh iny
sh akespeare
sh ares
sh uttle
sh ala
sh attering
sh opping
sh ape
Ġide ological
Ġfull ness
Ġconv ener
Ġconv oy
Ġconv iction
Ġconv ictions
Ġconv icted
Ġcurr ents
ten ham
Ġx ii
Ġx name
Ġx dd
Ġx hos
Ġx emotion
ont uren
ont ourjo
Ġpain ted
Ġpain ful
Ġpain ts
Ġpast ime
Ġinc hed
Ġinc umb
Ġinc arcer
Ġinc ubate
Ġlife buoys
Ġhead ing
Ġhead ed
Ġhead phones
Ġcomb at
Ġcomb ats
Ġcomb ination
Ġcomb atants
Ġapp s
Ġapp etizing
Ġdeterm ination
Ġdeterm ining
Ġeduc ate
name lyaust
name occup
Ġtv p
Ġav c
Ġav ut
Ġav iation
Ġav ersion
Ġav onturen
Ġbud get
Ġbud ding
Ġbud dies
ann is
Ġstop s
Ġkind a
Ġkind ness
Ġkind ergarten
Ġalbum s
Ġopen ings
Ġtransport asyon
Ġsuper char
Ġsuper bowl
Ġsuper ficial
Ġsuper vise
Ġbirth date
ren ault
Ġsoc io
Ġsoc rates
isf irm
Ġfree ze
Ġfree ware
Ġfree gamegames
Ġthought must
39 8
af raid
less than
Ġsal on
Ġsal ad
Ġsal tw
atisf ied
Ġwa ited
Ġwa ffles
Ġmat hexam
Ġtoday s
Ġ14 4
Ġ14 00
Ġtele ph
Ġtele communication
Ġ198 8
Ġlaw s
Ġlaw making
ae aselcan
bo ot
bo astsp
gener alized
gener alup
gener alspeaking
tw ins
Ġoc lcn
Ġrep ent
Ġrep urchase
Ġrep etitive
Ġrep ackage
und ance
Ġnecess ity
action met
Ġmem ories
Ġrob ot
Ġrob bins
Ġevent ual
Ġactiv ation
Ġactiv idad
Ġrussi andanish
ves ted
Ġcall s
Ġcall ow
Ġfire man
Ġfire arm
Ġgen res
Ġgover ning
Ġreal m
Ġreal y
Ġreal izes
Ġreal time
Ġ12 2
Ġ12 96
Ġaccur acy
Ġclean er
Ġclean ed
Ġclean up
Ġclean liness
Ġhuman ists
Ġsouth ampt
Ġrecommend ations
ik ini
ik nowephraim
sol o
yd isease
Ġfall en
Ġbed time
Ġbab e
Ġbab bage
Ġpower type
Ġmid town
Ġmag ical
Ġmag ma
Ġlog in
Ġlog ging
Ġrepe aling
Ġprof iciency
Ġvo id
Ġvo ted
Ġvo ip
Ġvol ts
Ġvol vo
Ġvol unteering
Ġvol cano
Ġjud i
Ġjud icial
Ġdeath ly
Ġdeath date
Ġarr iving
Ġarr ives
Ġarr esting
Ġarr angement
Ġoper as
Ġoper ator
which dr
Ġapprox imation
Ġgovern ance
Ġgovern orship
Ġur ination
Ġur ges
Ġur gh
Ġur ged
Ġur mare
Ġball ot
Ġant itr
Ġant ireflektierende
Ġant ioxid
Ġmed ium
Ġmed iev
Ġmed da
Ġmed iat
Ġmed iterr
Ġrich ness
Ġheart felt
Ġ15 0
Ġ15 21
Ġship dra
Ġship beam
Ġsepar ates
Ġsepar ately
Ġsepar atist
Ġleft over
ists arecharacter
Ġground bre
Ġground hog
Ġattrib uting
27 3
27 23
rist ic
Ġ9 27
Ġ9 85
Ġ9 87
Ġsand bar
Ġcult ivating
Ġcult urally
Ġfit ness
Ġfif ty
Ġport able
Ġport ree
Ġport obe
ouble pen
Ġden ial
Ġden ote
Ġden otes
Ġlo an
Ġlo aded
Ġlo eb
Ġlo hner
Ġdesign er
Ġdesign ing
Ġprev ention
Ġroad bl
__ _
Ġest a
Ġest as
Ġest os
Ġest ates
Ġest ados
Ġest udio
Ġste al
Ġste althy
Ġste ele
Ġste fan
Ġste vens
Ġste adily
Ġwest fal
Ġwest erlies
arr an
Ġhist ories
Ġprom ise
Ġprom ising
Ġprom ises
Ġprom ised
Ġprom oted
Ġprom pted
Ġprom inently
Ġcond om
Ġcond oms
Ġcond ucted
Ġconf use
Ġconf irmed
ster ling
Ġarm ies
Ġarm ored
Ġunder way
Ġunder estimated
Ġvisit or
Ġconvers ion
lo id
Ġfre ts
asing lyimportant
Ġhand ling
Ġhand ler
iving games
Ġtex an
Ġ27 8
Ġcomput ing
Ġgreen ism
Ġcomplex ity
struct ured
Ġcourse work
11 47
11 93
25 3
ps on
ps ett
inc ott
ones arered
Ġpet ra
Ġpet acch
ential s
ended wrightreturn
Ġrad ios
Ġrad iates
urch arge
Ġcommun ist
Ġcommun ication
Ġprote ction
Ġprote cted
Ġprote cts
velop ingcountriesareselling
Ġassoc iations
Ġassoc iazione
Ġbreak dancing
Ġauth ors
Ġer ode
Ġer la
Ġer werben
Ġer ledigt
Ġes cal
Ġes pejo
Ġep och
Ġep hemeris
Ġep icenter
Ġtrain ees
Ġwrong ly
Ġimp ure
Ġimp acted
Ġauthor ity
12 2
12 4
12 817
14 3
19 4
19 00
19 27
19 83
19 86
19 50
19 66
bre ad
bre tt
gest alt
Ġ: )
Ġtyp ograph
ined anintern
Ġsqu ished
Ġrom ulian
Ġbeg un
Ġbeg ich
Ġbeg uiling
Ġstat t
Ġstat ues
Ġstat istical
Ġstat uet
Ġtem pting
Ġdevelop s
Ġflo at
Ġflo ated
Ġflo ats
Ġsimilar gam
Ġsurf ed
Ġsurf aces
20 14
de ar
de al
de als
de bt
de cid
de lete
de ceased
de eply
de velopingcountriesareselling
iam o
iam en
vir a
vir us
vir uses
erc ise
Ġment aux
Ġisol ation
Ġisol ating
Ġge ological
Ġge ograph
Ġge ologists
Ġge kko
Ġge ysers
Ġge cko
Ġgod s
Ġgod less
ession als
there ares
there arelif
izz are
Ġ195 4
Ġ195 8
Ġpoint less
17 7
17 26
17 91
ex cus
ex pat
ex ercise
Ġtour nam
Ġsatisf ies
Ġbur st
Ġbur row
Ġbur bank
Ġbur geoning
Ġpan ic
Ġpan hand
Ġpan crease
Ġmess aging
Ġmult ivitamin
Ġmult iface
Ġdig estion
Ġdig ests
Ġdig ging
Ġdig esting
Ġprice y
Ġstars ky
Ġgramm ys
Ġox idation
Ġox idize
Ġphil osophy
Ġrecon cil
Ġrecon nect
Ġdescript or
ais perfect
off ice
off place
Ġmot ors
Ġmot ives
Ġmot ivating
Ġmot ivation
Ġmount ing
Ġdav on
teacher s
Ġthir teent
Ġnet zwer
Ġhor mones
Ġhor atio
Ġstay ed
Ġ13 0
Ġ13 4
Ġ13 25
Ġ13 60
Ġpopular ity
Ġmarket place
Ġrespon sib
Ġannoun ces
co lysis
co oling
ched outh
Ġ) ;
inn ovative
Ġwild life
Ġwild flow
Ġwild fires
Ġcuis ines
Ġling er
Ġlab eled
Ġlab yrin
Ġren ouveau
Ġren ovation
eth atthe
eth atour
Ġconc uss
Ġconc avecorn
Ġ17 0
Ġ17 63
Ġchem otherapy
Ġcolle cted
resp onse
resp ondedtomy
Ġdiscover ing
Ġsecret ly
bill y
Ġess ays
Ġess enz
Ġcou bert
Ġcou ples
Ġfar go
Ġfar oe
Ġfar gas
Ġfar entino
Ġfar thest
Ġbit es
Ġbit ch
Ġbit ter
Ġbit terly
Ġanal ogues
Ġmother s
Ġdut ies
Ġlength y
Ġ16 00
Ġchrist ians
Ġchrist opher
Ġcany outrust
Ġexce l
Ġexce ptions
Ġlocal ices
Ġlocal ized
Ġindepend ently
Ġindepend iente
Ġindivid us
Ġcapt ured
Ġcapt ivated
Ġpresent ing
Ġcamp bell
Ġbooks in
Ġclear er
Ġdelight ing
Ġyork on
18 80
18 68
18 86
cut ting
rup t
rup edal
with anti
with theroyal
Ġos wal
Ġfly s
Ġang uished
Ġtom lin
Ġnation ally
Ġeconom ies
Ġrain y
Ġrain er
Ġvide os
Ġseed less
Ġdef ence
Ġdef ine
Ġdef ending
Ġintr oduct
Ġintr anet
Ġblack out
Ġproject ing
Ġattack ers
Ġlargest city
Ġelabor ation
Ġelabor ated
Ġwalk ed
Ġwalk out
Ġelectric ally
Ġcontrol s
Ġpublic ly
Ġpublic ity
Ġtechn ological
200 1
200 3
200 8
200 9
200 71
bor ough
bor ussia
lic he
lic ates
mark itfor
ns teinhaus
tal iban
Ġut coffset
Ġut terance
Ġtur mo
Ġsof ter
Ġsch imb
Ġsch war
Ġsch rift
Ġsch olar
Ġsym ptoms
Ġsym pathe
erv ative
Ġcut icle
Ġcart oongames
Ġbag gage
Ġbase ment
Ġpal ace
Ġpal let
Ġmut ate
Ġmut ually
Ġdise mbar
tech nical
Ġiss n
Ġhands ome
Ġquick er
Ġsea led
Ġopin ii
Ġprep are
Ġsky rock
Ġmilit ant
Ġmilit ia
Ġmilit iamen
Ġfurther ing
Ġfurther more
Ġoxygen ated
Ġvibrant ly
26 4
38 0
book your
Ġing estion
Ġsle ek
Ġsar i
Ġsar is
Ġcertain ty
Ġfut urama
Ġstuff y
Ġstuff ing
Ġstuff ed
Ġconver ge
Ġchair s
Ġchair person
Ġju ices
Ġju xtap
Ġsex o
Ġsex ually
Ġsell off
Ġwel sh
Ġwel fare
Ġwel comed
Ġaltern ation
Ġaltern ativen
Ġcorresp ond
Ġcorresp onds
Ġcla udio
Ġtherefore pray
Ġcontain er
Ġcontain ers
Ġparaph rasing
Ġenter pri
Ġpoll ination
Ġze bra
Ġze itge
Ġimpact s
75 7
75 27
go ats
mon ths
Ġsil ent
Ġsil ence
Ġsil enced
Ġsound ing
Ġsound ly
rec hende
Ġinfl ate
Ġstri king
Ġstri ped
Ġstri kene
Ġfocus ing
Ġshar er
Ġshar pe
Ġselect ing
Ġworks pace
Ġmeas uring
Ġmechan ism
Ġens ures
Ġens ured
sib ling
sib lings
pro of
pro blems
pro zess
Ġ30 2
Ġ30 90
Ġ30 843
Ġverb atim
Ġstring ent
Ġsafe ly
Ġsafe keep
Ġbox ers
Ġswim s
76 8
che ese
could alsomeanthecountriesareselling
ros cope
rac hel
you check
you mays
you forhaving
you offplace
Ġten ure
hem atics
ising ly
Ġcop ying
Ġcoc oa
Ġple asing
Ġple aded
Ġple ads
Ġmass achuset
Ġdouble click
Ġhar ry
Ġhar ness
Ġhar vesting
Ġhar vested
Ġlay er
Ġlay ers
Ġreac ted
Ġrepl ay
Ġrepl enishing
Ġconven ers
Ġconven ient
Ġconven ience
Ġwaste ful
Ġdep ict
Ġdep ictions
Ġdep ths
Ġdep endent
Ġip ad
Ġip ods
Ġamazing ly
Ġaffect s
Ġaffect ing
Ġscre ens
Ġcoast lines
Ġglob ally
Ġwarm ly
capital ization
Ġexcited ly
Ġmotor cy
bol t
cr ater
cr anial
cr ashinheat
car a
car l
car lo
car go
car pet
car bon
ev olution
ev idence
from me
from after
from tos
from appearance
from thetract
from alltheinform
ior flow
my celium
my ofnatur
my problems
sp ending
sp read
sp awn
time ofpublic
xx anix
Ġtim ing
Ġtim id
Ġtim my
Ġtim eless
Ġtim olol
Ġtim estamp
Ġcir cus
Ġfest ive
Ġfest ivals
Ġbi ased
Ġbi ologists
Ġbi odivers
Ġbi ologically
Ġbes te
Ġbes uch
Ġbes tell
Ġbes uchen
Ġperm its
Ġperm eates
Ġperm ineral
Ġmr na
Ġmir in
Ġmatch winning
Ġgun fire
Ġgun fight
Ġeye balls
Ġreach ing
Ġfore most
Ġfrank lin
Ġconst ants
Ġconst ipation
Ġchurch ill
Ġabs ence
Ġabs urd
Ġcancer ous
Ġexpe l
Ġposition ing
Ġposition ed
Ġadm its
Ġadm ires
Ġadm iring
Ġadm inister
appo inted
Ġcommit ted
Ġcommit ment
Ġdriving games
Ġrelax ed
Ġrelax ation
Ġmaint ained
Ġinvest or
Ġveget arians
Ġloch y
Ġmanufact uring
23 7
64 1
bl er
bl owing
bl owjob
bl ackout
bl ooded
cu v
cu ted
dr ivebefore
dr ivinggames
med icinetim
por ary
pet ra
pet ersfield
set ting
Ġol ga
Ġol ivares
Ġtas ted
Ġaud ie
Ġaud ition
Ġaud itor
Ġaug mente
Ġsug ary
ators etst
rel iable
rel ieved
Ġbin aries
Ġbath rooom
Ġpur se
Ġpur ring
Ġpur ified
Ġpage ant
Ġpack ard
Ġpack aged
Ġdest ruction
Ġhal uan
Ġhal itosis
Ġhal aga
Ġhill y
Ġhab en
Ġgather s
Ġgather ings
Ġlas ted
Ġlas hing
Ġlas hed
Ġlas ervision
Ġreport ing
Ġvict or
Ġvict ims
Ġexe cuted
play er
Ġgrand e
Ġgrand father
Ġgrass y
Ġacr ony
Ġoh ne
Ġcompet es
Ġdraw n
Ġdraw s
Ġcoll ide
Ġcoll age
Ġcoll ided
Ġcoll ision
Ġcoll aps
Ġcoll agen
Ġcoll apses
Ġcoll abrated
Ġdisappo intments
Ġaccess ing
Ġaccess ed
Ġaccess ory
Ġaccess ible
Ġknowing ly
Ġcollect ive
Ġautom aker
Ġautom obil
Ġreported ly
Ġmagn etizing
Ġportray al
Ġportray als
Ġperiod ic
Ġsleep s
Ġzeal ous
Ġtouch ing
Ġmaterial ism
Ġbasketball s
mic roorganisms
mic roscope
was inv
was hington
Ġach ieved
Ġsn are
Ġsn acks
Ġsn ps
Ġsn icket
Ġsus ceptible
Ġsir s
Ġsir ens
Ġbul b
Ġbul ky
Ġbul let
Ġpup a
Ġpup pete
Ġpup pies
Ġpath way
Ġpath ogens
Ġmur ky
Ġmur phy
Ġnons ense
Ġrac quet
Ġrais in
Ġrais ins
ops youoffplace
Ġstom ache
Ġstad ion
add ison
change pol
uments have
Ġview s
Ġchief s
Ġimpr oper
Ġimpr oving
Ġimpr astrak
Ġimpress ion
Ġimpress ed
Ġphys icians
Ġrobert a
Ġrese archer
Ġevapor ate
Ġjoin ing
Ġjoin their
Ġskin ny
Ġattract s
Ġattract ant
Ġattract ively
Ġconsum es
Ġconsum ing
phone andinstall
Ġtreat ments
Ġdiscuss ed
Ġindicate color
Ġclaim ed
Ġinflu ential
Ġinflu encing
Ġinflu enz
37 01
80 3
90 7
but they
bel gian
col umns
col onial
col ourstaining
come back
pre pared
pre paration
rop od
Ġsick le
Ġcas tell
Ġcas cade
Ġcow ard
Ġcath rine
Ġfig uring
Ġpay ed
Ġpay ment
Ġpay loads
Ġded ication
Ġdom icile
Ġinf ancy
Ġinf rast
Ġinf ighting
Ġinj ure
Ġinit iated
Ġinit iating
Ġinit iative
Ġnarr ow
Ġhost ing
Ġgard ens
Ġlim estone
Ġlim ousine
Ġeyes ight
Ġprot on
Ġprot est
Ġprot ested
unt led
ades gold
Ġvan illa
Ġchann els
acc urate
Ġshap ing
Ġshap ed
Ġmel t
Ġmel ty
Ġmel ts
Ġmel odies
Ġmel issa
Ġmeal time
Ġexh aled
Ġenc antadora
Ġenc ountered
Ġenc roachment
Ġsoon er
Ġarg uing
Ġspend s
Ġcloud less
Ġclimb ed
Ġcompan ion
Ġcompan ions
Ġ194 4
new snight
new innovative
Ġsolid ifies
Ġsolid aritate
Ġaccident al
Ġrecover ed
Ġrecogn ize
Ġlaug hed
Ġassist ing
Ġassist ance
Ġelev ating
Ġeager ness
Ġhistor ically
Ġhistor ique
Ġcounter tops
Ġmulti use
Ġmulti year
Ġhorse back
Ġanaly zing
Ġanaly zed
Ġskateboard ing
Ġdifficult ies
24 6
kn it
kn ows
kn ives
mar vin
sc ared
sc otic
when i
when theapart
when youcheck
Ġill usion
Ġill ustri
Ġill ustration
Ġill ogical
Ġari ana
head ache
Ġson ora
Ġson ido
Ġsam pling
ero oms
Ġches ape
Ġban ks
Ġbas is
Ġbas ics
Ġbas idia
Ġpaper work
Ġmaster y
Ġmaster mind
Ġder ived
Ġder ivative
Ġinse curity
Ġinse ctivores
Ġinfer ence
Ġinfer red
Ġinfer no
Ġnon steroid
Ġhub ristic
Ġlouis iana
Ġlouis ville
Ġrid ers
Ġrid icul
Ġrid iculously
Ġrod ents
Ġrod ney
Ġrod dick
Ġquot ient
Ġprop ane
Ġprop oses
Ġprop orcion
Ġprop ulsion
Ġdoor bell
Ġdoor bells
Ġsem i
Ġsem imet
Ġsem inar
illy etag
Ġdem ands
Ġdecl are
Ġdecl ines
Ġdecl ined
Ġdecl ares
these advert
Ġgrad ed
Ġgrad ually
Ġapart ments
ension al
Ġcris p
Ġemerg es
Ġactive years
Ġboard er
Ġlaunch ing
Ġdiet ary
Ġsurpr isingly
Ġiran ian
Ġiran tehr
after ahardtim
Ġmagaz ines
Ġanticip ates
Ġexpand ed
Ġsymbol izing
Ġdoctor al
Ġhabit acion
hu i
hold ing
ios is
jo an
met reonan
met ersidiscover
mail fold
mail anaccom
nn urkbxt
ron omes
ued tothes
where as
Ġult ra
Ġ__ "
Ġovers ight
Ġovers een
Ġovers ees
Ġovers hadow
Ġtar o
Ġtight ness
Ġtall est
Ġcatch y
reat ment
Ġfuel s
Ġbol ivia
Ġbub ble
leg s
Ġtodd lers
Ġhur st
Ġhur ts
Ġhind rance
Ġlu i
Ġlu z
Ġlov in
Ġeight fold
Ġrat tle
Ġrat ones
Ġrat ification
Ġstor ing
Ġconstr ucted
Ġconstr uctions
umb ed
Ġjim my
Ġjoy ner
Ġjoy fully
Ġkill er
Ġexpect ing
Ġexpect ations
Ġsoy bean
Ġsoy beans
Ġsport ing
Ġdesk top
Ġimm inent
Ġimm ersive
Ġcalc ulations
Ġaddress es
Ġaddress ing
Ġroll icking
Ġcross over
Ġcross road
Ġcritic ism
Ġmarit intin
Ġdisp erse
Ġdisp ersed
Ġdisp enser
Ġstrugg led
Ġstrugg les
Ġemploy s
Ġskill ful
Ġ45 000
Ġsuffer ed
Ġsuffer ers
Ġcelebr ating
Ġmodel ing
trans port
Ġextra ordinary
Ġcontract s
Ġcontract ing
Ġlegal ities
Ġrespond ed
Ġelectrom otive
Ġprogress es
Ġoperating income
Ġwonder ed
Ġparticip ant
Ġparticip ating
Ġparticip ants
Ġmicros cope
Ġmicros cop
Ġbaseball s
build asnow
Ġmeasure ment
Ġexercise progr
Ġachieve ment
Ġstadium s
Ġumbre llas
Ġdanger ously
Ġdanger field
Ġenthusi asts
Ġenthusi astically
22 19
28 49
cast ing
cast fromalltheinform
mer rie
Ġom g
Ġom ar
Ġom itted
Ġwid ens
Ġber ry
Ġpus hed
Ġpurch ases
Ġpurch asing
Ġmos que
Ġmad ison
Ġmad ras
Ġmad rid
Ġmold able
Ġmold ova
Ġdan te
Ġdir ksen
ali bration
Ġnut rit
Ġnut zung
Ġnav y
Ġlif elines
Ġlap lay
rie ben
Ġabil ities
sem per
that youn
that thereares
Ġenh ance
Ġenh anced
Ġenh ancing
Ġspring field
Ġclou dy
Ġacqu iring
Ġcontact ing
Ġaddition s
Ġaddition tothe
Ġcharming ly
Ġcream y
Ġwinds hield
Ġ189 5
Ġ189 6
Ġ189 8
Ġ189 9
Ġfixed roofrail
Ġapprec iative
Ġconfirm ation
expl ain
Ġsoftware upgr
Ġbroad cas
Ġscreen play
walk ed
Ġcraig avon
transl ation
Ġelectromagn et
.' "
68 45
bar ney
back ed
des erves
fr ance
fr ench
fr ogs
fr ancis
fr omerror
fr ommargitc
fam ilies
hr s
lin dsaywaits
mart in
mart ina
oot alis
run ning
rad os
rate contr
rate onstart
Ġtick le
Ġtick et
Ġther apy
Ġther apist
Ġther avada
reg arding
reg arded
reg istrier
ret ired
Ġfair ford
Ġfert ile
Ġbid ders
Ġbone lli
Ġbib les
Ġbacter ial
Ġmart y
Ġmart ina
Ġmart inez
Ġmax imized
aran teed
Ġnic est
Ġnic ht
Ġnic ole
Ġnic ola
Ġnurs ed
Ġhy gi
Ġhy annis
Ġhyp hal
Ġhyp nosis
Ġhyp henated
Ġhah a
Ġhah nsteinhaus
Ġlin dsaywaits
lly wood
Ġrul ers
Ġrub ens
Ġfold ers
Ġneigh bors
Ġvac a
Ġchrom atic
Ġchrom atin
Ġchrom atids
Ġsequ ence
Ġdev ices
Ġdev astated
Ġweb ster
Ġali en
Ġali as
Ġliber ian
uper iorflow
Ġintest ines
Ġupset ting
Ġresident ial
Ġrespect ful
Ġpersonal ized
Ġdisplay ing
Ġemph yse
Ġthank ful
Ġpresc rizione
Ġunderg o
Ġguard ians
Ġmission aries
Ġsett led
Ġsett ler
Ġhumor ist
Ġhumor ous
Ġhumor ously
Ġstandard ise
Ġradical ism
199 6
199 7
Ġmoment um
Ġmoment ary
Ġaccompl ish
50 15
82 20
82 21
boy band
boy zone
ca ucasian
fire flies
gu idance
gu idinghish
his dut
hum an
hum orously
roy allthis
sing h
sing ular
var iant
vent wos
vol ky
vol kswagen
vol canoes
ww w
will tom
will beused
will receive
Ġ_ .
Ġign ited
Ġtan ks
Ġtan pop
Ġtam era
Ġtub ule
Ġtrib e
Ġtank ian
inse issanand
Ġsyn onym
Ġwound ing
Ġwound ed
Ġcy ber
Ġcy top
Ġcy cling
Ġfos tered
Ġbor ussia
Ġpou ch
Ġmal icious
Ġdies e
Ġdia led
Ġduck ie
Ġthous and
alled ontheir
Ġhans en
Ġharr igan
Ġgus hed
idden fromme
Ġqual ifying
Ġvirt ue
Ġchlor opl
Ġsect ors
Ġplot ting
people therearelif
their pat
their natural
their wine
Ġuns afe
Ġuns killed
Ġuns uccess
Ġuns atisfied
Ġtruth s
Ġposs ession
Ġposs essing
Ġposs esses
Ġclaus es
Ġclaus al
pres ident
pres ented
pres idency
pres enceofsign
prov en
prov ena
prov oking
prov idess
product area
product sinst
Ġprefer red
Ġintric acies
Ġbrother s
Ġscott ish
Ġscenar ios
Ġdrop ping
Ġdrum s
Ġcruc ible
Ġsummar ized
Ġcooper ating
Ġmarvel ing
Ġstrateg ic
Ġfinanc ier
Ġmyth ical
Ġfung i
Ġfunction ing
Ġfunction ed
Ġconserv atory
Ġconserv atism
Ġexplor er
Ġexplor ing
bell rack
Ġpassion ately
Ġslip ped
Ġ87 4
Ġanimated ly
mexic andish
Ġ105 2
Ġdistrib ute
Ġdistrib uted
Ġelectron ic
Ġxp se
Ġincident ally
Ġsuggestion s
Ġantibiot ic
Ġangel is
Ġmotorcycle games
pool s
Ġ____ ,
Ġ____ _
Ġ____ ___
Ġabsorb ing
Ġfertil ized
Ġfertil ziation
Ġneighbor ing
Ġemphas ize
Ġemphas ized
earth worm
16 7
16 71
45 2
45 267
56 1
aver eceived
both teams
cra ig
even idaniel
har ry
high quality
ken meigs
life buoys
pan elists
ris as
rich ard
she er
Ġter ry
Ġtag s
Ġaw indmill
Ġaar ambh
hew illyetag
inst itution
Ġsate lit
Ġsens ing
Ġsens ed
Ġsens ation
Ġsens ory
Ġcub ic
Ġbow les
Ġbum ping
Ġbomb ing
ofthe organisation
ofthe acade
ofthe presenceofsign
Ġpil ots
Ġpurs uits
Ġmer ge
Ġmer cer
Ġmis underst
Ġmis chiev
Ġmit gl
Ġmit och
Ġmor gen
Ġdre adful
Ġdyn amic
Ġdyn amics
tell ung
Ġthri lls
also beused
Ġns w
Ġnov ice
Ġhi king
Ġgh ana
Ġgag ging
Ġloud ly
Ġlabor ious
Ġlift off
Ġrip en
Ġreve als
iro quois
Ġpract ice
Ġpract ises
Ġpract iced
Ġfol io
Ġfol iage
Ġconnect ing
Ġassem bling
Ġassem bled
Ġjer ry
Ġjer icho
Ġshall ow
Ġtel ophase
Ġseam anship
Ġkh an
Ġkh abens
Ġdeb it
Ġdeb acles
Ġdear est
Ġdepart s
Ġdepart ing
Ġunw ind
Ġunw inding
Ġunw elcome
Ġtroph y
Ġadvert ised
Ġadvert isers
Ġclar ity
Ġclar ify
Ġclar ification
ĠĠĠĠ ĠĠ
ĠĠĠĠ ĠĠĠĠĠĠ
Ġaccept s
Ġpred ators
Ġpred ispose
Ġpred ictable
assoc iation
assoc iazione
Ġfellow ship
Ġbrows ing
Ġrestr uctured
Ġupd ated
Ġseek ers
Ġaccount s
Ġformat ting
Ġjoint ly
Ġshowc ases
Ġsubtract ing
Ġinspe cted
Ġbackup allimportant
Ġ85 00
Ġassign ments
Ġdecor ations
Ġrefle jo
Ġreflect s
Ġlegisl ator
Ġlegisl ators
Ġdistinct ive
Ġexpans ion
Ġexpans ively
Ġexpans iveness
Ġembarr ased
Ġembarr assment
Ġutil izzare
Ġconstit ution
Ġconstit utes
Ġconstit uents
Ġinvestig ation
Ġinvestig ative
Ġharmon y
Ġharmon ious
Ġharmon iously
Ġincorpor ation
Ġincorpor ate
Ġsusp icion
Ġconsequ ence
Ġdomin ance
Ġinitial s
Ġlux ury
Ġnavig ates
Ġdetect ive
mexican food
itzerland andthe
49 39
800 1
bi ak
bi ology
bi ography
bal anced
box ing
cas ualty
call ow
cons ervative
camp ing
camp usstatus
dan ishem
eed tos
fa ithandthe
hal uan
hal ldest
hard wood
jan uary
lit re
lit res
mr na
mat ter
mat thew
mom ent
male ateopthalmic
oh anako
oll able
show biz
serv ice
tar o
tar ois
win eriest
your business
Ġtun nel
Ġtong ues
Ġauf gebracht
het ically
inh ale
Ġsi xth
Ġsi quier
Ġsy rian
Ġsy bil
Ġsoph ia
onary arter
Ġwise ly
Ġcater ed
Ġflex ed
Ġbang kok
Ġbond ad
Ġpy rite
Ġanx ious
Ġmig rate
Ġmist ake
Ġmist reatment
Ġdam ages
Ġtomm orow
Ġniger ian
Ġhu h
Ġhu erto
Ġhu dson
Ġhon or
Ġhon esty
Ġhon estly
Ġhorn s
Ġhung arian
Ġgi ovana
Ġgall ipoli
omers includ
Ġlaur ence
Ġlakes ide
Ġliter ary
Ġliter ally
Ġec ofri
Ġrail ings
Ġrene wed
amazing ly
Ġfort ified
Ġfort une
Ġfort itude
Ġfort bild
Ġfort unate
Ġvoc s
Ġvoc als
Ġvoc abulary
Ġabund ance
Ġjos h
Ġjane iro
stay ing
stay athotel
Ġnotable work
Ġkaz aa
Ġcompr omising
Ġcompress ing
andon manasseh
Ġexist ing
Ġenlight ening
Ġtrail er
while thelow
Ġgroc eries
avilion dv
Ġprec ision
Ġamb ient
Ġamb itious
Ġapplic ations
Ġscr utiny
Ġpartner ed
Ġcrab s
Ġdisput ing
Ġstra it
Ġcapac itors
Ġinstall ing
Ġproce eded
Ġlaun ches
anye zi
Ġuseful ness
Ġedward ian
Ġbarb adian
Ġdecis ive
Ġobst acles
Ġextern en
Ġsweats uits
Ġvegan ism
Ġconvention al
Ġheadqu arter
Ġconfident ly
Ġreprod uce
Ġcartr idges
Ġjournal ists
Ġexhib ited
Ġsubstit utions
Ġfinger board
Ġfederal ist
desc ription
Ġseamless ly
Ġluxur iously
business dayyou
girl friend
Ġwitness ed
67 83
95 5
95 8
cor rected
dv d
down loads
down fromthetract
double click
double anal
elect rons
fare aswell
fold thecorn
kil ograms
las m
low volume
low rates
lad oni
loc ation
mod est
mod ern
mod esto
mod ationvoucher
mess ages
mess enger
mill imetres
mog zbndxw
nor th
nor way
pop corn
pace ismuchcloser
pack ed
pack ard
sim ple
sim pson
sub tract
spec ially
tv p
Ġure thra
Ġug anda
Ġtie teellinen
Ġtide pools
Ġtab by
Ġtab loid
Ġtack les
Ġtack ling
Ġaz ure
enst adion
Ġske leton
Ġske gone
Ġske letal
Ġske ptics
atthe timeofpublic
Ġwigg le
Ġcher ish
Ġcher ished
Ġcine matic
Ġcast le
Ġcaut ious
rev ersed
read more
Ġpull s
Ġmas cara
Ġmale ate
Ġmatur ing
Ġmah akali
Ġdim ple
Ġdim med
Ġdil ution
Ġdust y
Ġnu ances
Ġhom estret
Ġhom bres
Ġhang ings
Ġhaz im
Ġhaz el
Ġhaw k
Ġhaw ks
Ġhaw kins
Ġhaw aiian
Ġandrew s
Ġlic ensing
Ġyach t
Ġwhit bread
Ġreact or
Ġpron unciation
Ġpray er
Ġster ne
Ġster ling
Ġstack ing
christ mas
christ opher
Ġfrust rated
olve myproblems
Ġvow ed
Ġvow el
Ġvine gar
Ġvine yard
Ġchop ra
Ġchop ped
Ġchrys ler
essor ofmat
Ġjun ior
Ġjun ctions
Ġjac inda
Ġjac quel
Ġshot gun
stars ky
Ġseg ments
Ġkuwait i
Ġleap ing
Ġleak s
Ġleak y
Ġlemon y
Ġleban ese
Ġcompl ain
Ġcompl ained
peace fulsoicould
Ġdebr ah
Ġdepress ed
Ġbyproduct s
Ġtrist am
Ġtrust ing
Ġalg iers
Ġalg orithm
Ġalger ian
Ġliz ards
Ġmaniac ally
Ġspar king
Ġspar ring
Ġgrab by
Ġgrav itational
Ġcliff s
Ġcliff hanger
proc oftheacade
Ġcompar atively
Ġbrush stroke
Ġparas itic
Ġcoe fficients
Ġpert aining
Ġembr aced
Ġembr acing
Ġremov ing
Ġremov al
Ġremain der
Ġpoor ly
Ġlah at
Ġlazar us
Ġattend ees
Ġdownload s
Ġcolour s
beef recipes
Ġobser ves
Ġobser ved
Ġbreat hing
Ġbreath lessness
track ing
Ġapprov ing
Ġapprov al
roll icking
Ġrefres h
Ġrefres hed
Ġtermin us
Ġtermin als
Ġphotograph y
Ġannoy ing
Ġannoy ance
Ġadvance ment
Ġadvance ments
Ġadvantage ous
Ġmemor ized
Ġbehav ed
Ġbehav iors
Ġerup t
Ġerup tion
Ġerup ted
Ġerup tions
Ġtempor ales
Ġburg os
Ġconcent ration
eeee ee
Ġsymb iosis
Ġenterpr ise
Ġcirc ulates
Ġcirc umst
Ġcollabor ated
Ġsumer ian
Ġcowboy s
Ġcounterpart s
Ġstretch y
Ġstretch ing
Ġadvertise ment
Ġecosys tems
Ġkazem alemi
Ġstraight ened
Ġyugoslav ian
Ġyugoslav ia
Ġdemonstr ated
Ġdemonstr ating
Ġdemonstr ates
Ġdemonstr ations
Ġexpedition s
Ġsponsors hip
"" ?"
57 3
afl oating
ben efits
bir ds
di rector
fun ctional
fil m
fil ipinos
gi ovana
god has
hour ago
ih avereceived
jour nal
joe y
kat ofabb
kum gebung
liv orno
mo lly
mike prangley
path ogens
phen omenal
sw eden
sw apping
sw itzerlandandthe
uke e
vis ited
voc s
voc alist
vents userst
wed nesday
wid ening
Ġtig ers
Ġtail ored
Ġaer obus
Ġaer obic
Ġaer ospace
Ġace asta
Ġawa ited
hell spawn
inter ior
inter racial
infl uence
Ġsin cerity
Ġsac rific
Ġsust ained
Ġsynthesis ing
Ġsaint ly
Ġwars aw
Ġwitch craft
israel i
israel stret
Ġcer amic
Ġcock tails
Ġcull in
Ġfulf ill
Ġbm w
Ġbother ing
Ġbuc ks
Ġbass ist
Ġbunk rupt
Ġpun ishment
Ġpall s
Ġpitc airn
Ġpunk t
Ġpsy choogists
ori entedapproach
ingthe greenland
ingthe latest
ingred ients
Ġmul ch
Ġmort ar
Ġmamm oth
Ġmik si
Ġdd ition
Ġdur ability
Ġdup licate
Ġdup licates
Ġdwar f
Ġinh ale
Ġinh abitants
Ġinh abited
Ġtooth picks
Ġnost algia
Ġnurt uring
icht hecompany
Ġho ly
Ġho isted
Ġho llywood
Ġhust le
Ġgle aming
Ġgam bler
Ġgast ric
Ġgast ropod
Ġgast ronomes
Ġgigg ling
Ġgentle man
Ġluck inbill
Ġeld er
Ġrou te
Ġrent ing
Ġric an
Ġray burn
Ġrall ied
Ġrare ly
Ġrare earth
Ġrough ing
Ġrough ly
Ġrhinoc ero
Ġrhinoc eros
Ġrhinoc eroses
Ġreput able
Ġretr ouver
Ġque llo
eto ol
eto add
eto estab
Ġprison ers
Ġstan ley
Ġfris bees
olled withanti
Ġnegot iation
Ġcongr atulate
Ġconstruct ing
Ġviv us
Ġvot er
Ġvinc ula
Ġabb iamo
Ġabandon ed
Ġjp g
Ġjak ub
Ġdock ed
sell er
iev ethatour
start year
ocar paceae
term prospects
Ġkiss ing
Ġcompe lling
Ġcomment bys
Ġdele te
Ġdele tion
Ġdele ted
Ġdehydr ate
Ġexagger ate
Ġexagger ating
Ġexagger ations
Ġunve iled
Ġunne eded
Ġunemploy ed
Ġalign ing
Ġalign ed
Ġalign ment
Ġmane uvering
Ġspl ash
Ġspin ning
Ġspill ing
Ġspook y
angel a
Ġgren ades
Ġgran ja
Ġclut ter
Ġclip boards
Ġacknow ledge
Ġprepar ation
Ġimple menting
Ġfem ales
Ġbridge water
Ġspect ators
Ġspect acle
Ġspect acular
Ġapo apsis
Ġappar ently
irected tothed
Ġscar cely
Ġscot land
Ġscrew s
Ġreson ances
Ġresign ation
Ġdisfl uency
Ġstreng thened
Ġcaps ule
Ġcaption less
Ġsaf est
Ġproced urally
Ġgreet ing
Ġbob by
Ġchel tenham
Ġnumer ical
Ġcolon ies
Ġconsist ent
Ġdiagn osis
Ġdiplom atic
Ġsubsequ ently
Ġmont oya
Ġmetrop olis
before meas
Ġsurp assed
Ġsurr endering
Ġcleans ing
Ġregular ity
cessary youmays
Ġobt ained
Ġobserv able
Ġnumberof members
Ġextr anet
Ġende avors
comb atants
commun ist
Ġmoe ilijk
Ġrefug ees
Ġrefract s
Ġswed e
floor would
Ġcourage ous
contr adiction
Ġbande au
Ġvisual ization
Ġsalv ation
Ġsales person
Ġprogramm ing
solid arity
solid aritate
Ġantenn ae
Ġprevent ing
Ġsteep ed
Ġbatt ling
Ġconduct or
Ġconduct ing
Ġconduct ivity
Ġconfront s
Ġconfront ation
Ġcommunic ates
death matches
Ġmicro bes
Ġmicro organisms
Ġmicro cellular
exc iting
Ġhoriz on
Ġteachers here
Ġrainfor ests
Ġintrig ue
Ġbagp ipe
xxx dand
Ġtimber wolves
Ġbesch rieben
Ġflatten ed
Ġlaserd isc
Ġsnugg le
Ġsnugg led
Ġsnugg ling
Ġsickness es
Ġinfam y
Ġlimit less
Ġimmig ration
Ġdaniel le
Ġjean ne
Ġvacuum ing
Ġtanzan ia
Ġattempt s
install ation
install ingthelatest
Ġlymph atic
Ġambul ance
Ġgreenlandic musicians
kilomet reperse
information about
Ġpronoun s
square metreonan
Ġtibet an
Ġdahl ias
Ġrejuven ated
Ġstereot ypically
Ġimpecc ably
Ġcarbohydr ates
Ġsubsidiar itate
Ġelectroly tic
139 1
426 000
69 9
700 000
886 1
ait kenmeigs
aust in
bed irectedtothed
cm dumb
cum shot
cust omer
cust omersinclud
cond aryschool
casser ole
casser olerecipes
dar ius
dar nell
dist ance
dist ribution
dup licate
ele cted
eur os
eur onext
fo llowingus
fall s
free gamegames
germ an
germ any
iy ibcm
ipl ineallofthem
jp g
jun ke
len ess
len burg
lost indespair
lik etose
mis ery
mig ration
mig rants
mad jid
meet ing
meet ingsindenmark
many developingcountriesareselling
makes uchstat
nar odniy
nosis overthephone
oz one
pri est
pounds sterling
perse condaryschool
rif icesandpray
sk lar
sk ullsh
scre en
scre aming
tam era
vo ip
Ġted dy
Ġtend on
Ġtid y
Ġtid ying
Ġtant rum
Ġtant alizing
heart ratecontr
incre ases
incre asinglyimportant
inner withtheroyal
enos aune
att ention
att ached
Ġwen hui
Ġfurn iture
Ġfurn ishings
Ġboun cy
Ġboun cing
Ġbail ing
Ġbund le
Ġbund eslig
offer ing
Ġpaus es
Ġpaus ing
Ġpound ing
Ġpaw n
Ġanc estry
ingt orefres
Ġmesmer ized
Ġmesmer izing
Ġdent ist
Ġdent ists
Ġdos age
Ġdumb bell
Ġinqu ire
Ġinqu iry
Ġincl ined
Ġincl ining
Ġinex pensive
Ġinex perienced
Ġinhal ation
Ġinhal ant
Ġthorax es
Ġislam ist
alc ouncil
alc alibration
alp ena
enthe technical
Ġna ive
Ġnash ville
educ ation
educ ational
Ġhan oi
Ġhan uman
Ġhob by
Ġhob bled
Ġhund red
Ġhund reds
Ġgate ley
Ġlav al
Ġlav ish
Ġein er
Ġetern a
Ġetern al
Ġehs so
Ġehs sod
quoted onthis
usb drivebefore
Ġrum ors
Ġrum ored
Ġrand om
Ġrust en
Ġrio ted
Ġrena ult
Ġrena issance
Ġwhis ky
Ġwhis pering
Ġreaff irm
Ġreaff irming
Ġquad ril
Ġquad rupedal
Ġquant ity
Ġquant ities
Ġquarter backs
irin orother
irrit ated
irrit ants
open appbrain
imination oftruth
Ġprais es
Ġprais ed
Ġheed less
urope anfreet
uny ielding
uny aisperfect
veget able
veget ablerecipes
Ġfox borough
Ġfrost ing
olol maleateopthalmic
Ġneut rons
Ġneut rino
Ġconnot ation
Ġconnot ations
Ġasp iring
Ġasp irin
estab lished
Ġvor herige
Ġvor bereit
Ġvent ures
Ġvent ured
Ġchap el
Ġchap man
accom plished
acros stheent
search forfre
station ofgr
Ġsel f
Ġsel fish
Ġsev enty
Ġsev encountries
Ġkar ol
Ġkar akul
Ġkah it
Ġkah ney
Ġkrist en
Ġkrist ol
Ġleon ard
andem ergenc
Ġexcess ive
Ġexem ption
Ġexem plifying
Ġenric o
Ġenric hed
Ġenchant ing
Ġenchant ment
Ġencomp assed
Ġencomp asses
istical sur
Ġunfor gettable
Ġunfor eseen
Ġtrave led
Ġtrave ling
Ġtroubles hoot
Ġposted bym
Ġlipp ershey
Ġlipp incott
Ġspr out
Ġspr int
Ġoutf it
Ġoutf its
Ġoutbre ak
Ġoutbre aks
Ġgrace ful
Ġgrace fully
aband eaub
Ġadop tion
Ġadop ted
Ġwilling ness
prof essionals
Ġimag ination
Ġimag ining
Ġamic us
Ġamic able
Ġrevolution ize
Ġintim idation
Ġintim idates
Ġintens ify
Ġintens ifying
Ġbrag ged
Ġbrag gart
Ġcali ber
Ġcali bration
ptoms areoft
Ġ58 4
format operation
Ġproduk t
Ġproduk te
Ġapolog ize
Ġapolog izes
Ġups ets
Ġ3308539 10
Ġ3308539 13
Ġblaz e
Ġblaz ers
Ġverte bra
Ġverte brae
Ġdrunk en
Ġcruis ing
Ġcruis ed
Ġshel ter
Ġshel ves
Ġcob ble
Ġcob ain
Ġmarin as
Ġmarry ing
Ġdisse cting
Ġdisrup t
Ġdisrup ted
Ġseeming ly
Ġperil ous
cred ited
cred entials
Ġboost ing
Ġchest iune
Ġski ing
Ġskid ding
Ġskid ded
Ġ475 426000
aphor willbeused
Ġinterrup tions
Ġinterrup ting
Ġoverwhel ming
Ġoverwhel med
ictures quecountry
Ġinspect ors
phil adelphia
phil ippine
Ġfounding date
Ġminist ers
Ġminist ries
Ġ82 21
Ġedit ore
Ġdecom pose
Ġdecom issioned
truth s
grand ma
grand child
meas ures
Ġincred ible
Ġincred ibly
Ġreduc es
Ġreduc ing
Ġirrit ated
Ġirrit ants
Ġswap ed
Ġswift ly
pickaway n
cont act
cont entsfrom
capt ures
capt ivating
linguist ic
linguist ically
Ġdisturb ing
Ġrespir atory
Ġrespir aration
years ago
Ġappo inted
Ġappo intment
Ġbuddh ist
Ġbuddh ism
underst and
Ġbabyl onia
Ġbabyl onian
Ġvolt age
Ġurg ent
Ġurg ency
Ġcondem n
Ġcondem ned
steroid drugs
Ġbeliev ers
Ġbeliev eth
Ġpetition ed
Ġescap ing
Ġescap ed
1285 27
1285 20
Ġtemp est
Ġtemp ature
Ġgeomet ry
Ġgeomet ric
Ġalexand re
Ġalexand ra
Ġprimord ial
Ġprimord ia
!!!! !"
Ġsucc ulent
Ġsucc umbed
Ġangina isus
Ġembody ing
Ġutens il
Ġutens ils
Ġpreceded by
Ġmaternity paternity
296 1
driver updat
driver downloads
drugs such
Ġdisappointing ly
adders andemergenc
Ġadventur er
Ġadventur ous
legation wasinv
Ġalkaline earth
music ian
Ġcaution ed
guard ians
Ġpoul iot
Ġpoul try
highvolume ondayswithprice
highvolume columns
hewlett packard
Ġghost bust
consum ers
maindish recipes
Ġtunis ia
Ġtsunam i
Ġtsunam is
Ġscrub bing
Ġscrub fowl
motorcycle games
Ġcompliment s
Ġrefreshing ly
draw ing
inflammatory drugssuch
Ġacknowled gment
Ġacknowled ged
ondayswithprice falls
Ġbereits chaft
Ġbereits tellung
ithelpedme bemore
ithelpedme comeback
Ġdoubt less
Ġvulner ability
Ġvulner abilities
Ġentreprene ur
Ġentreprene urship
Ġrecruit ment
Ġenergiakademiet dk
Ġdiarrhe a
Ġdiarrhe al
beautiful vine
Ġrussisk dansk
136 0
318 7
3308539 15
432 9
476 9
4308539 10
58 99
59 75
553 3
612 9
604 5
729 5
939 1
930 9
bm w
bas ically
bri efly
bab e
bib imbap
bless ed
cq z
cou pleatthe
coc um
cine ma
cart oongames
cub iccent
cook ing
categ ory
cro atia
cob ble
cyn thia
chel sea
cogn itive
cancer ous
catal unyaisperfect
dis agree
div ided
det ermine
dim ensional
doc umentshave
def ending
dem onstr
discover y
dependent onins
eop el
eats oupandroll
fur thermore
fest ival
fac ility
foot ball
fitz billies
gig isoss
gag ging
gives yourbusiness
gmt or
gzbndxw nny
had seenthe
hist orian
home work
hug h
hyp nosisoverthephone
hund reds
hotel whenyoucheck
hoe gh
hpp aviliondv
jer usalem
jay stacks
jose ph
jaded hellspawn
kim ithebee
kors akov
lion el
last nameoccup
lone ly
laug h
laught er
min ute
mid town
mag ic
mov ie
mont oya
mik si
missi le
mcc arran
nin th
non steroiddrugs
num eric
noc omments
nok ia
nove l
nour ished
nav y
note book
nijn tjes
nissanand ford
ochoose fromtos
pur pose
pup pies
rul er
ruct ure
rade association
rhinoc eros
sir s
sil ver
sand stone
sav vy
sound ing
somet hing
sym bol
sats uma
sde vice
small er
tun nel
tender documentshave
uild ascarecrow
val idity
vention alcalibration
virt ual
wel fareaswell
wills upply
yor k
yod el
ybad crashinheat
zact b
zene gger
zuel an
Ġie pei
Ġost rich
Ġtent ative
Ġtum ors
Ġtil ted
Ġtah oe
Ġtugg ing
Ġtpp ic
Ġtij dens
Ġait ken
Ġaest hetically
Ġairst rike
Ġaime e
Ġawar eness
Ġaho j
heav en
heway afloating
hearr ted
inthe notesof
inwh ichthecompany
invest ors
inthew ilderness
Ġtheoper atorsetst
Ġtheae orobus
Ġthefirst born
Ġthedanish presidency
Ġsom ali
Ġsov iet
Ġsain ts
Ġsok rates
Ġsne ezing
Ġscel to
Ġsulf ur
only highquality
onese ventwos
onther ighttrack
onproduct quality
onyour phoneandinstall
erthr oughtheir
esmang ueira
atver ylowprices
atab erdeen
Ġwre ck
Ġwir d
Ġwif i
Ġwip ing
Ġwiss en
isright hand
iscr iminationoftruth
isnoth iddenfromme
Ġcod ing
Ġcove ted
Ġcener entola
Ġcens us
Ġcough ing
Ġcree ks
Ġcym bals
Ġcaf es
Ġcister nae
Ġcadd yshack
Ġcasser ole
Ġcuad rados
rele ased
reality fromappearance
republic ans
Ġfle etguard
Ġfal se
Ġfet ch
Ġfab rics
Ġfav oured
Ġfoug her
Ġfost ers
Ġfern ando
Ġfaker lddine
Ġfisc al
Ġbou quet
Ġbom ber
Ġbun nies
Ġbast ianoni
Ġbip artisan
Ġbound ary
Ġbog us
Ġbree ze
Ġbene ath
Ġbicy clists
Ġbern oulli
Ġbitters weet
Ġbju hr
anint imater
anah s
anbring allyoursac
offf uture
Ġpor tion
Ġped ro
Ġpoc o
Ġpled gism
Ġpud o
Ġpab lo
Ġpure ed
Ġpanc akes
Ġpier re
Ġpung ent
Ġpunch ing
Ġpadd les
Ġpione er
Ġpinags ama
itone phraims
itonach air
Ġanou k
Ġanem ia
Ġanatol ia
ingtos olvemyproblems
oucan imagine
Ġmout hing
Ġmol ten
Ġmand asaw
Ġmage llan
Ġmere ly
Ġmoth s
Ġmerg ing
Ġmient ras
Ġmails weeper
Ġmerr itt
Ġmitc hell
Ġmali it
Ġmanti ene
Ġmcn ue
lefth andonmanasseh
Ġdand ini
Ġdub ai
Ġdway ne
Ġdors al
Ġdys on
Ġdizz y
Ġdais ies
teve onaugust
Ġince ption
Ġinap propriate
Ġinact ivated
Ġinver ted
Ġinund ated
Ġinfect s
Ġinclus ivity
Ġtolst oy
Ġthog ht
Ġthunder dome
arail t
asas urcharge
asad rywipe
asasp irinorother
Ġisht ar
altern ation
entail ment
Ġnir vana
Ġnong enetic
Ġnour ishing
Ġnord ic
Ġnull ify
Ġnigg a
Ġniel s
Ġnlah gzbndxwnny
Ġnouvel le
edap ictureofhim
edto hisdut
edthat thejud
icde legationwasinv
endless misery
Ġhac er
Ġhast ening
Ġhose a
Ġhyd raulic
Ġhaud enosaune
Ġandrze j
Ġgly colysis
Ġgest ures
Ġgian carlo
Ġgnar led
Ġlus ter
Ġlam ang
Ġlad oni
Ġloun ge
Ġlob byists
Ġlyn n
Ġlacros se
Ġegy ptian
Ġybc m
quire mentsofthe
usingthe hp
uswithout guidance
Ġrop es
Ġrang es
Ġrere ad
Ġrah men
Ġriot ing
Ġrump us
Ġrims ky
Ġranak ah
Ġrih anna
Ġrinald i
Ġbever age
Ġbegg ed
Ġbeleag uered
Ġwholes ome
Ġrely ing
Ġrect ified
Ġrech t
Ġreass ure
Ġrecept or
Ġreign ing
Ġrewr iting
Ġrebe kah
Ġreyn oldsville
Ġreorgan ized
Ġrecla imed
Ġrehears ed
Ġitch y
Ġitpre ventsuserst
lygl uedtothes
ample theirwine
ametop ass
Ġquattr one
osuspect thatthereares
Ġthateven ingthegreenland
Ġ";-) ".
etry ingtorefres
ethem inthewilderness
iraq i
iroshow edapictureofhim
Ġonofri o
Ġoniszcz uk
Ġprol onged
Ġprint making
Ġprosp irit
Ġprosthe tic
Ġyoufind theapp
Ġheisen berg
Ġhemis pheres
Ġhesit ant
Ġstif ling
Ġstum bled
Ġstil ts
Ġstup id
Ġstair s
Ġstamm en
Ġstumb ling
Ġstimul ant
united kingdom
odysse us
ersofthem ountain
advant ageous
Ġfool ish
Ġfogg y
Ġforec asters
champ ions
Ġfrag mented
ifne cessaryyoumays
Ġnemat odes
Ġnefar ious
Ġconcre te
Ġcontem porary
Ġconjo ints
Ġconjun ction
Ġwithits newinnovative
Ġwithdraw als
ilxx ye
estob uildascarecrow
Ġvind ictive
Ġvoy age
Ġvree md
Ġvign a
Ġvale a
Ġvene zuelan
Ġvaug hn
Ġviewer s
Ġviel gestalt
Ġvigor ous
Ġvigil ant
Ġorph anage
Ġornam ented
Ġorogen y
Ġchov atel
Ġchlore lla
Ġchuzzle wit
esshould makesuchstat
Ġwhatinter actionmet
Ġabst immung
Ġabrup tly
Ġabdom ens
Ġaborigin es
Ġabdel madjid
Ġwasgiv enthetechnical
agreet ostopthe
Ġjere my
Ġjem aine
Ġjurispr udence
acud aeaselcan
Ġshahe en
sever e
season s
seedvolume per
Ġteab ags
Ġtebb oune
oclimb downfromthetract
Ġatthe moment
Ġatok a
Ġseper ated
Ġseaf arer
Ġsegreg ated
Ġkirst y
Ġkra utrock
Ġkied is
Ġkann ada
Ġkwiink anyezi
Ġkonst antin
Ġplumm et
Ġleist en
andone inwhichthecompany
andyes halldest
anditc ametopass
andwith thefirst
andgu aranteed
andhis lefthandonmanasseh
andisrael isnothiddenfromme
andhost broad
andchoir bygreenland
andlaid itonephraims
andwond erthroughtheir
ainleav etheminthewilderness
Ġdeje cted
Ġdehyd ration
theappearance ofaman
thebarr acudaeaselcan
thealfal avalt
Ġibel ievethatour
Ġiwent dependentonins
Ġmeck lenburg
Ġmeeeee eeeeee
Ġexpos ure
Ġexchang ed
Ġ239 00
thath iroshowedapictureofhim
thany oucanimagine
thank youforhaving
thatic anbringallyoursac
thinking thathiroshowedapictureofhim
thatextra edge
Ġenzy me
Ġencu entres
Ġenrich ing
Ġuntr usted
Ġuncom mon
Ġunpar alleled
Ġunsol icited
Ġuneth ical
Ġunwa vering
Ġunser en
Ġuncount able
Ġunfam iliar
Ġunfast en
Ġunmat ched
Ġuncomfort able
Ġunfold s
Ġuncontr ollable
Ġuncover ing
Ġunrave ling
Ġtract or
Ġtrous ers
Ġtravers ing
Ġtranqu ility
ortoper formacon
orttim estay
Ġalast air
Ġaltr uism
Ġalsothe peopletherearelif
Ġaltog ether
Ġallevi ating
Ġalessand ro
Ġlibert ies
omehidden productsinst
iteare accurate
iesasprof essorofmat
allour clients
allthere quirementsofthe
Ġmanip ulated
Ġarder n
Ġarithm etic
Ġarbore al
Ġspire lli
Ġspra wling
Ġspamm ers
Ġspont aneous
Ġspaf ford
mentisrented forash
Ġtwink le
ownerslik etoadd
Ġoutstand ing
onezer othreesix
Ġdesper ate
whowasthey ounger
Ġgraph ical
abwe an
abandon ed
Ġcorrec tions
Ġcorrel ation
Ġcormor ant
Ġcorvall is
Ġsomehel p
Ġadoles cence
Ġpears on
Ġpepp ers
Ġbutidisc iplineallofthem
Ġclinch ing
Ġifyet urnaway
Ġacoust ic
Ġaccla im
prote in
private ownersliketoadd
Ġallian ce
Ġallprices quotedonthis
Ġfirstname lastnameoccup
Ġpregn ant
Ġimpos ible
Ġamach iza
Ġamph ibians
Ġamaz on
Ġammon ia
Ġamorus o
Ġrevamp ing
Ġafund iswa
Ġaffil iation
Ġtheregion boastsp
Ġtherelations hipbetween
indepth abc
Ġfeather s
Ġfelds par
cliff hanger
Ġbritt leness
Ġbrons on
Ġbranc hes
aretem pting
arequoted ingbp
daysex changepol
webs iteareaccurate
weoffer allourclients
Ġhermos illo
formanasseh was
Ġwhenthefloor isfirm
oyald innerwiththeroyal
Ġrestrict ive
Ġoffens ds
Ġoffspr ing
Ġprovinc ial
ireplates urface
Ġupbe at
Ġupgr ade
Ġupbring ing
Ġparaphern alia
Ġhelms man
gewas n
Ġ380 700000
Ġ335 36
Ġbloss oming
Ġbluff ed
ersonthehind legs
fertil izers
Ġcommens alism
Ġverbra ucher
needingt oclimbdownfromthetract
soaps indepthabc
Ġscoot er
Ġindones ia
Ġindustri al
Ġindiffer ent
Ġresem ble
Ġflaw ed
Ġflaming o
Ġcraz e
Ġcraw ling
Ġcrank ed
Ġcramm ed
Ġcruel ty
Ġcroqu et
ingsign ofthepresenceofsign
ingsrepresent anewand
lishae uropeanfreet
Ġmarmos et
Ġherewewould liketose
Ġdisgr untled
Ġdiscer ned
Ġdisrael i
Ġdisjo inted
Ġdispleas ure
Ġdisguis ing
Ġdisapprov al
itedto anintimater
Ġwaterlog ged
Ġafteraver ybadcrashinheat
Ġafterthewar endedwrightreturn
Ġcharism a
Ġagric ultural
Ġkeyp erson
Ġcarib bean
Ġartific ial
Ġbignoni aceae
Ġentsp rechende
Ġenthr alling
Ġsimmer ed
performing formatoperation
Ġpercap ita
Ġemiss ions
Ġprocrast inator
hedesired seedvolumeper
Ġdetali at
Ġboister ous
Ġdiferen te
Ġpreserv ing
Ġpolynes ian
Ġskyscr aper
Ġsuprem acy
Ġzimb abwean
Ġzbndxw nn
Ġzetim a
Ġzolwand le
Ġzugrif fe
Ġattitud es
foreurope aneconomic
Ġinterpre ted
Ġunderse cretary
Ġundiscl osed
Ġoverman ipulative
Ġoverbl own
Ġoverthr ows
Ġoverconsum ption
Ġcreatur es
Ġdownto earth
ificantcor onaryarter
Ġfundam entals
Ġsuitc ases
Ġcolomb ia
ationalorchestra andchoirbygreenland
Ġconsomm ation
Ġdiagon als
Ġdienst leister
Ġsubstr ing
Ġsubserv ient
Ġmonopol ies
Ġshopah olic
photos andhostbroad
redtub edogging
Ġsurchar ge
Ġearmark ed
Ġminnes ota
notleft uswithoutguidance
Ġtriump hed
Ġuitdag end
ancestry andsex
Ġelits erien
Ġelae ocarpaceae
Ġelimin ate
Ġbarrac uda
Ġbarcel ona
Ġdecomm issioned
howatthe hotelwhenyoucheck
howtom ake
Ġlastseenon line
andsknow ingly
andsoughtfortheme aning
Ġoblig ation
Ġcurios ity
Ġinvigor ating
selft ohanako
Ġendem ic
encumber ing
encontr olledwithanti
comrad esshouldmakesuchstat
erstothel ord
Ġrediscover ing
Ġfriendship s
manysym ptomsareoft
Ġpickaway n
Ġ1036 4
Ġourdent istsarecharacter
therestood beforemeas
Ġdeligh ted
Ġrefriger ator
Ġrefuer zo
rescuel addersandemergenc
resources atverylowprices
Ġlighthear ted
thispage contains
Ġinternacion al
uallyawarn ingsignofthepresenceofsign
Ġokto ber
Ġswoll en
Ġcatalp a
Ġcatacch io
Ġcatalun ya
Ġcatastrop he
izedby theirpat
ungsz usammenarbeit
authentic mexicanrecipe
concent rateonstart
doalittle homework
Ġmilwa ukee
sideandmany wineriest
Ġrespuest as
pleasecheck alsoyourspam
Ġaverages peed
Ġyearofcon struction
shala an
Ġxdd dd
Ġxhos a
ontourjo inedanintern
Ġincumb ent
Ġincarcer ation
namelyaust ria
Ġsuperchar ges
Ġthoughtmust bedirectedtothed
Ġsaltw ater
generalup persecondaryschool
Ġoclcn umber
Ġsouthampt on
whichdr opsyouoffplace
Ġantitr ust
Ġantioxid ants
Ġmediev al
Ġmediat ype
Ġmediterr anean
Ġshipdra ft
Ġgroundbre aking
Ġportobe llo
oublepen etration
Ġroadbl ocks
Ġwestfal enstadion
Ġpetacch i
Ġerla ubt
Ġescal ating
12817 5
Ġtypograph ical
Ġstatuet tes
Ġsimilargam estobuildascarecrow
decid etoestab
Ġgeograph ic
excus e
expat riate
Ġtournam ents
Ġpanhand le
Ġmultiface ted
Ġreconcil iation
Ġreconnect ing
Ġthirteent h
Ġnetzwer kumgebung
Ġresponsib ly
chedouth isrighthand
Ġwildflow ers
Ġlabyrin th
ethatthe highvolumecolumns
Ġconcuss ion
Ġconcavecorn ersonthehindlegs
respondedtomy call
Ġessenz ialmente
Ġcoubert in
Ġcanyoutrust theseadvert
Ġcampbell town
Ġoswal t
Ġintroduct ory
markitfor installation
Ġturmo il
Ġschwar zenegger
Ġschrift liche
Ġsympathe tically
Ġdisembar king
Ġskyrock eting
bookyour stayathotel
Ġjuxtap osed
Ġalternativen ame
Ġthereforepray thaticanbringallyoursac
Ġenterpri ze
Ġzeitge ist
months ago
Ġstrikene xt
Ġsafekeep ing
couldalsomeanthecountriesareselling offfuture
hematics ataberdeen
Ġmassachuset ts
Ġmotorcy cles
fromafter him
myofnatur alsciences
xxanix x
Ġbiodivers ity
Ġbestell prozess
Ġpermineral ization
Ġadminister ing
medicinetim ololmaleateopthalmic
Ġauditor ium
Ġacrony ms
Ġcollaps ed
washington post
Ġpuppete er
Ġimprastrak tura
Ġindicatecolor inthenotesof
Ġinfluenz a
butthey couldalsomeanthecountriesaresellingofffuture
Ġcastell ini
Ġinfrast ructure
adesgold givesyourbusiness
scotic us
whentheapart mentisrentedforash
Ġillustri ous
erooms andguaranteed
Ġchesape ake
Ġridicul ous
Ġproporcion a
Ġsemimet al
Ġactiveyears startyear
Ġirantehr an
afterahardtim etryingtorefres
Ġhabitacion es
metersidiscover edthatthejud
mailfold ers
mailanaccom modationvoucher
nnurkbxt cqz
Ġovershadow ed
Ġcrossroad s
Ġmicroscop ic
buildasnow man
Ġexerciseprogr ammes
castfromalltheinform alcouncil
Ġnutrit ious
Ġlaplay abandeaub
thatyoun eedtos
Ġwindshield s
Ġfixedroofrail ingsrepresentanewand
Ġsoftwareupgr adesgoldgivesyourbusiness
Ġbroadcas tedby
frommargitc athrine
ootalis aoo
registrier ung
Ġhygi ene
uperiorflow distribution
Ġemphyse ma
guidinghish andsknowingly
royallthis people
willtom psett
willreceive bye
Ġtanpop o
inseissanand bookyourstayathotel
Ġcytop lasm
alledontheir sdevice
Ġchloropl ast
theirnatural resourcesatverylowprices
Ġunsuccess ful
providess uperiorflowdistribution
bothteams agreetostopthe
hewillyetag ainleavetheminthewilderness
Ġsatelit te
oftheorganisation foreuropeaneconomic
Ġmisunderst ood
Ġmischiev ous
Ġmitgl iedschaft
Ġmitoch ondria
alsobeused asadrywipe
Ġkhabens ky
Ġbackupallimportant contentsfrom
campusstatus by
danishem bassy
faithandthe paceismuchcloser
tarois thinkingthathiroshowedapictureofhim
Ġsiquier a
Ġecofri endly
Ġfortbild ungszusammenarbeit
whilethelow onesarered
businessdayyou willreceivebye
foldthecorn ersofthemountain
lowvolume ondayswithpricefalls
lowrates inseissanandbookyourstayathotel
mogzbndxw nnurkbxtcqz
Ġskegone ill
atthetimeofpublic ation
Ġhomestret ch
Ġjacquel ine
peacefulsoicould concentrateonstart
procoftheacade myofnaturalsciences
Ġcircumst ances
godhas notleftuswithoutguidance
ihavereceived hypnosisoverthephone
katofabb undance
switzerlandandthe unitedkingdom
influence onproductquality
Ġsacrific ing
israelstret chedouthisrighthand
termprospects aretempting
Ġcommentbys teveonaugust
xxxdand oublepenetration
Ġbeschrieben en
installingthelatest hppaviliondv
Ġgreenlandicmusicians ontourjoinedanintern
kilometreperse conds
informationabout installingthelatesthppaviliondv
squaremetreonan ipadwithout
cmdumb bellrack
customersinclud eopel
followingus anymore
manydevelopingcountriesareselling theirnaturalresourcesatverylowprices
rificesandpray erstothelord
skullsh apes
heartratecontr olled
increasinglyimportant productarea
Ġbundeslig a
Ġehssod ll
usbdrivebefore performingformatoperation
Ġquadril ateral
openappbrain onyourphoneandinstall
Ġvorbereit ung
acrosstheent ireplatesurface
searchforfre eroomsandguaranteed
stationofgr esmangueira
Ġsevencountries oftheorganisationforeuropeaneconomic
isticalsur vey
Ġpostedbym axonaugust
icturesquecountry sideandmanywineriest
Ġanginaisus uallyawarningsignofthepresenceofsign
driverupdat etool
driverdownloads usingthehp
highvolumeondayswithprice increases
Ġghostbust ers
inflammatorydrugssuch asaspirinorother
ithelpedmebemore peacefulsoicouldconcentrateonstart
ithelpedmecomeback ontherighttrack
beautifulvine yards
coupleatthe danishembassy
cubiccent imetres
demonstr ate
gigisoss um
hadseenthe vision
ochoosefromtos ampletheirwine
tenderdocumentshave beenmet
ventionalcalibration test
welfareaswell asgrowth
willsupply photosandhostbroad
hewayafloating floorwould
Ġtheoperatorsetst hedesiredseedvolumeper
Ġthedanishpresidency willsupplyphotosandhostbroad
onlyhighquality medicinetimololmaleateopthalmic
oneseventwos ix
iscriminationoftruth fromerror
Ġmandasaw u
asasurcharge whentheapartmentisrentedforash
Ġnlahgzbndxwnny gmtor
edtohisdut iesasprofessorofmat
icdelegationwasinv itedtoanintimater
Ġhaudenosaune e
Ġitpreventsuserst osuspectthatthereares
lygluedtothes ubfloor
Ġthateveningthegreenland icdelegationwasinvitedtoanintimater
Ġyoufindtheapp atappbrain
ifnecessaryyoumays itonachair
Ġwithitsnewinnovative platedesign
Ġvielgestalt ige
Ġwhatinteractionmet aphorwillbeused
Ġwasgiventhetechnical campusstatusby
andyeshalldest royallthispeople
andwiththefirst stationofgresmangueira
andhislefthandonmanasseh shead
andlaiditonephraims head
andwonderthroughtheir beautifulvineyards
thebarracudaeaselcan alsobeusedasadrywipe
Ġibelievethatour comradesshouldmakesuchstat
Ġiwentdependentonins ulinin
thankyouforhaving respondedtomycall
ortoperformacon ventionalcalibrationtest
Ġalsothepeopletherearelif elines
omehiddenproductsinst alledontheirsdevice
alltherequirementsofthe tenderdocumentshavebeenmet
onezerothreesix four
Ġifyeturnaway fromafterhim
Ġallpricesquotedonthis websiteareaccurate
Ġfirstnamelastnameoccup ationsource
Ġtheregionboastsp icturesquecountrysideandmanywineriest
Ġtherelationshipbetween faithandthepaceismuchcloser
daysexchangepol icy
weofferallourclients onlyhighqualitymedicinetimololmaleateopthalmic
Ġwhenthefloorisfirm lygluedtothesubfloor
oyaldinnerwiththeroyal coupleatthedanishembassy
needingtoclimbdownfromthetract ortoperformaconventionalcalibrationtest
lishaeuropeanfreet radeassociation
Ġherewewouldliketose ethatthehighvolumecolumns
Ġafterthewarendedwrightreturn edtohisdutiesasprofessorofmat
ificantcoronaryarter ydisease
ationalorchestraandchoirbygreenland readmore
howatthehotelwhenyoucheck in
manysymptomsareoft encontrolledwithanti
Ġourdentistsarecharacter izedbytheirpat
therestoodbeforemeas theappearanceofaman
rescueladdersandemergenc yphones
thispagecontains informationaboutinstallingthelatesthppaviliondv
Ġthoughtmustbedirectedtothed iscriminationoftruthfromerror
generaluppersecondaryschool bystatus
whichdropsyouoffplace catalunyaisperfect
Ġsimilargamestobuildascarecrow buildasnowman
decidetoestab lishaeuropeanfreetradeassociation
Ġnetzwerkumgebung en
Ġcanyoutrusttheseadvert isers
Ġthereforepraythaticanbringallyoursac rificesandprayerstothelord
Ġindicatecolorinthenotesof purchase
buttheycouldalsomeanthecountriesaresellingofffuture welfareaswellasgrowth
afterahardtimetryingtorefres hlife
metersidiscoveredthatthejud gewasn
mailanaccommodationvoucher thatyouneedtos
castfromalltheinformalcouncil meetingsindenmark
Ġlaplayabandeaub ikini
Ġfixedroofrailingsrepresentanewand increasinglyimportantproductarea
Ġsoftwareupgradesgoldgivesyourbusiness thatextraedge
providessuperiorflowdistribution acrosstheentireplatesurface
bothteamsagreetostopthe meeting
Ġbackupallimportantcontentsfrom usbdrivebeforeperformingformatoperation
taroisthinkingthathiroshowedapictureofhim selftohanako
lowratesinseissanandbookyourstayathotel hoteldespyrenees
ihavereceivedhypnosisoverthephone frommargitcathrine
Ġgreenlandicmusiciansontourjoinedanintern ationalorchestraandchoirbygreenlandreadmore
openappbrainonyourphoneandinstall it
searchforfreeroomsandguaranteed lowratesinseissanandbookyourstayathotelhoteldespyrenees
Ġsevencountriesoftheorganisationforeuropeaneconomic co
Ġanginaisusuallyawarningsignofthepresenceofsign ificantcoronaryarterydisease
inflammatorydrugssuchasaspirinorother nonsteroiddrugs
ithelpedmebemorepeacefulsoicouldconcentrateonstart ingtosolvemyproblems
ithelpedmecomebackontherighttrack afterahardtimetryingtorefreshlife
ochoosefromtosampletheirwine andwonderthroughtheirbeautifulvineyards
Ġthedanishpresidencywillsupplyphotosandhostbroad castfromalltheinformalcouncilmeetingsindenmark
asasurchargewhentheapartmentisrentedforash orttimestay
Ġitpreventsuserstosuspectthatthereares omehiddenproductsinstalledontheirsdevice
Ġthateveningthegreenlandicdelegationwasinvitedtoanintimater oyaldinnerwiththeroyalcoupleatthedanishembassy
thebarracudaeaselcanalsobeusedasadrywipe board
Ġibelievethatourcomradesshouldmakesuchstat isticalsurvey
Ġallpricesquotedonthiswebsiteareaccurate atthetimeofpublication
Ġtheregionboastspicturesquecountrysideandmanywineriest ochoosefromtosampletheirwineandwonderthroughtheirbeautifulvineyards
Ġtherelationshipbetweenfaithandthepaceismuchcloser thanyoucanimagine
Ġherewewouldliketoseethatthehighvolumecolumns aregreen
Ġafterthewarendedwrightreturnedtohisdutiesasprofessorofmat hematicsataberdeen
Ġourdentistsarecharacterizedbytheirpat ient
mailanaccommodationvoucherthatyouneedtos howatthehotelwhenyoucheckin
