#version: 0.2
Ġ t
Ġ a
h e
i n
e n
Ġt he
e r
o n
Ġ s
a t
e s
i s
Ġ w
o r
Ġ c
o f
a n
r e
Ġ f
i t
in g
Ġ <
Ġ p
Ġ b
Ġa n
o u
l e
i on
t e
Ġ m
a r
Ġt o
a l
en t
Ġ d
Ġt h
a s
Ġ in
Ġ is
e d
i c
Ġ of
en d
x t
Ġan d
o m
Ġ n
c e
te xt
Ġ h
Ġ T
O N
T I
TI ON
E R
A N
E S
Q U
S W
end of
ES TION
QU ESTION
| >
Ġ< |
AN SW
endof text
ANSW ER
l l
Ġ l
o w
es t
i v
Ġ A
Ġ g
o t
u s
c t
Ġ e
Ġb e
i d
w er
l y
s wer
a m
Ġ I
Ġ S
r o
ĠT he
e t
en ce
Ġ y
q u
a y
Ġ re
Ġth at
Ġ "
o s
Ġs ent
i r
Ġ C
Ġ r
at ion
i m
Ġf or
Ġ it
Ġ W
est ion
u r
l d
Ġ -
Ġ on
er s
Ġth is
Ġan swer
Ġw h
i g
Ġsent ence
at e
v e
u t
Ġ qu
u n
ou t
a d
Ġf o
Ġy ou
r i
o p
Ġqu estion
Ġs t
k e
Ġ B
it h
c h
Ġ P
Ġw ith
o d
iv e
he r
Ġa re
Ġn e
Ġ G
o l
i l
u m
Ġ 1
Ġc on
Ġ or
Ġa b
' s
a p
i f
Ġa s
ll ow
es s
a g
Ġ v
Ġw as
an t
Ġ M
i e
t er
Ġ H
a c
Ġf r
b le
Ġfo llow
Ġ =
Ġp ro
Ġ he
h at
s e
Ġs h
Ġp l
p e
Ġfollow ing
Ġ D
s t
u l
Ġd o
an d
Ġ R
Ġ F
Ġn ot
ou ld
ou n
Ġfr om
ig h
e l
o v
Ġab out
i ll
a in
Ġt e
or d
Ġ (
or t
Ġ E
iv en
is t
Ġc h
Ġc om
ic h
Ġm e
Ġa t
as e
Ġ 2
Ġb y
Ġc an
us t
Ġ N
Ġs e
Ġw e
id e
Ġ L
a ve
or e
r it
ion s
Ġl i
it y
Ġ Q
le d
am e
Ġe x
ĠI n
n swer
om e
Ġp os
igh t
Ġt r
. "
p t
al l
Ġ J
o c
Ġ us
Ġ le
) .
Ġ k
ar t
i es
an s
a ct
Ġd e
Ġp r
m ent
ic e
Ġli ke
Ġthe y
Ġw he
k ing
in e
u d
te d
u p
Ġ O
T he
t h
Ġ j
a us
ĠW hat
Ġ Y
a ce
on g
Ġwh at
at ed
is h
an g
p l
en er
ar y
Ġg o
Ġh ave
u b
Ġ un
a ble
Ġbe c
i z
Ġwh ich
as t
u e
Ġd es
ar d
Ġm a
Ġthe ir
Ġ '
on e
ou r
Ġp e
w e
al ly
aus e
op le
Ġm an
Ġ out
u re
A nswer
re ct
i an
Ġa l
ag e
v er
ow n
or m
g h
Ġa ll
ot her
i a
Ġ op
Ġc or
Ġw ord
Ġw ould
Ġs p
i al
er e
o ve
rit e
Ġwh o
ĠI t
r y
ĠT h
k s
Ġb ut
ri b
oun d
Ġg r
Ġh as
Ġ U
Ġpe ople
te p
at ive
um m
a v
o o
ĠG iven
Ġa r
at a
Ġpl ay
Ġbec ause
Ġs ome
Ġ .
Ġ Ġ
Ġfo od
ĠQ u
at ing
a b
Ġh is
Ġdes c
ou s
le ase
in d
it ive
Ġn o
os e
w o
Ġf e
Ġyou r
Ġw ill
at er
Ġ K
ou gh
i le
Ġcor rect
p er
ri end
Ġc l
' t
Ġ en
Ġdo es
Ġw or
p ort
d d
ac k
Ġa c
Ġ 5
ie w
c l
oun t
ĠQu estion
Ġc al
i p
b er
Ġ im
Ġp re
Ġm ov
i ble
Ġcom p
Ġ ,
f orm
ir st
Ġpos itive
os t
e ct
ers on
Ġg iven
ĠC h
Ġr est
Ġd ata
a re
0 0
Ġon e
g ative
Ġs o
ic k
d u
f er
ĠS t
d ay
ov er
v iew
Ġword s
a ur
i ly
ener ate
g e
n g
as s
Ġcal led
Ġa p
t o
Ġ 3
e m
Ġf irst
Ġs pe
Ġ o
W hat
im e
ĠTh is
Ġdesc rib
at es
Ġne gative
aur ant
s ible
Ġf am
Ġa f
Ġrest aurant
Ġ ro
o y
Ġm ore
Ġ her
ap p
Ġ other
Ġthe se
Ġpro v
Ġ1 9
r a
Ġwhe n
he s
Ġp erson
a k
ot h
Ġ up
is e
e ar
Ġk n
as on
Ġre view
Ġt wo
c ess
a il
Ġmov ie
as ed
ing s
o g
er m
Ġs ay
ul t
Ġd id
Ġte ll
Ġte xt
Ġcon t
Ġwhe re
Ġhe l
Ġv er
Ġy es
or y
p ut
ent ence
i ld
re e
r u
Ġthe re
ĠW rite
on d
n e
Ġit s
im ent
Ġthe m
cl ud
Ġs a
ct u
a ch
le ct
Ġr es
Ġhel p
it e
Ġbe t
ĠP lease
Ġop t
an ce
Ġa g
Ġs u
Ġpl ace
Ġb ig
Ġne ed
ĠS o
ĠW h
it ed
r ess
Ġof f
Ġspe c
iv ers
c es
Ġp art
ic al
as k
ĠU n
Ġs umm
Ġn ame
Ġma ke
ĠR e
Ġt ime
Ġp ar
in k
Ġs c
we et
y s
Ġin form
Ġpos sible
Ġin to
l ish
i re
it t
y pe
un ctu
o ld
Ġd is
Ġfam ily
Ġgo od
Ġne w
a ke
m er
Ġc ity
o b
ust om
Ġl oc
Ġinform ation
Ġ if
Ġe at
ĠE ng
Ġh app
oo k
Ġb l
Ġaf ter
pt ions
Ġf l
Ġme ans
Ġp h
Ġc ustom
ĠA n
Ġs er
ĠY es
ĠG enerate
Ġc ount
p le
Ġfe el
Ġa ct
e e
Ġp unctu
Ġh ad
ad e
it al
' ,
y p
f f
Ġg et
ic t
h ing
en s
Ġver y
ce pt
ig n
Ġcom m
Ġab ove
Ġs he
Ġsent iment
ĠA nswer
ang e
Ġc ar
Ġb oth
. .
ĠA l
Ġb u
Ġp er
i ous
riend ly
Ġw ere
Ġr ating
j ect
Ġe v
a i
Ġa dd
Ġac c
it ion
e p
Ġ V
? "
Ġre ason
Ġt ask
Ġc ap
a ir
Ġs tep
Ġ 4
Ġne xt
Ġcon text
he n
Ġcustom er
w ay
ĠH e
Ġme an
p ro
Ġj ust
Ġb est
Ġwor k
Ġe qu
ĠH ow
Ġc ould
ĠEng lish
Ġ +
Ġh ow
ic es
Ġw ater
iz e
g et
Ġa m
c k
Ġch ar
Ġb r
o od
al s
Ġm ost
or s
om et
Ġare a
Ġy ear
r en
Ġt al
ent s
ation s
Ġs m
Ġs ame
Ġsh ould
Ġl ist
Ġe m
ac es
Ġsh ow
Ġdescrib es
re at
Ġar t
f ore
d er
Ġd if
ur n
Ġth an
Ġcon s
is s
Ġne ar
or n
Ġan y
Ġ2 0
a le
Ġin d
Ġw ant
Ġf un
ar k
Ġ over
Ġsumm ary
Ġpunctu ation
r es
s o
Ġst ate
ĠH ere
f ul
Ġkn ow
Ġ ent
ĠThe y
it le
m ise
l and
Ġle t
ou p
Ġs ol
Ġwh ile
S tep
Ġc o
if ic
ar s
ĠA s
Ġtr ans
ĠI f
Ġanswer s
at h
Ġn um
Ġf il
i x
o ose
Ġ ke
Ġpro du
an y
we en
ut ion
ĠC on
Ġbe l
ĠN o
ap h
ow er
re d
ĠY ou
es e
Ġt weet
Ġd et
Ġf riend
Ġa d
Ġh igh
Ġre c
he d
ru ct
Ġm us
Ġbet ween
id ent
Ġbe ing
ĠUn ited
Ġequ ation
ot hes
Ġth ink
in t
itt le
Ġth r
ĠI s
b r
ation al
Ġcount ry
ĠIn d
O ptions
ĠN e
Ġl ong
Ġdif fer
on s
Ġal so
Ġs omet
Ġsh ort
ur ing
Ġpr es
ough t
Ġus ing
, "
Ġpro cess
Ġle ad
i ence
Ġin clud
c re
Ġre l
r ic
Ġprov ide
Ġm ade
Ġ [
Ġw om
T ype
Ġc he
Ġl ittle
S entence
en se
e f
Ġsa id
Ċ Ċ
Ġto o
Ġopt ions
Ġm ight
te m
id ed
i o
e ll
ver y
Ġcap ital
Ġc ol
Ġex per
Ġs im
Ġf act
ang u
ĠA dd
mer ic
at ch
Ġc ent
Ġd ay
u ll
Ġc re
Ġs ub
Ġman y
Ġspec ial
Ġeat Type
yp othes
Ġf ind
ypothes is
l es
of f
t ing
in n
id es
Ġfor m
j oy
t he
Ġl angu
Ġcorrect ly
Ġr ivers
Ġs k
Ġp o
" ,
at ur
i ed
Ġchar act
ĠSt ates
Ġdiffer ent
Ġth ings
Ġat t
c ed
ate ly
Ġre m
w ord
ate g
Ġsome one
Ġgr oup
Ġd r
en ces
Ġv ers
if y
Ġin s
Ġsp aces
Ġrivers ide
w ard
Ġn am
Ġsomet hing
t en
Ġse e
Ġ 6
Ġtr ue
Ġm y
ĠP ro
Ġ Ċ
Ġen joy
p h
Ġ end
r aph
ou se
Ġpre mise
ter n
Ġser v
Ġh im
Ġfil m
g g
Ġthr ough
Ġpr ice
Ġus ed
Ġw ay
ar n
ai led
ĠWh ich
W rite
get her
Ġap pro
ĠC om
g y
Ġto gether
ĠA r
Ġsh op
Ġs up
Ġb ased
st ruct
c er
Ġthe n
Ġf ound
Ġ20 1
Ġb o
Ġ2 00
Ġlangu age
Ġvers ion
Ġw rit
Ġg u
Ġe very
ĠS entence
ble m
Ġv al
Ġ i
Ġex pl
o ices
Ġd own
Ġt itle
ĠA meric
b all
ĠC an
ĠT r
m an
Ġus e
i ent
Ġb ack
Ġim port
Ġhapp y
k ed
Ġp ub
Ġde c
Ġte am
a z
Ġst r
I n
ic le
Ġa ir
Ġs ing
a w
Ġf in
Ġon ly
u c
Ġm od
d ers
Ġbe en
Ġag ain
he re
an k
g r
ar m
Ġpro per
Ġto p
Ġloc ated
u es
o ol
Ġb ir
id er
Ġbe fore
Ġnam ed
Ġan im
Ġre ally
Ġdo g
Ġwom an
c ted
Ġbu ild
Ġex p
Ġpl ant
Ġs ur
ĠIt al
ir l
o h
n ot
Ġimport ant
Ġmus ic
Ġc r
off ee
T h
k es
Ġl ess
at her
i er
ic ally
Ġe ach
Ġas s
a h
Ġh ypothesis
i b
Ġc ateg
Ġ *
Ġre g
] .
Ġc ase
ĠT o
Ġcon clud
o es
Ġc offee
ur es
g an
ve l
ag raph
Ġd i
Ġse c
p os
Ġl ot
e x
Ġin put
C h
Ġreason ing
am p
ĠAn d
Ġin v
ul ar
Ġstate ment
Ġre p
Ġp ol
ĠS p
an c
." ?
Ġprodu ct
Ġnum ber
h ip
u ch
Ġg ame
F riendly
as h
one y
Ġconclud e
t y
t ain
ar ing
Ġsm all
Ġopt ion
Ġs ense
Ġfamily Friendly
Ġ 7
Ġplay ing
Ġm on
Ġr ight
Ġm ain
Ġs et
Ġh ome
in ce
g er
ĠNe w
ĠF r
it ies
Ġph r
Ġpar agraph
Ġs it
Ġre ad
Ġm ay
c on
Ġ 8
Ġd on
in s
Ġc le
ĠThe re
Ġt ri
Ġwe ll
Ġma king
ders t
Ġm ent
Ġg irl
en n
am es
if e
ĠS e
Ġprov ided
c om
Ġm et
out h
Ġd el
Ġh old
ri pt
Ġcomm on
od y
Ġs l
ys tem
u al
Ġart icle
Ġt erm
derst and
Ġch ild
i ke
f t
in a
Ġd uring
Ġr un
Ġcomp any
Ġp ass
Ġ1 0
cept s
Ġpro blem
b e
Ġs un
iv ing
Ġl ine
and s
ro s
t on
Ġg l
Ġ ener
H ow
Ġl ast
Ġsent ences
ch ool
Ġexper ience
Ġkn own
ĠInd ian
Ġphr ase
ment s
Ġo b
le x
Ġcent re
Th is
du ce
Ġde f
S umm
ap an
iv er
as es
" .
an e
a u
l ate
Ġv ar
Ġm uch
us s
Ġcons ider
Ġbet ter
oc k
Ġun derstand
av ing
Ġyear s
Ġm oney
Ġ1 8
Ġw al
Ġener gy
Ġinclud es
Ġe xt
se l
a ut
ol ve
Ġin ter
R ange
Ġst ud
Ġprice Range
Ġm in
ĠS h
Ġin st
Ġcan not
t her
ic s
Ġar ound
a king
Ġs ign
ĠA t
' re
ĠItal ian
Ġth ing
Ġ- -
Ġt ake
ord ing
Ġm iss
ĠO n
in ess
id s
ĠC am
Ġl ar
I I
it s
i i
ĠĠ Ġ
ur s
ĠL et
Ġwor ld
n ess
Ġp ut
ĠW e
ion al
Ġfriend s
v en
Ġe le
Ġe as
ĠB r
ĠF or
ĠW hen
Ġ our
oh n
id ay
ĠD e
t s
? ?
ri ef
Ġh um
Ġst ar
Ġo ld
h o
ĠL e
Ġ /
ren ch
Ġs ong
or k
av or
u g
Ġagain st
Ġp op
Ġg enerate
Ġre qu
Ġev en
Ġdescrib e
y m
ĠAmeric an
ud d
over n
at ure
Ġa ut
in es
ĠJ apan
Ġper form
Ġdesc ript
Ġs ides
oo king
C an
Ġke y
Ġn ow
Ġre f
et s
Ġc are
b y
p ar
Ġan other
re en
Ġ 9
Ġv is
o te
Ġb orn
Ġl ook
Ġsay ing
Ġg ener
u ally
ne y
iz ed
Ġb us
ĠF rench
Ġg ot
Ġbuild ing
x im
Ġst re
qu e
Ġfact s
Ġbel ong
e ch
Ġplay ed
ĠA ust
are d
ĠC l
) ,
Ġwith out
or ies
Ġe lect
Ġst ory
Ġme m
Ġs chool
a x
id ing
ĠA f
Ġdoes n
Ġ 0
b ers
r al
Ġe l
ig in
Ġmod er
Ġdid n
ĠPro duce
Ġsu ch
Ġgr ow
Ġc ur
Ġp air
ĠB e
ĠB l
Ġspec ific
Ġlead er
en ted
Ġhapp en
f riendly
y ing
Ġp lease
Ġb re
Ġw atch
Ġlike ly
ĠS he
Ġsub ject
Ġun der
v ail
Ġsay s
Ġb ook
Ġmean ing
Ġst art
Ġb ody
v ers
iv es
ac her
Ġs ystem
Ġacc ording
Ġst and
an ted
e ver
n ing
Ġcharact ers
Ġcon cepts
on t
is ion
ĠB o
Ġcateg ory
il ity
Ġin t
r act
Ġdis c
l ic
id ge
er v
u ro
is m
ĠA ir
ain s
Ġt ype
Ġl ight
Ġsec ond
cept able
en g
in ing
Ġb oy
c y
os p
ation ale
s ide
Ġop en
word s
ail s
im es
Ġa way
umm y
ĠP l
am m
Ġim p
Ġe ff
ol og
Ġm en
Ġwe e
Ġ own
Ġg reat
iv ed
ward s
Ġbir th
Ġg ive
Ġsit u
Ġgo ing
an ation
Ġm ed
ut es
it ing
l ing
v ent
Ġp ict
ĠS c
vail able
art h
atur al
Ġre le
Ġre t
Ġ ed
ĠM ar
ire d
Ġg overn
ie ld
Ġs ide
is on
Ġoff ic
le te
ot ball
Ġj ob
ĠY our
Ġma kes
Ġ1 2
Ġap p
Ġ Z
Ġro om
Ġh ouse
ĠJ ohn
ent ly
struct ions
Ġloc ation
Ġen g
ar ize
xim ately
y d
at s
ĠW ater
Ġy ummy
f l
1 0
Ġth ose
Ġf if
Ġf avor
te en
Ġor igin
is ter
Ġappro ximately
ort h
Ġth ree
or ld
Ġm il
Ġb ad
f e
is hed
ag es
Ġn ice
Ġev ent
I s
en e
ĠJapan ese
ull y
o ice
Ġm ar
Ġro ck
Ġcharact er
Ġw ent
iz ation
Ġs w
pe at
y l
Ġd iv
.. .
un g
of t
Ġap pe
Ġoff ice
Ġk ind
em s
ak es
ut put
ile y
Ġres ult
r on
p ri
n er
Ġw anted
i ation
ion ed
Ġ z
Ġbe aut
Ġex c
Ġdi rect
pe ct
Ġn atural
Ġke ep
i um
ĠO ptions
Ġconsider ed
l or
Ġw on
est s
am s
Summ ary
Ġyou ng
ĠP r
Ġt urn
i et
Ġl ove
Ġs oc
um p
in ese
Ġwrit ten
ri es
W h
S e
at t
Ġl ow
pl ic
Ġin cre
P lease
on es
Ġp ot
Ġc ell
Ġor der
Ġsol ution
u te
Ġ &
Ġdescrib ed
Ġcl ass
Ġexp ress
Ġle arn
ĠE x
Ġd ist
Ġfif teen
b o
g en
Ġhe re
Ġacc ur
om m
Ġh ard
ĠB ased
Ġpl an
O utput
Ġth ought
Ġres p
ĠIn structions
ver age
Ġof fer
os sible
Ġor gan
Ġhe ad
Ġstr ong
itt ing
Ġb all
ir t
2 0
Ġl ife
Ġsol ve
el s
Ġf ast
Ġf ree
ĠR em
au gh
uro pe
r ist
oo ks
way s
f ect
in ition
N A
n y
Ġl ower
sel f
Ġt yp
n es
ĠD et
ĠG r
ĠB ut
os s
ow s
b um
ĠM on
ĠR ice
ĠA b
ĠBo at
Ġtal king
ros s
Ġs n
ĠJ an
ad y
Ġas king
Ġsing le
Ġwee k
ĠW orld
Ġh aving
Ġse ason
Ġwe aring
Ġus es
v ed
Ġanim al
ues day
ĠD ata
ĠF act
ro p
ĠA d
Ġ19 9
Ġtop ic
Ġr ationale
Ġin c
ant s
Ġgovern ment
Ġcl ose
Ġval id
ĠP re
Ġm ove
u is
Ġart ist
Ġa verage
Ġle ft
udd y
Ġcom e
Ġhum an
Ġch oices
Ġind ic
ivers ity
Ġh and
own s
y n
oc c
Ġal bum
ans late
erm ine
Ġfeel ing
er ing
Ġw ind
Ġch ang
ou d
erm an
Ġs al
c le
Ġpres ident
Ġ1 6
Ġth in
Ġm ark
Ġag o
Ch oose
ĠT hat
ĠA m
Ġch oose
v es
ag ine
r ing
Ġmiss ing
Ġwith in
re y
Ġfo otball
ĠCh inese
Ġw rite
ĠN ow
Ġ1 5
Ġb uddy
Ġc aus
Ġf ix
o or
al th
Ġp at
urs day
f ort
Ġne cess
S o
Ġf ile
id d
Ġem ail
Ġst ore
Ġoffic ial
R e
Ġl ooking
Ġout side
Ġplay er
Ġs ound
ĠS olve
ĠU S
Ġcol or
e y
Ġc our
r b
Ġp ain
ct ion
Ġtoo k
vel op
Ġquestion s
Ġhelp s
Ġs ince
Ġcon vers
port s
Ġbeaut if
l ine
s h
Ġob ject
Ġs ad
uis ine
Ġme et
iz es
Ġins ide
Ġs weet
Ġtrans l
Ġc all
Ġpart ic
ac y
Ġas ked
b ine
ro om
ĠP e
ĠCh oose
it z
Ġb and
Ġdo ing
Ġcont ent
Ġchild ren
Ġin te
Ġd ining
Se lect
ir on
ĠC ount
ĠWater man
ĠB ar
er t
Ġfin al
an ish
Ġst ill
Ġs ure
i k
at is
Ġto w
av es
ent ial
Ġpre t
A n
o on
Ġ1 1
Ġas k
Ġpo int
Ġdet ails
Ġm ag
ĠD oes
i am
3 9
b s
Ġ occ
Ġal ways
Ġanim als
ot t
ip p
Ġterm s
Ġmon th
Ġpr of
u ck
Ġ ide
te ad
us h
Ġg ames
Ġwh ite
ay s
ĠD o
Ġar r
br idge
Ġm ust
f ully
ĠJ ust
Ġplant s
Ġl ive
Ġre d
Ġex am
Ġother s
ote l
a ff
f act
tern ational
ĠB rit
ist s
h or
ĠI m
l ess
il ar
ĠP h
ol ate
Ġpro te
P ick
Ġ $
ed nes
ednes day
Ġ ice
ab or
Ġmoder ate
Ġcon f
Ġst op
ri ed
Ġb rief
Ġpr om
Ġop er
Ġfam il
Ġp ast
Ġan n
ar l
Ġbeautif ul
le ep
Ġsu c
Ġche ap
Ġcle an
Ġsu gg
am a
th ing
at ter
Ġp ur
Ġcont ain
Ġ19 8
ĠCam bridge
Ġc ost
er n
at ic
le t
ĠT V
Ġcont in
Ġexpl anation
Ġreason able
Ġp ower
Ġw arm
Ġact iv
Ġc uisine
Ġre ce
Ġst ates
ĠP res
Ġaccur ate
Ġ u
Ġc rit
al ity
ir es
if ies
Ġval ue
le y
Ġbl ack
ĠK ing
ĠThe se
1 5
1 9
Ġbe h
Ġbu y
ĠWh y
Ġpart y
n ame
Ġsp ace
l ight
Ġ1 4
rib utes
Ġtal ks
Ġch ange
ĠM an
er r
Ġn ight
Ġbel ow
Ġt est
at or
O P
y es
Ġv ill
Ġ1 7
Ġwor king
Ġg en
Ġplay s
Ġlet ter
Ġbir d
Ġret urn
00 0
iv id
Ġtrans port
pri ate
Ġf our
Ġsp ort
Ġbl ood
Ġt re
Ġpop ular
Wh ich
Ġdes ign
Ġw r
Ġle g
ĠT ex
ap er
ĠC al
Ġse par
ĠI d
Ġs itting
Ġtr ain
ĠA ll
Ġevery one
o ber
Ġl aw
Ġj o
Ġgr ound
Ġlar ge
Ġhe art
Ġtell s
Ġre peat
ĠCon text
In put
osp here
Ġw a
i que
m on
ĠA lex
Ġcur r
Ġconvers ation
ac ks
G enerate
Ġ ve
Ġwrit ing
Ġsup port
Ġkey words
Ġtal k
Ġdescript ive
ot s
p r
Ġp ie
ul ate
Ġout put
ĠCount y
' m
em ber
1 2
iz z
Ġr ate
Ġv i
Ġcle ar
end ing
Ġact ion
ĠE urope
ave l
Ġa llow
Ġch ain
in ation
Ġadd ed
Ġk ids
m ber
ol ution
Ġser ies
Ġtow n
ĠS k
ad a
Ġde velop
Ġac ceptable
ĠCh rist
Ġpol it
Ġf ive
Ġop in
Ġfamil ies
A M
ĠTex as
ĠHow ever
Ġvis it
3 0
Ġnew s
Ġpunctu ated
in ed
ĠP ossible
m ing
Ġstep s
Ġh ist
e or
ĠA I
p or
ĠT e
ĠS tep
ĠR ob
Ġfam ous
ap e
if ied
ĠAir port
o le
Ġof ten
ov ed
Ġed uc
b re
Ġw in
r ow
Ġd ue
ur y
Ġsim ilar
r ation
Ġn ational
ub ject
Ġcl ub
Ġr ain
Ġat m
as ter
w ith
op e
Ġse en
Ġdet ailed
Ġwal king
ĠRe view
ĠPres ident
ĠT wo
ĠC ol
o ch
ĠCon t
i en
o ll
Ġb ro
Ġre al
Ġal ong
Ġem ot
i ated
ro te
ra w
Ġw ond
k ay
Ġ19 6
or ed
ic a
Ġh air
Ġt aking
it ution
Ġpositive ly
Ġc at
ĠWh o
Ġform ed
Ġrele ased
Ġneed ed
d om
Ġw ar
un d
t al
ing u
c hes
Ġbec ome
ĠCh oices
Ġlot s
Ġf all
' ll
Ġat h
Ġen ough
t ers
Ġd ate
." ,
Ġcapital ize
om es
Ġto y
Ġbe g
Ġhe alth
Ġph ot
Ġf ield
Ġde p
Ġorigin al
Ġus ually
Ġget ting
eng th
ul es
Ġappro priate
Ġpict ures
Ġcre ate
Ġatm osphere
Ġb ar
Ġm ess
ĠA c
Ġte m
ar ily
un ch
Ġhe at
Ġsign ific
Ġc ause
th ought
Ġent ailed
ĠThere fore
Ġde ath
Ġcomp ut
Ġvar ious
Ġment ions
Ġbelong s
Ġ es
ĠC r
ĠG old
Ġen v
Ġvill age
Ġ :
Ġw all
ord an
Ġstre et
ag ue
Ġ2 5
Ġse ems
ra el
er tain
ro l
s on
Ġb ed
ou ble
an n
Ġstand ing
Ġw rote
ĠPre mise
i ally
Ġl and
Ġsur f
Ġs leep
m a
iv al
Ġar m
Ġcomm un
Ġins tead
. ;
1 8
Ġpro gr
Ġind ivid
Ġdet ermine
Ġf ull
um ent
Ġserv es
f or
ĠP ick
re am
ĠS im
ĠO ne
Ġbl ue
ĠId ent
Ġreg ion
i able
ĠJ ess
Ġaut hor
v ious
Ġl og
ĠDet ailed
o k
ens ive
Ġbre ak
Ġrec omm
ĠE n
er on
Ġhe ard
Ġopin ion
Ġre fer
Ġcrit ic
Ġ est
ir d
Ġc e
w are
Ġserv ice
Ġre v
Ġrel ated
A vailable
et h
ĠF orm
Ġs oft
ĠCom bine
re w
Ġtr ad
og ue
Ġnum bers
Ġdef inition
ĠG erman
ĠW ill
od e
con om
ĠAust in
Ġt able
Ġpar k
ĠPe ople
i ans
ĠB a
Ġthin king
Ġf ish
Ġsuc cess
Ġ #
Ġk il
Ġwom en
ll ing
ĠA p
ĠIdent ify
Ġb it
Ġb ab
Ġst ay
a f
Ġm ult
iz ing
Ġad v
Ġrep res
an ces
ĠUn iversity
Ġco ol
is c
ĠW here
ay lor
Ġte le
Ġtransport ation
Ġrecomm end
Ġto day
Ġdescript ion
Ġw ood
Ġsu it
Ġcon cer
as ing
ur t
Ġfr ont
Ġrun ning
n ect
Ġ x
Ġgo es
e w
ke y
ard s
Ġst ars
T r
Ġnegative ly
Ġm om
Ġl a
1 4
Ġf ight
ĠL ee
Ġdec ided
1 3
z e
ure d
Ġenv iron
m e
Ġbus iness
ill s
ĠS outh
Ġsignific ant
n o
est ing
Ġo il
Ġshow s
Ġcateg ories
ĠBrit ish
ple te
Ġ19 7
g est
om an
ĠS ure
Ġcl os
ĠAf ter
u it
Ġc ame
olog y
Ġsc ale
Ġbo x
Ġ1 3
or ter
Ġcount ries
pl ies
Ġmil it
Ġcomp lex
Ġfl ow
ul ation
Ġass oc
ĠA ub
ĠC ar
ĠAs h
Ġrel ations
Ġs atis
Ġf ire
Ġpr ess
ĠRob in
x y
Ġle vel
Ġsup er
Ġt ree
ial ogue
Ġact or
yd ney
Ġe p
ĠS un
Ġcomp et
u ff
ash a
Ġdisc uss
Ġfavor able
c hed
Ġwh y
Ġpol ice
Ġstar ted
i or
ac ed
Ġj ump
b ill
Ġis s
ĠC ars
Ġg ave
um e
Ġsa fe
t ic
Ġb ase
Ġent ity
Ġh our
ĠJ ordan
Ġrec ord
i od
Ġcapital ization
Ġsing er
le ge
her n
ĠG eor
Ġoff ers
ĠRe ad
Ġsh irt
Ġpre vious
Ġsumm arize
c us
Ġ ?
is ed
ar ch
Ġl ingu
1 6
ĠD ef
Ġc ut
ĠM y
Ġbel ie
Ġrequ ires
end all
Ġpres ent
Ġfor mer
ĠF itz
b on
our n
Ġlingu ist
S t
ist an
Ġus er
Ġtr ying
ĠSp anish
Ġf ur
Ġle ast
M e
ĠH ouse
pl ify
ĠQu inn
P l
Ġm ot
Ġg reen
Ġte acher
rief ly
Ġath lete
I NA
r om
ag er
ĠM ay
p ing
p ly
Ġoffer ing
T wo
w hat
Ġto tal
cre t
Ġinst itution
ĠGold en
ĠC ity
bill ies
ĠS ydney
Ġexpl ain
Ġsitu ation
ce an
ĠY ork
Ġpret ty
ap ital
Ġun ique
h a
j or
ĠC ase
Ġ ing
Ġhappen ed
ĠT aylor
Ġchang es
ĠAdd ison
. ,
Ġsh orter
en ix
Ġe ating
Ġse ver
Ġso ld
G iven
Ġc old
Ġs te
Ġsh are
el t
Ġtrans late
Ġday s
Ġe ar
Ġe conom
ĠM in
Ġen s
ĠBa iley
Ġprof ess
1 7
Ġf riendly
INA L
Ġm ix
ĠF ast
Ġneed s
Ġinv ol
es ted
Ġh or
ĠS asha
Ġsn ow
Ġenviron ment
Ġr ange
Ġhold ing
t il
Ġs and
g ed
pl es
Ġ3 0
bo ard
Ġpr im
ho enix
ĠCars on
c ent
ĠE X
ĠK endall
ĠFitz billies
or es
Ġh ig
un e
Ġgr amm
Ġsim ple
Ġcomput er
+ ]
ĠCh ina
Ġcre ated
" ?
ĠW ould
Ġtr avel
atur day
h am
r ight
an ks
Ġf ace
Ġcomp lete
Ġeff ect
idd le
5 0
Ġan al
ĠP hoenix
Ġcon d
m p
en a
Ġdel ight
H ypothesis
Ġeduc ational
T e
Ġd ish
Ġfe w
N ow
ag ed
Ġl iving
ub lic
ivers e
Ġnecess ary
Ġsweet ie
Ġ ident
is ing
ĠW as
Ġpres ented
Ġexam ple
Ġt imes
Ġm ount
ĠP al
Ġwant s
Q u
t ies
Ġv ol
Ġwhe ther
Ġver b
ĠEX AM
a im
Ġc ook
ĠCase y
o int
ĠS te
ch n
Ġtr y
o ad
inn er
m ical
The re
Ġl ength
Ġr ace
if orn
Ġmark et
e c
w ork
Ġdel ic
ĠAub rey
ĠG u
du ct
Ġment ioned
on y
Ġ X
Ġp en
Ġv ide
ĠTr anslate
Ġbec ame
Ġeas ier
Ġcell s
ĠIm agine
Ġpub lic
Ġresp on
ĠJess e
es h
Ġam ong
ĠInd ia
Ġatt ributes
g o
he l
ag le
Ġpass age
Ġ `
Ġp ay
Ġd ress
iforn ia
o id
it her
al d
Ġpr ices
Ġwatch ing
b or
Ġ ir
Ġf ar
ition al
Ġinclud ing
gr ound
ĠCam eron
Ġl ay
inn ing
ĠRem y
Ġc ult
Ġst ruct
Ġsoc cer
abor ate
xy gen
Ġr iver
ĠO r
res p
if t
Ġcap t
Ġref ers
O f
ĠBr owns
ĠAf ric
Ġd ig
Ġg as
Ġrem ove
y ear
im b
ur ch
Ġqu ick
ĠT w
Ġrelations hip
us iness
ĠB riefly
Ġsk y
ĠCont in
g ar
Ġt uesday
Ġe gg
Ġhold er
p ed
r est
ĠA re
in o
led ge
er a
Ġwr ong
wo od
plic it
ic y
Ġpict ure
Ġf ly
ater ial
Ġc over
c ks
u el
ĠBl ue
Ġbab y
Ġcom es
att le
Ġing red
atur es
pe cted
Ġro ad
l er
in ary
Ġp ick
Ġto ld
ĠS ome
ol iday
3 4
y le
ĠE arth
pe c
ĠR uss
ĠAust ral
Ġwond ering
il t
c ious
an a
ĠS ubject
Ġab le
Ġro le
Ġsm o
Ġel aborate
iet y
! "
it ions
ment ioned
Ġfl oor
orn ing
ac ceptable
Ġnum er
Ġun til
Ġ ur
Ġbe ach
ond on
Ġs our
ill ion
ore mentioned
Ġaf orementioned
iment um
land s
g es
l ished
v ision
ab ility
Ġb ooks
ir m
ab ly
Ġper fect
ent y
ic o
d e
ĠContin ue
ur al
ĠN orth
Ġafter wards
Summ arize
ĠT itle
ud ent
ĠFr iday
Ġe arth
ĠE l
Ġim pro
yl ar
end ed
Ġfo cus
ĠM ich
ĠO K
Ġpe ace
Ġper iod
Ġcapital ized
r ons
ĠW ar
ĠI I
Ġcon nect
Ġim plies
ra q
Ġph ys
Ġsurf ace
apital ize
z z
Ġt reat
ĠTr acy
Ġexc ited
Ġab s
aph r
Ġac ross
re ad
Ġwe ather
av y
Ġmilit ary
Ġ` `
Ġth ursday
as te
Ġph one
Ġb ike
ĠM al
Ġte chn
ĠAl imentum
resp ond
Ġem b
Ġdog s
Ġsuit able
Ġc am
et er
Ġli ked
Ġpre p
g ers
in y
Ġe th
ĠI raq
s et
ĠE agle
Ġs qu
ĠA ng
ĠS w
Ġinc or
ĠSk ylar
Ġm other
Ġre act
Ġne ver
Ġ19 5
_ _
Ġy e
ĠF INAL
con struct
Ġtre es
- ]
Ġ @
H e
Ġpl aces
Ġcom b
C ould
l ike
Ġde v
?" ,
Ġche ck
Ġmeet ing
f ic
end s
Ġh ot
ud e
Ġcont rol
ĠCal ifornia
! !
c an
Ġgo al
Ġm aterial
Ġann oun
Ġce le
z ech
Ġpot ential
Ġear ly
Ġw ednesday
ĠM e
Ġ' '
1 1
at he
Ġ2 2
Ġspe ak
ĠRe construct
a e
Ġsitu ated
Ġd one
Ġis olate
ist ance
ask et
Ġt w
Ġma jor
lect ion
Ġsever al
m in
us e
amp ions
Ġpart s
Ġmonth s
O R
ĠF y
Ġfavor ite
Ġm outh
ĠB usiness
Ġ2 4
Ġjust ifies
Ġeng ine
Ġb en
ĠN ot
Ġt akes
ĠF l
Ġgr ass
ĠK ey
ĠPh il
ur ity
Ġse a
pl ay
' .
ĠC ur
Ġme as
Ġsa w
Ġ )
Ġele ment
Ġsport s
n ic
al es
om b
ct or
ous ly
ĠT uesday
ĠH ar
Ġd est
Ġbeh ind
ĠForm ulate
Qu estion
Ġv iew
ac ing
Ġtem per
m m
er c
Ġb ag
ĠM ary
art ment
v ing
Ġa v
Ġc ou
Ġl ater
Ġdelic ious
a ul
en cy
ĠT ri
ĠH all
Ġsim pl
Ġsw im
Pl ace
2 5
O U
e b
end er
Ġon line
Ġpr act
ĠK ai
Ġf ather
ent ion
ow l
hing ton
ĠA ar
Ġget s
Ġknow ledge
Ġproper ties
Te acher
g le
t t
in al
Ġtyp ically
ĠA g
ĠMon day
Ġsepar ate
Ġr ad
act er
Ġpar aphr
ĠAl an
Ġam ount
an ch
D oes
Ġwor ks
Ġwal k
Ġgener al
Ġvide o
Ġo cean
Ġdis hes
ict ion
Ġto wards
Ġh ands
Ġde cre
Ġaf f
l ers
re ady
il le
Ġpos ition
2 4
Ġl ooks
ĠItal y
Ġele ments
or ted
Ġp aper
op h
Ġeff ort
er al
ĠIn ternational
Ġim m
ĠEng land
Ġmon day
ĠSim plify
Ġb ath
Ġle ave
Ġfun ny
Ġest ab
N T
Ġc ir
Ġm ass
Ġm atch
Ġd ialogue
TION S
ĠS up
6 0
is es
Ġwho le
Ġcar ry
l rb
er y
om i
ĠS ports
Ġinv est
Ġmem bers
r rb
Ġm orning
Ġre pl
ap s
Ġag ree
ie f
Ġcons cious
Ġlet ters
Ġp ort
ly mp
ĠP ar
ĠP ort
Ġplay ers
Ġmov ing
ear ch
ra ft
tern et
Ġpoint s
fic ult
r ound
es c
am ent
ĠR iley
Ġro cks
Ġvar iable
Ġappe ar
2 7
m ark
Ġrem ember
Ġtele vision
respond ing
ĠFy ne
i ents
Ġb ank
Ġlead ers
Ġmain tain
Ġincre ase
I t
it ar
Ġloc al
Ġtyp es
in c
Ġb ought
Ġma ch
Ġmov ies
ĠCom plete
ĠAt t
Ġcurr ent
Ġa vailable
Ġfeel ings
An d
Ġc up
Ġfr iday
Ġo xygen
ĠIs rael
ac hed
ĠO ther
ĠTh ursday
ick et
ĠSe lect
ĠD av
Ġdis app
E x
Ġ led
Ġpro ject
Ġdif ficult
e ff
ĠSc ience
A T
Ġf it
Ġan g
Ġr a
ĠP ol
Ġcon st
Ġeas y
k n
Ġde m
fer ence
Ġd iverse
ow d
Ġr iding
fl u
Ġhist ory
E D
b ack
c he
v ant
Ġst ri
Ġcom fort
Ġany thing
Ġvi br
Ġassoc iated
ĠL och
Ġad vent
Ġmod el
Ġprogr am
Ġdelight ful
u ly
Ġth ough
oc ks
uc le
Ġto ys
ĠL ondon
Ġad ult
P ro
Ġl oved
Ġch oice
Ġconscious ness
ĠS am
ĠAr omi
Ġstud ents
Ġel se
Tr anslate
y e
Ġs ym
ĠJ o
Ġcont rib
ed s
Ġse arch
ĠJ ames
Ġk id
Ġal ready
Ġtri ple
Ġmin ister
g ing
s tep
ĠW est
Ġcour se
Ġp ri
Ġcre am
Ġlar gest
Ġide a
Ġn on
Ġhe ld
Ġact ress
Ġind ust
ĠFr ance
m s
Ġcele br
2 1
et ic
pt ion
ak en
ific ation
Ġperform ance
Ġprote ct
Ġmess age
T itle
r ac
re c
Ġbec omes
Ġfe m
Ġhigh ly
Ġbo at
Ġread y
a el
Ġb asket
Ġgl ass
Ġgramm at
Ġd raw
Ġe ver
Ġinclud e
Ġrece ived
Ġhour s
w h
Ġl ost
ag o
ĠAs s
Ġcaus es
ĠC he
ie wer
ĠN ational
Ġgrow th
Ġfur ther
Ġn ove
Ġh al
Ġh arm
ut ions
ad em
ĠG reen
Ġm iddle
Ġst at
Ġsub st
Ġsk in
Ġmem ber
ĠH otel
Ġop pos
Ġmet h
T ech
Ġse g
ra z
Ġam b
Ġbr ing
Ġlist en
Ġche mical
com ing
Ġproblem s
ĠEurope an
or ing
iv ia
u als
Ġc oun
Ġan t
ĠC zech
Ġstre am
c ing
i ers
u gg
Ġh it
Ġ1 00
ist ic
Ġover all
Ġpo ll
ĠAmeric a
Ġpolit ical
Ġrepres ent
A R
ĠS er
ĠC or
ĠW ild
Ġ2 8
inn ish
Ġs on
ĠRe g
Ġgl ob
Ġh otel
ct ober
qu is
Ġ2 3
pl anation
pl oy
Ġprov ides
2 6
us ed
ĠO f
Ġadd ress
Ġdiv ide
p s
Ġc y
Ġar ch
Ġcl aim
Ġser ve
ĠKey words
p ress
ĠC ent
Ġsh ip
ne gative
Ġpar ents
s c
it c
Ġac cess
i ences
t ime
Ġsl ow
Ġf re
Ġf ig
ĠO l
Ġc amp
us ion
Ġpr ot
enn is
Ġgener ated
m ore
Ġl ady
at ors
ar a
al k
Ġdisc over
Ġhig her
ive ly
H ere
Ġim plicit
Ġpie ce
a id
Ġqu ality
ad d
st r
iss ion
Ġa ud
Ġm ath
Ġe yes
anc y
Ġsugg ests
Ġactiv ities
il es
Ġdo ll
Ġde al
Ġtri ed
osp ital
Ġindic ates
Ġ ess
Ġth ird
Ġe ither
Ġr ules
Ġst ation
ĠM ex
h us
Ġ2 7
ast s
Ġrel ax
u fact
Ġs ize
Ġl augh
Ġcar bon
Ġsomet imes
2 9
ĠD an
Ġnot hing
Ġrele vant
e v
Ġin ternational
ĠW rest
og raph
Ġpop ulation
bre v
Ġmult ip
Ġb urn
ot to
Ġex act
ĠO h
Ġrep orted
Ġofficial s
OP T
M ake
Ġch air
ĠRe p
az a
Ġinter esting
Ġw at
Ġd ance
Ġr ound
op s
Ġimp ress
Ġt all
Ġf ut
Ġgo ld
am b
Ġr en
ver t
oo gle
pos itive
ug ust
a ult
ĠB ill
tem ber
sel ves
t r
Ġc and
Ġpos s
Ġpre ced
Ġup on
Ġrep ly
Ġment ion
Ġpress ure
Ġh urt
Ġsoc ial
Ġtransl ation
ĠWrest lers
er ed
er ry
Ġb ott
ĠC o
Ġdr ive
ĠCom p
Ġexc iting
Ġsoft ware
Ġincor rect
Ġ ill
al izes
Ġd am
ro ve
Ġhelp ed
Ġelect ric
3 6
ic ed
Ġit ems
ĠW ednesday
Ġep is
Ġg iving
ĠG od
ĠM ic
ĠAl right
Ġcr owd
I N
ir us
ap t
Ġproduct s
Ġspecific ally
2 8
c il
ast ic
ĠCon cepts
Ġcol lege
Ġpartic ip
u ary
Ġconcer n
Ġprofess ional
' ve
A dd
ic ks
Ġn oun
ig er
ĠM ill
Ġout d
ĠU p
ĠWill iam
ĠDef inition
Ġt ou
re l
Ġn ation
Ġpro b
Ġeth nic
u ed
Ġ er
Ġin j
ch ie
ap or
Ġv oice
Ġspec ies
Ġun acceptable
Ġcor responding
ru g
Ġcre ating
Ch oices
ĠWas hington
p ose
Ġpictures que
ĠTw enty
Ġa ctu
Ġp an
Ġon ce
Ġ19 4
ĠMin ister
Ġf elt
ar ter
ĠM c
Ġ5 0
w ater
ag ing
ĠH is
Ġab brev
Ġle aves
Ġso il
" ;
Ġdr ink
Ġcour t
Ġa ge
Ġfor ce
ar r
Ġprodu ced
Ġdesign ed
Ġindivid ual
ampions hip
oc r
cl es
og n
struct ion
S olve
p ite
est er
Ġre ach
ĠG reat
ĠĠ ĠĠĠ
2 3
Ġb reat
Ġn ucle
Ġwe bs
Ġprov iding
Ġnecess arily
Ġflow ers
ĠAar on
m ost
ĠT om
ĠE m
OP TIONS
Ġmeth od
ĠP erson
Y ou
Ġdis s
m y
ĠB oth
ard en
Ġfe atures
Ġgu itar
Ġsec urity
Ġorgan ism
Ġpartic ular
u ted
Ġbe gan
ĠS ep
ĠR oman
Ġk ing
Ġimp act
x ide
Ġb i
ar es
Ġto ol
ic ient
ce mber
Ġl im
Ġperson al
Ġsim ply
Ġsmall er
Ġquick ly
A S
w here
Ġd ise
ic ian
Ġl ate
Ġy et
ĠO lymp
a j
i ant
p ick
Ġs outh
Ġc ertain
Ġn ature
un k
Ġcl oud
Ġco ll
Ġverb alizes
ĠTri ple
d ate
Ġc atch
Ġis land
Ġg re
ĠG oogle
Ġj ud
anc ing
Ġgen re
Ġhor se
l ant
r ict
ĠR ober
Ġman ufact
ab les
Ġo kay
ult i
Ġcar s
Ġd en
Ġtal ented
Ġwa it
Ġbase ball
g ress
w ho
Ġse cret
ĠMar ch
iv il
ĠD iv
ĠSt r
it es
Ġfl ower
T o
c o
Ġc ross
ĠC up
own ed
app y
Ġevery thing
Ġm atter
ri an
Ġcon ve
Ġv ac
hen s
Ġsur round
Re peat
Ġrespon se
C on
Ġw el
Ġb al
ce ived
ĠTh anks
Ġve h
Ġstruct ure
id ence
Ġcon ven
ĠL ine
Ġfe ature
ak istan
Ġcustom ers
Ġnove l
or row
ĠF innish
Ġsc reen
Ġannoun ced
ĠG l
Ġex cept
Ġperform ing
Ġegg s
i pe
m en
Ġa w
Ġp al
Ġd ied
Ġgroup s
Ġgirl s
Ġd ry
ify ing
ĠAmeric ans
' ]
Ġw ife
Ġh op
Ġre port
Ġsur pr
c c
Ġt our
in ted
Ġs we
ĠD en
Ġco ach
Ġeas ily
Ġl ung
ĠF o
Ġrev iewer
c ome
ĠB en
Ġme al
Ġim agine
Ġbr other
Ġmin utes
Ġs ix
Ġw ide
ĠS ince
Ġcomp an
r an
Ġ2 1
Ġthem selves
az ing
Ġair port
Ġocc ur
ĠCur ry
Ġh ost
ĠW ind
Ġbig ger
Ġacc om
Ġfem ale
Ġglob al
or b
it a
Ġm ic
Ġfor e
Ġpass ed
Ġc op
ĠC otto
ĠB u
Ġwork ed
Ġv ict
Ġfr esh
Ġsc ient
Ġrem ain
Ġset ence
Ġwind ow
fact ion
Ġr ich
Ġbu ilt
Ġold er
Ġmount ain
Ġparaphr ases
Ġabbrev iation
l in
Ġ ov
Ġp ack
Ġb as
ĠG ree
il ities
Ġ2 9
Ġli kes
Ġde ad
Ġread ing
Ġappe ars
Ġsound s
3 5
c ase
Ġne igh
ĠRe c
Ġexper ien
Ġthought s
Ġcompet ition
Ġimpro ve
ĠC oc
ĠW ith
st on
ĠO ctober
Ġcolor ful
Ġkil led
ĠGeor ge
Ġvibr ant
Ġbasket ball
Ġfut ure
u ce
ĠB ur
Ġen c
Ġact ions
Ġcomm a
Ġdec ision
or ry
Ġb io
Ġl ands
um ents
ĠSt ate
Ġprodu ce
ĠRem ove
4 0
Ġh at
Ġl ives
ĠS ing
et t
ove mber
Ġ4 0
Ġapp rec
3 7
W e
il ing
ĠM art
Ġwe ight
Ġde mon
ĠO kay
ĠCom m
Ġtri p
izz a
rac ted
ĠSep tember
Ġa chie
est in
ri ll
Ġhe avy
Ġli qu
Ġway s
Ġint ro
I f
i ate
ed y
ĠD on
ul a
Ġup set
Ġcol ors
Ġs ick
ol f
Ġcom ing
ĠWh ite
Ġaut om
Ġdirect ly
Ġactiv ity
Ġc ul
Ġin it
ow ing
Ġk ill
Ġde ep
Ġcare er
Ġtemper ature
Ġe arn
ĠP art
Ġs us
Ġb ust
Ġto m
ĠThe n
Ġst ories
Ġcont ains
Ġlong er
aff e
itc hen
at est
Ġre lease
Ġdr in
Ġpreced ing
he ad
Ġg ather
Ġtr ack
Ġ[ '
Ġ201 0
u le
Ġd ark
ĠA ugust
Ġit self
Ġst age
Ġch all
ĠNe xt
Ġreg ard
Ġbird s
izz i
c ape
o ors
ens ion
ĠLe ague
P ossible
ĠP at
Ġ2 6
Ġsc en
Ġchar ge
Ġsong s
ĠAng el
ĠP er
um b
and er
ĠN et
we ll
ĠK ore
erm any
Ġmet al
Ġcare fully
Ġcurr ently
Ġpie ces
Ġcou ple
Ġmach ine
quis ite
Ġd io
Ġdo or
Ġ[ +]
Ex planation
Ġseg ment
Ġl ake
Ġrefer ring
g ent
Ġd ie
Ġpl ans
Ġcl othes
ĠSt ream
ĠAs ian
Ġcent er
Ġexp ensive
Ġhist or
g ot
re g
out hern
ri a
Ġac id
Ġenjoy ed
ĠIndian a
Ġpat rons
Ġindivid uals
ĠMich ael
Ġin flu
Ġh ospital
ĠM ark
Ġnam es
Ġserv ing
Ġphot os
Ġcam era
r in
Ġex quisite
Ġde b
Ġso on
lect able
Ġstud y
ĠDav id
Ġf at
ĠP ark
P art
Ġc ast
Ġb ur
ce ll
Ġl ov
ĠFr om
enn y
Ġhum ans
Ġp le
Ġd ouble
ĠS m
Ġde lectable
ang er
Ġcons um
Ġatt ract
Ġext ra
n a
Ġc ard
Ġd rop
Ġev ents
Ġmed ic
Ġmar ried
r ay
Ġgr ad
Ġdio xide
Ġpr ime
Ġsatis f
Ġn et
Ġn ut
ĠN ovember
Ġspe ed
Ġsu gar
Ġsee king
Ġinte gers
k en
ro ph
ĠB ig
Ġse x
Ġ200 9
ĠZ izzi
t ract
Ġf ac
Ġm ind
Ġis n
ĠR es
Ġlead ing
Ġserv ed
at ory
Ġp et
Ġse em
ĠL a
ru ary
Ġgu ess
Ġhal f
b an
Ġd ire
Ġj ack
3 3
Ġt ast
Ġs en
Ġex pected
Ġbirth Place
ĠAustral ia
ĠRober t
Ġc reat
ed ic
pt y
ĠJ im
Ġhim self
i j
Ġt aste
al t
ed d
ch oice
Ġper ceived
Pro blem
A s
ri e
Ġst uff
el f
ber t
Ġpre fer
ĠCh ar
Ġcul inary
ĠS umm
ĠS ee
ĠS aturday
Ġse ll
Ġex erc
th ough
Ġass ist
fort un
Ġnumer ic
D o
ub e
Ġman ager
Ġstr ing
II I
L e
s erv
om in
un t
ound s
du ced
ak er
Ġcont act
ib ility
Ġpain t
v al
Ġcommun ity
l oad
Ġt aken
Ġw est
it ect
Ġb ud
et y
ĠIn c
Ġap plic
Ġsumm er
Ġknow ing
Ġiss ues
Ġcir c
Ġcompan ies
Ġm illion
Ġsp ot
Ġsur v
Ġbust ling
k y
Ġc art
ir ing
Ġsh all
ĠE d
Ġcomp os
Ġenjoy able
Ġbirth day
Ġsal t
Ġlung s
A l
Ġw aves
as c
ĠG ood
ren g
Ġthrough out
ii i
ourn al
Ġbath room
Ġfore ign
Ġdire cted
' d
C l
b ur
er o
Ġre pro
Ġare as
ul f
Ġun ited
Ġno te
Ġfeel s
Ġrequ ire
Ġemot ion
9 0
I T
Ġc ake
it ch
Ġbr ight
ĠCan ada
Ġteam s
Ġfin ish
Ġstart s
Ġincre ases
I S
u x
ot ing
ĠJ une
Ġrec ogn
Ġdirect or
Ġeconom ic
Ġcapt iv
C om
S olution
is ions
ig ious
ĠD r
Ġpos t
Ġpo ol
Ġinst r
Ġimp ly
ĠKing dom
Ċ ĠĠ
ce l
Ġrec ent
pos ed
Ġvar iety
ĠJan uary
f ield
at o
Ġn orth
Ġcould n
Ġbo ard
ĠDe cember
ĠLe o
Ġvi ol
Ġdevelop ment
ĠCoc um
C apitalize
Ġr ide
im ate
Ġfor ward
Ġye llow
ĠMex ico
m as
Ġ q
Ġp izza
ic les
Ġr ather
ĠP aul
ĠIn s
ĠO b
oth ing
ĠAr t
ĠSun day
Ġprim arily
ĠPhil ipp
Ġactu ally
P erson
Ġc ry
Ġd er
ĠT ur
Ġdo c
Ġwa iting
ok en
4 5
Ġf arm
Ġh yd
Ġv irus
Ġch urch
unctu ation
ĠOl ive
w rit
Ġa meric
ĠH oliday
Ġk itchen
Ġdes pite
Ġfe et
Ġmed ia
Ġinvol ved
re me
Ġon es
Ġresult s
Ġindust ry
Ġaccom pl
c ial
Ġt ar
er ve
Ġfollow s
ip s
ĠSt udent
Ġres earch
ĠBl ack
Ġtransl ated
Ġconven ient
ian ce
ak ers
Ġshow c
Ġent ertain
anc ial
Ġfree z
8 8
S h
a q
ord er
Ġcaus ed
Ġt err
and ing
Ġex pect
Ġatt ack
Ġ6 0
Ġens ure
Part Of
m ar
Ġd inner
Ġl unch
ĠA k
ĠG rove
Ġ( -
Ġpr iv
ep end
ood le
Ġpub lished
augh ter
id a
ir affe
ort hern
ĠSp ice
augh t
Ġindic ate
E ng
y ou
Ġb oss
Ġst ick
ĠH igh
Ġbr own
Ġem ploy
ĠEx press
Ġarch itect
Ġhapp ens
Ġcons ist
Ġsun light
Ġbeg in
a ks
se c
Ġal tern
Ġsp o
Ġsp ent
ĠQuestion s
Ġenjoy ing
ĠAt lant
Ġpur ch
Ġsour ce
Ġwebs ite
k er
Ġg arden
Ġsh o
Ġem pty
P e
W ho
Ġd rug
Ġst ands
ant ly
ĠJ uly
Ġwork ers
Ġset ting
Ġcontin ue
Ġjump ing
P unctuation
r ated
w as
in ite
om s
Ġch ina
Ġle ague
Ġatt ention
ĠDiv ide
A L
W hen
r is
re et
Ġdel iver
Ġren owned
D id
Ġst reng
ĠM ad
Ġwe ar
Ġexper iences
Ġpur pose
b ol
ll a
ĠIn n
Ġpr oud
Ġmov ed
Ġsc ore
Ġshow ing
3 2
M E
Ġg e
Ġcon struction
ĠM r
ain ed
Ġgr and
ab it
Ġprom in
Ġmultip le
b l
Ġt er
Ġs yn
Ġdo ctor
Ġset t
ole c
Ġemot ions
ĠAfric an
Ġingred ient
8 0
Ġin f
ĠW ell
ip pe
Ġdiv ision
pri l
Ġobject s
ĠRuss ian
Ġaff ord
m et
al ing
Ġwh ose
Ġpre vent
ick en
Ġsk ills
Ġserv ices
ol es
Ġsh ared
iam ent
A TION
Ġ ult
Ġh ope
am in
ĠD is
ond s
red ict
ĠWild wood
Ġfig ure
Ġtou ch
b and
h ouse
u k
Ġs il
it ude
ed eral
ĠS ar
ĠF in
ab b
Ġmil k
Ġswim ming
B ased
ĠWh ile
Ġcomm it
Ġam azing
Ġlangu ages
ĠTr ans
Ġdisapp oint
ĠRep ublic
e al
i ot
i os
Ġt ax
Ġg ives
Ġwas n
ĠInd ones
Ġdise ase
6 6
9 7
is is
Ġf aster
Ġfor ces
ĠM ed
ĠM ag
Ġcomp le
Ġfl u
Ġrem ains
Ġbelie ve
athe red
fortun ately
Ġt iny
Ġp ull
Ġth reat
ĠR ich
Ġsp oken
Ġsa f
Ġunderstand ing
Ġve get
Ġnational ity
] ,
f ast
Ġf air
ce ed
ĠE ast
age ment
Ġfe ed
Ġhelp ing
gy pt
Ġ200 6
Ġpower ful
Ġkil omet
ĠAfric a
ĠA pril
un ter
od es
ĠR iver
Ġsp read
Ġdr iving
Ġturn ed
f riend
p aper
Ġe mer
se e
Ġde cl
Ġaf fect
Ġtell ing
Ġfound ed
Ġmom ent
eb ruary
c ient
Ġa im
Ġs ens
ĠR ed
ĠR ationale
ord s
Ġdis play
Ġmus ical
Ġsmo oth
Ġreact ion
Ġliqu id
en ed
op er
se m
Ġstud ent
ĠPr ime
Eng lish
an ced
ĠG ive
ĠM us
ĠN oodle
ight s
Ġide as
hus i
Ġl ack
ĠS an
Ġtr uck
ĠDet ermine
Ġ201 1
Ġexperien ced
p ric
u ge
Ġm at
Ġst yle
ist ration
Ġse m
oc key
Ġim age
Ġsa uce
Ġexpress ing
Ġmag n
Ġjo in
ĠMart in
) ;
[ +]
Ġs orry
Ġp ath
Ġd a
ĠT op
Ġg ar
ĠD ay
ist ry
ĠU se
Ġlar ger
Ġsleep ing
estin ian
pric ed
Ġt ennis
Ġr an
Ġfor est
ĠM at
Ġcomp ared
Ġ201 5
Ġproduct ion
Ġhappen ing
ĠAd am
Ġreturn ed
Ġanal y
Ġingred ients
ĠMal ays
e ed
g l
Ġh ur
os ion
ĠG ermany
Ġtr ay
Ġma le
Ġent husi
G r
Ġc ru
os ing
ĠSp ain
ĠSh ort
Ġphys ical
Ġexcept ional
om a
Ġal le
du ction
Ġhow ever
Ġmoder n
Ġconf irm
Me i
Ġprob ably
ippe e
J ust
Ġa ward
Ġs aturday
ĠS chool
Ġsh oes
Ġ[ -]
ĠPl ay
Ġocc up
Ġtrad itional
Ġnucle ar
v ille
Ġl ab
ĠB ir
Ġbeh av
Ġrad io
Ġess ential
re ed
Ġh ang
ĠB el
ag on
Ġex ec
ĠY ippee
Ġadd ing
Ġcol lect
Ġ201 2
Ġcommun ic
ester day
z y
ain t
pl ace
Ġbut ter
Ġcont ract
Ġshop ping
Ġ201 6
Ġwrit er
Ġmot or
Ġneigh bor
Ġsaf ety
4 7
b u
g ia
Ġs ite
ur a
Ġsc r
Ġdec or
2 2
c ause
h appy
Ġ ut
Ġf ill
ĠJ ack
oy al
Ġsol utions
Ġlog ically
ĠS ch
Ġqu ite
Ġst ock
ĠE ric
Ġal one
Ġhelp ful
ĠV ict
Ġdet erm
a it
on a
ar ies
Ġn est
Ġat tem
Ġun d
orm s
Ġcl imb
Ġbr ought
Ġfun d
Ġco ast
Ġke pt
Ġcaus ing
ĠDen mark
I V
Ġ ?"
Ġb attle
Ġhe ar
ĠF ebruary
Ġchang ed
Ġprim ary
Ġestab lish
p en
Ġis PartOf
ig an
ĠM iss
Ġtr ade
int s
Ġsun day
Ġinst ance
Ġlook ed
b ase
Ġm olec
Ġh ous
Ġas ks
orm al
Ġfil es
ĠFr ank
R E
r or
s p
Ġin ternet
Ġg athered
il led
ult ane
Ġelect ion
h ood
Ġ _
re es
Ġb an
ch ange
ĠH el
gh an
ĠSt reet
ĠAn t
Ġang ry
he st
Ġal most
Ġplan et
Ġhealth y
Ġgrammat ically
Pe ople
ultane ously
3 1
L L
y an
le cted
ĠP akistan
ĠG o
ĠF irst
Ġacc ident
Ġdev ice
[ -]
i led
l a
is ted
ct ions
Ġe urope
ĠC le
Ġanswer ed
Ġtr ouble
Ġfil led
Ġgener ally
ĠC OU
ers ey
Ġex h
av en
Ġres pect
Ġsim ultaneously
ourn ament
P redict
W ould
Ġt en
Ġc ooking
Ġas t
ie l
Ġpre m
Ġacc ount
Ġcent ral
Ġgrow ing
Ġlevel s
ĠPort land
ĠOther s
o inted
s ter
at ives
or ia
Ġm id
ar ian
ad ium
od d
Ġair pl
Ġmet ers
Ġstart ing
Ġwee ks
l im
Ġl it
ĠB io
Ġfr uit
Ġse ven
Ġres istance
ĠUn ion
Ġsc he
Ġdiffer ence
Ġsold iers
7 0
Ġd edic
ic an
Ġg ym
ĠG ener
Ġle aving
Ġcount y
Ġact ive
Ġfin ally
ĠOn ce
Ġmoder ately
Ġdist ance
Ġmove ment
Ġpolit ician
Ġav oid
Ġorganism s
Ġdemon str
Ġh on
ĠL ou
Ġsp end
Ġmusic ian
ĠBe fore
Ġincre ased
Ġallow s
Ġexact ly
ĠT est
Ġe ye
ĠD uring
Ġref lect
Ġfight ing
Ġimpress ive
inite ly
S he
Ġd aughter
ic it
ĠB et
Ġwas te
ish ing
Ġtal ked
Ġgu y
Ġopen ed
ĠCr own
ĠRuss ia
acter ia
ĠSup er
Ġchall eng
Ġs outhern
Ġb ill
Ġl oss
ĠJ eff
Ġcl ue
Ġinter est
Ġpromin ent
2 00
f o
g in
k a
Ġs end
um ber
ĠO ff
Ġgr own
Ġsol id
Ġsk ate
) ?
T H
is a
ic ago
Ġl if
Ġst ru
Ġsh ot
Ġsh aring
Ġent ire
Ġpo or
Ġ200 4
Ġdec ide
Ġclos ed
Ġlinguist ically
Ġaltern ative
in ter
iv ity
ĠAr ms
Ġ201 8
Ġfin ancial
ĠPl aza
Ġens uring
o om
Ġs ed
Ġro ll
Ġcommon ly
Ġbro ken
Ġsym bol
ĠWind ows
R Y
i ber
in i
an es
ent ially
Ġe c
ac hes
pos sible
Ġstud ied
Ġtechn ology
Ġcarry ing
wh ich
8 5
Ġc as
Ġb omb
Ġy esterday
Ġor ange
ĠAl f
Ġsm art
ĠIs olate
ner gy
Ġcost s
Ġsimpl ifies
Ġcomfort able
Ġregard ing
u zz
it or
ing er
ap es
se ct
igh ter
ain e
Ġbu ying
Ġback ground
ess ion
Ġsing ing
Ġsqu are
A r
ĠT weet
ut ch
ab in
Ġshe l
Ġad m
Ġext racted
Ġveh icle
8 9
c ol
f rom
w an
ĠM a
ĠJ ones
Ġfe ll
Ġmov es
Ġadd itional
Ġinte ger
Ġmix ed
Ġcoun ter
6 5
O n
Ġit em
av ors
Ġbl ank
Ġam id
Ġcontain ing
A D
am ily
ro gen
et ing
ad es
Ġpl ane
Ġ201 3
Ġ200 5
Ġstr ateg
Ġfin ished
Ġrun way
ĠCl owns
Ġir aq
Ġtast y
Ġ err
Ġt it
Ġh oliday
Ġg ift
ĠS l
if f
ac on
The se
Ġpre c
Ġ200 7
Ġsl ight
Ġsand w
4 4
7 5
A C
Ġ \
Ġf ancy
ĠL aur
Ġsumm ar
ĠHe y
Ġthan k
Ġdec isions
Ġright s
Ġpain ting
Ġarm y
ĠCOU NT
f fer
t hat
Ġb owl
ow ers
ĠS en
Ġas pect
Ġpl ate
Ġsc ience
Ġrem oved
ros oft
Ġstar red
Ġiss ue
w alk
id ents
ĠM il
Ġch ampionship
Ġfl at
ĠGr oup
ipp ed
Ġeconom y
Ġgre ater
Ġm el
ll o
Ġre b
ĠH er
ĠF lor
Ġj oy
Ġelect ron
Ġlearn ing
Ġaccur ately
Ġstrong er
Ġtrain ing
Ġwin ter
ĠPal ace
pec ially
Ġdest ination
Ġadvent ure
ĠStr ada
A re
S ubject
p re
Ġp ers
Ġh us
av a
Ġsc ene
hen tic
Ġchar ming
Ġrec over
Ġfilm s
Ġ201 4
ĠCol lege
Ġident ify
kn own
raz il
Ġepis ode
Ġjack et
of the
Ġm ist
ut ers
ut ive
ĠR anch
ĠE nergy
Ġdes k
rib e
Ġsk ill
ĠTe acher
Ġagree ment
ĠCOUNT RY
Ġw inning
Ġg un
Ġe t
Ġab ility
Ġres our
Ġhold s
Ġdiv iding
Ġw ild
Ġis rael
ic ing
ĠP ri
ill a
Ġch icken
ast ing
ian a
Ġform at
Ġweek end
Ġconvenient ly
is k
Ġw arn
Ġb icy
Ġne ut
ĠD el
Ġun it
Ġap art
Ġro b
ĠV e
Ġ201 7
Ġapp ly
Ġkeep ing
Ġconcer t
g al
Ġt ur
Ġs elf
Ġc ivil
ĠT im
os ter
ĠB y
ĠD es
Ġform s
Ġend ed
Ġmiss ion
Ġmag az
Ġben ef
Ġbud get
Ġattem pt
A P
u ous
w est
Ġc ode
Ġon to
ĠD em
Ġsa le
ys is
Ġper cent
Ġreg ular
Ġob serv
Ġrequ ired
Ġsuccess ful
l led
Ġt ournament
in ct
ic king
il s
Ġcom edy
Ġun iversity
app ed
Ġcont r
Ġmost ly
ons ense
Ġpres ence
Ġbuild ings
Ġbro ke
Ġfre qu
ad or
Ġpre d
Ġaut hentic
Ġsatis faction
ĠCrown e
e es
v an
Ġin n
ĠB re
ĠG iraffe
se y
ĠJ ersey
Ġus ers
Ġexpress ed
ĠAI D
ĠAc c
ĠAtt ributes
Ġnoun s
writ er
A G
b ody
w or
ld er
Ġqu e
ĠB ell
her lands
ĠM ulti
Ġse lect
Ġex ist
Ġind epend
ph one
Ġ200 1
Ġmedic ine
c raft
er b
Ġr ap
ĠJ enn
St udent
ĠComp any
Ġcaptiv ating
ĠPhilipp ines
7 7
N o
w hen
en ch
Ġw orth
am ic
ĠC apitalize
Ġte ach
ĠAn n
Ġmeas ure
ĠPart y
5 5
I m
Ġw ave
Ġan cient
ol a
Ġbus y
Ġsimilar ity
Ġelectric ity
Ġmanufact ur
Ġconve y
A f
h old
ou l
Ġl atest
ĠJ ose
Ġsp ir
ob ile
olog ical
Ġsepar ated
ĠChrist mas
Ġnews paper
Ġfly ing
Ġsummar izes
3 8
S T
b ook
c her
Ġh ints
ro y
ag en
ĠM ath
ter y
ĠE lect
Ġim possible
ash ion
ĠSe c
U n
u an
Ġs ave
Ġc red
Ġm o
Ġj e
Ġrem ark
Ġown er
Ġclear ly
Ġrespon sible
Ġpract ice
r ical
Ġs pl
Ġc ere
ĠT ech
Ġe ight
ch an
Ġde g
ak ed
Ġbr ain
Ġgu ests
com p
Ġgl uc
Ġbeaut y
Ġjud ge
L E
re land
Ġp us
est ic
ĠI S
ount ain
Ġhapp iness
ĠV al
Ġinclud ed
Ġs ister
Ġb atter
Ġl ived
Ġe ast
Ġe arl
im ately
Ġqu arter
ĠN ame
ault s
ĠKore a
n ed
Ġt ro
re cted
Ġr uss
Ġqu iz
od ies
ĠL aw
Ġar g
Ġ200 8
ĠAustral ian
Gr oup
Ġsche du
a a
g i
Ġm ur
Ġh ockey
ĠI reland
ag n
ĠO P
our ney
ra f
Ġcomm onsense
Ġco al
Ġput ting
Ġele v
Ġcur ren
ĠSc ott
Ġthin ks
Ġconnect ion
ev in
Ġlands cape
I C
Ġt ired
Ġl o
Ġor b
ĠM or
Ġse lection
Ġkn ew
Ġshow ed
Ġboy s
Ġexc ite
Ġstop ped
Ġdecre ase
Ġeffort s
Ġappear ance
Ġapplic ation
0 1
6 9
i xt
Ġp il
Ġd ancing
as m
Ġl ines
ĠA y
Ġind eed
ib ly
Ġestab lished
ir ty
ĠF el
ĠU K
Ġrec ently
ĠAnd rew
Ġpat tern
itz er
Ġbro ad
Ġphot o
Ġcover ed
Ġaud ience
Ġachie ve
h y
n ers
w ise
at al
ĠA ct
Ġst ocks
Ġun s
Ġhigh light
Ġcent ury
por ted
Ġvict ory
p art
en ing
Ġm er
Ġm amm
Ġse lling
ian o
Ġcl ar
az z
Ġsystem s
Ġappe ared
Ġocc urs
Ġes pecially
T weet
ĠB ro
if er
Ġcl othing
Ġen h
ĠPl ace
Ġbeg inning
Ġcond itions
Ġdecre ases
Ġoppos ite
Ġd anger
ad o
ad ian
ĠB ob
ĠR ome
ub b
Ġun able
port un
ĠCh icago
Ġad min
Ġins p
Ġnut ri
Ġinstr ument
d am
Ġc ities
Ġplay ground
Ġag es
Ġfl avors
Ġrece ive
Ġinvest ig
Ġrepl ace
Ġmethod s
i us
r ent
Ġ !
op her
ĠB ush
ĠQ ue
Ġcor rected
Ġ3 5
Ġconsider ing
gen cy
ĠBrit ain
Ġcult ural
Ġabs orb
Ġafford able
Ġbehav ior
Ġb acteria
ut h
od ied
Ġco zy
Ġbre ad
Wh y
Ġvalid ate
ĠGeor gia
Ġdam age
t op
ĠE r
ĠE gypt
Ġperform ed
Ġprep ared
edd ing
Ġexcite ment
j a
r ap
t hes
y our
Ġ iron
he ro
Ġf ashion
Ġp ink
Ġd irt
ir ation
ĠC re
im al
ĠR ock
Ġme chan
Ġgo als
ĠTh om
ĠPro v
Ġ200 0
Ġsign ed
omm y
Ġdiss atis
Ġdrin king
ĠIndones ia
4 8
B C
L et
at in
Ġw inner
al led
Ġth ous
Ġpro gress
con t
ĠCl are
Ġslow ly
9 9
j ust
m ed
al u
Ġh ill
ot es
ĠS erv
ĠN or
ĠL ike
Ġ. ..
Ġac adem
Ġap artment
ĠPro blem
Ġben ch
Ġult imately
Ġast ron
N G
o ly
is l
Ġf ine
Ġp up
Ġin sect
ic ia
ĠS ystem
un ic
ĠH en
pl ied
Ġun fortunately
Ġbr idge
int on
ĠLou is
Ġb rit
Ġn ons
um n
um in
ĠO ver
ens ical
ĠV aults
ĠBe cause
Ġpot entially
Ġmaterial s
Ġda ily
d ll
i qu
Ġc ow
ĠS pe
ĠB ay
ĠM ore
Ġpl aced
ĠL ake
Ġleg al
Ġemb odied
Ġbreat h
Ġsatisf ied
Ġtar get
Ġterr or
S ome
u ing
v a
Ġin fer
Ġg iant
ut ing
ĠG ames
se qu
Ġsh ape
ĠTh ink
Ġsu ffer
ai wan
the w
Ġsuper hero
ĠFo otball
Ġskate board
Ġnons ensical
i est
Ġcan cer
ber g
Ġresp ond
Ġclean ing
Ġcond ition
Ġw et
ĠL oc
ĠIn ternet
Ġk m
Ġser ious
Ġsm ile
Ġent er
uck y
Ġconcern s
4 6
D on
Ġ um
Ġc ater
it ation
am il
Ġwe b
Ġun happy
Ġsp ending
ass es
air s
Ġprodu cer
Ġproper ly
Ġtri ples
com m
Ġrun s
Ġeven ing
Ġpartic les
Ġcult ure
Ġbott om
O r
Ġfo ot
ĠM ike
Ġch ief
cl us
Ġfl ight
Ġany more
Ġthr ow
ams ter
Ġorgan ization
ĠMich igan
Ġtom orrow
h i
re m
ĠS ub
Ġtr ivia
ĠO ut
Ġj ourney
Ġcal c
Ġfl ag
ĠAl b
Ġtrans fer
Ġeff icient
Ġsugg est
Ġallow ing
Ġsed iment
g a
w ill
Ġb ored
Ġcom pe
ĠL ong
ne cted
Ġag reed
anc hes
Ġdist rict
Ġleg s
Ġbreak fast
Ġoutd oor
Ġexerc ise
itzer land
O C
it ness
it ute
al le
Ġn ormal
Ġh ar
Ġqu al
ap ore
ĠH i
ĠD enny
Ġal ph
Ġgr av
Ġdress ed
Ġshowc asing
c ar
y r
Ġc aught
ar io
us ing
ri al
ĠM ost
ac he
Ġse eds
ang ed
ĠSe cret
Ġgrammat ical
Ġoutd oors
eal and
j i
y a
Ġl ose
ĠD i
Ġex cell
ĠJ ul
ĠU N
Ġtext ual
Ġag ency
Ġmed ical
Ġturn s
ĠCal c
Ġethnic Group
ĠSar ah
Ġhus band
Ġearl ier
a ver
Ġt on
Ġr ing
ĠM el
umm er
fl ict
ĠAp ple
ĠBur ger
ĠTop ic
B A
D esc
b ased
m at
Ġb ul
Ġbe er
ĠM ars
Ġsh own
Ġli br
Ġcol on
Ġass istance
Ġown ed
Ġmil es
Ġsal ient
Ġhig hest
Ġearth qu
IN G
ĠRich ard
Ġstru gg
ĠTech n
ĠA j
et urn
Ġsh ar
ĠD ep
ill y
Ġop portun
Ġ3 1
Ġlist ener
Ġautom atic
Ġlov es
Ġple as
ĠMalays ia
Ġslight ly
" )
9 5
b ell
en z
es us
Ġm ill
om ing
Ġg ro
et te
Ġj ournal
Ġspe ech
ĠAl bert
Ġev apor
Ġsitu ations
Ġdoc ument
ĠVict oria
Ġalph ab
is her
Ġh ung
Ġe ager
op en
ĠL ind
ip ment
ĠCh arl
og an
Ġsub tract
Ġi i
ĠFor ce
ĠEx pl
Ġarr ived
ĠChrist ian
Ġcloud s
ĠGree ce
Ġsandw ich
Ġb order
Ġn ose
Ġg ender
Ġ" "
ĠD utch
ĠE U
Ġexpress es
Ġallow ed
Ġwond er
isc o
ĠJo e
Ġr u
un ning
Ġst aff
ol i
Ġsh ares
ĠK evin
Ġdis p
Ġact ing
Ġfact ual
Ġdi pl
fe cted
und red
Ġarm s
Ġsour ces
Ġamb iance
Ġameric an
Ġresour ces
t a
Ġp erm
al y
ic ul
ĠT ony
est ival
ĠS ol
ir gin
Ġv apor
ud i
ub a
app ing
ens ity
Ġmus cles
Ġsun ny
Ġsignificant ly
ghan istan
Ġremark able
k i
Ġa ust
Ġp ul
Ġn ations
ĠT ime
Ġg od
ĠS pec
os es
and y
ĠR am
Ġch o
Ġcom pl
Ġme at
Ġany one
Ġsol ar
Ġrel ation
Ġdoll ar
ocr atic
Ġintro duced
Ġmolec ules
Ġm aster
ot he
Ġy ard
Ġst ra
ĠP os
ĠG overn
ĠM any
Ġfollow ed
ist ics
ĠL E
ĠIn st
Ġfun ction
Ġbo asts
Ġob tain
Ġfootball er
Ġcy cle
Ġvac ation
Ġfeature d
ĠNet herlands
Ġpriv ate
A ll
M y
a ign
Ġt as
Ġf ederal
am ed
Ġst one
Ġst ress
ol ic
ess ert
ov ers
Ġ( "
ĠU s
ĠK enn
ip es
Ġsm ell
Ġauthor ities
Ġfish ing
Ġscient ific
Ġcry st
Ġgluc ose
m al
ot ter
os is
ur ance
Ġcon duct
Ġv an
ens ions
Ġ4 5
Ġ8 0
Ġext ract
Ġbeg ins
Ġrepl aced
ĠDis ney
Ġmagaz ine
p y
Ġa head
Ġm ir
ĠI ce
qu are
Ġre ve
Ġj u
Ġprov ince
Ġpar l
ateg ory
Ġsal es
Ġpresident ial
Ġvol can
d own
f ord
Ġw edding
Ġf urn
Ġb at
al i
Ġh abit
Ġqu iet
Ġcon ver
ĠTr ivia
Ġstatement s
ĠSp ace
bo x
ĠMon ica
ĠSw itzerland
use um
ĠMic rosoft
Just ification
ĠJose ph
6 8
Ġb es
te e
Ġn erv
Ġre ached
ĠD ialogue
and a
Ġun ion
Ġcomp on
Ġser ene
Ġem ph
Ġmem or
Ġemot ional
Ġrepres ents
Ġsimpl er
ĠOlymp ics
Ġhous es
Ġnutri ents
5 7
e k
Ġ ign
te l
ĠI ran
Ġaf ric
Ġexpl icit
ĠSh ould
Ġdoll ars
Ġenc our
ĠAk ita
n oon
Ġ ĊĊ
ĠT urn
Ġg ently
ol ute
Ġv ess
Ġme als
ition ally
ors es
Ġnear by
Ġche ese
Ġfind ing
ĠAr ab
Ġinst all
Ġdist inct
Ġadvent ures
ĠSing apore
bur g
Ġstreng th
Ġestablish ment
w ide
ĠS ugg
ĠB er
ĠF il
ĠL os
Ġtr aff
ĠO pen
av ed
Ġcal m
Ġsc ored
Ġgu ys
Ġelect ions
yn th
idd en
Ġinvol ves
ĠFlor ida
Ġneut ral
M an
b et
b our
h ire
i ams
Ġf ans
Ġf ert
Ġp ig
te ct
Ġm ut
ĠC oun
Ġfe at
ĠSt ar
Ġmay be
ĠMar ia
Ġoffer ed
Ġclos er
Ġcut ting
Ġmount ains
Ġimm ed
Af ter
b ly
f r
h and
r d
t hen
Ġp age
Ġb odies
ĠA v
ĠS oc
un a
ĠB razil
ĠF ort
The y
Ġun like
av ig
ĠAn ders
Ġent ers
ĠAt hens
Ġorigin ally
Ġide al
Ġtreat ment
Ġepis odes
en ced
Ġp un
ĠA C
ĠG ame
Ġcon cept
ĠM ass
ript ion
Ġresult ing
ĠCr icket
Ġlog ical
Ġcomplete ly
Ġcelebr ate
d r
o ted
p on
u its
Ġf uel
ĠA h
Ġr ise
Ġcon v
ac king
Ġch ose
ĠL ight
Ġrating s
Ġev alu
Ġappro ach
Th ree
Ġext ension
Ġele g
ĠJohn son
Ġoper ating
Ġdiscover ed
Ġmur der
Ġstra ight
N e
O F
Ġa te
Ġp udd
ic on
Ġn a
Ġh ole
ĠA ri
ĠS ri
Ġcom ment
form ation
Ġreview s
Ġafter noon
ĠFr anc
ĠCl ub
Ġmot ion
Ġbicy cle
4 9
a fe
f ly
at form
at oes
Ġw ire
Ġp uzz
ĠI ll
ad s
um s
ĠM et
Ġlead s
Ġmain ly
Ġsw ing
ĠTe am
ann el
Ġprogr ams
kn ow
Ġoppos ition
ĠOb ama
Ġoccup ation
ĠLaur a
Desc ribe
C O
W here
v is
Ġt ank
Ġw ish
it ure
Ġm oon
ĠP eter
ang es
Ġevent ually
Ġbed room
Ġtrad ing
Ġmaintain ing
Ġcurren cy
n d
n ight
p et
Ġn orthern
ĠC arl
Ġv ote
ĠO k
ace ae
ĠK ong
Ġbig gest
Ġreason s
Ġco oper
int he
Ġmed ium
Ġlearn ed
Ġglass es
Ġstat us
p erson
Ġd in
ĠI r
os ed
Ġqu ot
Ġcon nected
ĠM o
ĠF C
ĠF e
ĠF ind
ĠCl ass
Ġroom s
Ġindic ating
Ġdevelop ed
Ġcook ies
Ġf ully
ll ig
os en
Ġr ub
Ġwe ap
Ġup d
Ġup date
Ġcont ro
Ġexper t
Ġatt end
ĠPro duct
ven ue
Ġpat ient
Re uters
ĠAc adem
Ġmult i
Ġwel coming
Ġsus p
Ġemph as
Ġfeat uring
n ow
Ġh omes
ĠA le
Ġg olf
os ystem
Ġte eth
ĠE ll
Ġspe aking
Ġbr ave
ĠNo te
ank a
Ġ7 0
ĠPr of
oll o
Ġsurpr ise
Ġfreez er
Ġspir it
Ġparl iament
D ate
Ġt iss
in ate
Ġm ap
Ġh all
Ġre ports
ĠC our
ap ed
ĠM useum
ĠH ong
ra ham
ĠAs ia
Ġdet ail
Ġdef e
ĠMay be
mm m
ĠAss oc
Ġant i
Ġcamp aign
ĠOlymp ic
Ġbal ance
Ġcomple ted
Ġdedic ated
B e
h u
p ted
Ġc abin
Ġp aid
Ġm is
ĠI an
ur b
Ġst om
ĠB rian
Ġcon ference
Ġcon flict
Ġpl aus
ĠF ree
Ġtr ave
ĠJ e
ĠJ ason
Ġpr a
pl ing
ick ets
ra ig
Ġequ ival
Ġequ ipment
uc ks
Ġwal ks
Ġside walk
Ġcall s
Ġfall ing
Ġgramm ar
b oy
Ġl ink
os a
Ġr id
ĠL ord
oc olate
ear s
ild ing
Ġcr isis
Ġinv olve
Ġgirl friend
ĠSe a
Ġcare ful
Ġdirect ion
tic ip
Ġpri or
ĠCent ral
rel ated
Ġter rit
ĠGener al
Ġet c
Ġacadem ic
4 1
c ast
Ġs an
Ġth ick
Ġbe ar
os c
ĠP C
ĠD ist
act ion
Ġde ar
Ġ3 6
Ġinv iting
Ġext reme
Ġcontin ues
Ġpoll ution
ĠGree k
Ġdisappoint ing
Ġeurope an
Ġs ings
an swer
as hing
Ġh uge
Ġh undred
Ġl iver
ir ts
Ġman aged
Ġact ors
Ġspecial izing
Ġdr iver
Ġrock et
Ġplan ning
Ġtransl ates
Ġlaw y
Ġprep aring
Ġwat ched
E N
F L
i ations
j amin
o e
r ence
Ġc ats
Ġp ages
Ġb ow
ou b
Ġd irty
Ġin h
om en
ot a
ĠP ress
ĠD own
cl usion
ost on
ond a
Ġev idence
Ġmean ings
res ent
ĠBe an
Ġopen ing
go ing
Ġprep are
ĠBir th
Ġdeterm ined
irgin ia
Ġs ang
Ġn ick
um an
Ġfe ar
az on
Ġgrow s
ĠShe p
Ġstand ard
Ġarr ay
Ġsuccess fully
Ġlay ers
ĠAngel es
Ġhistor ical
Ġcru cial
Ġmamm als
s es
en c
Ġw itness
Ġp ed
te br
ar i
Ġcon vert
Ġv ast
Ġfr ust
Ġch ance
Ġpar ent
Ġsee ing
Ġdef ense
Ġ9 0
ĠGr and
Ġwood en
ĠOh io
ĠHen ry
8 3
or age
it iz
Ġp iano
ro at
Ġr ot
ĠG al
ĠH ome
Ġpl atform
Ġpr on
ĠO s
Ġac qu
Ġ3 2
Ġloc ations
Ġph il
Ġsm iling
Ġprodu ces
Ġgu id
Ġpol icy
ĠAust ria
oll y
Ġfall s
Ġla unch
Ġvol ume
Con text
Ġlibr ary
Ġequival ent
5 6
a led
h ave
l ie
o x
Ġc ases
Ġc ards
as tern
ĠS ur
ĠB attle
Ġthere fore
Ġbl ond
ric ia
Ġspecial izes
Ġuse ful
ĠSe ason
Ġstud io
Ġeng aging
ĠAp ollo
Ġdig it
ĠAtlant ic
Ġmat ches
Ġtro ops
Ġgro cer
1 00
J ohn
l i
l ook
Ġm all
Ġg ain
Ġr om
Ġr ul
ĠW ay
ĠF ood
oun g
Ġpr est
Ġal though
Ġwor ry
Ġap ple
Ġher self
ru pt
ne ll
.. ..
Ġrequ est
Ġresp ons
ĠPar is
Ġadult s
Ġsubst ance
Ġlim ited
Ġbas ic
Ġec osystem
Ġdanger ous
" "
M ar
S p
Ġa id
Ġm ys
ar f
ĠA ke
Ġr acing
ri er
ĠM ake
Ġex change
Ġpr ison
ĠK ay
Ġro of
Ġup per
Ġup coming
Ġver ifying
Ġfl o
Ġcol lection
Ġend s
amp ion
Ġsl ower
Ġ16 34
ĠChrist opher
Ġwall s
O T
Ġt one
Ġf ro
Ġan ticip
as ion
Ġh un
Ġh orses
Ġte en
ĠE v
Ġcor ner
ĠĠ ĠĠ
ab a
Ġspe ct
ĠCon s
ĠAnd erson
NA ME
less ly
Ġla un
ĠSw ed
Ġdisapp ointed
Ġlisten ing
Ġveget ables
Ġtraff ic
E NT
N ame
r ig
r ich
it ter
Ġb illion
ut t
ri ble
ĠJ on
oc king
Ġman agement
ĠCh ampionship
Ġ3 8
ne ys
ĠHe llo
Ġknow s
Ġ[ -
Ġfact ors
Ġcre ates
com fort
Ġdist rib
Ġann oy
Ġinj ury
Ġinn ov
Ġinsect s
ĠAke em
7 3
M A
j e
Ġf oss
ou ston
Ġr ates
ĠB est
ĠB ib
ĠM ac
ĠE very
Ġat om
Ġk ore
Ġcomm and
Ġ4 8
Ġcr icket
?? ??
Ġinte gr
Ġlaw s
ĠCor p
ĠReg ional
ograph y
ĠChar les
Ġmotor cy
Ġneighbor hood
e per
le g
ĠT ree
ol is
ĠH ill
Ġhe ight
ul ated
Ġpr iced
Ġvis ited
Ġkeep s
Ġdraw ing
Ġposs ibly
Ġkill ing
7 6
g ood
Ġt ight
Ġf ence
Ġf ail
as y
ll s
Ġl as
ĠA ut
Ġr ail
od ay
ĠM ah
Ġsh iny
Ġnot able
Ġcom mer
Ġse at
Ġun f
our s
Ġ3 9
get t
Ġair craft
Ġrep ublic
Ġphr ases
ino is
Ġstri p
Ġnest led
ĠSugg ested
F C
b orn
o ons
s hip
ri lling
ĠR yan
Ġwould n
Ġdescrib ing
Ġcomm as
Ġmus e
Ġrel igious
Ġcr ime
Ġpair s
Ġmen u
Ġchang ing
oph y
Ġfurn iture
Ġprest igious
g ium
Ġ __
in als
it an
it ted
Ġl oud
ot ion
Ġe ater
Ġor g
ĠO ur
ĠY e
Ġfl avor
ee p
Ġpres erv
Ġgu ard
Ġdown load
ĠZ ealand
ĠUS A
ĠIsrael i
4 3
h agen
Ġc m
Ġf irm
Ġp ush
Ġm al
ĠC ivil
Ġne got
st ream
ĠR el
ĠL ove
rit y
Ġcl imate
Ġro ots
Ġ200 3
ids ummer
Ġint ric
Ġmag ma
Ġeduc ation
Ġtool s
ĠDon ald
Ġaspect s
Ġexcell ent
Ġpron oun
Ġf an
ĠW al
ĠR ad
ĠN AS
Ġse ed
Ġbec oming
Ġwor ried
ild ren
Ġsc ary
Ġcons ists
pos es
Ġoper ation
Ġtravel s
ĠSte ven
Ġpri ze
U M
g n
i ar
s m
Ġw ine
Ġf ab
Ġl ux
ay ing
ĠC D
ri p
Ġcon c
ĠD ate
ab eth
put er
Ġcar ried
ĠV ol
Ġchar ges
Ġ200 2
ĠCan adian
ĠNew s
ĠSc ot
Ġoffic er
Ġincre asing
Ġclass ified
ĠWill iams
Ġbott le
Ġwest ern
c ons
f all
r ant
u ke
ate ur
ad ow
st anding
ĠJ esus
Ġac ce
Ġfl ood
ign ed
Ġelect rical
Ġprote ction
Ġlaw n
Ġabs olute
Ġbag s
Ġstat ue
Ġpurch ase
ĠJenn ifer
hy th
ĠAcadem y
0 3
W as
b ian
g as
k r
k ins
l ad
u f
re t
am ing
ur ies
ad ing
ĠL es
Ġtr ail
Ġun if
Ġcl ick
ass oc
ask a
Ġsc ared
Ġacc used
Ġind ul
Ġfact ually
Ġinter ested
Ġeng aged
Ġeffect ive
Ġident ified
imb ap
Ġdrin ks
sem bly
ĠThom as
h an
p ool
Ġf le
Ġn ine
ĠA L
ĠS al
ĠP o
ol ved
Ġse qu
Ġk iss
Ġsp ores
Ġdata base
Ġshow er
Ġco at
ĠIs land
Ġatt acks
Ġi P
Ġproper ty
Ġsign s
Ġbus h
Ġexpress ion
Ġbelie ved
Ġste el
ĠCent er
Ġsurround ing
Ġinit ial
ĠServ ice
ynth ia
ĠShep ard
5 9
c oh
w w
Ġc ub
us ter
ĠS us
Ġre duce
Ġst orm
ĠP ower
Ġne ck
if fer
ant ha
Ġpl astic
el ess
Ġte a
ĠE ven
iz abeth
Ġyour self
Ġ3 7
Ġres ist
Ġpar king
ĠAl though
Ġadd ition
Ġwork er
Ġche er
els on
Ġprote ins
Ġrefer red
Ġsold ier
Ġmeas ures
Ġremain ing
ĠRec ords
ĠMat thew
Ġclimb ing
Ġindepend ent
Ġpil ot
A Y
E n
U S
h ow
Ġf ant
ar ge
Ġd om
ĠS il
Ġr ule
ĠP an
il a
ant ing
ĠH unter
ĠF re
ĠE xt
Ġcom ic
ĠN ations
Ġro d
Ġthan ks
Ġmus cle
Ġdr ama
Ġsee k
Ġmag ical
Ġnet work
Sh ort
Ġspo kes
Ġmanufactur er
ĠSecret ary
Ġeater y
E m
N ew
v est
er als
Ġd il
ll y
ĠA ward
ĠC raig
Ġfor got
Ġst ores
ĠB ank
ĠM od
ac hel
ĠF ire
ile t
ĠRe qu
Ġcar ries
Ġexpl ore
Ġanim ated
Ġclass es
Ġorgan ic
acks on
ĠTur k
Ġexh ib
OC ATION
Ġnerv ous
ĠCricket ers
ĠIll inois
0 6
B r
b ut
r ough
Ġt ub
Ġs um
Ġm ad
Ġh ug
Ġr out
ur d
se lect
ĠD um
Ġch inese
Ġch ocolate
ĠL i
Ġfil ter
Ġfour th
Ġes te
Ġadv ice
Ġanal ysis
ĠSte ve
ĠPerson Y
ĠSm ith
Ġcere mon
Ġastron aut
0 7
A t
O ne
b ar
ĠA ld
ĠA vailable
Ġr ow
ĠH mmm
ĠD NA
and e
Ġtr ust
Ġdes ert
ind er
Ġfact ory
ph ant
Ġass ume
Ġsit s
Ġmet icul
Ġinte llig
Ġdest roy
Ġcand y
ĠAtlant a
ĠQue en
is hes
or a
Ġc ute
Ġb ound
Ġb ond
Ġn or
us es
ant ically
ĠM idsummer
Ġfr ench
ble d
ov es
Ġpr int
ĠK at
Ġres erv
ict ures
Ġad apt
Ġdi am
Ġmem ory
Ġseason s
Ġassoc iation
ĠPal estinian
aps is
Ġconst ant
roph y
ĠCoun cil
Ġstom ach
B oth
h d
h ol
m ond
s he
Ġp urs
Ġan ger
Ġh orm
ĠC ong
Ġv oc
ist ers
ĠO cean
Ġsp ring
Ġgr ace
Ġfe wer
ĠK l
Ġlong est
ric ult
ĠRem ember
Ġoper ations
Ġsyn t
Ġthous ands
Ġaust ral
Ġtas ks
ĠAssoc iation
ĠBib imbap
g u
n am
he art
er g
Ġc itiz
ar en
ed er
Ġn avig
ct ors
Ġr ent
ate ll
ĠH y
ĠD anish
Ġcom bine
udd en
Ġmark ets
Ġport ray
cc a
ĠPat ricia
Ġairpl ane
atal ie
V D
s en
in st
Ġc ore
Ġn arr
Ġbe at
ĠS ir
ĠP et
ĠP ut
ul ations
ĠJ r
Ġout f
em ed
Ġro se
Ġequ al
the y
Ġstre ets
ĠCar ol
Ġtw ice
Ġview s
Ġparticular ly
Ġsecret ary
ĠSen ate
Ġpuzz le
4 2
B y
p an
t aking
Ġ odd
Ġf aces
Ġto ward
Ġin fect
Ġh ide
Ġh aven
ĠW all
ad er
ĠB oston
ĠG et
ap ers
ac le
ĠL atin
ĠIn ter
up s
ĠCh urch
ale m
Ġmus h
Ġsk i
Ġval ues
Ġgl ad
ĠAm azon
Ġpret end
Ġinvol ving
Ġprot est
Ġwat ers
Ġearn ed
Ġlit er
AD ER
Ġcred it
Ġhung ry
Ġmemor able
E C
h al
Ġin tern
ĠS or
ĠS ant
Ġst orage
ĠB akers
ĠL OCATION
Ġun cle
Ġal ike
ĠRe v
Ġfun ctions
Ġpass ion
Re ason
fact ory
por ary
Ġalphab et
open hagen
ĠLE ADER
Ġlaun ched
Ġmeticul ously
0 8
7 8
P r
m ade
Ġs ail
Ġs ink
Ġst y
Ġv ia
ĠM ount
ĠH onda
ĠN BA
ĠL anka
ĠJ ew
ĠV irginia
Ġsec ure
Ġbre aking
Ġfix ed
Ġdep ending
Ġmess ages
Ġlog ic
Ġcand id
Ġsen ior
Ġcreat or
Ar t
Ġdipl om
hyth m
b el
i ately
j an
r id
en ge
re hens
al se
Ġd ad
ĠT owns
Ġg ases
am et
ĠB ake
il ty
if iable
ill ar
Ġtr ick
Ġde tect
Ġo k
app ro
Ġexp and
Ġstar ring
Ġschool s
Ġlove ly
Ġ199 9
Ġwind ows
Ġconf ident
Ġtele phone
ĠEl ena
Ġswe at
Ġentertain ment
Ġkilomet ers
Ġprem ier
Ġerr ors
ĠFel icia
Ġgrav ity
ĠCour t
M us
d en
Ġs le
Ġd essert
ot os
ĠS om
ĠP arl
ree ment
Ġbr ack
res ted
cre te
Ġ6 5
Ġeng age
Ġgen etic
AT E
ĠJo el
Ġveh icles
Ġsurv ive
ĠIns tead
Ġbrit ish
assoc iated
f ace
o ke
he t
he im
Ġh y
Ġh om
ĠA M
ĠI II
Ġst adium
ag s
ĠF all
ĠO il
Ġma il
ĠAdd itionally
Ġwal ked
Ġed ge
Ġ199 8
ĠJust in
ĠChrist ine
ĠJess ica
Ġchemical s
Ġsurround ed
f ish
r am
v o
Ġc el
Ġth us
ot al
ĠW il
out he
Ġ1 10
Ġfr uits
st ar
ĠE uro
ĠJ ane
ud an
rib ute
Ġ3 3
Ġ3 4
ĠAl so
Ġad vert
az e
Ġsecond s
Ġjob s
ĠAb d
Ġleg isl
Ġcomput ers
Ġeffect s
ĠRoman ia
Ġprefer red
ĠInst itute
r as
Ġt im
Ġt ickets
in ated
Ġs of
Ġp ants
Ġm or
ar an
Ġto wer
ent le
Ġd u
Ġl oad
Ġr ib
ĠR om
el a
Ġcor por
Ġac ids
Ġbl ock
Ġbr and
Ġlist s
Ġfind s
Ġform ation
Ġreg ional
be cca
ĠPl an
Ġprofess ion
ĠEl izabeth
ĠAngel a
Ġgrad u
Ġvirus es
thes is
Ġweap ons
Ġfab ric
I D
O S
l t
is p
Ġf iction
Ġf oster
ĠT oday
Ġl abor
et ration
Ġr isk
ĠB acon
um es
Ġwas h
ant ic
ĠN ick
ĠL ast
pt h
ĠJ ac
Ġk ick
Ġother wise
Ġnear ly
ĠAs k
ĠCon f
Ġexper iment
Ġtop ics
Ġinter view
Ġstud ying
Ġhead qu
sh ire
Ġath let
ĠHar ry
Ġra ised
Ġinj ured
Ġscen ic
Ġbutter fly
Ġchalleng es
Ġdissatis faction
Ġton ight
Ġpul led
6 7
Y es
d raw
y et
Ġs at
Ġs ort
es ome
Ġn ic
Ġh am
Ġg arn
ĠS omet
il ation
Ġcon cent
ĠM ont
ĠH ouston
Ġfr ame
Ġhe ated
Ġsh ore
Ġpl ates
art s
ip ed
Ġro pe
ict s
ens es
anc o
Ġvis iting
vers e
Ġarr ive
Ġ198 9
Ġpen cil
Ġpick ed
Ġur ban
ĠBen jamin
Com plete
Ġaccompl ish
Ġearthqu ake
ĠBake well
F irst
c king
c over
f ire
s y
z en
Ġf ought
Ġm ature
Ġd omin
Ġh o
Ġl acks
ro ll
ĠP enn
Ġch osen
Ġun w
Ġal coh
Ġim ages
Ġact s
Ġshe ep
Ġind ia
Ġgu ide
Ġsl ide
eng ers
Ġprote in
Ġoper a
Ġjo ined
isc ons
Ġcontrib uting
Ġmultip ly
Ġlab el
ĠBet ty
ĠAlf red
ĠCre ate
Ġvess els
ĠAle ks
Ġb oring
ar ry
as p
Ġl apt
et he
Ġr ug
ĠF our
ab el
Ġpre par
any a
Ġrep air
Ġtri al
Ġstre t
athe mat
ĠEm ily
Ġcoll abor
Ġsurv ival
Ġcas ual
Ġdeg ree
Ġmush room
ĠTowns hip
iscons in
. '
E G
c r
Ġm ood
Ġd yn
Ġh ate
ĠT al
Ġg one
ĠS and
ĠB owl
Ġas leep
Ġat oms
ĠN orthern
ĠO ld
Ġj ohn
Ġso ap
Ġeat s
aw n
apan ese
Ġdiscuss ing
ĠSer ies
ĠTur key
Ġimmed iately
ĠDum pling
( -
5 2
a ith
c a
g ian
l isher
er us
Ġs am
Ġs udden
Ġd ies
ĠT or
Ġl ad
ot ic
ve land
ĠB an
ĠM iddle
Ġfr iction
and on
ĠR og
ĠE th
Ġme ant
act ically
ĠTh ank
du cing
Ġap ples
Ġfl our
Ġ4 2
Ġtal ent
Ġatt ended
ĠAr my
Ġlower case
Ġ199 4
Ġgen us
dom in
ĠKore an
Ġcompos er
was her
Ġgar age
Ġrecover y
Ġpred ict
ĠTechn ology
Ġfert il
Ġorg ans
b a
y ard
Ġf ict
Ġd ream
Ġre pe
op t
ĠP ublic
ĠG rey
Ġhe ro
Ġnot iced
Ġun its
Ġbut ton
Ġhapp ily
Ġover l
Ġatt ached
ock et
ĠAm y
Ġsugg ested
Ġwarm th
Ġep och
ĠPort ug
Ġer osion
Ġpal estinian
Ġwide ly
Ġoccur red
Ġapprec iate
ĠMed ia
Ġsem antically
Ġanaly ze
Ġcommunic ation
raf ted
ĠDep artment
Ġcompon ents
Ġcooper ation
ĠScot land
- -
6 3
9 8
B and
F or
O L
T hat
Ġ ille
Ġ icon
Ġin structions
ic ide
ce ment
Ġl osing
est ive
ĠC ynthia
Ġr ou
ig r
ac ific
Ġpro posed
ĠR aj
ĠF ore
ist r
Ġsome where
ĠSt adium
Ġent ities
Ch ain
Ġpass ing
be ing
Ġext ensive
Ġmar ch
ĠPr ince
Ġvisit ors
Ġeffect ively
Ġdem and
Ġdeb ut
ĠMus lim
ĠBel gium
Ġschedu led
Ġmuse um
Ġceremon y
Ġsynt actically
rehens ive
ĠParl iament
B ER
k in
r ick
Ġc hat
Ġin qu
Ġn ative
ĠThe ir
im s
ĠB ase
ĠR est
ĠR achel
Ġk idd
Ġar rested
ren a
Ġrel ig
Ġsk illed
Ġgu ilty
Ġz one
Ġrece iving
Ġadv ant
Ġnumer ous
Ġincor por
Ġ195 5
ĠPar agraph
Ġsubst ances
Ġviol ence
. )
7 1
l o
s pe
or gan
Ġc oc
Ġf ailed
ĠT aste
ĠS u
ĠC amp
ĠC openhagen
im et
ad ed
ĠE ach
port ant
Ġpart ner
Ġke ys
ph r
Ġsup ply
ĠSh ow
ĠAb out
Ġsad ness
ipp ing
Ġsuc ceed
atter ing
ĠDan iel
Ġov en
Ġseem ed
Ġcirc uit
Ġairpl anes
Ġum bre
ĠKenn eth
tebr ates
Ġcommer cial
iffer ent
7 9
= =
I R
P re
t own
v i
Ġc ash
re al
Ġm obile
ĠT H
Ġr ack
ers e
Ġst ated
ĠG e
Ġv en
Ġwas hing
ov ing
ĠCon nect
Ġbo ats
Ġdi et
ĠSe ver
ĠBr own
Ġ196 0
Ġwood s
Ġur ged
Ġphys ics
Ġreact ions
Ġlaugh ing
iqu es
clus ive
5 3
g s
i llow
p ower
t an
w a
Ġt icket
en ger
Ġthe r
Ġs ch
Ġs ac
ĠT ype
ĠA P
ĠB in
ĠP en
od ge
ĠM er
ie ved
ac ity
ĠJ ackson
Ġwhe el
Ġaf fected
ra id
Ġhel per
Ġimport ance
Ġstr ings
Ġcr im
Ġput s
ĠLe g
Ġmem ories
Ġcontain er
Ġstruct ures
Ġtemper atures
Ġfre ed
Ġmir ror
A meric
a ud
n el
p ack
w ing
Ġa qu
Ġp ond
Ġl ie
Ġre form
Ġre tain
ĠC ast
Ġst ood
ĠH o
ĠR oyal
ĠN elson
ĠL uc
ĠIn t
Ġun to
we ight
Ġcl ock
Ġcomp ounds
Ġtrans form
Ġrec ipe
Ġsup ports
ĠAb raham
Ġcontin ued
Ġprogr amm
Ġlay er
Ġra ise
Ġill ust
Ġdrug s
Ġ\ $
Ġhighlight s
Ġbrack ets
B l
D e
l ife
m ail
o z
r im
Ġt v
Ġc ased
Ġf acing
ar row
ĠB av
Ġnot ice
Ġcom ments
Ġun for
Ġac cept
Ġcomp are
og s
og en
Ġent ail
ath olic
ĠIs l
ĠNe il
Ġsim plify
Ġinter act
ĠBl ood
iet nam
Ġorder ed
Ġ199 3
Ġpur ple
ĠDef initely
Ġsym pt
Ġdrop ped
Im plicit
ĠLaw rence
Ġcabin et
Ġgrocer y
Ġmotorcy cle
0 9
p illar
u able
Ġ id
at i
Ġc ock
Ġp or
Ġl az
am an
Ġwh om
ĠP op
od s
il ene
ov a
ĠN iger
Ġthem e
Ġbl ocks
Ġcons erv
ĠAr ch
Ġsup posed
ĠAf ghanistan
Ġplan ned
Ġ199 0
Ġ199 5
ĠTe xt
Ġrev olution
Ġsatis factory
Ġjump s
Ġsafe ly
Ġrecord ed
Ġste am
water ing
ĠComm ission
Cl ue
ĠCle veland
Ġcryst als
ĠNAS A
ĠAld rin
Ġcitiz ens
c al
d es
Ġs tem
Ġw ound
Ġf estival
Ġth rew
ĠT enn
est one
Ġg al
ot o
Ġr ice
ĠW isconsin
ĠD id
ĠR ay
ĠN atalie
ĠIn f
Ġde pos
Ġim ple
ĠSt an
ĠSt ock
Ġbl end
ign it
Ġ4 4
Ġbr ush
Ġcre ative
Ġfriends hip
ĠAb ilene
dom ain
ĠEn ron
Ġfocus ed
ED I
Ġkid neys
Ġhistor ic
ĠSumm er
ĠArt icle
Ġemploy ees
Ġdisappoint ment
Ġhang ing
Ġrap id
ĠAy am
ĠLind sey
Ġwonder ful
ĠPos itive
Ġeste emed
0 5
6 2
R em
V I
h r
j o
p a
on ym
it age
Ġn ap
Ġg entle
ĠW ood
ĠB ee
ap pe
Ġ= ==
Ġch ampion
ang ing
ab ama
ĠK en
ail and
ĠRe al
ĠRe becca
ĠEng ine
Ġeas tern
Ġcall ing
Ġwr est
Ġdep artment
ĠOr gan
Ġcomb ination
Ġsurpr ised
Ġcop y
Ġut il
Ġruss ian
Ġenh ance
Ġcompe te
osc ow
Ġlawy er
Ġfoss il
hd ad
ĠAbd ul
7 2
E O
\ *
h im
i ary
p ie
u um
Ġb id
Ġb ands
ĠT ake
ĠS ix
Ġfood s
hes s
ree k
Ġres idents
ob l
Ġcre w
ĠDe ath
omm od
Ġhard er
Ġprof it
Ġdish washer
Ġsmo ke
Ġcomb ined
ĠMe gan
ĠPol and
Ġparticip ate
Ġparticip ating
ĠUp date
Ġ\ *
Ġadmin istration
Ġmill ions
ĠIr ish
Ġcontro vers
atell ite
Ġfict ional
on ia
Ġf ing
Ġm it
al og
om y
un der
ag ers
ĠH al
Ġch lor
ĠN FL
Ġen ch
ject ive
Ġacc ommod
Ġrel ief
Ġ7 5
Ġapp oint
ĠPre m
Ġhand le
ĠBar ack
Ġpast a
ĠAc ura
ĠPol ish
Ġcoun cil
Ġrepro duction
Ġsett le
Ġtit les
Ġisrael i
wor ks
ĠCharl ie
ĠDist rict
Ġnick name
H amster
b ra
Ġthe ater
Ġc overs
Ġp ump
ar acter
Ġl in
ĠC all
ĠW he
ĠB BC
ol ine
Ġhe ating
ĠF ull
ĠE s
Ġal ive
Ġcomp let
ious ly
Ġpub lisher
Ġexp ans
Ġpot ato
Ġball s
Ġ198 0
Ġes cape
Ġadv ance
Ġtreat s
Ġleaders hip
Ġassociated Band
Ġcontrib ute
Ġharm ful
Ġpack age
Ġhyd rogen
Ġconsist ently
Ġaim ed
Ġopportun ity
Art ist
Ġlapt op
Ġkidd o
b ow
s ure
Ġ ;
Ġs oup
it er
ed ed
Ġl ift
Ġl isted
ig are
ĠB oy
Ġv ary
ĠH ave
ĠH ard
el ing
ov en
Ġcor n
Ġgr ade
Ġ5 4
Ġcomp ar
Ġap olog
ical Artist
iss ipp
ĠAr gent
Ġstr ict
ĠDe c
yl van
Ġorgan ized
Ġann ual
ĠCr isis
Ġsmo king
cel ona
ster dam
Ġamid st
Mus icalArtist
associated MusicalArtist
ĠBin ignit
issipp i
0 4
9 1
m ented
Ġs ust
or is
or ough
Ġp a
Ġan x
Ġg eor
os m
ri age
Ġst yl
Ġas ian
ĠH am
Ġpro p
Ġhe aring
ĠD ick
Ġch rom
Ġch annel
Ġj an
av al
ĠK im
Ġro les
ru ption
Ġag ent
Ġsu ff
ens us
urn ame
Ġexpl or
Ġinput s
Ġmin istry
Ġdiv ided
yn thesis
Ġ196 3
Ġrecommend ation
Ġenvironment al
Ġir an
ĠChe mical
Ġinflu ence
Ġcompos ed
Ġaccompl ished
Ġsil ver
Ġshel ter
ĠTurn er
Ġtiss ue
I ON
c at
f ied
r up
Ġw ore
Ġf u
Ġf art
Ġis lands
ĠA ston
Ġg rew
Ġfor t
ur se
ve y
ĠB ag
Ġsh irts
ĠD ie
ĠF ar
Ġch ances
Ġpre domin
Ġ3 00
Ġdis ag
Ġbl ues
cept ion
ĠAdd is
Ġend ing
ĠWe b
Ġeng lish
ene w
Ġcou ch
Ġindust rial
Ġstreng then
Ġkilomet res
Ġemer gency
Ġalle ged
Ġelectron ic
Ġrelig ion
P er
b urn
l ines
v in
Ġt un
at re
ou red
Ġd ense
Ġh yp
ĠC ard
Ġwith draw
if ts
Ġv ent
Ġv ow
ĠH ol
Ġhe av
ĠD VD
ĠL ogan
Ġj ew
ĠSt at
Ġwhere as
Ġbr ows
ĠAr g
Ġbo asting
Ġcr ust
Ġkind s
ĠAb aba
Ġbusiness es
Ġperfect ly
ĠFl int
AR T
Ġcy cl
ĠRep resent
Ġreach ing
Ġprefer ences
Ġassist ant
Ġmo ist
rent o
ĠSor rento
A b
C or
U N
s ome
w in
Ġ owl
Ġt its
Ġb le
Ġb ooking
Ġto dd
ic ial
Ġh idden
Ġg all
os ted
Ġfor th
ast ers
Ġma xim
em bers
Ġver ifiable
the m
Ġreg ions
Ġlight s
Ġmed al
Ġret ail
Ġyoung er
Ġcost ume
Ġcook ed
Ġlay ing
ĠChe ck
Ġharm on
add y
ĠBu zz
Ġlov ing
Ġgrad ually
Ġrecogn ize
Ġinstr uments
Ġenthusi asts
Ġgym n
Ġbatter y
gett able
ylvan ia
S E
S c
i ac
r ate
Ġw ake
Ġc her
Ġf aced
Ġd an
Ġin ner
ic op
Ġn urs
Ġh ub
ĠT em
ct ional
ĠS quare
ĠC ategory
ĠW in
Ġcon sequ
ĠR ib
el ines
ĠL ife
Ġli ber
art ers
Ġar en
Ġeat en
Ġcomm ander
ĠAl aska
Ġshould er
Ġ6 4
Ġass ess
ton ym
Ġclass ify
Ġinc hes
Ġprom ote
Ġfield s
Ġpen yet
ĠMe eting
Ġproject s
Ġposs ess
ĠPerson X
Ġteach ing
h yd
l ong
m iss
z ing
Ġf lex
om er
Ġh oney
ĠT imes
ĠT aiwan
Ġe u
Ġr are
ĠB al
ĠB ible
ĠB ook
ch oices
Ġv it
ĠM end
Ġpro pos
ĠR o
oc ked
ĠY ear
ĠTh us
ab s
Ġwor se
Ġ4 6
cre en
Ġexper ts
Ġpo et
Ġval uable
ros c
Ġel im
Ġmag ic
ĠEn ter
Ġstay ing
Ġprevious ly
Ġpay ing
Ġcir cle
ĠSam uel
ĠRoman ian
Ġconve ys
Ġhop es
Ġevalu ate
Ġterrit ory
Ġinnov ative
: "
I F
r ina
s id
Ġt ough
Ġs illy
Ġm art
est ial
Ġbe es
ĠD ennis
ul in
Ġwe ak
Ġ. .
Ġen em
cl aim
Ġso le
Ġro de
Ġsol o
ell y
Ġdr ag
Ġbo ost
Ġmin erals
Ġint ended
Ġlive ly
Ġexam ples
ĠEn d
Ġ197 0
Ġspeak er
ĠWest ern
ĠMex ican
Ġaccident ally
Ġhon or
Ġskill fully
Ġje ans
ĠBav arian
c ut
k il
Ġ |
Ġt ap
Ġt ables
Ġf alse
Ġm ouse
Ġto ilet
Ġh oles
ĠS y
Ġre duced
ĠC ould
Ġtr icks
Ġpr ay
Ġcl im
Ġ5 00
ber ry
ĠSt ation
ĠSt ud
Ġag ricult
Ġsad ly
ern al
Ġ25 0
Ġcompet itive
Ġmass ive
Ġbreat he
Ġimprove ment
ĠMus ic
ĠMiss issippi
Ġque en
ĠSub tract
ĠGovern ment
Ġpudd ing
ĠKay la
Ġintellig ence
i pl
r us
u h
Ġw id
it is
Ġd raft
ic ate
ly ing
ĠC O
Ġcon sec
ĠM ot
Ġpro ceed
ĠR andy
ov iet
act ive
th is
ĠTh ree
Ġcar pet
ĠAl abama
ĠV er
Ġam ateur
ĠNe gative
Ġprocess es
Ġins urance
Ġsup ported
Ġsur ger
Ġref r
Ġdep end
Ġbox es
Ġpract icing
ĠAar hus
ĠSam antha
ĠNational ity
Ġill ness
Ġconsum ption
Ġfeed back
ĠLes lie
I L
R OU
p op
w orms
Ġs ession
Ġm old
Ġd ensity
ow e
ĠS C
Ġy ork
qu ality
Ġre ality
ĠC ap
um ph
ĠH aw
ac c
ĠD un
ĠL as
Ġtr uth
Ġpr inc
Ġsp erm
Ġmake up
ĠRe bell
Ġgood s
Ġbl ow
Ġev olution
Ġdifferent ly
Ġenjoy s
Ġstand ards
Ġret ired
Ġpot atoes
ĠAm sterdam
Ġpain ted
err ick
ming ham
Tr ans
Ġdiscuss ion
Ġfocus ing
Ġ) :
Ġinvest ment
Ġgold en
Ġpan cre
ĠWith out
Ġexpect ations
Ġcommit ment
ĠDem ocratic
Ġruss ia
Ġbreath taking
Or igin
Ġrub ber
ĠEll iot
Ġintric ate
ĠKl ink
Ġcel estial
Ġalcoh ol
5 1
8 7
R eturn
f amily
h ai
i op
r ance
Ġc igare
Ġd ut
ĠT ry
Ġr ival
Ġst unning
ke ep
ĠB ab
ĠB ird
ĠM en
ĠM id
ĠE rin
ĠN ative
Ġcont est
ress ion
Ġact ively
Ġart icles
ĠCon ference
Ġad just
Ġjo int
Ġdig ital
Ġwel come
Ġapprec iation
IT Y
ĠJeff rey
Ġtit led
anches ter
Ġ__ __
Ġindul ge
9 3
B S
g ie
h as
r ome
s ylvania
Ġs od
Ġb orrow
ion e
Ġd ent
ĠC ow
Ġst ored
ap ing
ĠD ave
ĠR on
ĠR oad
ĠF amily
Ġse lected
Ġli es
cl ass
Ġperson ality
Ġbu ll
Ġcap acity
Ġfun gi
ĠAs am
Ġcol lected
ĠCom puter
amp shire
Ġpass engers
Ġrequ ests
Ġperform ances
ung le
Ġsoc iety
Ġ199 7
Ġconf idence
Ġ198 4
Ġ198 7
Ġcontin ent
Ġu h
Ġsearch ing
sc ale
ij ing
ĠChar acter
Ġchalleng ing
Ġelev ation
Ġpattern s
Ġcho osing
Ġhabit at
ĠAleks and
Ġlaz y
obl anco
ĠRebell ion
6 1
B ig
I P
b ee
k o
Ġa x
Ġw ings
Ġm ine
Ġin fl
ic ted
ĠT re
ĠA venue
Ġr ides
Ġfor get
ri l
ĠP ictures
ant ry
Ġdes ire
Ġpe p
Ġman ner
Ġout come
Ġop ens
ress ed
Ġcap tain
Ġbr anch
Ġent ered
Ġche f
the re
Ġtri es
Ġele phant
Ġcur ious
oft ware
Ġsupport ing
Ġclub s
ĠIraq i
Ġinvest ors
Ġfig ures
ĠDan cer
ky o
ĠFranc isco
Ġunif orm
ĠRog er
) "
N ot
b al
p ers
s ur
t wo
Ġt ail
in cess
Ġb in
Ġb oo
Ġm ud
Ġto oth
Ġn arrow
ĠA T
ro id
os h
Ġr ising
ut s
her ent
Ġcon clusion
ter ies
hat tan
ĠL ook
Ġplay ful
ĠAn a
ath an
ric ane
Ġche cking
Ġdef in
Ġmin or
Ġmiss ed
ĠCl inton
Ġbre aks
plic ity
Ġpur poses
Ġtre as
Ġdeath Place
Ġye ah
Ġav o
Ġtour ists
Ġscen ario
reg on
Ġsex ual
Ġapply ing
Ġeleg ant
Ġille gal
Ġunfor gettable
0 2
P rop
l ah
w hel
y ond
Ġthe ory
Ġs oph
Ġm es
Ġm ommy
ĠT er
Ġe ars
qu er
ĠW or
ĠW ork
ĠM anchester
Ġpl ot
ĠD isc
Ġnot es
ĠO regon
Ġj ail
Ġpre gn
Ġhel met
Ġthr owing
Ġpo le
au g
Ġvis ual
Ġz oo
Ġorgan iz
Ġ199 6
Ġsugg esting
uff y
Ġbelie f
Ġur ine
Ġmach ines
ĠSer ie
Ġphotos ynthesis
gl asses
Ġprec ise
ĠAj oblanco
Ġpleas ant
Ġeager ly
je cted
Ġkore a
Ġdil ig
Ġfreed om
Ġsurger y
A d
b ro
e le
l as
m atic
r ad
Ġ %
Ġt ie
Ġt rib
Ġa er
on ic
Ġf usion
te ll
ĠI T
ĠS um
ate ful
un te
Ġfo ld
Ġst icks
ĠP unter
ĠG i
ĠD ub
ill ing
ab out
Ġac know
Ġoff ensive
Ġpart ies
Ġem p
ell s
Ġcol umn
Ġsim plicity
ah a
ex pected
Ġsit es
Ġworld wide
Ġ198 6
Ġtre ated
Ġrepres ented
Ġmom ents
Ġsever e
OR D
ĠDav is
Ġdise ases
Ġdoc uments
Ġproud ly
Ġconfirm ed
ĠSec urity
Ġschedu le
Ġafric an
Ġoutf it
ĠCarol ina
Ġcomplet ion
Ġconsec utive
b ury
w orth
Ġ ions
he m
Ġf ired
Ġb one
ar ks
Ġd ur
as hed
ĠT ag
am i
ĠB at
ĠF ederal
ab we
ab ilities
Ġcomp rehensive
00 00
ĠIs n
Ġsong writer
ĠSk y
Ġclos est
imb abwe
Ġrad iation
Ġcontrib uted
Ġmic roph
Ġcart oon
Ġrecogn ized
Ġameric a
Ġsett ings
ĠMa jor
Ġsuffer ing
Americ an
Ġtodd ler
S ince
g t
h op
m aker
at ers
Ġw ax
Ġc a
Ġc hess
ĠA z
id ers
ĠS aint
ir a
Ġr enew
Ġon going
Ġst ability
ĠG irl
um pt
ĠH ampshire
Ġpro sec
ĠF un
Ġse am
Ġpos itions
Ġk in
ĠO w
Ġal ma
Ġaf raid
Ġres ear
atur ally
aw s
Ġob s
Ġwal let
ĠBe ach
Ġown s
Ġsn ack
Ġdevelop ing
Ġrecord s
Ġrelationship s
Ġwat ches
ĠBill y
Ġvac uum
Ġrepro duce
Ġsho ot
ĠBir mingham
AC E
ĠAcc ording
ĠCong ress
appro priate
Ġsoph istic
: -
A p
B Q
E W
R EDI
r un
re ams
Ġp akistan
ĠT L
est ine
Ġg est
ro c
os l
os n
ir atory
ĠG en
ĠM oon
ac les
Ġfr ance
ĠD LL
ĠL oyal
oc ation
ans as
ĠO xygen
Ġsp ray
ĠU kr
Ġim ag
ĠCh in
ĠCh ief
Ġo h
Ġsumm it
Ġcountry side
Ġset s
Ġdef initely
ĠEx planation
Ġfix ing
Ġpret ends
Ġwarm ing
Ġlinguist ic
ocr acy
Ġaw esome
Ġbenef it
cher s
Ġju ice
Ġpun ish
ĠSus an
ĠRequ est
Ġfing ers
I G
a way
f ree
g rity
an ing
le ton
Ġm ixt
Ġin ference
ow der
ay a
ĠP M
ĠH ung
and om
ain ing
Ġse ats
Ġtr uly
all as
Ġgr ay
Ġwor st
Ġrest ing
to od
ne w
Ġche st
Ġatt ending
Ġmy self
Ġexpl ains
Ġstr ange
Ch aracter
Ġhome work
Ġsun g
Ġelect rons
vail ability
rop ical
Ġcolor ed
Ġoper ated
ĠCol omb
Ġdiscuss ed
Ġtechn iques
abb it
AG E
olly wood
ĠSwed en
Ġadvant age
Ġumbre lla
Pre mise
Ġench anting
Ġrefr iger
Prop ose
REDI ENT
8 6
E vent
U B
Y ear
b ed
p oint
r um
s ol
t es
Ġa ired
Ġf aith
te in
Ġm ich
Ġd oub
ic off
ic ien
ot ton
ĠW ee
ĠB ul
ĠM att
ĠK e
Ġhel icop
Ġ4 1
Ġem br
Ġsup plies
Ġfound ation
aw are
com ics
vent ion
ene z
Ġarr ange
duct ive
bor ne
!! !
ĠBu ilding
Ġscient ist
ĠSing le
ĠPer form
bur gh
ĠMad ison
Ġexec utive
Ġscr umpt
ĠOff ice
Ġfrequ ency
ĠScott ish
Ġmechan ical
ĠProv ide
ĠAj ax
comfort able
ĠEngine ering
ĠArg ument
Ġscrumpt ious
/ /
7 4
8 2
9 2
9 6
b ig
d o
s al
x ic
Ġs urname
it u
Ġb ass
Ġb ubb
Ġd im
Ġth y
ĠW ars
Ġst ays
ĠB as
ĠB ath
um ing
oun ter
Ġch rist
Ġsp r
Ġgr at
ind ing
ĠK ate
og a
ob by
Ġshe d
Ġcap able
Ġtrans m
ders tood
gr am
Ġass ass
Ġhum or
ĠBl ues
ĠPl ants
Ġown ers
Ġinte grity
Ġstay ed
Ġbelie ves
Ġpen etration
Ġpeace ful
ĠAg nes
Ġpoll en
Ġrelax ing
Ġburn ed
Ġinj uries
Ġgather ing
Ġsho e
Ġpus hing
Ġpus hed
Ġgrace fully
Ġportray ed
erus alem
ĠRib icoff
5 4
8 1
: //
a is
d is
f ile
m akers
u i
as hes
ĠA ff
ĠA wards
im als
Ġcon tem
Ġv ital
Ġpro s
st ra
ĠF red
Ġme x
Ġse ction
ĠL ittle
Ġrel ieved
Ġmar ks
Ġclass ic
Ġball oon
Ġartist s
Ġ198 1
Ġalong side
ĠAc cess
Ġsuccess or
Ġadv anced
tt p
esc ription
Ġclaim s
Ġburn ing
Ġprob ability
Person X
Ġpers pect
Ġcontr ad
ĠDi rect
Ġextreme ly
Ġspokes man
ĠTurk ish
Ġpancre as
" ).
h igh
i ating
m ulti
r ates
v y
w ar
Ġt or
in ity
Ġs ending
at ically
or al
Ġc rop
Ġb anks
ion ico
ar on
AN G
Ġg erm
ĠS a
ĠS udan
ĠC ost
ĠB ang
ol k
ess ee
and o
ov ie
ĠE p
Ġde pth
Ġ5 1
Ġo x
ĠUn der
ĠAn y
Ġcomm ission
Ġbu ck
Ġfun ctional
Ġint act
Ġeng ines
Ġtest ing
Ġ196 7
Ġauthor ity
Ġmot iv
Ġvide os
Ġscient ists
ĠRepublic an
Ġbenef its
Ġorb ital
Ġexplicit ly
Ġunlike ly
Ġplaus ible
Ġannoy ed
Ġheadqu arters
ĠPenn sylvania
Ġstyl istic
lah oma
) :
H as
X X
a ire
d rop
j ji
z ym
Ġs aved
Ġs atellite
Ġp ic
Ġb ra
Ġl os
us ted
id en
os omes
Ġr ac
ĠW iz
ĠW inter
Ġst ain
ĠB ad
ĠP acific
Ġcon gress
Ġfr ag
Ġcom ed
ĠIn formation
ang ers
Ġop pon
ĠV i
Ġbr ings
Ġfilm ed
Ġgu est
Ġconclud ed
Ġ10 3
Ġcharacter istics
Ġ199 1
sh ot
ush i
ĠTe le
Ġhor iz
Ġcomb ining
Ġstri ke
Ġbrother s
Ġsus pected
ĠAID S
ĠAlb any
ĠSpec ial
Ġvolcan o
ĠSoc ial
outhe ast
Ġfoster ing
Ġcompar ison
Ġmicroph one
P S
n ie
t age
u y
er en
Ġs in
Ġb onds
Ġn omin
Ġe in
ĠS outhern
ĠC L
Ġfor ever
ĠB ack
ĠB ande
ĠD errick
ĠF ill
el ine
ich t
Ġun iverse
Ġwor n
Ġcomp ound
Ġher itage
Ġspec ify
Ġnew ly
Ġfl ash
Ġcar ing
ĠAl p
Ġchar ged
Ġdiffer ences
Ġrel iable
Ġcr ash
pos ition
Ġinv ent
Ġinv ited
Ġunder water
Ġint ense
Ġfamil iar
Ġcontain ed
Ġreturn ing
Ġheart s
There fore
Ġfocus es
Ġabs or
Ġdev ices
Ġbas is
Ġchall enge
Ġfac ilities
Ġentertain ing
Ġfreez ing
Ġarchitect ure
icien cy
comics Character
6 4
C C
D A
N umber
c as
l ation
m ill
u a
u j
u z
Ġt ent
Ġt ies
Ġw ins
Ġf inger
Ġp ocket
Ġl ens
Ġg ast
ĠC uisine
Ġst able
ĠG er
st ers
Ġdo ctors
ĠR eturn
ĠO cc
Ġno ise
ass er
Ġadd s
ific ent
ĠCon cept
Ġrec ording
Ġpo ker
ĠTr ane
Ġpass es
Ġgovern or
Ġsw itch
Ġclose ly
Ġtow el
Ġopin ions
Ġtem ple
ĠForm er
ĠCar rie
Ġimpro ved
Ġdam aged
Ġflower ing
Ġachie ved
ĠFin ally
Ġroll er
Ġreb el
Ġobserv ed
ĠBell a
Ġdeg rees
Ġinsp ired
Ġinvestig ation
Ġshar p
Ġbes ide
fr ont
Ġvoc al
ĠBande ja
Y our
h is
Ġs ons
Ġc ave
Ġth rilling
ic ut
Ġn it
Ġg ear
ly n
Ġqu it
ĠB ionico
ĠP otter
ĠH or
ĠD ou
ĠF ountain
ĠE mp
ĠN one
ĠN ear
aus es
Ġun expected
ĠK yle
ĠSt and
Ġ19 18
ra it
Ġopt im
Ġsu icide
Ġpar as
Ġsm iles
Ġart s
Ġco ord
Ġco eff
Ġco herent
Ġsub sid
Ġmusic ians
ib ilities
com plete
Ġsun glasses
Ġele cted
Ġmem br
erv ed
Ġgreat est
ĠJohn ny
Ġphot ograph
Ġcook ie
Ġbring ing
ĠPat rick
Ġfac ility
ĠEd ward
ĠPhilipp ine
Ġge ograph
Ġrespons ibility
ĠYe ah
ĠRad io
sy ch
ĠFore ign
Ġsympt oms
C H
F INAL
W orld
m b
m ay
w art
is ation
is ible
Ġb ars
Ġd rove
Ġn om
ce ans
us ual
ĠS port
ĠS ara
Ġre put
ĠC es
ur ious
ĠB ern
ĠH ip
ĠF ace
ĠL in
Ġli p
ĠO sc
ĠIt s
Ġcl iff
ĠCh ris
og rap
Ġpart ners
Ġfl uffy
ĠV ietnam
ars h
Ġcre ation
Ġfound er
Ġgu aran
Ġless ons
ins ula
Ġref uge
ism s
Ġdirect ions
Ġresp iratory
Ġinc ident
Ġconvers ations
ik h
ĠStep hen
Ġdep ends
Ġcommun ities
Ġcool ing
Ġteacher s
year s
Ġrelax ed
amb ur
Ġhop ing
ĠNet work
Ġdeliver y
Ġreflect ing
ĠVe gas
Ġterror ism
enc ies
Ġfrust ration
Ġdestroy ed
Ġpredomin antly
Ġdefin itive
9 4
A F
O D
h ost
Ġt aught
Ġc ine
Ġc ous
an i
it ary
it ors
Ġp ounds
Ġis ot
Ġn aturally
Ġg ained
ut or
Ġst ove
ĠP ost
ol ving
ĠM ove
ĠM oscow
Ġpro ced
pe l
Ġwe igh
ĠL ED
Ġex ha
ĠJ ava
Ġde als
th ur
Ġun comfortable
Ġma ker
other s
Ġfe ver
ĠK ent
ĠHe at
Ġdel ay
be c
ĠOn ly
Ġkey board
Ġvis ible
Ġrele ases
ĠCol or
Ġrepresent ing
Ġactu al
ĠMc C
Ġbi kes
Ġemploy ee
Ġdecl ared
ĠKat rina
inst all
ĠArgent ina
ĠRepresent atives
ĠAna heim
ĠTL X
E M
G erman
P L
o a
u ese
w orld
Ġ ol
Ġt aiwan
Ġa wards
in ating
er ia
Ġc ube
an o
Ġb aking
Ġd ia
Ġd ra
ĠS T
ĠC ru
ĠG aza
Ġwas hington
ĠE astern
ĠL atest
Ġpos ing
ĠJ ud
ĠY oung
Ġap plied
ivers ary
ĠAn al
Ġacc ord
ĠV ers
Ġbr on
Ġbr anches
ib an
Ġstud ies
Ġturn ing
Ġclass room
Ġblood stream
Ġcool s
Ġx Hamster
Ġmention ing
Ġguitar ist
Ġking dom
Ġexperien cing
ĠSumm arize
Ġspo ke
ĠPri ze
Ġru led
utt le
Ġgal ax
enez uel
E T
T ube
d i
h ar
m aking
s s
t i
Ġt ube
on ica
Ġs ne
Ġc ows
Ġp our
Ġb ik
Ġd ot
Ġbe ef
os ure
ĠC atholic
ĠC EO
Ġst ro
ĠB ol
ĠB ha
ĠM ax
ĠD ig
ĠN ight
ĠL ist
Ġtr acks
ip al
Ġap par
Ġo lymp
Ġro ot
og ging
Ġchar m
Ġexpl oring
Ch rist
Ġment al
sh ine
Ġsweet heart
ĠBar ry
Ġsugg estion
af ter
Ġtw enty
ĠCor por
ĠCo ast
Ġnovel s
Ġinflu ential
Ġcast ing
Ġattract ive
Ġarchitect ural
ĠFin land
Ġcommunic ate
wor king
Ġmanufactur ers
Ġreve aled
Ġna ive
UM BER
Ġdiam eter
Ġski ing
Ġintern al
ĠRaj a
E AM
R es
h ard
w he
Ġt ant
Ġt ip
or i
Ġf ulf
Ġp it
Ġm and
ar g
Ġis t
Ġh i
Ġh ab
Ġl ava
ĠA FC
Ġe lder
ĠS ie
ro ad
ĠC ustom
ut ter
ad el
ri f
op es
ĠG re
ĠG ar
st yle
ul ating
ĠR hythm
ĠJ oh
Ġle ct
Ġout standing
orm ally
Ġsp ark
ip per
Ġ19 50
ach us
Ġfl ows
Ġjust ice
Ġco ins
Ġprodu cing
Ġins pect
Ġass ign
Ġmin im
Ġint ent
Ġmar ine
att oo
Ġdist ingu
Ġplan es
ik iped
Ġ197 1
ĠSome one
Ġnumer ical
Ġcelebr ated
Ġship s
Ġchair man
Ġconcern ed
ĠMill er
Ġinit ially
Ġtouch ing
ĠIndones ian
Ġaward ed
Ġguid elines
Ġdom estic
Reason ing
ĠEth iop
Ġcrim inal
ĠTenn essee
Ġpa isa
Ġsophistic ated
Ġhelicop ter
ikiped ia
' ?
5 00
M ary
T om
c ers
g un
m ate
m ates
ing ly
Ġp ipe
Ġl akes
iv a
ĠA st
ot ype
us se
Ġbe ars
ĠS ame
ro it
ĠW ales
ĠW alt
ĠG MA
il m
ĠH aving
ĠD allas
ul atory
ĠE st
Ġch ap
ĠN ic
Ġse ctor
ment ation
Ġwhe els
Ġun related
ĠK ar
Ġac ted
ĠV en
Ġ4 3
Ġrec y
Ġpres ents
Ġsk ating
cer tain
Ġinst alled
ĠOn line
Ġmar king
ien te
Ġdig estion
Ġmajor ity
ĠAg reement
Ġcreat ures
Com bine
Ġhyd ro
Ġpurch ased
Ġflu id
ĠMalays ian
Ġshel f
Ġtur key
ĠSpe ed
ĠFil m
Ġupd ated
ĠJew ish
ĠSom ali
Ġgrat itude
ĠCes ena
E L
G ood
S am
c are
f un
g ment
an z
Ġp H
ou ri
ou ch
Ġd av
as ant
ĠT anya
Ġl ic
et ts
qu et
Ġr ough
ig ration
un acceptable
Ġst uck
ĠB all
ol ph
um ed
Ġ1 000
Ġcon struct
ĠD erb
ist or
Ġch asing
Ġtr ash
all ow
ĠJ azz
th s
th rop
Ġup scale
Ġres ign
ys hire
Ġfl oors
Ġdet er
Ġair line
Ġpol ic
Ġold est
Ġint ention
Ġboy friend
Ġoffic ially
Ġinc ome
Ġbeautif ully
sh aped
ĠIm portant
Ġconf using
Ġcrit ical
Ġla id
Ġhor ror
ĠAg ra
Ġcontrib utions
Ġburn s
Ġchair s
Ġlim it
Ġcop per
Ġapplic ations
Ġsho oting
abit ants
Ġdedic ation
Ġblank et
ĠSec ond
ĠOP T
Don nell
Ġconc ise
Ġacce ler
Ġcub es
ĠSant a
athemat ics
Ġappoint ment
ĠPrem ier
Ġmaxim um
Ġflex ible
Ġkin etic
ĠDerb yshire
E AR
F act
F orm
a an
c ond
c alled
f ers
j ob
Ġt el
Ġt ests
on na
Ġs ulf
Ġs oul
Ġf asc
Ġb arn
Ġn g
Ġg ains
ĠS oviet
Ġre verse
op ping
ĠP ass
Ġab und
ĠM ir
st one
ĠR ow
ĠR ose
ĠF riend
ĠF ried
ĠN avy
Ġal t
Ġsp oon
ab il
Ġfe llow
ĠK id
ĠK arn
Ġ5 6
du cted
Ġph ones
ath y
ĠTo kyo
Ġoffic ers
Ġinc red
Ġwind s
iam i
Ġ198 2
ĠMan hattan
Ġdep icts
Ġbox er
Ġdiscuss ions
ĠAg ain
Ġess ence
Ġmagn ificent
Ġmist ake
ĠBro ad
ĠCalc ulate
Ġafric a
Ġtrave ling
Ġhundred s
Ġped as
Ġrout ine
Ġhorm ones
Ġaustral ia
istr ative
ĠConnect icut
Ġfu els
M ater
S up
S ports
f a
Ġt ropical
Ġa vailability
Ġb ones
Ġm ac
Ġm att
Ġn i
Ġh osted
Ġl amp
Ġbe e
wer p
ĠS ally
Ġre pt
Ġr ally
out s
ri ff
Ġcon crete
Ġv o
ĠR oss
Ġk g
Ġsp in
Ġsp ons
Ġsp ots
Ġcl oth
Ġen zym
ĠUn fortunately
ĠV is
Ġind ex
Ġent ering
Ġshort s
Ġche m
Ġdr am
arm ing
by e
Ġbre ed
ĠPr ice
Ġplan ets
ĠMon ument
Ġocc asion
Ġarr anged
Ġstop s
Ġclean ed
Ġjo ining
ann a
Ġcritic ism
Ġiss ued
Ġconnect ing
Ġang el
Ġclaim ed
Ġdiscover y
Ġmic rosc
Ġcop ies
Ġrequire ments
Ġenthusi astic
Ġstrateg y
Ġwarn ing
lder ney
Ġdissatis fied
Ġign ore
Ġdefe ated
ĠRev olution
Ġstret ch
Rem ember
Ġalma Mater
achus etts
C A
O W
i as
m ake
v ard
Ġt end
Ġs ke
Ġp in
Ġp ir
Ġb ake
Ġm ate
Ġd ates
Ġin appropriate
ĠT ar
ĠT erry
Ġl es
Ġl ying
ĠA lderney
Ġbe ans
Ġr ated
ri ptions
ĠP ope
Ġsh apes
st ore
Ġch ampions
ĠJ erry
up ation
Ġun derstood
Ġdes ired
Ġman age
Ġbut t
Ġgr ateful
oy d
erm ark
ĠInd ust
Ġcol le
Ġcr ack
ĠAnd y
Ġread s
enn ie
Ġinter ests
Ġint rig
olog ist
Ġeng land
Ġ199 2
ĠCount ry
Ġconf usion
Ġclean er
ĠCol umb
Ġ196 2
Ġ196 8
Ġdep art
Ġtrad itions
Ġadv oc
Ġbox ing
Ġexplain ing
Ġdig estive
Ġemb arr
Ġamount s
Ġaff il
Ġinflu enced
ĠSumm ary
Ġcommit ted
Ġdisplay ed
Ġerr or
Ġcontr ast
Ġfrequ ently
ĠNor way
ĠCalc io
Ġopportun ities
Ġpleas ure
Ġevapor ation
ĠFort ress
Ġrom antic
Ġnegot iations
Ġnarr ator
Ġrou te
ĠTH E
ĠBee f
ĠBag hdad
Ġperspect ive
8 00
R BQ
S te
g ener
h ad
h aps
z ona
Ġs ixt
at ile
Ġf et
Ġp owder
Ġb er
Ġb unch
le ted
Ġd reams
Ġg amet
ot te
Ġr ays
ĠP ot
Ġne at
ac co
ĠD odge
ort he
ust ion
ĠN ob
ide o
Ġtr unk
Ġle af
Ġde eper
ine a
ang le
ĠU r
dd ie
ip le
Ġperson s
Ġover whel
ĠAs ad
Ġpo ly
Ġpo ison
Ġdr unk
ph ia
Ġback pack
Ġnumber Of
ĠDe er
Ġed itor
yl um
Ġresp iration
ĠAd v
Ġindic ation
ĠAm id
alth y
ĠAll en
Ġ196 6
Ġcompet ing
Ġpresent ation
Ġengine ering
Ġfem ales
Ġnucle us
Ġswe ater
Ġrepro ductive
Ġorb it
ĠAndrew s
Ġstrugg ling
Ġperm ission
Ġplaus ibility
Ġgeor ge
Ġfart her
Cor responding
ĠOcc upation
) ."
8 4
B ut
F inal
i apsis
n et
r ot
w is
Ġt ire
Ġa u
Ġf ountain
Ġp illow
Ġp oured
Ġb ay
om ic
Ġh itting
Ġg erman
ĠS weet
ĠW er
ad esh
ĠP ub
ol itan
if ul
Ġv on
pe ople
ĠD a
ord ers
pl ant
ast y
Ġal umin
ative ly
Ġ5 7
Ġres ort
ivers ide
Ġloc als
ĠAn ton
Ġnear est
Ġind oor
Ġreg ister
ym ph
ĠAir base
Ġret ire
Ġfif th
Ġcharacter istic
ĠBar celona
Ġrece ives
Ġpolit ics
Ġbab ies
!! !!
ĠMic he
Ġcatch ing
Ġconsum er
Ġattract ion
ĠRes earch
IS H
Ġreb els
ĠJac ob
Ġrepe ated
Ġven ue
ĠCast le
kil omet
Ġacknow led
Ġmixt ure
Ġrefriger ator
ĠBha jji
adel phia
Ġembarr ass
W ith
[ ]
e lect
p ass
Ġs ought
an ning
it ate
ĠA R
Ġg ate
ro ck
et her
Ġr ider
Ġwh is
Ġqu ant
od ed
ol ves
il er
if ier
Ġas ter
Ġv ice
Ġv otes
ĠM oney
ĠD ar
ov o
Ġch ips
ĠO per
Ġj ar
Ġma j
du ces
Ġap pl
Ġres c
Ġexp osed
Ġdef end
Ġmin ute
Ġref res
xim ity
Ġsubject s
Ġconf used
bre ak
Ġ197 4
Ġclos et
ĠSte el
Ġphys ically
Ġmeas uring
ĠFo x
Ġsatisf ying
Ġcry ing
ris io
ĠTrans fer
Ġhous ing
Ġdemonstr ating
west ern
ĠElect ric
Ġdocument ary
Ġ(" []
ĠJe an
ĠDown load
ĠCons ider
ĠAut hor
Ġfant astic
Ġicon ic
ĠInf antry
ĠMend risio
ĠDub lin
ANG U
Ġpolic ies
Ġ("[] ")
C he
b les
t ype
w oman
Ġ iv
on to
at en
at ra
Ġw ise
or ge
re p
Ġb on
Ġm ort
Ġn urse
ĠT ommy
Ġg ifts
us hed
Ġbe yond
ĠC uba
Ġr is
Ġr ises
ur ally
Ġab andon
ĠM P
ie ve
ĠH ospital
Ġhe m
ĠR EG
ain ts
Ġte x
ĠL iber
Ġtr act
Ġpre y
ivers al
ĠUn derstand
Ġ4 00
pro duct
Ġ20 21
Ġlet ting
Ġtrans ported
Ġsub m
Ġform ats
In d
gr ade
."? .
be an
vent h
Ġappe al
Ġprom ised
Ġ196 4
ann ed
Ġenviron ments
Ġprofess or
ĠOr ange
Ġcapt ure
Ġweather ing
Ġdem ocratic
Ġcelebr ation
Ġmic row
Ġscen es
Ġdeb ate
Ġbur ied
Ġaccompl ishing
Ġsmooth ly
Ġban ana
ĠHel p
Ġreflect s
Ġmel ting
Im agine
ĠOP TIONS
ĠLoc ation
ĠLoc ated
aver ing
Ġguid ance
Ġcandid ate
Ġathlet es
pie ce
claim ed
Ġbubb les
ograp her
A m
N D
T C
i ere
m ad
p ot
t ub
in ations
en te
on ly
an qu
Ġb ene
Ġm ales
Ġd iversity
end y
Ġn one
Ġh iding
Ġh ttp
Ġl oose
ĠA ce
ĠA irl
ĠA udi
Ġg ang
ot ive
Ġbe ard
ir y
ĠC y
Ġwas her
ter m
Ġpro ximity
Ġpl ug
oun ted
iven ess
ĠL ORD
ĠO p
Ġun less
Ġun usual
Ġsp ider
em or
Ġo ceans
Ġro y
og r
Ġdis flu
ĠAl i
ĠAl ison
Ġper iapsis
Ġwant ing
ĠAs sembly
Ġad ap
Ġpres c
Ġdec ent
Ġbuild s
Ġcr imes
ather s
Ġmon arch
Ġ8 5
Ġmet als
ĠPl ant
Ġorigin ating
Ġtyp ical
Ġprom ise
Ġ198 8
Ġ197 3
ĠAub urn
Ġdiscuss es
Ġgreen house
Ġir rit
ĠMal ay
edd y
Ġdecl ine
Ġhur ting
fo otball
Ġattempt ing
ĠBell s
Ġspl it
Ġquarter back
Ġarg uments
Ġcater ing
ĠJul ia
Ġspirit ual
Ġflo at
ophy ll
ĠiP od
Ġconsequ ences
ĠWiz ard
ĠOsc ar
Ġdra wer
3 00
C E
b it
c ity
i ates
n ik
z ed
Ġs ushi
Ġc aut
it o
Ġth orough
ic hes
ĠT erm
ĠA W
os aur
Ġr aces
ig en
ĠB udd
ĠG as
ĠG ulf
Ġas c
ĠM iami
ĠH appy
ĠH uman
ĠD er
ĠR un
Ġcan ada
Ġtr a
ĠO utput
ang hai
ere k
ĠK n
erm is
ob e
Ġequ als
Ġequ ipped
atch ing
Ġshop s
Ġinv ented
Ġ10 7
Ġext ensions
ĠWe ather
ĠLe on
Ġleader Title
Ġ12 0
Ġsal ad
Ġmark ed
Ġbar rel
Ġrecommend ed
Ġmilit ants
ĠCar bon
Ġjump ed
rom agn
ĠX h
Ġconnect ions
Ġcontrol led
Ġconst itution
Ġer u
Ġbud s
Ġter rible
Ġpup py
ĠExpl osion
ĠSomet imes
Ġcontrovers ial
Ġmart ial
Ġisot ope
ĠEthiop ia
ANGU AGE
b ul
n i
z es
Ġa ware
er ts
es ota
Ġf ern
Ġp ause
Ġp sych
Ġb att
le vel
al ian
Ġth rill
om ar
Ġl y
Ġl ush
Ġg iraffe
Ġr at
im o
ig s
Ġqu ery
ĠM aster
Ġex cess
Ġk itt
up id
Ġj ungle
ong writer
ab ank
ĠCh all
du c
Ġsc o
Ġph arm
ĠAl ice
Ġ6 00
Ġexpl osion
tain ment
Ġ7 2
Ġcle ver
ĠSe ven
Ġob ama
Ġinter pre
Ġbelong ing
Ġdisc ount
Ġz ero
Ġfast est
sh irt
Ġstop ping
Ġprom pt
Ġprom oting
Ġsupport ive
Ġla und
elt a
Ġgas oline
ĠSup reme
Ġamb ig
Ġcy cles
Ġlaugh ter
Ġparticip ated
Ġov ers
Ġearn ings
Ġwarn ed
ĠBre tt
Ġarg ument
unic ations
bour ne
ĠOk lahoma
Ġlink ed
Ġacqu ired
Ġlux ury
Em otion
Ġinfect ion
Ġgarn ered
owe en
Ġpep per
ĠEmp ire
C T
b i
b ie
b ors
c ies
d ale
g age
l ace
s k
s quare
w ind
Ġ ion
Ġa est
he ar
Ġs av
or ney
Ġc raft
Ġp add
Ġp owers
ĠT oy
us hing
Ġe ch
Ġy outh
Ġre phr
Ġre jected
ĠC ross
ke l
ĠP ow
ĠG arth
um er
Ġas sembly
ĠM ur
ĠM un
Ġpl us
pe are
and al
ĠF ound
ĠL and
oc y
Ġj apanese
Ġal ter
orm an
Ġkn ee
ult s
Ġsc ul
Ġdis appe
Ġam use
Ġrem ind
ten ance
Ġ6 7
Ġmod ified
Ġread ers
com es
ĠBr ad
Ġvis ion
Ġaccording ly
akes peare
Ġ198 3
Ġest ate
Ġ197 5
Ġflow ing
ament al
AT O
Ġra ising
Ġill umin
Ġdead ly
Ġacid ic
Ġpull ing
Ġsem i
ĠAnt werp
Ġstrateg ic
Ġmist akes
ĠMor gan
Ġefficient ly
Ġconduct ing
Ġrul ing
ĠEvery one
Ġfail ure
Ġpreserv ing
Ġuncle ar
ĠBase ball
Ġrapid ly
ĠAleksand r
ĠUkr aine
ĠChin abank
Ġdefinitive ly
ermark et
ĠREG ION
B Y
F r
M ember
b at
f ind
j ar
Ġc um
an ke
Ġp ier
Ġh ated
Ġl ion
Ġfor ced
ch oose
ĠP ur
Ġne ither
Ġv oting
Ġfr idge
se a
Ġsh ut
Ġsh ade
ĠD u
ĠD ouble
ĠD omin
Ġdo ck
ov al
Ġcan s
ĠL im
Ġex clusive
Ġus ual
Ġde leg
Ġpr ide
ĠY ah
ab e
Ġrestaurant s
Ġro lled
Ġ19 10
ĠHe art
ĠHow ard
als o
inn esota
Ġrem oving
Ġ6 6
Ġevery body
Ġmay or
pect s
Ġtransl ating
Ġprof ile
Ġsignific ance
Ġarm ed
Ġcut s
ĠWas p
Ġdelic ate
Ġeffort lessly
wh ile
raz y
Ġaud io
Ġrelax ation
Ġwebs ites
Ġdeep ly
asc ular
Ġaffect ion
ĠPlay ing
ĠDel aware
Ġexist ing
Ġclar ify
Ġcow boy
Ġevapor ates
Ġdin ers
Ġdistrib ution
Ġpremier ed
Ġcorpor ate
Ġunw avering
ĠPortug uese
ĠNiger ia
Ġexpans ion
Ġsust ain
Ġpunish ment
Ġcomed ian
Ġsubsid iary
Ġelder ly
A ng
I ng
R O
W ill
b one
i ors
m us
m ir
s l
Ġt rophy
Ġt attoo
Ġc able
Ġc yl
Ġf ighter
Ġp hen
le an
al o
Ġd ating
Ġl ord
Ġl uck
Ġl ondon
Ġe ine
Ġ" ?
ĠC ir
ĠC hen
Ġr abbit
Ġanswer ing
ch i
il i
ap olis
ĠH ur
Ġdo ors
ĠR oma
ĠF ield
igh ted
ĠL ANGUAGE
Ġtr apped
Ġtr anqu
ĠK ant
Ġcl ients
Ġwor ship
port ation
Ġ5 2
ĠSt ory
Ġspe aks
ru cted
ĠAn ne
red ient
Ġad op
Ġthr iving
ĠIs lands
man n
Ġlot tery
Ġgl oves
Ġener get
Ġsn ake
ĠAlex and
Ġwar rant
Ġes c
Ġperiod s
ĠMary land
Ġnove mber
ĠCent re
ĠPark er
Ġdeliver ed
Ġalle g
Ġcounter part
ĠDes pite
ĠProv ince
Ġthous and
ĠGovern or
ĠProf ess
arf ur
ĠMah m
Ġacce pted
Ġpropos al
Ġmes mer
ĠBul gar
B riefly
L A
L ength
M en
M ulti
b ad
f ood
n s
p at
s creen
t othe
w ed
Ġ om
Ġf ries
it i
it ious
Ġp unch
Ġd ust
Ġd addy
end or
ĠT our
Ġg ene
Ġg lands
Ġe ase
ĠC orn
Ġit h
ig g
ig ure
un ity
ch ar
ch anged
ol as
Ġcon not
Ġor che
Ġab ilities
Ġwas hed
ac ted
se x
ĠR oom
Ġte ow
ist ant
ĠL y
oc ity
act ions
ĠTh ailand
ass y
Ġres idence
itt s
Ġacc um
Ġ4 9
Ġind oors
Ġform ing
Ġ6 8
Ġenjoy ment
ĠAr thur
Ġfound ing
Ġmod ify
sel s
Ġmin eral
ĠBr on
ĠDe v
olog ies
yl er
Ġartist ic
ĠPh otos
Ġann iversary
Ġ198 5
Ġsurf aces
Ġadv is
Ġcult urally
Ġmeas ured
Ġfit ness
Ġdraw n
ĠReg ion
Ġbreat hing
Ġsurpr ising
Ġenc ounter
Ġcast le
Ġple ased
Ġexerc ising
Ġviol in
Ġder iv
Ġattack ed
Ġhighlight ing
Ġabsorb ed
Ġconver ts
ĠMass achusetts
ĠProf ession
ĠLi br
Ġadapt ation
Ġsudden ly
ĠSever ed
rim p
Ġorganiz ations
) *
) ",
[ -
a o
p al
p ol
s ongwriter
z one
Ġ ug
Ġt ag
er ies
on the
Ġc afe
Ġc otton
Ġb ump
Ġm ol
ES T
est on
ĠS earch
ĠC op
ĠC oll
Ġr h
ĠW arn
op l
Ġst raw
ĠB on
ĠB arn
ol s
Ġv ine
Ġv eter
Ġv iewer
ĠH IV
Ġpl ain
ĠD am
ĠE vent
ĠN ik
Ġk way
ĠO ption
one ly
Ġout er
Ġcor ruption
ab ad
ĠCh ange
ass ador
app le
Ġres olution
Ġsc ript
Ġdis miss
Ġfl attering
yp rus
Ġlet s
ruct ure
Ġform al
Ġdr ives
ĠPro ject
Ġbo iling
ins on
Ġrequ ested
Ġ9 6
Ġgener ous
ĠMar col
rop olitan
ĠAd ams
Ġarr est
Ġprote cted
ley ball
Ġ196 5
Ġ195 9
Ġlands c
ĠMark et
Ġviol ent
Ġtax es
Ġthreat ened
Ġaim ing
Ġsens ical
bu quer
Ġhon est
Ġcas ino
Ġclar ity
cont in
Ġinstall ation
ĠBer lin
ĠPo aceae
ĠFre der
sen al
Ġpic nic
ĠColor ado
ĠMiche le
ĠAirl ines
ogr ams
Ġamuse ment
ĠMarcol ini
buquer que
J ames
V E
V ar
g ame
l aw
o apsis
p res
r ison
r ots
t or
Ġt iger
Ġa we
is bee
Ġb oun
end a
ĠT og
iv als
ĠS ign
ay er
ĠP L
Ġne g
ter ious
ĠD escription
ĠR os
ĠF estival
Ġch op
Ġj et
Ġj ordan
Ġsp ouse
av ad
ĠK ansas
per or
per ty
Ġen velop
Ġen for
cl ing
Ġaf ghanistan
ru ce
Ġinform ed
ĠAn aly
Ġcar n
Ġcar rier
ĠV I
ĠV an
ĠV ice
Ġdr ums
ĠTr ade
Ġpass enger
Ġsun shine
Ġinter ior
ĠCam illa
Ġbus hes
Ġbirth Date
ĠSc iences
ĠMon a
Re ad
ĠEn joy
ĠEn sure
Ġident ity
Ġvol tage
ĠTw itter
Ġcele b
Ġconst antly
Ġposs ibility
ĠMic hel
Ġmanufact uring
ĠFo llow
Ġneigh bors
Ġhope ful
ĠGo al
Un ited
ĠSpe ech
Ġsuffer ed
ĠAlb ennie
Ġqual ities
ĠExpl ain
Ġpra ise
Ġrul er
"" ?"
Ġlux urious
Ġfle w
Ġsty les
Ġexplor ation
Ġstylistic Origin
ĠCorpor ation
Ġscul pt
: @
C ategory
D E
M S
M any
O K
b ia
g ames
l if
n ice
o king
p ir
t ario
Ġt um
an aman
as a
Ġis l
ic ians
Ġh ol
Ġh ats
Ġh ills
id ges
ĠC ells
Ġr oman
Ġr andom
ig a
ig ger
ad der
Ġfo l
Ġst ating
Ġas h
ĠM it
ĠD raft
st an
ĠR S
ĠR ou
ĠR ut
ĠR oy
el led
ĠE gg
ĠN OT
ĠN ATO
Ġse es
ĠL ow
ĠY EAR
we gian
ry st
ĠK eep
Ġcl inton
Ġap oapsis
Ġro lling
Ġ19 30
Ġver ified
ru ck
ach ing
Ġloc ate
ĠAl buquerque
ations hip
Ġbel t
Ġad j
Ġatt ribute
ph ones
ĠAr r
Ġdec om
Ġread ability
ĠSh akespeare
Ġunder lying
Ġlight ing
olog ists
Ġcharacter ized
Ġball oons
ĠAd min
Ġmove ments
Ġarr ow
Ġoper ates
ĠMan agement
Ġgen es
ivid uals
pr of
avel ength
Ġrain ing
Ġhealth ier
Ġest im
Ġsnow y
Ġsnow board
Ġdress es
Ġcapt ured
Ġannoun cement
Ġparaphr ase
Ġcross ing
Ġtour ist
Ġtast es
Ġexec uted
ĠJenn ings
ĠAri zona
Ġswing ing
answer able
Sp anish
Ġconcent ration
ĠHo llow
Ġjan uary
Ġsuff icient
ĠEnter tainment
Ġsole ly
ROU P
Ġsulf ur
Ġrept iles
Ġbene ath
B M
B ill
B ec
H L
j ournal
p ur
u er
v ol
w al
z a
Ġ od
Ġ ."
Ġt an
at ar
at ric
Ġw ars
Ġc age
Ġb ol
Ġin complete
ĠT ai
ĠA Z
Ġg rill
ct ar
ro g
Ġr ude
ĠW oman
ad ers
Ġne ctar
ĠG reg
um ans
ĠM ain
ĠH op
ĠD elta
ĠR od
ĠF air
el ry
ĠN ov
Ġus age
Ġde leted
Ġun ity
our ce
Ġ5 5
Ġcomp ilation
Ġpar a
ĠV erm
Ġcap abilities
Ġcons ult
res h
atch oy
ats on
Wh ile
ĠAm d
Ġoper ator
Ġdesign er
Ġrain bow
rol led
Ġbed s
Ġland ing
Ġce ment
Ġ197 8
ĠSw iss
Ġdev ast
Ġmouth watering
ĠAtt ached
Ġprotect ive
Ġant ib
Ġcamp ing
ocr ats
ban on
Ġcommit tee
Ġdemonstr ates
Ġexist ence
ĠVal ley
ĠAy ers
Ġearthqu akes
Ġconver ted
ĠOs borne
Ġrail way
Ġflood ing
ĠAM C
Ġlad ies
Ġapolog ize
Ġanx iety
Ġmoist ure
Ġnurs ing
ipl ine
ĠTag alog
Ġcoeff icient
Ġroy al
5 8
D an
N IC
P h
a ft
c orn
f our
f are
h ou
m outh
p read
r ain
x x
Ġ >
Ġ vel
Ġt id
Ġt ile
Ġt ape
Ġthe atre
Ġs avor
Ġw avelength
Ġc ensus
Ġp ine
Ġis ol
ĠT ra
Ġg ard
Ġbe ll
ĠS outheast
qu es
ĠC ome
Ġr ings
Ġfo x
Ġst im
ĠB aked
ĠB atchoy
Ġne ur
ag a
ul ous
ĠF ord
ĠE conom
ĠE TH
Ġcom plic
ĠL or
ĠL og
ĠL angu
ĠJ ournal
Ġle ather
Ġle mon
th rough
ary otes
Ġsp inning
Ġgr apes
Ġplay off
Ġno body
cl ick
ĠCh ildren
ak i
put y
ond er
Ġser ver
Ġad jective
ĠAdd ed
Ġsub mar
Ġdr iven
Ġdr ank
Ġmy th
Ġsup ermarket
Ġval ley
Ġexpl os
anc ers
Ġob st
Ġvis its
arth a
Ġz u
ĠPr adesh
Ġdist ances
Ġhead s
ĠGr ass
Ġweek ly
Ġjo ke
Ġ197 2
ĠPal ae
Ġstruct ured
ĠPhil adelphia
tt es
Ġbank rupt
ĠPol ice
Ġdiss olved
Ġpack ed
Ġapprec iated
Ġinf r
Ġcomple ting
Ġindepend ence
ĠUs ing
Ġtrave led
Ġhun ting
Ġatom ic
ĠWil son
Ġadvert ising
Ġharmon ious
Ġgymn ast
Ġagricult ure
ĠWee k
Ġcontem porary
ĠAlp ena
Ġtex as
Ġlaund ry
Ġmesmer izing
ĠPalae ont
A rena
I M
U R
d in
i ative
l og
p son
s un
s uit
t w
t ry
v ents
w ait
Ġs y
Ġf ed
it tee
Ġp ure
Ġp apers
Ġb un
Ġb are
Ġh a
ĠA ur
ot er
id ad
ĠI NG
Ġre ward
ĠC at
Ġr um
ĠB ond
ĠB urn
ĠP oll
Ġor ders
Ġsh ift
ill o
Ġ( _
Ġch ip
pt on
Ġj azz
Ġal ley
ver ages
Ġwill ing
Ġ5 8
ai jan
Ġbr ide
Ġco in
ath on
Ġprodu cers
Ġrec ipes
int age
Ġfact or
Ġsub sequ
Ġsk ier
Ġrem ote
Ġi ii
Ġdi agn
Ġmin i
Ġaut umn
Ġmed als
ĠPe ace
pr ise
Ġfall en
Ġrefer ence
Ġ197 6
Ġimm une
Ġsubst ring
Ġdiscover er
Ġjud gment
Ġconsum ers
Ġcreat ure
Ġfeed ing
Ġenthusi asm
erb aijan
Ġbatter ies
Some one
ĠCarl os
Ġecosystem s
Ġintegr al
ĠBan anaman
cat raz
Ġbrows er
ĠHaw ai
Ġgest ure
osl av
Ġbuck et
Ġnit rogen
Ġalumin um
Ġdisflu ent
romagn etic
ĠETH NIC
ĠING REDIENT
G reat
M ic
P ART
c or
c est
c ount
d on
d og
e g
g reat
t te
Ġ os
Ġt ips
en ir
Ġw ides
or g
or se
Ġc ant
it ational
Ġp ets
Ġp erman
Ġp icking
Ġan k
te lla
Ġto t
Ġth ou
ĠA ch
ĠI P
ĠS n
ĠS ug
ĠS ony
Ġr amp
ĠW ord
ĠW atson
ĠB ull
ol n
ess e
Ġv irt
ĠM ix
pe lled
ĠR ams
ĠR oll
ĠE ver
ĠL ion
Ġex port
ish op
ĠTh rough
av ers
Ġar ab
Ġen able
ĠCh air
Ġrest rict
Ġpar ks
Ġsc ores
ob al
Ġbl oom
ĠV ery
ĠCon st
ĠInd icate
Ġdr um
Ġappro val
Ġsing ers
Ġmod els
Ġsur ge
Ġreg ret
ex p
Ġ7 8
Ġ8 8
Ġext ended
par alle
Ġmar riage
ĠDet roit
Ġsn acks
Ġpopular ity
oll us
Ġ196 9
ĠSim on
ok er
Ġrev ised
ĠForm ula
ĠAp pro
hel p
Ġpay ment
Ġfar mer
ĠAng ola
Ġcheck ed
Ġmass age
ĠReg istration
ĠDiv ision
Ġremain ed
estin ians
Ġfac ial
ĠAk ron
ĠMad rid
Ġflu ent
bu ilding
Ġdeterm ination
Ġbomb ing
ĠVe il
ĠAct a
ĠEgypt ian
Ġcater pillar
Ġupd ates
Ġplatform s
Ġphil os
ĠSwed ish
ĠPan ama
Ġbound aries
Ġfertil ization
igr ants
ĠRest aurant
Ġsettle ment
ĠStand ard
Ġsixt h
ĠNob el
Ġenerget ic
E l
F our
T S
V ER
_ (
b n
b as
b age
p apers
s up
u ay
y g
Ġt ale
Ġf ault
it ches
Ġb ills
ar ly
ar ia
ar ians
Ġd iving
Ġin fected
end o
Ġn erve
Ġh its
ĠT el
ĠT amil
Ġl ou
Ġl ugg
ĠA F
ĠA rena
Ġg aza
ĠS on
Ġy arn
ir k
ĠC her
Ġit alian
ĠP ear
ĠG orb
ag m
ag ues
ĠM om
ĠM innesota
ĠH as
ĠH ans
ĠH ind
ĠH ope
Ġsh r
Ġsh ake
ĠN EW
ĠL ume
ĠL isa
Ġk u
we h
ĠK h
Ġcomp r
Ġo ak
Ġkn ife
Ġtext ure
ne cess
Ġag gress
Ġph ase
ple asant
Ġshe et
ĠHe alth
Ġchar ity
iss a
Ġind ian
Ġent ry
Ġent rance
ric s
inn y
Ġdown town
az ed
Ġsur vey
ib bean
ins p
Ġrun ner
ĠDe velop
Ġ9 5
ĠBe ijing
Ġed it
Ġappe aling
Ġpat ients
Ġreal ized
zz ane
Ġtechn ical
ĠHar bor
Ġsurround ings
Ġhat ches
Ġdeb t
Ġdrop s
Ġpriv acy
Ġthreat s
Ġhur ricane
Ġstru ck
Ġiraq i
ĠPri est
Ġobserv ing
ĠElect ron
Ġdisp ute
Ġdistinct ive
ĠAri ane
roat ia
Ġphil ipp
Ġhorm one
ĠIsl am
Ġwrest ling
ĠDie go
Ab ove
Ġax is
Ġdistingu ished
Ġaster oid
football er
ĠLume zzane
C o
D LL
G ROUP
S ever
T otal
c i
d a
e qu
w rite
Ġ era
Ġt il
Ġc ro
Ġf ake
Ġf ried
Ġb rill
Ġd ancers
ĠS i
Ġre ducing
ĠC ater
ig e
ate ver
ad u
Ġst upid
ĠB h
ĠB oo
ĠH and
ĠH unt
ĠD oc
ĠF inal
Ġcom ics
Ġwe ars
ĠIn vest
ĠO ak
ary a
Ġun a
Ġun paralle
Ġgr aph
Ġfe ars
ater al
per ature
Ġcl iente
ip ino
day s
Ġfl ies
ĠAn other
?" ;
Ġhigh way
Ġpo em
Ġdr ivers
gg ing
Ġback bone
ĠSp ring
Ġsmall est
Ġmain Ing
Ġ8 4
aut iful
ĠBr idge
ĠLe wis
Ġgener ation
Ġdiv isible
Se a
ĠEx ec
ĠEx change
Ġoffer ings
ĠAd are
Ġdesign s
Ġclear er
Ġcond ens
Ġcult ures
Ġ195 7
OR K
inc oln
Ġprot ests
tr ack
Ġ194 9
ĠBlack pool
Ġveget able
Ġdesk top
Ġrob ot
Ġpercent age
amil ton
Ġcompl iment
Ġdefe at
Ġmys terious
lad esh
eder ation
Ġsof a
Ġdyn amic
Ġsam ple
Ġther mal
Ġretain ing
Ġobs erve
Ġmex ico
ĠFace book
Ġtant al
istor ic
Ġtel esc
Ġabund ant
Ġbutt ons
Ġmicrow ave
Ġwides pread
Ġlugg age
Ġunparalle led
Ġcliente le
ĠmainIng redient
C ity
E K
F innish
M ay
h ong
i ang
p o
t ails
u art
Ġt ack
Ġt ensions
Ġthe e
Ġc rafted
Ġan tonym
le e
Ġm ild
Ġto b
al a
Ġd ump
Ġh oly
ĠT own
Ġe gypt
Ġre ven
ir rel
ĠC as
ĠC are
Ġst ir
ke ys
Ġas sem
ag les
ĠM oses
ĠH old
ĠH ollywood
se par
ĠD ATE
st and
st ances
ĠR et
ĠR idge
Ġse p
Ġk ar
Ġk ong
Ġj un
Ġspe ll
oth y
Ġres olve
Ġag rees
Ġsc ream
Ġbl adder
Ġcap s
ĠHe ad
Ġjust ify
Ġcons ume
Ġcol our
Ġwrit es
Ġevery where
Ġback up
In t
Ġsec ured
Ġmet res
Ġdef ined
ĠFor rest
ug oslav
ĠBe ing
Ġapp ointed
bo at
Ġstrong ly
Ġpur se
Ġcontin uous
Ġ: )
St art
Ġident ifying
Ġvol leyball
Ġimpro ving
Ġport rait
Ġaddress ing
Ġaud iences
Ġcrowd ed
ĠUp on
Ġaw ake
Ġgrad es
Ġcirc um
Ġrecogn ition
writ ten
Ġshowc ases
Ġveget ation
ĠAnt io
Ġrespect ful
Ġregular ly
estic ides
Ġbroad cast
Ġterror ist
Don ald
Ġstrugg le
Ġbes ides
Ġhy per
Ġrug by
Ġprecise ly
Ġcous in
ĠFriend s
ĠAuthor ity
hear ted
ĠHollow ay
E F
F l
F rom
M I
l ock
t oo
er ted
an mar
Ġp m
Ġm asc
ic ious
om ers
Ġg rey
Ġe uro
am ents
ĠW olf
Ġst ones
ke eper
ĠP ed
ĠG ary
ag an
ĠM orning
ac ious
Ġhe n
ĠD ance
ul ates
ĠF ile
el and
ov ere
ist a
Ġme ets
ĠN umber
ĠL ost
ĠL ady
Ġpos e
Ġtr ains
Ġde ck
Ġj une
ish am
Ġman ip
Ġman aging
Ġ5 3
ect ive
Ġo ctober
Ġcont ents
Ġcont ributes
Ġver tebrates
Ġsu its
Ġpar ade
Ġcount ing
Ġ4 7
iss ions
ell a
inn ers
Ġ8 7
Ġ0 8
Ġunder ground
plic ation
Ġarr ival
Ġ14 0
Ġnews papers
ĠCont act
Ġ197 9
Ġtreat y
Ġabs ence
Ġeth ical
Ġ195 6
Ġcomb at
Ġcomb ines
ĠHall oween
Ġmembers hip
Ġstri king
adem ia
Ġsick ness
ĠPer u
Ġfac il
Ġshowc ased
Ġcru ise
ĠMiss ouri
Ġholiday s
Ġchampionship s
ĠDel hi
ĠAcc ademia
Ġinfer red
Ġtransfer red
Ġcompon ent
Ġencour age
bet ween
ĠMo ore
Ġtiss ues
Ġmys tery
hol m
spe ed
imet res
Ġsucceed ed
Ġgall ery
unte er
Ġresear chers
enezuel a
Form ulate
Ġadop ted
ĠWarn er
C D
C zech
J an
P E
S A
b en
e u
m el
n ut
w atch
Ġt eddy
Ġs ight
Ġs aving
Ġw ool
Ġc attle
it ett
le ts
ĠT rees
Ġl ighter
ot ers
am er
am ins
ĠC ond
Ġfor g
ut en
Ġst ages
Ġv ul
ĠM other
ĠH a
ĠH ot
Ġfr isbee
Ġsh uttle
ĠF ro
ĠE c
ĠL o
ĠJ uan
ĠJ erusalem
th an
th ony
iz er
Ġsp ins
Ġ5 9
Ġcomp aring
ge ted
Ġher d
ak y
Ġhelp ers
Ġev il
ific ally
Ġvers ions
Ġappro ved
aw a
Ġcr ude
ĠAnd ra
con y
ane an
Ġvar iation
ĠBl ock
ĠMar ie
ĠAb ove
Re g
Ġjo kes
Ġconcer ning
Ġ197 7
Ġcond em
ĠGu fa
ĠGu jar
Ġcapt uring
Ġpract ices
Ġstri ker
Ġcelebr ating
rac ial
Ġparticip ants
Ġlim estone
Ġautom atically
Ġexerc ises
Ġpaint ings
Ġlif ting
Ġentire ly
Ġbrit ain
ĠApple ton
Ne xt
Ġpudd le
Ġsusp ended
Ġinh abitants
Ġfrust rated
Ġblond e
Ġsequ el
Ġaustral ian
IR TH
ĠArch itett
Ġdut y
ĠBird s
ĠCost a
mb rie
Ġgamet es
Ġalleg ations
ĠAmd avad
ĠPriest ley
ĠArchitett ura
& #
B N
b ons
g re
j u
n or
n ation
p ark
r ating
en cing
Ġw is
Ġc ord
Ġc osm
re tt
it err
Ġb il
Ġb acon
le ans
Ġm os
ar ation
al ph
ed a
ĠA mer
ĠA gency
Ġbe ings
ĠI V
ĠS now
et ime
Ġre aches
Ġre venue
ri lled
ĠB orn
ĠB oris
Ġsh aving
ĠD ue
st s
ul ted
ĠE ff
th ree
Ġun certain
Ġun pleasant
Ġal g
Ġal arm
Ġ. ;
ab at
Ġdesc riptions
ip itation
Ġbl ind
Ġbl og
ĠAl catraz
Ġbr ick
orn s
Ġrec all
Ġmus lim
Ġform ula
Ġsk irt
Ġatt itude
Ġback yard
Ġbuild er
Ġexp anding
ier ce
Ġmon itor
Ġsl iding
be y
Ġmiss ile
Ġ9 8
ĠZ imbabwe
Ġhead ed
Ġalbum s
Ġdesign ated
Ġwar mer
Ġformer ly
Ġsand y
ĠGu inea
Ġpeace keep
Ġ195 3
Ġspeak ers
asket ball
Ġbath tub
Ġbott les
ĠUp d
Ġvac c
ĠSm all
Ġimply ing
Ġconsist ing
Ġprevent ing
ĠMag n
Ġpull s
Ġmagn etic
Ġhur ry
Ġcere al
ĠLouis iana
ĠMel bourne
Ġtub es
Ġprepar ation
opt ion
ĠIsl amic
Ġvow els
Ġjew elry
Ġdilig ently
Ġnomin ated
Ġgast ron
Ġreput ation
Ġdot ted
Ġfasc inating
Ġenzym es
Ġambig uous
itts burgh
. ).
J im
J apanese
L T
M ark
P aul
b ank
b uster
c m
f ound
h ib
k ers
n ormal
x ical
in ch
Ġs i
Ġf ib
Ġm elt
Ġm unic
Ġto xic
ent er
Ġd uck
Ġd rew
end ar
Ġh ip
Ġh ath
ĠT y
ll ar
iv ate
id ency
ĠI l
ĠS V
Ġy ield
ĠC ab
Ġfor ests
ĠW ords
ĠW ikipedia
ve oli
Ġst airs
ĠB us
her d
um bers
Ġas ia
ag or
Ġv oices
ĠM as
ĠH u
and the
ĠF A
Ġcan cel
Ġwe aker
Ġj am
Ġun known
Ġsp y
ĠK elly
Ġen comp
cl osed
ĠSt art
ak a
clud ing
ĠRe place
Ġshould n
Ġfun eral
Ġsub way
Ġ6 1
Ġ6 3
Ġdec ades
Ġ7 1
Ġmain tenance
Ġ8 1
Ġext ernal
ĠDe ce
ym e
amm ed
Ġeff iciency
Ġnice ly
ĠAm ar
Ġcour age
Ġcontin ents
light s
Ġleg end
ĠAlex ander
Ġphot ographer
Ġbar ack
Ġtem porary
Ġdelight s
ĠSte wart
ĠOr der
min ute
Ġsimpl ified
Ġparaphr asing
Ġprotect ing
Ġrepresent ative
Ġimpress ed
Ġswe ating
ĠRec all
Ġearn ing
As tella
field er
Ġtar geted
Ġspread ing
ĠMat ador
ĠAID Astella
ĠRome o
Ġalphab ets
ĠKenn edy
Ġfant asy
Ġcandid ates
Ġpencil s
ĠStan ley
Ġchrom osomes
kilomet res
Ġlandsc apes
necess ary
Sever al
Ġtob acco
U se
h uman
i h
m ic
m art
p es
t ake
Ġt urt
Ġs ends
or ph
Ġc razy
Ġf ats
Ġb ou
Ġm m
ar ios
Ġd ough
Ġd rill
as is
Ġn ail
Ġn ormally
Ġh ong
ĠT err
Ġl onely
est ation
ĠA val
us sels
ro v
ĠC ook
ur ther
Ġst ere
ap se
ĠM aine
Ġfr anch
Ġfr aud
Ġsh ield
Ġpl enty
Ġpl acing
ĠR h
ĠR iverside
Ġse ar
ĠL l
ĠJ enny
Ġde er
Ġde cember
Ġwhe at
pl ants
Ġal ign
Ġsp icy
ry s
Ġcl ient
Ġac claimed
ĠCh annel
ĠSt one
ra h
Ġres il
ĠRe port
Ġsc oring
Ġdis comfort
Ġover come
Ġbo ots
az or
Ġmod e
Ġcr ashing
amp s
ĠAnd re
Ġsign al
ĠDe ad
Ġref ract
igin al
ĠBe ck
ĠBl air
Ġsecond ary
amm ad
Ġbad ly
Ġsoc ks
Ġlow est
Ġcell ular
Ġhead ache
ĠGr ant
Ġ16 4
Ġ15 0
ik a
ĠMan or
ĠMan ila
Ġtown s
Ġrain fall
Ġbusiness man
Ġpen al
Ġcover ing
Ġhot ter
itc her
ĠCo oper
Ġdiss olve
Ġcertain ly
lant ic
Ġtom atoes
ĠInc or
Ġcaptiv ated
Ġconsist ency
Ġsett led
Ġtax i
Ġemer ged
Ġmagn et
Ġdecor ate
Ġfund amental
Ġmolec ule
Ġlif ted
Ġroll s
Ġrap per
Ġmer ch
rem es
Ġdin osaur
hu a
Ġanticip ation
Ġrod ent
Ġcollabor ation
ĠWhe el
Sc ience
hyd ration
Ġwid th
Ġoppon ent
ĠAnal ysis
Ġdeter gent
Ġintrig uing
Ġwarrant y
Ġderiv ative
ĠTog ether
Bec ause
Ġsubmar ine
ĠCater pillar
iterr anean
6 00
B I
G od
G ive
I A
R A
W AY
e ven
f ather
m other
o ir
o il
s i
s entence
z o
Ġt ong
Ġt ied
Ġa h
he tic
at ivity
Ġb razil
Ġan cest
ent al
Ġn icht
Ġh ike
ĠT it
Ġl ucky
ow ess
Ġg room
Ġy ards
Ġy oga
ĠC H
Ġr aw
Ġit aly
ur ities
Ġwh atever
un es
Ġst ol
ĠB and
ĠB ry
ĠG un
Ġfr ight
Ġsh ots
ĠD ales
ĠD isco
ul i
ĠR ail
ord inary
Ġch ains
ĠN ar
Ġex em
ĠIn cre
ĠJ ama
oc al
Ġle xical
The n
Ġj uly
Ġun ve
ure au
av ail
Ġcl own
Ġcal ories
form ed
ick ens
Ġspe lling
Ġres igned
ĠAn imals
Ġcar go
Ġper haps
?" .
iss ors
red it
Ġrec ip
ĠNe eded
ons ider
Ġsub t
Ġvers atile
Ġins ur
ĠAr m
Ġpub lish
Ġcr acks
Ġint estine
Ġgreat ly
fl ower
fl owers
Ġmar vel
sh ort
ĠJust ice
Ġsport ing
Ġjo ins
Ġwa ited
Ġland mark
Ġx name
Ġcold er
Ġroad s
Ġmaintain s
Ġmaintain ed
AT OR
str ong
Ġcand le
Ġaw a
ĠComm ittee
Ġsen ate
ĠJim my
Ġfarm ing
Ġpurch asing
Ġfair y
Ġgar lic
Ġaccount s
Ġprec ipitation
aa aa
Ġlo an
Ġenh ancing
Ġhun ger
Ġkore an
Ġdiplom atic
ĠConf irm
Ġho op
Ġalleged ly
Ġcher ished
Ġcigare ttes
ĠCL UB
ĠVers us
Ġmatt ers
Ġmaj estic
ĠXh osa
ĠAch arya
ĠDece mbrie
ĠAval on
; ...
M embers
O ff
P ol
T V
c os
c up
d el
e xt
e ur
f y
f ight
l ar
s inger
t ail
t urn
v as
Ġ ure
Ġthe rap
re ll
re ason
Ġb end
Ġth roat
ed ge
ĠT en
ll ah
est yle
ĠS orry
Ġfor ec
ĠW ait
ĠW omen
ri ers
ĠG ur
ĠG olf
Ġor ch
Ġv intage
ĠM A
Ġhe s
Ġsh y
ĠR ight
ĠF ive
ist ent
Ġch a
ĠL ar
Ġpos ted
Ġpr owess
ub ble
Ġsp ong
Ġsp anish
ere my
ove l
Ġno od
Ġcl ause
Ġcl auses
Ġcal ifornia
ect ion
Ġag ents
ĠSo x
ob in
Ġfl or
ict ure
Ġcar rots
ĠAl tern
ĠV eron
Ġent ails
hed ral
ĠInd epend
ĠNe ed
Ġprocess ing
Ġevery day
ĠTr avel
Ġcr ush
Ġass ault
ib al
Ġsec uring
Ġmon key
ĠSe attle
Ġ10 8
Ġ10 9
par ents
ĠAust rian
ĠBe at
Ġbre ast
amm y
Ġ12 6
Ġclass ical
bo ards
Ġ11 6
Ġprom ises
Ġlaw makers
Ġsupport ers
Ġtrad ition
Ġdish Var
iction ary
Ġrepl acing
ĠOther wise
Ġdem ocracy
ĠWild er
Ġpan el
Ġpal ace
Ġachie ving
Ġdark ness
Ġmedic ation
Ġsell s
ĠOb ject
Ġanaly zing
Ġcontract s
sp ring
Ġstrateg ies
Ġsandw iches
Ġmeasure ment
clus ively
Ġbored om
enz a
Ġvess el
ĠArab ic
Ġsan ctions
lad im
Ġsequ ence
ĠHy per
Ġliter ary
Ġdetect ive
Ġkick ed
Ġnic er
ĠSomet hing
Ġstrict est
Ġelim inate
Ġenem ies
Ġhoriz on
Ġabsor bs
Ġmembr ane
PL ACE
throp ods
Ġinfr ast
ĠdishVar iation
A cc
D P
G u
G as
G et
J o
R un
S im
U s
b est
b ag
d id
f ighter
h n
h ors
i oc
s w
v iron
Ġa uf
in ery
is ure
Ġc oup
Ġp ipes
Ġb ite
le m
Ġd ro
Ġd up
Ġd ull
Ġin ver
Ġin struct
ed ict
AN D
Ġg ermany
ct ic
Ġe uk
Ġbe aches
ĠS E
ĠC ITY
ĠW AS
ers t
ut ure
ut ors
un ette
ĠP oint
il omar
Ġ1 30
ag us
ac o
Ġsh adow
Ġsh rimp
st ate
ĠR O
ĠR a
ĠF rew
ĠN Y
ĠN ix
ĠN UMBER
Ġwe ird
Ġli ps
Ġex it
Ġtr ucks
ĠY ORK
Ġall erg
Ġgr anted
ĠU t
Ġfe b
ĠSt uart
Ġro ses
ak h
Ġver d
Ġres em
Ġres erve
Ġoff ices
Ġdis aster
Ġbl ess
Ġcar b
ĠV ic
orn ed
Ġany where
Ġind ones
Ġrec re
Ġsee ks
ĠPro gram
ph ib
Ġdec ade
Ġgot ten
Ġmeaning ful
Ġorigin ated
Ġsw ings
ĠPr ices
Ġthought ful
ĠAm atric
Ġcheap er
Ġu k
Ġce iling
16 5
ĠCur rent
Ġpract iced
Ġimm ense
Pro perty
Ġstat istics
Ġsubst ant
ploy ment
Ġlaugh s
Ġtall er
Ġattract ing
Ġnut rit
ĠSumm it
Al una
Ġfinish ing
Ġfreez es
Ġgar bage
ait i
Ġloss es
Ġalternative Name
Ġobserv ation
ĠAID Aluna
Ġadmin istrative
alle l
Ġjournal ist
Ġwire less
Ġemphas izing
Ġinvolve ment
ĠWay ne
Ġanticip ated
ĠChampionship s
Ġlas ted
Ġabsolute ly
Ġcheer ful
Ġadvert ise
OS I
ĠTor onto
Ġaqu atic
Ġenem y
Ġbelief s
Ġdoub t
Ġgeograph ical
Ġcine ma
Ġretire ment
nik ov
Ġfern s
anke es
ĠVerm ont
Ġbrill iant
Ġtantal izing
ĠAmatric iana
, '
1 10
4 00
C ar
L C
N et
S P
S oft
a ust
b od
c our
l it
m od
p m
s and
w ould
Ġt ang
Ġt ender
in ction
Ġf its
Ġp ores
Ġb ark
Ġan ts
ar ium
Ġth read
ed ing
ĠT irst
ll er
ll or
ĠA D
id el
am o
am ber
qu ot
Ġre in
ĠC a
ĠC reek
ĠG ro
Ġor ig
Ġv s
ĠR ub
ĠR UN
el ve
ill age
ĠE le
ĠE qu
ĠL iv
ĠL ie
ĠL incoln
Ġgr ab
Ġar teries
ip hol
Ġim plied
ĠCh ild
Ġperson nel
Ġpart ial
ob ic
air y
ific ations
Ġtrans c
ident ial
oh yd
Ġcr ay
Ġreg istration
Ġpol es
Ġdon t
Ġrun ners
be cause
Ġgl ue
Ġlast ing
Ġvis ually
Ġgener ations
ĠPl us
Ġbirth place
Ġrock y
fect ure
ĠGr ace
Ġmeet ings
Ġprof its
ĠDo ctor
Ġ196 1
Ġsuit case
Ġfight s
ĠMay or
Ġexplain ed
Te am
Ġmarket ing
Ġpublic ation
ĠAre a
Ġemb ark
Ġannoun ce
Ġdest ruct
Ġremember ed
Ġbal anced
Ġbur gers
ĠLa unch
ĠIns ulin
Ġsens itive
ĠSch iphol
Ġmist aken
Ġgun s
Ġabsorb ing
Ġserious ly
Ġfert ile
Ġimmed iate
Ġparliament ary
ĠEv il
ĠRel ationship
ĠLuc y
rup ted
Ġvit amins
Ġdent ist
Ġinfl ation
Ġhydro car
ĠBudd h
Ġly rics
Ġviewer s
separ ated
ĠTirst rup
4 10
C ol
M ike
S erved
T A
U p
h all
p age
r ise
s ys
w anted
y o
Ġt ill
Ġt ires
Ġa ugust
an ut
an ne
Ġp ace
Ġb aked
Ġm ask
ar o
Ġd orm
Ġd ucks
ĠT I
ll i
ow se
ĠI D
ĠS P
ĠS et
ĠS ong
ĠS em
ĠS oftware
ĠC AP
Ġfor k
ri el
ĠB i
ĠB asketball
od ium
Ġcon gr
Ġor anges
Ġv est
ĠH it
ĠH oly
ac ob
ĠD im
ĠR ick
ĠF ight
ĠF arm
Ġcom fy
ĠN ep
Ġse venth
ĠL ab
Ġpos ter
." .
Ġpr incess
Ġar ena
ata ka
Ġfe athers
ĠWh it
ob il
ĠAn thony
Ġart ific
orn o
ĠCon serv
Ġins ight
Ġdec iding
uc cess
Ġmod est
Ġexp osure
vel t
Ġ8 3
Ġsl ides
How ever
aut y
ĠCl ick
Ġelect romagnetic
ĠSc ient
ĠPr incess
ĠEx p
ĠPh ill
Ġcost umes
Ġmess y
Ġcommun ist
Ġste al
Ġconnect s
Ġtechn ique
play ing
ĠSup port
Ġadvent ur
ĠAss uming
Ġpreced ed
Ġtou ched
Ġmanufact ured
Ġden ied
ĠRec ogn
Ġscen arios
ĠRes erve
Ġsen ator
Le vel
Ġcirc ulatory
ĠMr s
ios ity
Ġaim s
Ġneighbor ing
bu ild
Ġclimb ed
Ġfund ing
Ġcoast al
Ġprem ium
ĠAlf ons
Ġrunway Length
Ġmagaz ines
comp any
asm us
Ġcompe ted
Ġgrav itational
Ġeleg antly
ĠClass ify
Ġpra ised
Ġlawy ers
Ġflo ating
Ġfro zen
ocking s
Ġdistrib uted
Ġresist ors
ĠHy gie
Ġgradu ated
Ġmushroom s
Ġinqu iring
ĠPen insula
Ġcigare tte
ĠDisc uss
Ġpregn ancy
osn ia
ĠColomb ian
Ġparas ites
Ġguaran te
Ġoverwhel ming
Ġresc ue
Ġadap ted
Ġorche stra
ryst al
ĠPear l
ĠGorb ach
Ġcircum stances
ĠBlock buster
ĠGujar at
ladim ir
Ġinfrast ructure
Ġfeb ruary
ĠHygie a
B ob
B usiness
E very
G o
G ener
S k
S yn
Y ears
f in
f irst
l arge
m ain
v ation
w right
in te
er as
or ious
an se
Ġf er
it ivity
Ġp ile
Ġp aul
Ġb ases
al ia
ER S
Ġl ays
ĠA ire
ĠA raf
Ġbe verages
ĠS ad
ĠS ue
ro le
os ke
os ovo
ĠC apital
Ġr hythm
ld e
Ġqu aint
ad is
ad ise
ĠB ah
ch ildren
ĠP un
ĠP ap
od ing
ĠG ot
ol fer
il ight
ag ic
ĠH yd
ĠH amilton
ac u
ĠD ust
ĠF D
Ġme adow
Ġse as
Ġse ated
ĠJ am
Ġle an
Ġpr inted
Ġun fl
we ek
Ġcor respond
Ġgr abb
ĠQu arter
ous es
Ġcomp act
ass ion
Ġreview ed
ru it
Ġthere by
ach ine
Ġres ume
Ġoff spring
ĠRe uters
Ġsc andal
Ġloc k
Ġfl ights
Ġshe ets
Ġshe lls
omet er
ĠAs her
ĠInd ividuals
Ġsub urb
Ġ6 9
ĠAr n
Ġbo oth
ĠIndian apolis
Ġ18 0
ĠOn tario
Ġsw ift
Ġz yg
Ġhead ing
atter ed
15 0
Ġcat ches
Ġsurf ing
Ġclos ing
ĠCar ibbean
ha ired
Ġhor rible
urch ase
Ġemb assy
Ġsqu irrel
Ġtw ist
ĠFl owers
Ġconst ructed
Ġdeal ers
Ġren al
tr ans
Ġ194 7
ĠDen ver
Ġhost age
ĠBu y
Ġcart oons
Ġbehav iors
agon al
Ġdecor ation
Ġfund s
ĠHel ena
fo ot
ĠAlf a
Ġpers u
Ġresour ce
Ġachieve ments
ĠBro ok
ĠSystem s
Ġcalc ulate
ĠFil ipino
Ġexpert ise
Ġdisappointing ly
Ġupper case
Ġtrail er
ĠTurk men
Ġlegisl ation
Ġham mer
ĠMuslim s
ĠCamp bell
ĠRay el
Per iod
Ġdan cer
Ġ____ _
ĠRon ald
Ġseam lessly
Ġtransm ission
ambur ger
ĠKent ucky
Ġincred ible
ĠMahm ud
ĠTai b
ĠHawai i
Ġsep tember
overe ign
Ġtong ue
E A
E P
W ind
b es
b us
c ard
k t
at on
at us
of ten
Ġf ills
Ġb om
Ġm c
ent a
Ġd as
Ġd ial
Ġn urt
Ġh ire
Ġh ook
ĠT ool
ĠT iger
est ry
ĠA br
ĠA enir
Ġg rip
Ġg aming
Ġe en
am ous
ĠS ams
Ġre cess
im mer
ig or
ig ue
Ġfo g
Ġst al
ĠB eth
ĠP iet
ĠG ene
ĠG arden
ol ia
ant a
ĠM ountain
se ason
ĠD essert
ĠD erek
ĠR alph
ĠF igure
Ġse cre
ĠL ive
ud nikov
ace let
Ġman ual
ver b
ĠTh ai
rib uted
Ġac ron
are t
ivers ities
Ġpar allel
old s
Ġgood bye
Ġbl owing
Ġjust ification
Ġany way
ĠAs ilomar
Ġtrans ition
Ġpres erve
Ġrel ate
Ġatt ach
Ġdr ought
Ġ6 2
ex per
Ġpol ish
Ġsun set
Ġgl ac
ĠSh anghai
Ġeas iest
Ġeven ly
Ġperform s
fl ies
ĠPr ot
ĠPr udnikov
ĠEx c
Ġdist ant
Ġmonth ly
Ġbar rier
Ġce ase
16 34
Ġpay ments
Ġ195 2
Ġav iation
tt i
tt ar
ĠGreen land
Ġseg mented
Ġhotel s
Ġaccess ible
Ġcand les
Ġ194 5
Ġpal ind
Ġmic ro
Ġvict ims
Ġintro duce
unt a
Ġder ived
ĠFin ancial
Ġut ens
Ġcurren cies
part y
ĠNor wegian
Or gan
Ġsubtract ion
Ġmut ual
ĠSoc iety
Ġconv icted
Ġbow ling
Ġrot ating
Ġflavor ful
Ġliter ature
Ġsty lish
imet ers
Ġpor ch
Ġconserv ation
Ġtun nel
ĠMot or
Ġsod a
Ġsod ium
ĠGi ants
Ġvocal ist
Ġris ks
Ġconnot ation
ĠLibr arians
viron ment
ĠAraf at
Ġunfl attering
Ġzyg ote
Ġacron ym
B et
D r
E urope
F in
O ption
P C
S alle
U P
c ock
c asting
e led
f ol
f ilm
h ot
i ples
l ove
n x
n an
r av
v ens
v ada
w all
y er
y ll
Ġt ab
on i
Ġs ie
Ġs ib
Ġs tead
Ġw ishes
ou st
Ġn in
ĠT ed
ĠT ower
Ġl ymph
ow ed
Ġg amb
Ġbe am
am as
ĠI BM
ir ates
ĠC ertain
Ġr ank
Ġr ains
ur ation
ers burg
un ks
ad io
Ġst oring
ĠP ant
od erm
Ġcon ducted
Ġv et
Ġpro ve
ĠD uke
ĠD arfur
ĠR ace
ĠF L
ĠF ish
Ġcan y
Ġse ep
ĠL ater
Ġex pelled
ĠIn v
art a
Ġj th
Ġj ets
we ar
Ġman eu
ks o
rib ed
ĠU ttar
ĠK night
Ġcl in
Ġcl er
ĠCh ile
ĠCh ampions
Ġres ulted
Ġsc issors
Ġcar p
ai ro
Ġad orned
ell ing
Ġspecial ized
Ġatt racted
ĠCom mon
Ġdec ides
Ġfin ance
Ġcr ashed
Ġass umed
amp a
Ġ7 3
com ed
be en
be at
Ġsign als
overn ment
Ġaut hors
Ġperform er
Ġref used
Ġret rie
fl akes
Ġdist urb
rop he
ĠAd vent
ĠAd isham
Ġcontin uing
Ġbeh ave
Ġreal m
Ġreal ize
Ġcat ers
ĠBa kso
ĠCar ter
Ġsnow flakes
aged y
ĠOr leans
Ġdecre ased
Ġdem ands
Ġkid ney
ugg ing
Ġposs ibilities
Ġ194 6
cc oli
Ġdemon ym
Ġextra ordinary
Ġfarm ers
abb i
Ġran king
Ġexh ilar
ĠPri x
77 7
ĠPos ition
Ġcryst al
otter dam
ĠBrazil ian
ĠJon athan
Ġrepublic an
Ġimple ment
Ġvit amin
Ġavo iding
sol o
ĠKarn ataka
Ġvo iced
Ġwhis per
duc ation
Ġvel ocity
Ġcomplic ated
Ġank le
ĠChair man
exp ensive
ollus ks
Ġtelesc ope
Ġfranch ise
A ust
C ont
D ef
F i
M P
M ost
R uss
T R
c ul
d em
g iving
h ov
j p
k ind
l an
m onds
p ub
r ings
s ad
s uch
s pec
t ical
in er
in ator
Ġs overeign
at ist
Ġc ert
Ġp ant
Ġp ist
Ġb ent
Ġb anned
te chn
Ġm ang
Ġh arsh
ĠA go
et ary
Ġy ucky
Ġwh ale
Ġqu ote
ad i
op ing
ĠB ert
ĠB uff
ith uan
ch arge
ĠP O
ĠP ay
ĠP ack
od ore
ĠG h
ag ne
ĠM ovie
Ġhe aven
ĠD ifferent
ĠF und
Ġch ickens
ĠL abor
Ġk icking
Ġpr ince
pl ays
Ġal veoli
av an
Ġsome what
ab ol
Ġwor ries
Ġcal endar
Ġap ost
Ġher b
ctu ally
Ġneed le
ĠUn iverse
Ġcity Served
Ġbu ff
ĠV ideo
Ġdif f
Ġthan ked
Ġthr own
Ġthr ows
ĠNe ave
Ġrel atively
atur ated
az i
Ġfin als
tain s
Ġmon ument
Ġ10 1
ock ets
Ġext end
Ġhum id
Ġaut o
ling ton
Ġapp et
ĠAb ner
ey er
Ġexam ine
ĠPh ys
ĠId ol
Ġhair cut
Ġdep ression
Ġtrad ed
Ġtable t
ĠDef ense
St ar
Ġens ures
Ġcontrol s
Ġagree ments
ĠPol it
Ġcomfort ably
Ġamb assador
ugg ling
Ġaddress ed
Ġposs ession
Ġ194 8
Ġbi ological
ĠGl obal
ĠLa Salle
mar cas
ĠMad in
eal ous
ĠPlay ers
Ġlif etime
Ġlif estyle
Ġskateboard er
Ġshar ks
Ġhabit ats
Ġunif orms
ĠAL CO
ĠMount ains
Ġsle e
Ġdu o
isp here
ĠKen ya
Ġdisag reement
Ġmich ael
Ġcontrad icts
Ġdav id
Ġlic ense
olph ins
ĠUr gent
ĠDa ily
Ġabandon ed
ĠAW H
Ġthrill er
Ġsustain able
Ġbankrupt cy
Ġ(_ ).
Ġvul ner
Ġcarb ohyd
ĠAire y
Ġpalind rome
A TI
G en
H is
M r
N RBQ
O h
P at
S m
U C
U K
d isc
g irl
g ins
h ill
m ale
n atural
q bal
s oc
s ize
x e
Ġ ."?
at omy
is er
Ġc act
an as
an ia
it able
it ating
it oring
Ġp led
Ġp ound
Ġp ale
Ġb inary
Ġm as
Ġm eron
Ġin her
om as
om otive
Ġh ind
ĠA EK
Ġg i
Ġg ulf
id ae
ĠI qbal
ĠS her
Ġre ct
ĠC yprus
op ic
op ard
Ġst roll
ith m
ch air
um ption
ĠM ult
ĠH ug
Ġsh ipping
ĠD C
ĠD ame
ĠR ights
Ġnot ably
Ġch art
ĠN O
ĠN atural
Ġwe alth
ĠL arry
Ġtr im
ĠJ ay
ud es
The Sea
ĠY ankees
pl ain
Ġcor p
Ġsp an
Ġgr ape
ĠK erry
Ġcl ip
ip ality
Ġpre vents
ak les
Ġver ify
ĠAl ham
Ġwater front
Ġ20 20
Ġover night
ĠCon cer
Ġsup erv
Ġteam mates
Ġreg ulations
Ġinv asion
Ġpol ar
Ġinter action
Ġmin ing
Ġsign ing
Ġsign ature
ĠDe b
ĠLe gal
Ġbook store
Ġbirth Year
ĠSc he
Ġmar ry
ĠEx per
Ġhard ware
ĠPre fecture
Ġpret ending
Ġoper ate
Ġcontin u
ĠMan ager
Ġ17 0
Ġreturn s
ĠAll ama
Ġrain y
ĠCol in
for est
Ġsuper ior
Ġbase ment
OR E
Ġaff airs
Ġpri est
Ġcoun sel
ĠCor rect
Ġimpress ion
Ġcloud y
ĠRober ts
Ġexcept ion
Ġhost ing
Ġregard ed
Ġmind s
Ġconsist ent
Ġsil ent
iot ic
Ġaffect ing
gl as
Ġprem iere
Ġdemonstr ate
ĠJeff erson
Ġpoor ly
Ġapart ments
ĠIS BN
Ġclar ifies
Ġinsp iring
ĠServ ices
ga ard
Ġdisp ers
ĠSpec ifically
Ġencour aging
Ġexpert ly
Ġacqu ire
Ġannoy ing
Ġkiss ing
urd ish
Ġrib bon
ĠRom ance
athemat ical
Ġdies el
Ġoverl ap
Ġwound ed
Ġelevation Above
tell ation
Ġcrop s
Ġfunctional ity
Ġol ive
arg uments
ĠCustom er
Ġassign ment
Ġchem istry
Ġoccasion ally
Ġmicrosc ope
Ġcaut ious
ĠAnaly ze
uer to
Ġwis dom
Ġstol en
ĠHyper marcas
TheSea Level
ĠAlham bra
ĠelevationAbove TheSeaLevel
C al
H D
L a
S N
i u
i Gas
r ender
s u
w ent
Ġt y
Ġt ummy
Ġt ested
Ġt ension
Ġa z
Ġa is
Ġa lex
in to
on ut
Ġs om
Ġw ishing
or ks
Ġf iled
Ġp izz
Ġp itch
Ġp itcher
te ch
te ction
Ġd ried
Ġth irst
Ġn u
Ġn orthe
Ġh ula
Ġh unt
ĠT on
ĠT itan
ĠT yler
Ġl oses
iv ores
ĠS ex
ro d
Ġre ass
ir al
ĠC ape
ig ers
ĠB IRTH
ĠP R
od a
ĠG ubb
Ġab normal
ag he
ĠM ak
ĠH ay
ĠH art
st op
ĠR ol
ĠR ating
ĠR otterdam
ĠF al
ĠN a
ĠN ap
ĠN em
Ġse af
Ġex ceed
Ġk ay
ĠO d
ĠY ears
ener y
Ġal i
Ġhas n
Ġfe e
Ġac quis
ĠCh ap
are m
ick ed
Ġ19 34
.. ."
ĠAr d
Ġbo ot
Ġexp anse
ather ine
anc he
Ġ8 2
Ġsl ices
Ġpass ive
Ġsun rise
Ġdef ensive
par a
ĠAf ghan
ĠBo x
olog ica
ĠAb el
ĠFact ory
fort he
Ġpain ter
sh an
ĠIm p
Ġtrain ed
ĠAll an
Ġdeath s
ĠMin istry
ĠGu ang
Ġcult iv
Ġengine er
ĠPol onica
Ġstri kes
Ġprot ons
ĠDan ny
Ġtou ches
Con cept
Ġwel comed
Ġfresh water
Ġsatisf y
Ġdeliver ing
Ġcollect s
Ġcollect ive
ĠFrank lin
Ġrob ust
ĠDes ign
ĠEr asmus
comm unications
Ġdistrict s
Ġbul b
Ġcolon ies
Ġsubtract ing
ĠClass ic
sm all
Ġsch ol
Ġprogramm ed
Ġlin ks
Ġheav ier
ĠAz erbaijan
ĠColomb ia
Ġfoundation Place
ori ented
ĠAmid st
Ġrefres hing
Ġfol k
ĠPalaeont ologica
Ġtot ally
Ġtil ted
Ġmasc ot
ĠAmer iGas
Ġcongr at
Ġartific ial
Ġmeron ym
ĠGubb io
" ),
9 00
A ct
B ar
H ey
M art
O ther
S pe
S ub
U E
c s
h m
h t
l iving
m ax
p ies
w ant
x ins
z ens
Ġa y
in os
in se
Ġw agon
Ġw orms
re qu
end ers
ll ers
ow th
ĠA qu
Ġbe ams
ly de
ĠI g
ĠS hip
ĠS alt
os ome
ir able
ĠC A
ĠC ub
Ġr azor
im a
ut ives
ĠB os
ch t
ĠP ittsburgh
ĠG ord
Ġcon e
Ġab use
ap l
ĠM old
ĠM athematics
ac ular
Ġhe els
ĠD og
ĠR en
igh te
Ġse ism
Ġwe ld
ĠL iving
Ġtr igger
oc he
ĠO x
th ank
Ġj apan
Ġdes per
ard o
Ġsp ar
ater n
ĠK ind
cl ock
ber to
Ġpre ference
Ġcomp ressed
ĠCh lor
Ġsc rew
ple x
ade Of
ject ion
Ġev acu
Ġacc idents
ĠCon struct
int endo
Ġshort est
Ġche ering
ell o
Ġcent ers
Ġatt orney
Ġins ulin
ph ants
Ġexp ands
Ġinv ention
Ġinst it
Ġref ined
Ġgener ating
Ġcur iosity
yl on
ung i
Ġz ealand
Ġbeh old
Ġwr apped
with the
Ġes cal
Ġste ep
ĠGu y
ĠGu ard
Ġemb ry
eb ra
Ġpract ical
ĠAg ent
Ġconst ants
Ġkid n
ĠChe ap
Ġharm ony
Ġamb itious
Ġglob e
Ġsoil s
ĠGl en
Ġtour ism
Ġhost s
Ġfat al
cell ent
Ġconsum ed
Ġnut s
IT AL
ĠDr ago
Ġmedia Type
Ġsil ence
ĠMed iterranean
Ġdecl ined
Ġfill ing
from the
ĠMil itary
Ġselect ing
hold ers
top l
Ġmechan ism
Ġdipl oid
bet es
Ġwitness ed
Ġspect rum
Ġ__ _
Ġforgot ten
ĠPortug al
Ġstem s
Ġaccommod ation
Ġanx ious
Ġtap estry
ĠDun can
Ġpartners hip
Ġgalax y
Ġembarrass ed
Ġestim ated
Ġreven ge
Ġgastron omic
ĠLl oyd
) /
G eor
H A
H i
J ack
L ISH
S ite
f ull
k ar
l ast
l iness
l ooking
w s
Ġ ip
Ġt art
en ity
er rill
on is
Ġw rist
or er
Ġc ure
re ck
it ra
Ġp anc
te t
Ġto ss
Ġd art
om on
ĠT EAM
Ġl id
Ġl ob
Ġl uc
ĠI N
Ġre ign
Ġ" (
ĠC ult
ĠC hel
Ġr ust
Ġr ural
ĠW i
ĠW atch
Ġwh ist
ĠP og
ĠG ab
ĠG ib
il age
Ġor d
Ġv oted
Ġv endor
ant le
ĠM oh
ĠM illion
ĠD ag
Ġdo gging
ĠR oose
ĠF IF
ĠL ot
ĠL akes
Ġex cret
ĠJ u
ĠO ct
Ġj ogging
aus ted
Ġun necessary
ast on
Ġcor ners
Ġsp ain
ĠTh ings
ĠK u
ĠK al
per form
Ġcomp assion
Ġrest ore
ĠSt ore
Ġprov ider
Ġ19 20
Ġ19 13
Ġ19 36
ail ing
og ens
Ġthem es
Ġsa fer
Ġres on
Ġag ed
Ġsu g
Ġpart icle
Ġpar ked
old ing
Ġsentiment s
ĠAl v
pro v
Ġart work
Ġsol ving
any e
Ġbel oved
ĠNe vada
Ġrel ates
Ġche ating
Ġpo inted
Ġatt ent
ĠAr senal
Ġgu ards
ĠTr ump
Ġpol ite
Ġ7 00
Ġread er
Ġpass word
ros se
Ġmin imal
ĠSh are
ĠBr others
ĠDe bian
par ent
ĠCl ose
ĠCl oud
ĠBo ard
Ġint ensity
Ġed ition
Ġgovern ing
ĠZ ero
ron ic
Ġresp onds
Ġfree ze
Ġobject ive
bs ite
for ce
Ġcool er
ĠGeor gi
Ġste aling
Qu aid
erc ury
ĠAtt ica
ps ons
Ġdeal ing
Ġnation wide
ĠMc Quaid
ĠTom orrow
Ġbal let
Ġbal cony
Ġscreen writer
ĠWind s
Ġtom ato
Ġfat ty
Ġseem ingly
Ġshall ow
Ġcompos ition
ĠOb jective
ĠTrans lation
ĠMed al
Ġaffect s
Ġsens es
Ġdisplay ing
Ġpath s
ĠPlay er
Ġrespect ive
Ġadm iration
Ġthank ful
Ġwild life
Ġcivil ian
Ġattempt s
ĠDem ocrats
ĠElect rical
Ġcondition ing
Ġexcell ence
Ġmaster fully
Ġencour aged
Ġpig s
ĠMass imo
Ġconflict s
Ġgrocer ies
Ġlaws uit
ĠWal ter
cons ider
Ġresist or
Ġsail ing
Ġhom eless
Ġaccomplish ment
Ġlad der
ĠSu ite
ĠSever al
Ġdisag ree
Ġheav ily
ĠSy ria
Ġagricult ural
ĠMot ors
worth y
Ġassass ination
Ġorbital Period
Ġintent ions
Ġau ction
Ġinterpre t
Ġcum shot
ĠDevelop ment
ĠBoo gaard
ĠVeron a
Acc ording
phib ians
Ġsubstant ial
ĠRUN WAY
ĠCAP ITAL
ĠPiet ro
ĠPog son
ĠRoose velt
= "
B en
K ing
L abel
M adeOf
e ing
h one
j un
m es
m ia
p iration
s a
s te
Ċ Ġ
Ġ ll
Ġt ort
Ġt ense
Ġa unt
er os
Ġs isters
Ġw er
Ġc av
Ġc ab
an ium
Ġin struction
ed uc
Ġh ired
Ġh obby
ĠT able
ER V
Ġl oyal
ĠA U
Ġg olfer
us c
am ation
ĠI ron
ĠS we
Ġre cept
Ġre ception
im ore
ĠW im
ut ants
ri x
ĠB ou
ĠB ed
ĠP a
ĠP ers
um ble
Ġcon vention
ag ger
ĠM em
ĠM artha
Ġhe aling
ĠD ays
ul ia
ul ator
ĠR ain
ĠR NA
ĠF unk
Ġcan al
ust ing
ĠN ation
ĠL am
ĠL ib
ĠL iver
all ing
Ġle aning
Ġle isure
Ġgr ain
ose ph
per ial
ick er
aur a
Ġap ril
ree ce
ne x
Ġspec ified
Ġph ylum
ĠAn imal
Ġcomm emor
Ġbu gs
Ġev olved
ĠV it
hen d
Ġam ino
Ġshould ers
Ġsub sc
Ġatt ributed
tern al
Ġfilm maker
Ġsup ple
ĠCan al
Ġless on
ib et
ĠSp art
Ġ7 6
Ġ8 00
enn a
Ġmin isters
ĠSh ar
ĠAt las
Ġlar va
ĠDe an
ĠDe al
Ġref lection
Ġcare d
Ġgovern ments
Is A
Ġsw ed
ĠAd onis
Ġhand ling
ĠAm para
An tonym
Ġpoint ing
Ġprof ound
Ġactiv ist
ĠPres ent
ann els
Ġep id
bor g
Ġdig ging
Ġur ges
aphr agm
Ġra ises
Ġtall est
Ġsouth west
Ġjud ges
Ġconven ience
Ġaccom pan
ĠRec ord
Ġdoor way
Ġpet als
Ġcreat ivity
Ġactive Years
Ġsymbol s
ĠBre ak
Ġobtain ed
Ġquiet ly
Ġign ored
ĠAh met
ĠAh med
ĠFranc is
cast le
Ġfro st
ĠVol unteer
En tails
Ġnavig ate
Ġalphabet ical
Ġcorpor ation
Ġathlet ic
Ġprepar es
ĠTal iban
Ġincorpor ating
ĠLeg isl
Ġliber al
ĠCap tain
ĠWor ks
Ġpregn ant
Ġdur ation
ĠBat agor
Has A
Has Property
Ġcongress ional
ĠVi king
ĠLin ux
Ġproced ure
Ġdia betes
Ġgalax ies
Ġappar ently
Ġolymp ic
Ġminim um
Ġchap ter
Ġdepart ure
ĠPot ential
ĠAnton io
Member Of
Ġmol ten
ĠFreder ick
ĠGrass o
Ġperman ent
Ġinver tebrates
Ġcray ons
Syn onym
role um
ĠCertain ly
ĠFIF A
D es
F e
G irl
P ar
R NA
T aylor
W oman
[ '
d ef
g reen
k ish
m it
n ear
n amed
t uce
u ine
Ġt ens
at ches
Ġw eren
Ġf erry
Ġf iber
it led
it ime
Ġp orn
Ġp atch
Ġb orders
le in
te gun
Ġm oth
Ġm athematical
ar us
al b
al us
Ġth umb
Ġin aug
Ġn iger
Ġh ay
Ġh az
ĠT alk
ll en
Ġl aug
Ġg ir
Ġg ap
us ually
qu arter
ĠC ut
Ġr ip
im m
Ġst s
Ġst ance
Ġst ations
ĠG ill
Ġv ase
ĠM ess
ĠH D
ĠH ud
Ġfr action
se in
Ġsh ark
Ġsh aping
ĠD or
ĠD al
ĠD est
ĠD yn
st ick
st ration
ul u
and an
ĠN ancy
ĠN orman
ĠN HL
ĠL ay
ĠL ots
Ġex clusively
Ġtr ap
Ġle e
Ġj ur
Ġpe e
Ġal ert
Ġgr an
ab ul
ĠK aren
ĠCh ance
ĠSt ars
em ia
ear ing
Ġsa x
Ġdis like
Ġcar es
ĠAl k
Ġbu ys
ĠV enezuela
Ġam en
Ġent icing
ĠYou Tube
Ġday light
inn ati
Ġsk is
ĠPro cess
ph y
ph otos
gg y
Ġsup reme
Ġ201 9
Ġsing les
Ġplant ing
Th us
Ġreg ards
Ġreg istry
Ġdi aphragm
Ġ7 9
con f
Ġmet ropolitan
Ġgl ow
ĠBr ight
ĠDe cl
ĠDe Mar
Ġstre ams
eng u
Ġhouse hold
yd ia
Ġmar athon
Ġrock ets
Ġz ip
plic ations
augh ters
Ġprom ising
atic an
Ġpower ed
ĠMan uel
mon th
bre aking
ĠSim psons
Ġlog o
Ġbit ter
me an
Ġrecord Label
Ġpeace fully
ĠPhil ip
Ġimm ers
inc innati
Ġcup board
Ġconst itu
che ll
Ġstri ped
ugg ed
Ġprot esting
Ġ194 1
Ġcoll ision
Ġautom obile
Ġkill er
Ġgather ings
Ġsell er
ĠMag ma
Ġran ked
Ġexec utives
Ġdecor ated
Ġadm ired
ĠOP ER
Ġuns ure
ĠBob by
ĠEr tegun
ĠOver all
ĠOut look
Ġbul let
Ġjournal ists
Ġtas ted
Ġconduct or
ĠIce land
Ġpig e
Ġmut ations
Ġunf avor
Ġneck lace
ĠExt ernal
outhe astern
Ġheadqu arter
phr ase
Ġaqu arium
Ġstrengthen ing
ĠTem perature
Ġmold s
Ġdut ies
Ġtreas ure
Ġembr ace
Ġchrist mas
ĠDou glas
Ġweigh s
Res ult
whe el
ĠAgain st
ĠColumb ia
Ġbon us
Ġbatt les
Ġkitt en
Ġdeleg ation
ĠYah weh
Ġtranqu il
Ġug ly
Ġvine gar
Ġisl amic
Ġtid y
Mic rosoft
ĠSug ar
ĠAltern ative
Ġorig ins
Ġdestruct ion
410 777
Ġadventur ous
Ġguarante ed
oske leton
Ġexhilar ating
hov ah
Ġcarbohyd rates
aghe tti
Ġlaug hed
. -
D ATE
N C
W W
Y oung
c ould
d ifferent
f elt
g abat
i ro
j ury
p ic
r ange
u ador
v ar
v et
w arf
z er
Ġ ES
Ġt ilt
Ġw ing
Ġw ed
or o
Ġc raw
an al
Ġf ires
it ched
ing o
Ġb ob
Ġb its
le af
ic er
Ġn ails
Ġn ato
est y
Ġg host
am ine
ĠS el
ĠS abin
Ġre ef
ĠC akes
ĠC ele
ĠW el
ĠW onder
ri et
ri ott
ĠB es
ĠB ark
ĠG ard
um ar
Ġv oters
ĠM ember
ĠM edic
ĠH im
ĠH ockey
ac a
ac ies
Ġsh out
ĠR y
ĠF er
ĠF riendly
ill aries
ĠE ve
ĠE ddie
ave z
ĠJ ets
ĠO m
pl aced
ary nx
ub rey
Ġun install
Ġsp ill
ĠTh ose
Ġgr ains
umm ing
av o
Ġar thropods
ab i
ab ling
ĠK arl
ĠCh ampion
Ġspe eds
Ġro bert
oy a
ne eded
Ġsc ar
ire land
ĠV illa
Ġshow case
Ġcons tellation
Ġfun g
Ġdet ained
Ġrec on
Ġthr one
ĠNe pt
ric ted
ĠAdd itional
Ġcent uries
Ġpo ems
ĠPro per
Ġgu errill
Ġdec ay
Ġair ports
gr oup
Ġcr own
be fore
Ġob vious
Ġinst ances
ĠLe ader
ĠLe vy
Ġpop corn
ĠCl a
vent ional
ring ton
Ġwr ap
ĠCol more
oll ar
Ġdep ict
Ġwood y
uit ar
Ġtravel ers
athe tic
ĠFl ash
Ġgrass y
Ġdest inations
Ġagree ing
Ġport ion
itar ian
Ġcoun ted
ĠCor nell
ĠEm peror
Ġcatch y
Ġnovel ist
Ġov erse
Ġintro duct
fortun ate
Ġstick ers
ĠMag ic
Ġthreat ening
Ġmoment um
Ġalle v
ĠJack ie
Ġdemonstr ated
ĠBet ter
Ġshel ves
Ġrecover ed
Ġcoal ition
Ġinsp iration
Ġreplace ment
ĠLind a
Ġgod s
Ġvolcan oes
ĠAv iation
ĠAh mad
ĠMo z
oub les
Ġwitness es
Ġrom ance
Ġteen agers
Ġfoss ils
Ġintegr ated
Ġstrip es
cons cious
ĠExt ract
aren ess
cover ed
Ġdomin ant
Ġrack et
Ġsac s
Ġsac rif
ĠStock holm
ĠCard inals
Ġwithdraw al
ĠBab y
Ġdilig ent
ĠSa udi
ĠBang ladesh
ĠMove ment
Ġstro ke
Ġhab its
Ġresign ation
ĠConsider ing
rep ren
Ġthorough ly
Ġaest hetic
Ġceleb rity
ĠLog ic
Ġfib ers
Ġnood les
OSI TION
Ġseaf ood
ĠArd more
ĠDag gett
1 20
E d
N ER
P M
T Y
T ur
T ake
T EAM
W omen
a eda
b ird
c apital
f urt
g io
h av
k h
r ont
v d
w inning
z i
Ġ ireland
Ġt u
Ġt orn
Ġa ids
in h
en ess
er able
on ing
Ġf are
Ġp acks
Ġb amb
Ġm op
Ġm ates
ar ah
al f
Ġd umb
Ġd aughters
Ġth ailand
as ure
as ma
ic ist
end ment
end ra
Ġn ost
Ġn aked
ĠT s
ĠT reat
ĠA S
ĠS id
ĠC ant
ĠC old
ĠC roatia
Ġr ic
ĠW ard
Ġon ion
ut o
ut er
ut ral
ad ows
Ġfo ol
Ġst am
ĠB uc
ĠP il
ĠG ate
Ġab dom
Ġab road
ĠM akes
ĠH ate
ĠH ills
ĠH umph
Ġpro of
Ġsh ock
ĠD rew
ul s
ul ing
ĠR at
ĠR av
ĠF u
ĠF light
Ġnot ices
ill as
ain ian
ist ory
ĠN on
ĠN est
ĠN am
ĠN ice
ĠQ atar
all ero
Ġj ames
Ġout break
Ġal monds
ĠK han
ack ed
Ġcomp rom
Ġpositive Would
ĠCh anges
du llah
ĠSt rip
Ġo zone
Ġ19 37
ear n
Ġag encies
ĠUn iversal
Ġsc are
Ġdis order
Ġdis asters
Ġfl ock
ĠAn na
Ġhad n
ĠHe in
omet own
Ġem issions
Ġent repren
Ġco aster
ars on
Ġshort ly
Ġche cks
ull s
the ir
Ġsk ip
Ġins ert
Ġend e
Ġbo iler
Th ank
ah l
amp agne
Ġproduct ivity
Ġmain land
Ġcle ared
Ġterm inal
Ġgener ates
ĠCl ark
ĠMar riott
Ġeng agement
Ġorigin ates
Ġz ones
Ġclass ification
Ġorgan izing
20 16
ĠGr ound
ĠAb u
occ o
Ġ16 8
ik i
15 7
Ġpolit icians
with out
ĠCont ract
Ġcritic ized
Ġkil ograms
Ġmix ing
ĠX box
Ġra ft
Ġrepresent atives
Ġclaim ing
Ġaccess ories
Ġcamp us
Ġreported ly
Ġimpact s
ett le
Ġfat igue
ĠSm art
Ġsex ually
Cl ick
you can
bl ack
Ġult imate
Ġfair ly
Ġoccup ied
ĠVict or
ĠPakistan i
Ġexh austed
Ġprec ision
oster one
ĠBre men
Ġelev ated
Ġtarget s
ĠRichard son
Ġweap on
boy s
Ġped est
Ġlaunch Site
Ġrespons ibilities
OT AL
Ġspect acular
Ġastronaut s
Ġreserv es
Ġoutf its
Ġsof ter
Ġtower ing
Ġstret ched
Ġinteract ions
ĠWood s
\* .
Ġcontrovers y
Ġaccommod ate
Ġboo lean
Ġavo ided
ĠSum atra
ĠHung arian
Ġexha led
Ġdelay ed
Ġpour ing
usse ll
Ġrecy cling
Ġquant ity
contin ued
Ġobst acles
ĠAF P
Int ent
Ġbil ateral
Ġsear ched
Ġpenal ty
ĠJama ica
ĠBeat les
Ġdup lic
ĠTurkmen istan
Ġord inary
ĠDeMar ce
" :
D en
G l
S ur
T O
U L
] ]
c ia
g ence
g ain
l s
m ind
m ont
p ace
r ans
w en
Ġ {
Ġ ON
Ġ ig
Ġs led
at ible
or et
Ġc uba
an ol
an ie
Ġf ate
ing le
ing ton
Ġp ays
Ġp icks
Ġp ione
Ġb ang
Ġb other
Ġb ald
Ġm ower
ar ound
Ġd um
Ġd rafted
as ium
ce ive
Ġh ik
ĠA B
ĠA ctually
Ġg land
Ġg ross
Ġbe ads
ĠS ed
Ġre duces
ir ming
ĠC N
ĠC atal
ĠW alk
ate urs
ad os
ad ab
Ġst orms
ĠB or
ĠB und
ĠP red
ĠP aper
ĠP urchase
Ġas ide
ĠM uh
ie vo
ĠH aiti
Ġsh ining
Ġsh aped
ĠE at
ĠN intendo
ĠL ut
ĠL oad
ĠL abel
ans hip
ĠO t
th ra
Ġun em
Ġun pre
Ġsp aghetti
ĠK el
Ġcl ay
ĠCh ievo
Ġso othing
Ġ3 60
Ġwhen ever
clud ed
Ġopt imal
Ġpar amet
ple ts
Ġtal ents
Ġsk ies
Ġsk inny
ĠCom mer
Ġsup pl
az ine
aw i
aw son
ank ton
ah n
Ch ina
Ch ildren
ash mir
Ġ7 7
ĠFr ont
Ġtri umph
Ġ10 5
Ġref lected
Ġcare less
Ġspecific ations
Ġdisc ipline
Ġlight ning
Ġz e
Ġdist ress
Ġhead phones
ĠMon th
ĠAb s
Ġsn ail
Ġcour ses
Ġpain ful
Ġtow els
mon ths
Ġbro ccoli
ann ah
Ġland ed
Ġsurf board
ĠAsh gabat
resp on
Ġcapt ures
ĠWar ren
Ġcam eras
ĠNot re
Ġdifficult y
Ġmeth ane
Ġpoll utants
ĠOl iver
Ġcross ed
Ġliqu ids
Ġinflu ences
Ġgrand mother
Ġinf o
Ġconfirm s
Ġexec ution
Ġban king
ĠCle m
ĠGener ated
Ġwarn s
Ġtur bine
Ġspl ashing
ĠBay max
Ġsuperhero es
comm od
Ġbul bs
ĠCharl otte
Ġstress ed
ĠArab ia
Ġmulti plied
Ġgain ing
Ġflood s
Ġexhib ition
Ġprotest ers
Pr int
ĠJew s
Ġdiplom at
ĠMont ana
Ġoverl ooking
Ġoverl apping
Ġther m
ĠInt ent
ĠNiger ian
Ġdepos its
Ġmit osis
Ġexplor er
Ġrode o
Ġprosec utors
Ġcontrad ict
Ġrefuge es
ĠCru ises
Ġsuggestion s
Ġcolle agues
Ġsubm itted
Ġpresc ription
Ġeru ption
Ġcyl ind
ĠProfess or
Ġsculpt ure
hong shan
Ġturt le
ĠRail way
Ġdro plets
ĠAlv ah
ĠGeorgi adis
ĠLiver pool
Ġunfavor able
Ġintroduct ory
Ġparamet ers
A A
E E
E U
M ich
O ur
P A
R I
b ility
c hen
g aret
g overnment
h h
h ome
h air
i y
i ator
n on
o ked
t its
Ġ il
Ġ oc
Ġ ere
in formation
en os
Ġs ri
Ġs wo
is ode
Ġw ird
Ġw oke
Ġc akes
Ġf ax
Ġf ierce
Ġp ill
Ġp ens
Ġb ending
Ġb ubble
te lling
Ġd anced
as ted
Ġin cl
om ay
ĠT aj
ON D
ow a
Ġg inger
Ġbe ijing
id o
am orph
ĠS ent
ĠS ide
ĠS ound
ĠS ays
ĠS ibal
Ġre duction
ir th
ĠC ass
ĠC offee
Ġr if
ĠW ant
ur er
un answerable
Ġst air
ĠB eng
ĠB ruce
ĠP ia
ĠP RE
od gers
ĠG ang
ĠM and
ĠM atch
ĠM obile
ĠM eyer
ĠH on
ĠH an
ĠH em
ĠH istoric
Ġsh ine
ĠD y
ĠD ad
ĠD ark
ĠR angers
Ġte aches
ĠE f
Ġch ol
Ġ2 10
Ġcan vas
ĠL ad
ĠL il
ĠIn te
ĠJ ake
ĠJ osh
Ġj elly
Ġj ealous
aus age
ener gy
iz able
Ġpe ak
Ġsp are
Ġsp inal
ĠU V
ind a
ĠK ings
ĠK ids
ĠK rist
per fect
Ġen abling
Ġpre de
Ġ19 11
Ġ19 25
Ġ19 31
Ġkn e
og l
Ġdis pos
Ġhapp ier
Ġcount less
Ġbu g
Ġacc us
ĠV illage
Ġcap illaries
Ġwater fall
ors hip
Ġarea Total
Ġlet tuce
Ġtrans actions
br is
br ing
ef ully
ell es
Ġfact oid
Ġsub ur
Ġfind ings
ĠAr ts
ank an
ib a
Ġ7 4
Ġsit com
Ġtri ps
Ġconsider ation
ĠSh ivers
ĠSh aron
Ġinst antly
ĠLe banon
Ġref use
Ġ9 4
ĠCl aim
Ġ0 7
Ġcur b
osp her
ĠZ one
Ġexpress ions
ĠGr ounds
Ġocc as
ĠPh oto
Ġ14 7
Ġgen uine
ĠCont rol
Ġphot ons
Ġtem por
Ġmilit ant
ĠAsh ley
Ġpresent ing
Ġing en
ĠX P
Ġfar away
Ġexcited ly
Ġtechn ologies
Ġgoal keeper
ĠFl ower
ĠHar ris
tt a
Ġimm igrants
Ġcup s
Ġcelebr ations
ĠGreen house
ĠSer bia
Ġarch ive
tr ivia
Ġgre et
Ġmanufact ure
Ġov aries
Ġdead line
Ġregard less
Ġfarm s
Ġterr ace
Ġattem pted
Ġtrouble d
Ġrespect ively
fo llow
Ġelectron ics
Ġbicy cles
ĠAID A
Ġachieve ment
ĠQue ens
Ġbul gar
Ġevalu ation
ĠProduct s
Ġsan ctu
enc ia
Mar ia
Ġteen age
Ġpreserv ed
Ġintric ately
ww w
bled on
Ġpurs ue
Ġnavig ating
Ġnarr ative
ĠPut in
Ġpassion ate
Ġload ed
Ġlabor atory
Ġexpans ive
ĠHam as
Ġprinc ipal
Ġrenew ed
uj ah
Ġlip ids
Ġguaran tee
Ġolymp ics
Ġfulf ill
Ġhi king
Ġlect ure
ĠBroad way
Ġtract or
igen ous
Ġillumin ated
Will iam
ĠBarn y
pres ident
ĠFollow ing
Ġdevast ating
Ġjun ior
ĠAmar illo
avail able
jp g
Ġpizz as
ĠGord on
ighte ous
ERV ED
Ġallev iate
Ġprede cess
2 50
A ir
C ount
D S
D isc
F rench
J on
J eff
L B
O kay
P N
X Emotion
b oth
b ooks
c ur
d oes
d oor
d ouble
f ive
f old
f inals
h our
o xy
r ine
t rophy
v ic
v ador
Ġ ic
Ġt act
he ld
in en
Ġs ir
Ġs ind
Ġs izes
Ġs udan
is an
re hend
Ġp ap
Ġb a
Ġm ere
Ġd ying
Ġd ictionary
ic ular
om atic
Ġn avy
ĠT O
ĠT oo
ĠT ob
ĠT ampa
ll as
Ġl at
Ġl ane
Ġl ined
Ġe y
ĠS qu
ĠS av
ĠS ab
et a
Ġre vel
os ph
ir ond
ĠC any
ĠC ool
ĠC urt
ĠC RE
ĠC redit
Ġr iot
im p
ur as
Ġst er
Ġst urd
ch ing
ch anging
ĠP age
ĠG A
ĠG all
ĠG ra
Ġ1 39
Ġcon g
ap le
ĠM AN
ĠM ut
ĠM all
ĠM ia
ter ing
ĠH era
ĠH ero
Ġfollow ers
Ġhe al
Ġhe llo
st able
Ġdo zens
ĠR ound
ĠR iding
ĠR ita
ĠF ac
ĠF ame
ĠF ix
ĠF err
ĠF urther
ov s
ill in
Ġte ar
ord ates
ĠE lection
ĠE asy
ĠE ducation
Ġch ased
Ġse ating
Ġse crete
ĠL en
ĠL ydia
Ġex cel
ĠJ oy
oc ent
Ġk enn
Ġde puty
up iter
Ġun con
Ġun changed
able d
we alth
Ġal k
Ġal ien
Ġsp am
ack er
ĠSt aff
Ġ19 33
Ġ19 32
itt y
Ġfl ip
ĠV ac
ĠV iew
Ġwork out
Ġequ ator
ĠCon vert
Ġins ights
ten ham
Ġend less
Ġteam work
Ġexp enses
Ġcateg or
Ġreg ulation
Ġpol o
Ġsl ice
ĠBr un
ĠBr ussels
Ġour selves
ho le
ĠCl ar
Ġelect oral
Ġ0 5
Ġcur ved
ĠMar vel
Ġapp s
Wh ite
Ġcell phone
ĠGr ay
ĠGr ows
ĠAm ong
aff es
Ġgen res
12 5
Ġreal izing
Ġbreak down
Ġtrad itionally
af ety
me ans
Ġassoc iating
Ġpress ed
ĠMy anmar
Ġste ady
ĠMin erals
ĠWas te
ĠX Emotion
Ġpen insula
Ġamong st
Ġlay out
ĠTw ilight
de velop
Ġsqu ad
Ġ195 1
Ġ195 4
Ġcomb ustion
Ġtw igs
Ġtw elve
OR G
ĠFy lde
ĠNot ting
Ġbag hdad
oph one
Ġmatch ing
Ġlargest City
ĠAss istant
Ġlisten ed
26 4
aid a
Ġparticip ation
Ġ194 2
ĠMc Donald
Ġgre eting
Ġaw areness
Ġdry er
Ġswe ep
Ġweight s
Ġsus pects
Ġhistor ically
Ġcontact s
Ġhur ts
ĠVict ory
ĠMil an
Ġpred ators
Ġvolcan ic
vis it
Ġemphas ize
Ġprior it
Ġterrit ories
Ġrot ation
Ġspect acle
Ġpronoun s
Ġdiam ond
Ġpassion ately
Ġexpand ed
Ġsle ek
Ġcoc oon
Bl ue
Ġconserv ative
Trans lation
Ġtrib ut
Ġimag ination
IG H
Ġmich igan
Ġoppon ents
ĠGer ald
ĠDou g
Ġbik ini
ĠJoh ann
ĠVen us
Ġbarn acles
ĠnumberOf Members
Ġhem isphere
Ġphen omen
Ġencounter ed
Ġneg ativity
Ġneur ons
ĠEconom ic
ĠConst itution
ĠDoc ument
ĠExec utive
ĠCab allero
ĠWheel er
ĠTit ans
Ġfright ened
ĠPhill ips
ĠRecogn ize
ĠAbr adab
Ġaccompan ied
ospher ic
1 30
B re
B ank
B rian
D F
F ree
G ames
I tal
J e
L S
M O
M X
M at
R ober
d an
f ear
i br
k at
k ward
p ost
r at
t ra
u gh
x i
Ġa ce
in oderm
en cer
Ġthe aters
er ior
Ġs aint
Ġw are
Ġw aving
Ġw ires
it as
Ġp ork
al bum
Ġd ass
Ġth ai
ed ia
Ġh ometown
Ġl ap
Ġl ions
ĠA ction
Ġg el
Ġg reek
ot hed
Ġbe verage
Ġbe lly
ly mouth
ĠI v
qu ia
ay ed
ĠC hes
ĠC arm
ĠC BS
ĠC lyde
Ġr ubb
un ts
ri ot
Ġst aring
Ġst abil
ĠB ak
ĠB iden
ch y
ĠP our
ĠP OSITION
ĠG M
ĠG az
ĠG ina
um bs
ag ain
Ġv ivid
Ġv ascular
ac re
ac os
Ġsh ook
Ġpl asma
ĠD ream
st own
ĠR ussell
ĠN ash
ĠL ily
ĠL az
ĠL ock
rit ies
Ġex ists
Ġtr am
ĠJ en
oc ated
Ġde bris
ĠY asser
pl aces
ub er
we e
ver ter
Ġsp or
rib ution
ĠU g
av in
ĠĠ Ċ
ab y
Ġen ables
Ġcomp ens
are a
Ġso y
ass ing
em e
em en
Ġsu ck
ĠRe f
Ġdis k
Ġbl ade
ens er
Ġshe ll
ai k
ĠV ar
Ġbr idges
Ġem ails
Ġthr ive
Ġpres idency
Ġrem ake
ĠPro duction
ph ony
ĠAr k
Ġbo ards
aw ks
Ġsur render
Ġinv itation
Ġrep airs
Ġcle ans
ĠSe an
Ġsun screen
Ġgl ory
Ġed ible
Ġ12 5
fl ow
Ġdiv or
Ġz imbabwe
ĠDet ails
oss ip
ĠAm b
Ġpat rol
Ġcolor ing
ik tor
Ġarr ives
Ġprom otion
Ġpower Type
Ġtest ament
Ġvill ages
Ġcompet es
uff icient
iod iversity
ĠDef ence
St ation
Me an
Ġphys icist
athe matic
Ġview ed
inc ial
Ġaddress es
Ġdoll s
ĠEm ma
Ġcoll ar
ran king
Ġvict ories
Ġpack ages
Ġdemon stration
Ġnorth west
Ġentertain ed
Ġgrand parents
ĠMag azine
Ġkilomet re
Ġcollect ing
Ġdecor ations
Ġelev ator
Ġmamm al
yr am
Ġmaster piece
Ġreve al
ĠGal ician
Ġmys teries
ĠHill ary
Ġfail ing
ĠAL V
Ġexhib its
At lantic
Ġpurs uit
gu ard
Ġglad ly
Ġsle pt
ĠMont real
Ġdyn am
Ġrevolution ary
ĠHal im
Ġcycl ing
ROU ND
roc od
Ġpros per
XX X
mill imetres
Sam antha
ĠIndust ry
Ġtra its
ĠPow ell
ĠMun ich
ĠAlexand ria
ĠBulgar ian
Ġdismiss ed
lif ting
ĠLangu ages
count ry
Ġrestrict ions
Ġassem bled
Ġbou quet
ĠMA IN
Ġflor ida
Run way
Ġeuk aryotes
bod ia
ĠNep al
Gener al
Organ isation
abbi ata
ĠImp act
Ġsanctu ary
F amily
H igh
J ess
L ove
M on
M om
M onica
O l
S I
S outh
S ERVED
W est
b ast
d ry
h ran
k u
l ik
m ovie
p ain
w orm
w ick
z ene
z hou
he at
in ative
in cent
on ed
is se
Ġw o
Ġc ob
re ated
Ġf itting
Ġp c
Ġp ockets
Ġb old
Ġm oss
Ġd ual
Ġd airy
Ġin k
ed e
Ġn ba
ce eds
ĠT ennis
ĠA ge
Ġg ates
us hes
ĠS at
Ġy en
os tel
os hua
ĠC one
Ġr anging
ĠW ire
ĠW ins
ur i
ate mal
ut ical
un derstand
Ġst amp
ĠB ent
ĠB ow
ĠB ud
ĠB LT
ch ild
ĠP av
ĠP ole
ag ging
ĠM os
ĠM ong
ĠH usse
ac cess
Ġsh aking
ĠD iana
ĠR ah
ĠF uture
ov ak
Ġte ct
Ġte asp
ĠE mer
ĠE aster
ĠE ston
ĠL u
ĠL em
ĠL ithuan
Ġpos ts
ĠJ a
Ġpr icing
ace utical
pl ate
Ġun fortunate
ard ed
Ġpe ach
Ġcor al
Ġgr abs
Ġdesc end
Ġno ted
ĠK on
ĠK ill
cl ub
cl osure
Ġ19 39
ra ke
ra ul
put es
Ġneed ing
Ġdis g
ĠAl ban
Ġwork place
Ġequ ally
iss ance
res pect
Ġco ating
Ġfil ters
br ush
Ġche w
Ġatt ire
ĠCom b
ĠTr ain
Ġexp ed
amp ie
Ġrep orter
Ġhome made
Ġmet er
Ġ10 89
Ġ10 99
ane ous
Ġvar iations
Ġinter racial
ĠSh op
Ġele phants
ĠBr om
ym n
by the
Ġbus es
Ġelect ro
Ġstory telling
Ġrele asing
Ġsw allow
ung en
Ġz ebra
Ġaccur acy
20 11
ĠAd ela
Ġsal mon
Ġcour ts
ĠPe te
Ġexam ining
Ġprom oted
Ġcontain ers
pr int
Ġrain forest
ĠCol lect
ĠPeople Soft
Ġbab e
Ġadv ised
Ġste ak
cent ury
Ġanal og
Ġvol unte
ald in
ĠOr acle
Ġdig est
ĠAre m
Ġ195 8
Ġbag gage
ucle ar
Ġpri ests
Ġprotect s
Ġpoll in
ara oh
Ġdiscover ing
Ġburn t
Ġfut ures
Ġimpact ing
Ġcoll aps
ĠStr ong
Ġvict im
Ġfresh ly
ett a
Ġsus pect
roph ic
ĠCle an
odd ess
icit as
fo x
comp et
Ġgluc agon
Ġpil ots
ĠFel icitas
cont rolled
Ġskateboard ing
Ġqual ified
ĠJe hovah
Ġinnov ation
Ġconc aten
Ġintellig ent
Ġreserv ation
Ġnavig ation
Ġdiplom ats
ĠPlan et
Ġgradu ate
Ġinqu iry
Ġillust r
Bl ack
Ġimple mentation
ĠCow per
Ġassass inated
Ġox ides
Ġstain less
Ġabsor ption
Ġbik er
Ġaffil iation
gener al
ĠWer der
Ġasc ending
ĠPur ple
Ġmyth ology
suit case
Ġaggress ive
ĠSi omay
ĠUt ah
Ġgrabb ed
ĠSams ung
Ġutens ils
Ġmaneu ver
Ġapost rophe
ĠSche du
Ġacquis ition
Ġwer den
ĠAhmed abad
Ġfung us
Ġentrepren eur
Rober t
ĠHusse in
' :
6 60
; /
A B
I NT
I ATION
L ittle
O M
O ME
R et
W ater
a ired
b ang
d ig
g on
h app
i rect
k m
m l
m eter
p ared
r of
r ising
t d
t hed
u pt
v ine
w ich
z on
in ces
er ting
Ġs ank
Ġs outheastern
or r
or estation
Ġc os
Ġc atholic
of i
of l
Ġf isher
it ory
te c
Ġm ile
Ġm ars
Ġm athematics
Ġm ounted
Ġd ar
as an
ic ip
ce ased
ĠT an
ĠT OTAL
Ġl av
Ġl over
iv or
ĠA ud
Ġg um
Ġg our
Ġg oddess
Ġe agle
Ġbe et
am y
ĠI van
ro e
ĠC atherine
ĠC incinnati
ĠW es
Ġfo il
ri ots
Ġst ole
ĠB C
ĠB read
ĠP G
ĠP ep
her s
ĠG il
ĠG ren
ĠG ROUND
il ia
Ġcon es
Ġor al
Ġas ex
ag ram
Ġv om
Ġv oy
ĠM asters
ĠD I
ĠD ent
st ud
ul us
ĠR ena
ĠF ign
ĠF resh
Ġch arts
Ġ2 13
ĠN ich
ĠIn h
Ġtr ump
ĠJ er
ĠJ ob
Ġk it
ĠO R
Ġj unk
ĠY OU
iz ers
ian ces
own ing
Ġsp ends
Ġsp acious
Ġar gent
Ġno on
ĠK ath
per m
Ġcl ashes
Ġcomp ression
over y
Ġspe lled
Ġup gr
Ġkn ees
Ġtext s
ne ver
ach i
Ġres ent
Ġag enda
ĠSo ho
ob a
ens ed
ĠAl ph
Ġacc ent
ĠV ince
ĠV irus
ĠHe ating
pro cess
Ġbr ushing
Ġbr unette
urn al
Ġsol vent
Ġcapital izing
angu age
cer ning
Ġgu ides
ĠAnd roid
Ġinv ite
Ġdon key
Ġmet all
Ġdel ays
Ġsl ot
ĠSh opping
ĠBr andon
Ġpop e
Ġ0 1
ĠBe es
ĠBe ast
ĠMar io
ĠZ e
fe ld
ĠPr int
ĠGr ammy
ĠAd irond
Ġindic ated
Ġconvers ion
Ġ11 2
Ġprom pted
let ter
Ġactiv ists
Ġcrit ics
15 6
Ġwr apping
Ġsepar ating
Ġdevelop ments
Ġbeg un
Ġenv oy
Ġbed time
ma ar
ĠEn vironment
isc al
Ġx h
14 0
eral a
ĠAtt ribute
Ġdem anding
Ġvibr ations
Ġcontrib ution
Ġdraw s
ĠAss er
Ġhal t
Ġstream ing
Ġcamp s
Ġess entially
ev olution
Ġcand ies
Ġden mark
ĠStr ateg
Ġwel fare
ĠGl ass
Ġaw kward
Ġlov ers
Ġconsum ing
Ġcard inal
alt imore
IS C
Ġge omet
bl ood
ios is
Ġemer ge
rees ome
Ġban anas
Ġadm itted
On ce
Ġstrateg ically
ĠIS DA
Ġinvestig ators
Ġpup pies
yr us
ache lor
Ġstrugg les
Ġnerv es
ĠSoc cer
dr ome
ĠGal ax
Ġprison ers
Ġexperiment al
Ġcasual ties
Ġchat ting
organ isms
Ġtransform ing
Ġimple mented
ĠOrgan ization
ĠBoy s
Ġtun es
Ġassess ment
Ġpoet ry
Ġclim ber
ĠStud ios
Ġblow job
ĠCow boys
ĠGirl s
osn ian
ĠBath s
ĠBath room
Ġgerm inate
Ġoptim ism
Ġmembr anes
Sup er
Ġdram atic
Ġske leton
elect ric
CT ED
ĠToy ota
Ġech o
ĠFound ation
ĠHur ricane
Ġenvelop e
Ġenfor cement
ĠRut te
ĠArr abbiata
Ġphilipp ines
Ġalg ae
Ġpeacekeep ers
reason ing
Ġverd ant
Ġadvertise ment
ĠLiv orno
ithm etic
Ġinstit utions
Ġsug ars
ĠAlk maar
Ġsacrif ice
ĠNest led
months ago
ĠCRE ATOR
Ġpollin ators
ĠFign eria
ĠAdirond ack
% .
* *
. ?
B row
D C
D et
D av
G oogle
I am
J ason
K alb
N UMBER
U T
W ell
a ac
b acks
c ross
e at
f illed
i per
i ators
l on
l us
l ings
m ass
m oney
o oth
p he
u ct
u ity
y i
Ġ 00
Ġt ick
Ġt sun
he it
in cluding
Ġs ab
Ġs word
es is
is d
or iginal
Ġf ame
Ġf ails
Ġf estive
it ic
Ġp ad
Ġb od
Ġm antle
Ġto ast
Ġd ermis
om st
Ġh ues
Ġh iber
ĠT yp
ĠT ax
Ġl ol
Ġl enses
Ġl arynx
est o
ĠA llow
ĠA verage
Ġg ly
ly s
am bers
ĠS ay
ĠS olution
ĠS ales
et ch
ĠC ind
ĠC rystal
Ġr ig
Ġr anges
Ġr ivals
im portant
ĠW ang
ig hed
un s
un derst
Ġst all
Ġst ockings
ĠB anks
ĠP ink
ĠP oly
ĠP uerto
ĠG us
ĠG raham
ĠG riff
ol t
ĠM B
ter ed
Ġhe d
Ġsh alt
ĠD ian
ĠR ap
ĠR ange
ĠF ly
ĠE NA
ĠE LA
Ġcan adian
ĠN RBQ
ĠL uke
Ġex oskeleton
ĠIn side
ace y
pl an
Ġpe anut
Ġal p
Ġal mond
Ġall er
other mal
Ġsp ices
Ġsp illed
Ġgr avel
Ġgr aze
ĠU rug
Ġar ise
Ġen rich
ber ries
ĠCh o
ĠCh ir
ĠSt op
ĠSt ill
ĠSt adio
Ġap plies
Ġro oted
ach t
Ġsu ited
ĠSo on
Ġsc attered
Ġdis ney
Ġdis plays
Ġbl oss
Ġfl ame
ĠAn cient
ĠAl vis
Ġchar ging
omet hing
ale y
ĠIs abel
br as
ĠInd ie
ĠNe ver
ons ter
ĠAdd iction
Ġsk ys
Ġrem oval
ateg ories
ph alt
gg er
Ġappro ached
Ġwrit ers
Ġback wards
Ġstr ain
Ġfin ishes
Ġass ert
ĠAnd alus
Ġmon itoring
enn ifer
Ġdel ivers
be es
Ġob sc
ĠDe Kalb
ug s
Ġbelong ings
Ġ0 6
Ġel astic
Ġint ens
ĠMar c
Ġdirect ors
ĠPr im
Ġorgan ize
Ġhuman ity
Ġhand ed
iam ond
Ġconf ront
Ġleg ally
Ġsepar atist
Ġwa ist
ĠTe en
ien ced
Ġhealth care
ĠSim ilar
14 5
Ġfire works
Ġpolice man
Ġpublic ly
Ġir re
Ġtw in
ĠHar riet
ucle ic
Ġindust ries
Ġoppos ed
Ġant ique
ploy ed
Ġaud itor
ĠGl aston
ĠBen edict
Ġimprove ments
Ġlands l
ĠComm un
Ġbur st
Ġattract ions
Cl ass
Ġresearch ing
Ġexpect ing
ME M
Ġge olog
ĠRepublic ans
iot ics
Ġsens ory
Ġenthusi ast
Ġbutter flies
ĠAnt ares
ĠGo ing
ĠOff ensive
ĠSen ator
ĠMil o
ĠDel iver
Ġcivil ians
ĠDes k
Ġbenef icial
Ġfrequ encies
Ġremark ably
Ġinsp ire
Ġnutri ent
Ġcalc ulated
Ġhar bor
ING REDIENT
Ġdisp uted
ĠSol an
Ġcho ir
Ġju ices
ĠAv oid
ĠAri el
Ġrid ers
ĠYe llow
Ġfirm s
Ġsum pt
Ġrent al
EC T
Ġconfident ly
ĠFall s
ĠFall ujah
Ġmor al
Ġhero es
Ġutil ize
Ġsuff ers
Ġeu ros
Ġborrow ed
ĠTre k
Ġseam less
Ġpakistan i
Ġmex ican
ĠEp isode
Ġmotiv ation
Ġgeograph ic
Ġnom ine
Ġproced ures
Ġles bian
ĠAdv ances
product s
ĠChall enge
Ġsco oter
mus ic
ĠBulgar ia
Ġgard ens
Ġgymnast ics
Ġrum ors
insp iring
ĠAntio quia
Ġmunic ipality
Ġunve iled
Ġforec ast
Ġmistaken ly
ĠConserv ative
Fin ally
Ġgamb ling
Ġseep s
ĠBuff alo
ĠGh ana
ĠHud son
Den mark
Mich ael
Ġsturd y
inoderm s
Ġxh amster
Brow se
ĠUrug uay
ĠGlaston bury
INGREDIENT S
4 165
A lex
K evin
L ike
M al
R el
V II
c ade
d ent
l ow
m any
p herd
r ag
r ish
t able
u v
u ana
y th
Ġt aylor
in oup
Ġs way
Ġw and
Ġw illow
an ac
Ġf est
ing e
Ġp ix
Ġp anda
le ft
te cted
Ġm i
Ġm ob
Ġm igration
ar ity
Ġd ivers
Ġd ots
Ġh ast
Ġh ollywood
ĠT u
ĠT ama
ĠT rophy
Ġl ac
Ġl atter
Ġl anka
Ġl obby
iv ities
iv irus
ĠA w
ĠA er
ĠS in
ĠS of
ĠS end
ĠS ynth
ĠThe atre
ĠThe odore
ir i
Ġr i
im on
ĠW H
ĠW y
ĠW ere
ri k
op les
Ġst ake
ĠP izza
od ox
ĠG uitar
ol utions
Ġab ort
if ted
ĠM ason
ĠM amm
ĠM aterial
ĠM ercury
ĠH umans
Ġfr ying
Ġhe ats
ĠD om
ĠD awson
st a
ul ative
ĠR acing
el ts
ĠE P
ĠE ch
ist ine
Ġ2 20
Ġcan ce
ĠL anc
rit ish
Ġpos es
Ġtr usted
Ġtr unks
ĠJ ur
ĠJ eremy
oc ol
ans k
pl ane
Ġun p
Ġun t
ound ing
Ġgr ave
ĠK erala
Ġcl ues
Ġen light
cl amation
ĠCh op
ĠSt raw
Ġprov ed
Ġ19 12
Ġ19 24
ak arta
ru gg
ne utral
Ġpar is
Ġsc hed
Ġinform ative
Ġshe pherd
ĠAl berto
ĠV el
Ġwater mel
get s
Ġam using
Ġam phibians
Ġbr ighter
Ġsm iley
Ġsm elled
iss ioned
Ġover c
Ġpres idents
Ġrel ent
ĊĊ ĠĠ
off s
Ġspaces hip
Ġappro ve
gr ad
ĠItal ians
Ġass ets
ah u
Ġmet amorph
ros ion
Ġunderstand able
Ġmin es
ĠFor um
?? ?
Ġrequ iring
Ġ9 9
ĠBe gin
vent us
Ġmil f
Ġmar itime
ĠPr om
ĠGr ade
rop olis
Ġpat io
ott a
ott age
ipp ers
Ġarr iving
Ġu kr
15 9
Ġ17 9
Ġtre m
ĠAlex is
pr om
Ġest imate
ĠAp ply
Ġfight ers
ĠSte vens
Ġsmo other
Ġsqu ee
OR M
ĠHar old
ĠHar vard
Ġcir cles
Ġcomfort ing
Ġseg ments
ograph ic
ĠCo ach
ĠMc K
Ġbi king
Ġcoll apse
Ġbal ancing
Ġpal estinians
Ġple asing
Ġsen et
Ġsen ators
Ġcirc ulation
Ġsurv ived
asc ar
Ġnote book
Ġbright ly
Ġterr ain
mar ks
met al
ĠMed ical
bu y
bu ilt
Ġscr atch
Ġdecor ative
ĠFrank furt
200 9
Ġmel ted
Ġmo ons
Ġje an
LE NG
Ġpus hes
gi ene
Ġinvestig ating
ĠThom pson
Ġkm ph
Ġshar ply
Ġbat hing
bet ter
Ġmut ation
Ġpun ished
Ġsusp ense
Ġsusp ension
Ġemphas ized
Ġemphas izes
Ġteen ager
ĠCons umer
Ġtight ly
Ġunf air
ĠMod el
Ġpurs uing
Ġlegisl ative
Ġprofession als
Ġgradu ation
Ġdyn asty
Ġextensive ly
Ġdepos it
ĠOrgan ic
Ġvent ure
Ġjew ish
Ġcycl ist
Ġble w
0000 00
Ġrenew able
Ġprosec utor
Ġarrange ment
ĠDirect or
Ġhoriz ont
ĠNear by
Ġangel es
Che ck
Ġaest het
ĠPow ys
Ġcyl inder
Ġcarn ival
ĠMichel le
Ġadj usted
wal king
Ġwavelength s
ĠAur akles
ĠPoll ution
Ġlegend ary
Ġresil ience
ĠConfirm ation
ĠNix on
Ġhydrocar bons
Wind ows
Def initely
xe inoup
Ġais le
ĠChel sea
ĠactiveYears Start
ĠMuh ammad
OND ON
ĠEf xeinoup
ogl obin
Ġsumpt uous
ĠSynth pop
1 16
: )
A ID
B u
C r
D iv
D ay
E s
F ind
K K
L aw
L atest
M ad
P al
P res
T w
T im
V AR
W ork
b ines
c ost
d k
d ress
e arth
h ouses
j ack
k k
l ist
l ined
l asting
o j
o ard
p ipe
r unning
t u
w ife
x name
Ġt ide
Ġt ags
Ġt acos
on om
Ġs ess
Ġw ard
Ġw ets
Ġw itch
Ġw inners
or f
Ġc uc
re a
Ġp ian
Ġp enn
Ġb ord
Ġb ats
Ġan ch
Ġan them
le ased
le ading
Ġm ollusks
Ġd ip
Ġd anish
Ġd ipped
Ġd warf
Ġth under
Ġth underst
as se
Ġh ose
ĠT ina
Ġl acking
us ive
Ġbe ats
ĠS ource
Ġre vers
ĠC P
ĠC ash
ĠC rist
ĠC yrus
ri ps
Ġst itches
ĠB enn
ĠB ody
ĠB ears
ĠB altimore
ĠP ain
ĠP esticides
ĠP lymouth
ant h
ĠM emor
ĠH ad
ac ent
ĠD J
ĠD as
ĠD rug
ul ators
Ġdo zen
ĠR ug
ĠR eds
ĠF an
ĠF ert
oun ces
Ġch annels
Ġse ctors
ĠL O
ĠL ower
ĠL ux
ĠL una
ĠIn g
ĠJ P
ĠJ upiter
oc ado
Ġk ings
up p
ĠO F
Ġj ersey
Ġun c
ue led
Ġout going
Ġout look
ĠTh ough
Ġar ithmetic
ous ands
Ġno ises
Ġyour s
ĠK anye
Ġcal f
ĠCh i
ick eter
Ġ3 20
em ic
Ġ19 2
ak ov
Ġkn itting
Ġres idential
Ġsc enery
ob i
Ġbl ades
Ġser enity
Ġcount ies
ĠAl ess
ĠV ladimir
ĠV atican
Ġam pl
Ġbr icks
Ġind igenous
Ġent itled
ĊĊ Ċ
io let
Ġfact ories
ĠCom ics
ĠCan cer
aw ak
Ġfin ale
uc ci
Ġcr isp
Ġass isted
Ġread able
com puter
Ġmet abol
Ġsl ope
Ġsl ogan
ual a
Ġob l
ĠLet ter
ym p
udd le
Ġref ere
Ġ9 1
Ġ9 00
ech an
cy cle
ĠMar garet
Ġmar bles
Se c
ĠEx am
Ġhard ly
Ġtyp o
Ġhuman itarian
Ġobject ions
Ġinte l
ĠBar b
Ġoper ators
let te
Ġnight s
Ġtre ating
Ġleg acy
Ġtrain er
Ġground s
Ġdevelop er
ĠAI P
ĠRob inson
ole on
Ġatm ospheric
Ġbar ber
Ġtrad ers
Ġ13 5
Ġpress ing
ĠGeor ges
Ġfur ry
Ġident ical
ĠPal m
Ġcam els
Ġsqu ares
Ġ22 2
Ġcou ples
Ġdisapp ro
ye v
Ġsym p
Ġpri zes
Ġcream y
Ġcelebr ates
Ġren ov
ester ol
Con clusion
Ġhop ed
ĠComm unity
Ġintro duction
affe ine
Ġnet works
val u
Ġexpect s
ĠSar anac
Ġcomple ment
sem ble
Ġconfirm ation
Ġmid fielder
ĠBet ween
Ġbomb ings
sect s
col ored
ĠDes ert
Ġspl ash
ĠFel ipe
Ġtarget ing
ĠEU R
Ġru ined
ĠSol ar
Ġreve aling
ĠLight ing
ĠMet al
Ġcontro lling
urb ation
Ġnick named
Ġfro g
ĠEv olution
Ġcommand ed
Ġintegr ation
Ġmotorcy cles
ophy tes
Ġmal ays
Ġkiss ed
New s
ĠMod i
Ġexhib it
Ġhy giene
Ġdemand ed
Ġincorpor ated
des ign
Ġhyp hen
Ġbrows ing
Ġprinc iple
ĠTre as
Ġtreas ures
ĠBat man
Ġgerm s
Ġreput able
di rect
Ġinspect ion
Ġpipe line
ĠPass age
Ġrephr asing
Ġdisappe ar
Ġplayoff s
Ġlou der
ĠEc uador
Ġvacc ine
ĠNar endra
Ġrecip ient
Ġcha os
ĠIndepend ence
Ġembark ed
Ġsecre ts
Bet ty
Europe an
ĠTon ight
apl oid
Geor ge
ĠWim bledon
Ġwed ging
Ġbamb oo
ĠCany on
Ġtect onic
ĠGalax y
Ġauditor ium
MEM BER
Ġsenet ence
ĠMemor ial
D R
H otel
L aura
S ty
T ON
T EN
V III
b ound
c am
c um
c ap
c led
c able
c akes
d s
d le
f i
f ix
g ate
g her
l en
m i
m inton
p are
r ous
s ince
t osis
z ai
Ġt anks
er ness
on line
on ucleic
at able
is y
is ive
Ġw ir
Ġw ounds
Ġc ree
an imal
Ġf ederation
Ġp ent
Ġb ot
Ġb inding
Ġan ime
ar ct
al ine
ent ity
Ġd iver
ic ol
Ġh aha
ĠT ags
ll ular
ĠA th
Ġg ay
Ġg aze
ot ine
us k
us er
Ġbe ating
Ġbe aring
ĠS B
ro ke
qu est
qu iry
ay la
Ġre h
Ġre ver
Ġ" ,
ĠC ob
Ġr am
ig her
un al
ri ft
op y
ĠB acteria
ĠB ureau
ch anges
Ġas th
Ġas ton
Ġas ham
ag u
Ġv ietnam
ant i
ĠM ail
ĠM embers
Ġfr ank
Ġhe ights
Ġsh akes
Ġpl ural
pe ace
ĠD E
st hat
st ill
ul ance
and ed
ĠF erg
ĠF ungi
oun ced
Ġte ars
ĠE arly
ĠE agles
Ġch ase
Ġ2 17
ĠL ess
ĠL ang
Ġpos itivity
Ġtr agedy
oc aust
Ġle ash
ans ion
ĠO z
ĠY ay
ĠY acob
ish i
Ġgo ats
Ġun stable
ast he
Ġdes ires
Ġma x
Ġout comes
ian i
ia h
ia bility
ind s
ĠK ad
ĠK osovo
Ġcl ap
Ġcl icking
Ġim pec
Ġpre fers
ick y
ĠSt orm
to gether
em ale
Ġspe lls
Ġ19 17
ak ota
erm ans
ĠRe ally
Ġinform s
Ġinform al
Ġdis li
ob o
.. ...
ĠAl s
air port
Ġstep ped
ĠHe avy
Ġbr acelet
ren ces
iss ue
Ġsol ute
Ġke en
ĠCon vention
aph or
ĠIs s
cre am
inn ie
Ġsk ull
Ġend ang
Ġgu iding
man uel
not ch
Ġass ured
Ġreg ime
ĠTo ek
Ġpol and
tain ing
ĠNew castle
Ġext rad
Ġtake over
Ġunder go
ĠBo eing
Ġimp ul
Ġlower ed
Ġhand les
Ġpat ent
Ġtransl ations
Ġpret ended
ĠPh one
15 3
Ġjo king
AM E
Ġdep ressed
ĠAp p
ĠAp artment
Ġbab ys
Ġtele communications
Ġfire place
Ġcompet itions
aced onia
ha e
Ġeffect iveness
ĠPal estinians
Of Trans
ĠMe et
Ġposition ed
ĠPol icy
ĠJo an
Ġrepresent ation
ĠSer ver
Ġrelax es
Ġround worms
ĠUp coming
Ġ194 4
ĠMc G
Ġlim its
Ġpack aging
Ġbas ically
ĠPer th
ij uana
Ġsalt water
Ġhyd raul
Ġstick y
Ġgrand ma
Ġgrand father
ĠTrans portation
lim ited
200 8
Ġhus sein
Ġarg ue
Ġarg uing
Ġenh anced
Ġdocument ation
Ġcompl aint
ĠSpace port
ĠIran ian
Ġmut ually
Ġoperating Organisation
Ġhall way
ĠPress ure
Ġdom ain
ĠSil ver
Ġprint ing
Ġadapt ations
ĠCong o
Ġadvant ages
Ġincorpor ates
organ ized
Ġcrim inals
Ġsympt om
Ġchlor ine
Ġca ution
ĠKe ith
ĠFried rich
Ġalt itude
Ġincred ibly
Ġske let
Ġremind ed
Fr ank
ĠYah oo
Ġchop ped
Ġod er
Ġantib iotics
Ġuncertain ty
ĠScient ists
Ġswift ly
ĠExc iting
Spe ed
ĠGab riel
ĠNept une
Ġpredecess or
ĠHalim ah
ĠIsabel le
elts in
arct ica
Ġasham ed
ĠToek omst
OfTrans portation
" ",
C ent
D anish
H er
L ast
L ocation
M el
N U
R L
S C
b b
b ows
c ult
d al
d iv
f iles
j ud
j ab
o is
o xide
p ox
s n
v ins
Ġt et
Ġa us
he ll
he althy
in arian
en joy
en berg
Ġthe ft
on ese
on ants
Ġs ore
Ġs yr
at u
is rael
or ation
Ġc od
Ġc rocod
re b
re ens
it oba
Ġp and
Ġp ans
Ġp ills
Ġb udd
Ġb und
Ġb iodiversity
ou ver
ar ader
al am
ent h
Ġd ed
Ġd rilling
Ġth inner
Ġth irty
as ia
Ġh ood
Ġh orn
Ġh ugging
ĠT aking
ĠT ournament
TI T
Ġl atin
Ġe ve
am pton
ĠS ite
ĠS oph
ĠS add
Ġre ject
ĠC it
ĠC and
ĠC art
ĠC aval
ĠC ensus
Ġr owing
im age
ut y
Ġqu ar
un ger
Ġst unt
ĠB ra
ĠB og
ĠP ra
ĠP ST
ol id
um phant
Ġor e
Ġab st
Ġas pir
ĠM aking
ĠH erm
ĠH amburger
Ġpro k
Ġpro port
Ġhe ll
Ġpl aid
ĠD ur
ĠD ies
ĠD ISH
st he
st atic
ĠR af
ĠF ern
ĠF ench
Ġ( '
Ġ2 34
ĠN uclear
Ġli z
Ġli king
Ġtr oubles
ĠJ un
oc ate
art ments
up er
Ġj ury
ang el
Ġgo at
Ġun answerable
Ġpe arl
ial s
ks h
Ġ. '
ab ies
ĠK i
Ġen orm
ack ers
cl ose
ect s
over ty
ge bra
Ġ19 28
Ġup rising
Ġcont amin
ru ptions
ne ed
Ġsa ith
Ġres ur
ĠRe lease
ĠRe vision
Ġsc arf
Ġsc anning
Ġsc reens
Ġdis putes
Ġbl ocked
ĠAn im
Ġcomm od
ĠV ir
Ġam p
Ġcons ole
Ġcons onants
Ġind ifferent
land o
Ġad opt
Ġad equ
Ġche ers
tem s
Ġcent imeters
Ġcre ations
Ġatt acking
Ġrem arks
Ġvers us
gy z
ĠAr row
Ġbo iled
Ġair lines
Ġcr ushed
ier re
Ġreg ulate
ex e
ex ist
ex plicit
Ġtri angle
enn eth
com mon
Ġdel iber
Ġsl ip
Ġchild hood
Ġdef orestation
au x
Ġext ent
Ġext rem
Ġext erior
Ġinter face
Ġmiss ions
ĠFor est
Ġ9 3
ĠCl aus
ĠBe autiful
Ġint r
Ġsw ine
Ġappe als
Ġkind ness
Ġyoung est
Ġorgan elles
augh ty
fect ion
ĠGr an
Ġsal ary
Ġsal ty
Ġpat ience
sh ow
ĠDo llar
Ġlarge ly
bre w
ches ter
ok o
ĠAp pe
Tr ue
ĠCar p
ĠSun light
Ġcompet itors
Ġformer Name
Ġmot ors
ĠMin i
ĠPal estine
ĠGu atemal
Ġur gent
Ġperiod ic
Ġtreat ments
Ġcam el
Ġcam arader
oph agus
eff ective
ĠJo in
wh ite
ĠAss ault
Ġant ivirus
Ġarch ae
amb ia
Ġ194 0
ocr at
Ġwait er
Ġpal m
ĠBur bank
umb ai
reg ular
Ġmedic ines
Ġinf ant
ĠWell s
ĠSar awak
ĠOff icial
col m
ĠLaur en
Ġbowl s
Ġpers istent
Ġrob ber
Ġself ish
Ġfrequ ent
Ġcred ited
Ġmer ger
Ġmechan ic
Ġpup a
ĠFootball er
Ġperm e
ĠSol omon
othe red
Ġquiet er
Ġpatient ly
Ġmis erable
Ġlas er
Br owns
Ġhy br
Ġsof ten
Ġframe work
Ġcoc onut
ĠLeg end
Ġprogramm e
ĠAleksand re
Ġemp ire
Ġdur able
Ġowners hip
war zene
Ġox id
Ġmotiv ated
Ġrac er
Ġunexpected ly
Ġphotograph s
ĠSport park
Ġbron ch
Ġconstruct ive
Ġpir ates
ĠLiber ty
Ġbeard ed
Ġcowboy s
Ġtranqu ility
stan bul
ĠAZ AL
Ġisol ated
ĠLangu age
Ġsubsequ ently
Ġdiagn osed
Ġvirt ual
Ġkar ate
Reg istration
Ġencomp asses
ĠIncor por
lar gest
Ġtherap y
ĠGur uli
Ġindones ian
Ġrecre ational
ĠQuarter ly
ĠArn old
ATI NG
Ġweld ing
oche mical
ĠOx ford
ĠJu ventus
ĠWinds or
Ġrecept ors
ĠChance llor
Ġamen ities
Ġheadquarter ed
Ġoverse as
TY PE
respon sible
Ġcylind ers
ĠPia zz
Ġsubur bs
Mean OfTransportation
ĠAdela ide
Ġgour met
Ġabort ion
LENG TH
VAR IATION
Ġsyr up
ĠFench urch
Ġcamarader ie
warzene gger
) )
? )
? .
A my
C P
G M
H appy
I an
J ennifer
M ax
N S
N orth
O ut
R ed
S ee
S arah
T ime
c all
c ode
g ive
h ate
h ould
h og
i pt
l ittle
l ift
m il
m ission
o ids
p any
r ors
s ch
y y
z el
Ġt ons
in as
er ver
Ġs or
Ġs aves
at the
Ġw ider
or ial
Ġc iting
Ġf av
it os
it utes
Ġp unk
Ġb ree
Ġb acking
Ġb orough
Ġan atomy
Ġan emia
le en
te or
Ġm oor
ar c
Ġto ler
ent ry
Ġd ice
Ġd arts
Ġin expensive
Ġis bn
ic ated
om p
om ical
Ġh ates
Ġh aploid
ĠT ell
ES S
ĠA G
ĠA ure
ot ional
Ġe cl
am ount
ĠS I
ĠS ave
Ġy elling
Ġre ar
Ġsent enced
Ġr ows
Ġr anch
Ġr ighteous
im ony
ig o
Ġqu est
ri fic
op ened
ĠB ates
ĠB onds
ĠB osnia
ch ina
ĠP S
ĠP it
ĠG iant
ol ina
Ġor n
if ers
ess a
Ġv amp
ĠM aur
ĠM add
ĠM aj
ĠM olly
ĠH E
ĠH ond
ĠH air
Ġfr anc
Ġsh ades
ĠD R
ĠD ogs
ĠD odgers
st art
ĠR uth
ĠF ather
el ia
ĠE ight
ist he
Ġ2 30
ĠN ord
Ġse ctions
Ġex isted
ĠIn tel
ĠIn quiry
Ġtr ait
Ġtr agic
Ġus a
Ġle banon
Ġde ity
ud a
th al
Ġj er
Ġj erusalem
ĠY outh
ĠY ugoslav
Ġun iversal
Ġun iversities
iz on
Ġdes erts
ard ing
Ġma kers
Ġman agers
own load
Ġall iance
Ġcor rupt
Ġsp ook
ks i
ĠU lt
Ġar tery
Ġcl ash
Ġcl apping
Ġcl uster
Ġ5 46
Ġrest ricted
Ġ19 14
Ġ19 29
Ġver tebr
ond e
ink ed
ustom er
Ġser ial
pro of
Ġtal iban
Ġent hr
Ġco ached
ath room
Ġdet ention
Ġrel ative
ĠAdd ing
Ġform ally
Ġdr agon
ĠCom ments
ĠTr av
Ġteam mate
arm a
Ġcr icketer
Th ink
Ġless er
ex c
anc ouver
Ġmon etary
Ġgl ove
Ġsign ifies
Ġworld s
Ġdoesn t
ĠShe l
fl oor
Ġorigin ate
ron es
ĠPr iv
ĠPr ivate
ump ur
Ġ15 00
Ġexam ination
Ġexam ined
och ond
Ġreal istic
Ġcat alog
Ġsleep s
Ġrelated MeanOfTransportation
af en
Ġbelie ving
Te xt
Ġident ification
Ġmount ing
Ġlength y
ĠGu ide
Ġquick er
Ġur ging
de v
Ġdev oted
Ġtw ins
Ġrad ical
mark et
AT ER
ĠGreen ville
iers hip
ĠCo al
Ġoccur ring
Ġneigh bour
ĠCoc a
ĠSing h
Ġapprec iates
Ġapprec iative
ĠComm unications
Ġcard i
Ġpet roleum
Ġcart ilage
Ġemploy er
Ġpromin ently
Ġsyn onym
ĠFin ance
Ġspread s
Ġexec ute
TH OR
ĠMa xim
Ġjoy ful
Ġtur kish
Ġtur bines
ĠTim ber
Ġspir its
Ġflag s
ĠAlb a
yr gyz
ĠMars hall
hand ed
Ġmurder ed
Ne il
Ġupd ating
Ġpra ises
Ġinh ab
Ġanticip ating
Ġincreasing ly
ĠSal vador
ĠSil van
ĠMod ern
ricult ure
Ġtrick y
ĠSom alia
ĠJac ques
ĠAleks ander
spe aking
Ġumbre llas
power ed
Ġprop het
ĠAT M
Ġminor ity
ĠTer rit
Ġcompletion Date
Ġembr acing
Ġarrange ments
Ġtor ch
Ġflash light
ĠBern ard
Ġrefuge e
Ġexha ustion
Ġbron ze
Ġsne e
Ġappar ent
ĠKarn ar
ĠColumb us
orge ous
Ġrephr ase
ocy tosis
ĠLim ited
ĠProfess ional
ĠMit chell
ĠAdmin istrative
Dan iel
Ġlemon ade
ĠHind i
Ġphilipp ine
ĠOak land
ĠUpd ated
Ġstere otype
Ġdinosaur s
Ġpublish ing
Ġawa ited
ĠDim itra
ĠCommon wealth
Ġcontinu ously
ĠNap oleon
Act a
Ġseism ic
ĠChlor ophyll
ĠKu wait
ĠAU THOR
ĠLegisl ative
Ġhaz ard
Ġgir affes
ĠBark ov
Ġstam ina
ĠRav ens
157 88
Ġchol esterol
Ġaccus ations
Mat thew
ĠIv ory
ĠAndalus ia
ĠEfxeinoup olis
ĠFert il
Sty le
Ġisbn Number
% )
? !
A V
E B
H en
L ook
N ob
P ower
S an
S us
T ommy
T unes
b ling
c ake
d et
d ollar
e a
e as
f at
f red
g ents
h um
h ang
h ind
k ov
l ighted
m ower
n ai
r age
s aving
t ty
w ax
w ares
in burgh
on so
Ġs ich
es te
es ar
is en
Ġw ished
Ġw ikipedia
Ġc u
Ġc ried
of fer
an ies
an other
re dd
Ġf al
Ġp odium
Ġp yram
Ġb ah
ou ple
Ġm ice
Ġm igr
Ġm oscow
Ġto xins
al g
Ġd ict
Ġd aring
Ġth ir
Ġin ducted
xt er
Ġn an
Ġh ier
ĠT un
AN IS
Ġl ately
ĠA BC
Ġg ills
Ġe ternal
ĠS S
ĠS afe
ĠS alem
ro se
Ġy elled
Ġre un
Ġre lish
Ġre plic
Ġre arr
Ġre write
ĠC ell
ĠC arn
Ġr av
Ġr ushed
ĠW id
ĠW rit
ĠW IN
ur ches
Ġfo lder
ri ous
ĠB art
ĠB ear
ĠP ad
ĠP ac
Ġcon ce
ag ascar
Ġv iral
ĠM ort
ac as
Ġpro l
ĠD il
ĠD ear
ĠD ell
ĠD eep
st o
ul ph
ĠR ica
ĠR ico
el ids
ĠN az
Ġse w
Ġse wing
Ġwe althy
Ġex otic
ĠJ ill
ĠJ ump
Ġk a
Ġk arn
Ġde par
ĠO bs
Ġj a
Ġsp anning
ind ust
Ġwill iam
ĠK a
Ġen ig
Ġen closed
cl oud
Ġim posed
are tta
Ġ3 50
Ġprov iders
Ġ19 01
ak ur
Ġup ward
Ġup grade
ult on
Ġbet ray
ĠUn sure
ys ter
ook er
Ġbl ast
Ġbl ender
Ġcustom s
Ġcomm enced
Ġev olve
pro ve
Ġjust ified
Ġtrans parent
Ġad s
Ġche es
Ġcol ony
off icial
the tic
Ġsk ates
ced ented
Ġdr ained
ĠAr bor
Ġsup erst
struct ured
Ġexpl oded
ĠTr ouble
Ġstr at
Ġcr is
Ġass igned
ah ra
pos ing
Ġrep aired
ĠSp encer
ash ire
con nect
ĠSe bast
ros a
au er
Ġvar ied
aut hor
ĠSh ir
ĠSh awn
ven ted
ĠBr idges
ĠDe hydration
Ġ9 2
Ġgener ator
Ġcur tain
ĠBe ver
ĠAir es
amm ers
Ġmed ian
fl ix
Ġfif ty
Is rael
Ġsw am
Ġdiv ine
Se cond
Ġfree ly
ny a
Ġwind y
Ġ16 0
Ġ15 6
An n
Ġ11 1
uck er
Ġpast ry
Ġsuc cul
Ġ14 2
Ġtransport ing
Ġsepar ates
Ġwa its
Ġcurr ents
pr ice
30 1
ĠTe a
Ġwond ers
Ġbar bec
Ġes ophagus
Ġ25 2
Ġauthor ed
Ġbreak through
St ud
Ġmix er
Ġcond enses
Ġvol umes
ĠX L
Ġdress er
Ġdig its
ĠSw ift
Ġelement ary
ĠHar rison
erc ise
Ġfather s
Ġrad iant
Ġport ug
Ġamb ulance
ploy ees
Ġess ay
ograph ical
Ġgold fish
Con struction
Ġscreen play
Ġsurpr ises
Ġcoach ing
ĠComm ander
Ġliqu or
Ġintro ducing
Ġinit i
Ġinit iated
Ġbur ger
Ġattract s
ban ese
Ġjack ets
ĠIns urance
bl ue
Ġlab els
ĠAnt i
Ġaccount ing
Ġhon ored
Ġwild erness
ĠAcc ount
Ġmeasure ments
Ġcred its
ĠVal ent
Ġorb its
Ġrespond ed
Ġfoot age
Ġsediment ary
Ġstrugg led
icul ous
Ġcompl aints
Ġreve als
pon ed
Ġconv ince
Ġeleg ance
ĠMet ro
Ġprior ity
Ġthick ness
Ġparent hes
Ġcommer ce
ĠiP hone
ĠPlan te
Ġaccomplish ments
Ġdomin ate
wa iting
ĠJackson ville
ĠPop ular
ĠHal f
Ġchrom osome
Ġvow ed
ĠStat us
Ġretail er
Ġharmon iously
Ġpropos als
Ġclim bs
Ġadjust ing
Ġaer obic
Ġnomin ations
Ġcoord ination
enezuel an
ĠVen ice
ĠRevolution ary
Ġaffil iated
Ġappl iances
ĠSteel ers
ĠDer by
Ġsav ory
ĠDomin ican
ĠCir c
Ġveter inarian
Ġadj acent
Ġbol ster
Ġgard ener
Ġbun ny
Ġphilos ophy
ĠAntio ch
Ġcondem ned
Ġmerch ant
ĠLab our
ĠBrook lyn
Ġretrie ve
ĠPO INT
Ġhumid ity
Ġvulner able
ĠRol ando
Ġdesper ate
ĠLot us
jun ction
ĠOPER ATING
ĠRy der
Ġrif le
Ġstair case
Ġkne eling
ORG ANIS
Ġtribut ary
Ġdivor ce
Jess ica
ĠCone jo
Ġgeolog ic
ĠLanc ashire
Law rence
ĠRug by
Ġdisappro val
Ġbronch ial
ĠAure oles
ĠSilvan o
ĠPOINT S
ORGANIS ATION
' ).
4 25
C arl
C onsider
D eb
K enneth
L ogan
M L
O pen
P ER
P oint
S un
S il
V P
W al
d ep
e lection
h oles
k ia
l ocation
m ut
m ess
m and
o kes
r ong
r ays
s ub
t ion
t os
t imes
w arming
Ġ icy
Ġt une
Ġthe ses
Ġs amb
at ched
is ia
Ġc ust
Ġc ough
Ġc ush
Ġc zech
Ġf iring
it he
it ars
it udes
Ġp aste
Ġp ued
Ġb iting
Ġb ishop
Ġan gle
le vard
Ġm arsh
al ong
Ġd ug
Ġd utch
Ġis omers
ic ion
Ġn aval
Ġn aughty
Ġh ive
ĠT ro
ĠT ab
ĠT odd
ĠT otal
Ġl ent
Ġl am
ĠA ctor
ot or
ĠI stanbul
ĠS ic
ĠS ter
ĠS ym
ĠS andy
ĠS creen
ĠS afety
ro be
Ġy ugoslav
ay an
Ġre ly
ĠC el
Ġfor um
ĠW ol
ig ible
ke e
ĠB uch
ĠB oss
ĠB ald
ĠP ig
od o
her om
ĠG E
ĠG ad
ĠG ates
ĠM C
ĠM ys
ĠH end
ĠH yp
ĠH orn
Ġpro be
Ġsh ines
Ġsh ocked
Ġsh aft
ĠD iamond
and in
ĠR an
ĠR ally
ĠR unning
ĠF ant
ĠF BI
Ġte ch
ort ment
ĠE mm
Ġch ampagne
Ġch ordates
ĠN ine
Ġse ag
Ġse als
ĠL iz
ĠL td
ame is
Ġpos tal
Ġtr amp
Ġtr ench
Ġtr endy
Ġle ak
Ġk ann
ĠO tt
Ġj uggling
ang ra
our ces
Ġman if
Ġal gebra
ver ted
ĠTh ing
Ġgr ams
oo o
Ġplay fully
Ġdesc ent
ose vic
ĠK il
per ms
form er
Ġprov incial
Ġ19 27
Ġ19 38
ear ning
og er
ne um
Ġres umed
Ġspec ially
Ġsc ott
ĠAn aldin
ff ic
Ġcomm itting
Ġcar ved
pro blem
pro gram
Ġthan king
Ġover look
ĠCon nor
ons on
Ġprocess ed
Ġche wing
Ġcol ours
Ġatt ic
Ġins ufficient
Ġserv ant
ĠAr ound
Ġbo il
Ġgu itars
Ġi Tunes
ĠTr ust
In ternational
uc king
uc ose
gr adu
oh an
ier ra
Ġpol ished
com b
Ġdel ighted
Ġsl im
Ġsl ate
be in
Ġline ar
Ġdef ender
uss y
Ġext inction
Ġsign ify
Ġmiss iles
ĠBr id
ĠBr anch
Ġ9 7
Ġdisc our
eng ine
ĠPl ough
ĠSc ar
Ġbad minton
Ġsw itched
oft hes
Ġkind ly
Ġz o
Ġdirect ing
ump y
ĠEx cellent
20 10
ĠGr owth
Re v
Ġ11 4
let t
ĠMan ning
Ġvill ain
Ġgen et
pr oud
row ing
Ġ25 3
ok u
ĠWill ie
me al
Ġclos es
16 8
Pl ay
Ġmix es
ĠSte am
hel m
Ġdress ing
ĠOr igin
Ġdig ests
pec ial
Ġannoun ces
ĠTri umph
Ġaff air
Ġdem ol
Ġsym phony
Ġpoll s
Ġ28 0
ĠReg ister
Ġglob ally
press ion
Ġprot on
Ġprot ists
Ġprot agon
Ġpan els
ĠMc L
Ġnucle i
ĠEm irates
AS T
Ġwait ress
Ġreport ing
ĠBu enos
Ġenc aps
Ġautom otive
ĠPat riots
Ġdeb uted
IT ECT
Ġrecogn izable
ĠDr ive
Ġder by
Ġhyd ration
Ġboss es
AL L
Ġsyn drome
Ġsil k
Ġanaly sts
ĠBel gian
Ġcommunic ations
Ġcontract ing
Ġut ility
Ġestablish ing
Ġmolec ular
Ġmid st
Ġsche me
200 1
ĠOff icer
Ġadm iring
On ly
ĠFlor ence
Ġcivil ization
ĠTim my
ĠAnn an
Ġbroad c
ĠRock y
Ġpup ils
unic ation
Ġcalc ite
ji ang
ĠJul ian
ĠJul iet
enz ie
ĠExpl orer
ĠChristian ity
Ġmemor ial
Ne ither
ĠMet ropolitan
Ġbedroom s
llig ence
Be fore
ĠBirth date
Ġspect ators
Ġrout es
Ġreserv ations
Ġinfect ions
Ġhom eland
ĠEuro pa
Ġtim eless
Ġexperiment s
Ġunw anted
Ġalcoh olic
Ġsam ples
Ġprogramm ing
Ġinteract ing
Ġcitizens hip
ĠTenn ant
Ġchlor ophyll
oven ant
Ġcher ry
Ġpray er
Ġclim ates
sur v
Ġtail ored
Ġaer ial
Ġimag inative
ĠHung ar
ĠAff airs
ĠSocial ist
CH ITECT
AF P
Ġaccord ance
Ġfet ch
ĠAR CHITECT
Ġmort gage
Ġirrit ation
Ġpharm acy
ĠMur ray
ĠCir cle
ĠChen nai
Ġsurprising ly
ĠPL AY
Ġceleb rities
Ġdecom pose
ĠRod rig
Ġexplos ive
Ġsubsequ ent
Ġsurge on
Ġlou is
ĠBh angra
Ġtack le
Ġegypt ian
ju ven
ĠUpd ates
inte gr
ĠPun jab
ĠAdvent ure
Russ ian
Ġpled ged
atern ity
Ġwhist le
Ġexcret ory
ĠDecl aration
Ġpige ons
oret ical
commod ation
ĠSent iment
ĠNotting ham
ĠLithuan ia
Ġconcaten ate
660 63
Ġtsun ami
ĠSolan ales
AID S
Pres ident
Ġmetabol ism
Nob ody
Ġdepar ted
Ġiniti atives
A aron
C omm
C ode
C AR
D og
E nd
F O
F light
H el
H ING
I dent
K ate
K ayla
L ife
L ondon
N ational
O ld
P ort
R yan
S l
T L
Z ahra
b in
b ucks
c in
c ases
e very
e conom
h art
h adow
i ite
k g
l iest
m o
m ons
v ideo
w os
~ *
Ġt iles
Ġa ubrey
in king
er ty
on er
on te
Ġs el
Ġs outheast
es o
Ġc ents
Ġc aves
Ġc odes
Ġc ottage
Ġc affeine
Ġp y
Ġp ony
Ġp aws
Ġb b
Ġb out
Ġan ten
le ague
te x
Ġm oh
Ġm ug
Ġd ll
Ġin ch
Ġin clusive
end um
Ġh amster
ĠT et
ĠT IT
ĠT ibet
AN K
ow els
Ġg em
us on
id ia
wer y
am os
am ination
ĠI M
ĠS O
ro evolution
Ġy a
ay as
ĠC er
ĠC ord
ĠC ock
ĠC ode
Ġr ipe
im eter
ĠW W
ĠW a
ĠW ave
ĠW right
ĠW endy
Ġon ions
ig ator
un ar
un ny
ri ans
op oly
Ġst icking
ĠB old
ĠB uck
ĠP ie
ĠP ool
ĠP erry
od or
Ġne l
ĠG DP
ĠG ymn
ĠG ermans
il o
Ġab oard
ĠM es
ĠM orm
ĠM ikh
ĠM umbai
ĠH il
Ġhe ter
se ver
se lling
ĠD ale
ĠD illin
st ant
st itution
st roke
and Iam
ĠR and
ĠR ising
ĠF le
ĠF ab
ĠF inn
ĠF eder
ov ascular
ain less
Ġch ry
Ġch icago
ĠN orm
Ġse min
Ġwe ighed
ĠL ions
ĠL ines
Ġex ams
Ġex changed
ĠIn fo
Ġpos ters
all a
ĠJ iang
ĠJ oshua
Ġle aping
Ġk ills
Ġde ple
Ġpr inter
Ġpr istine
th reat
th ird
ĠY ale
ĠY uan
ast a
ard on
Ġma iden
we ed
we ather
we bsite
own ers
ia z
Ġsp a
ĠTh reat
Ġgr ant
Ġplay time
ab l
Ġpre val
ĠCh ad
are lla
Ġso aring
ĠSt ay
em an
em ark
oy et
Ġ19 00
Ġ19 21
Ġ19 09
Ġup right
Ġup lifting
ise ase
og ram
Ġtext ures
Ġver tical
ild a
Ġres ide
Ġag ing
Ġsu ite
ress ing
Ġpart ially
ĠRe peat
ys on
Ġdis rupt
Ġdis cerning
Ġnew est
ens ored
ĠAl aa
ĠAl mond
Ġbu lly
Ġ4 27
pro duction
Ġam n
Ġtal es
iss au
ĠIf you
ĠCon verter
ĠIs aac
Ġrem inder
Ġdr ain
Ġdr ummer
Ġins ult
Ġins erted
Ġserv ants
Ġfilm ing
arn ess
ĠCom plex
Ġgu ilt
ĠTr ading
Ġimport s
Ġdec aying
gr av
gr ass
Ġass ortment
ah ar
ĠTo ilet
Ġsec urities
Ġmon t
Ġmon keys
ger ia
con i
con ven
Ġsl ain
Ġlast s
Ġdef icit
Ġext inct
ĠWe ight
ĠSc r
Ġed iting
ĠMar an
Ġpot s
Ġhead aches
20 15
20 12
Ġsn akes
ĠJan et
Ġseason al
yn ameis
Ġsal on
Ġmark er
Ġsound track
Ġ11 5
Ġ11 9
39 1
Ġpast ure
let ti
15 1
Ġgen ome
Ġsepar ation
Ġve ins
ĠChrist ians
ĠStep han
Ġhair y
tal k
Ġsleep y
Ġadv ise
14 1
uit ary
Ġsuper b
Ġep ic
Ġeconom ics
17 0
ĠGu iana
Ġpen is
Ġstruct ural
Ġcapt ion
icy cle
Ġtechn ological
Ġsqu ish
Ġye ast
ĠFl u
Ġdest ro
25 5
Ġimm igration
ĠSup erman
Ġinvest or
ament o
ĠAtt ack
back ed
Ġvibr ating
Ġoppos ing
Ġpoll ination
Ġdrive way
Ġpan ic
ĠEm ail
Ġsecret ly
Ġconve ying
ĠThanks giving
Ġoccur rences
ĠWith in
Ġinit iative
ĠPer fect
Ġcard board
Ġpost poned
cel ium
Ġpriv ately
Ġstick er
ĠHigh way
Ġpurch ases
AL ITY
Ġafford ance
uk a
97 8
Ġemer ging
Ġlab eled
Ġradio active
ĠHel ps
ĠCle ar
Ġmid night
Ġrunway Name
Ġrecover ing
AG ER
hold er
comp ilation
ĠIS SN
ĠMor occo
Ġinvestig ate
Ġprogress ive
Ġacadem y
Ġcompe lling
Ġhar vest
ĠTechn ical
Ġru in
Ġign or
Ġencour ages
ĠBer g
Ġconv oy
Ġsusp icious
ĠAut o
ĠWal king
ĠNAS CAR
Em ily
she et
Ġvoc als
Ġham as
Ġgarn ering
ĠAlfred o
ĠSand ra
Ġille g
Ġtransform ed
ĠArgent ine
Ġprop ag
Ġiran ian
Ġble ach
Ġnurs ery
Ġelim inated
Ġweak ness
kil ograms
Ġprinc iples
Ġpep pers
ĠWork ers
Ġcolumn s
sal is
Ġfrag ile
Ġinvent or
cas ted
Ġoptim istic
ĠDig ital
Ġmand atory
ipper y
Ġrough ly
Ġmicrosc opic
CA A
ĠIndust rial
Ġpoison ing
ĠWer ft
Ġacknowled ged
Ġpresc ribed
Ġexcess ive
Ġprompt ing
Ġpadd le
ĠDu ane
Ġfounding Date
ĠBron cos
Ġadvis or
Ġstraw berry
ĠHop kins
Ġpine apple
Ġdiagn osis
insp ired
MI UM
uten ant
Ġbrazil ian
fight ers
ĠLar ger
Net herlands
Ġrein for
Ġpreceded By
Ġdial og
Ġclin ic
Ġdiff usion
Ġinher ited
orks hire
Ġthirst y
anche z
Sub tract
ĠBou levard
ĠLib ya
ĠSpart ak
capital ization
ĠSed iment
ĠMAN AGER
Dav id
Ġhed ge
ĠDeliver y
Ġnomine e
Ġhorizont al
Ġsess ions
ĠBenn ett
Ġrefere e
Ġimpec cable
ĠAnim ation
Ġenthr alling
Ġenig matic
herom ones
Ġchry salis
+ ),
1 18
1 13
3 20
3 60
5 12
A c
A sh
A rom
C arson
F usion
H ome
J apan
L es
L och
M C
M ac
M ain
M arch
N ick
O k
O ctober
R ep
S ing
a un
a que
b ott
d ong
d ec
f ar
g art
g ical
h aw
m ust
m itt
t om
w ave
w agen
z ny
Ġ ow
Ġt ourn
Ġt ribe
Ġt ribute
he ed
in v
in vest
on o
Ġs id
Ġs aturated
at che
at meal
Ġw iz
Ġc hen
re ally
Ġf ond
Ġp as
Ġp onds
Ġb ible
Ġb ib
Ġb ern
Ġb othered
le ctu
Ġm ural
Ġm onster
al ore
Ġd ye
Ġd well
Ġth aw
Ġth umbs
Ġin clusion
end id
end ous
Ġh unter
ON TI
AN T
Ġl oun
iv an
ĠA x
ĠA ber
Ġg asses
Ġg igg
Ġg reece
Ġg ossip
ot remes
Ġbe aver
id as
ĠI owa
ĠS itting
et ition
ay e
Ġre juven
ir it
ĠC ro
ĠC over
ĠC ody
ĠC ooking
ĠC ategories
Ġr ash
im en
ĠW ow
ĠW ool
ig el
ut an
ad ia
ad ians
Ġyou ll
ri um
Ġst itch
ĠB omb
ch nya
ĠP or
ĠP as
ĠP unk
ĠP oker
ĠP icture
ĠP oyet
her es
Ġne wer
ĠG ets
ol ong
ol ites
il st
if ting
Ġv ic
Ġwas ted
ĠM S
ĠM ust
ĠM ine
ĠM oy
ĠM ale
ĠM ae
ĠH istory
Ġpro hib
pe ted
st en
ĠR io
ĠR ush
ĠR ules
ĠR ocks
ĠF eed
ĠF ulton
Ġ( :)
ĠE arl
ĠE ye
ĠE sc
ĠN aval
Ġwe aken
ĠL at
ĠL ooking
Ġex clamation
Ġtr ends
." ;
pt ing
pt ic
all s
Ġle ap
Ġk w
Ġk en
Ġde hydration
Ġpr aying
ĠO mar
th odox
we lling
Ġman ages
Ġal umn
Ġsp it
Ġsp ice
ĠTh akur
rib onucleic
Ġgr aff
ĠU rich
ĠU RL
Ġsome body
ĠĠ ĠĠĠĠĠ
ĠQu ick
Ġfe es
ĠK ol
ĠK az
ĠK urt
ĠK itchen
ĠK ashmir
ip ated
Ġpre vented
Ġrest ored
fer ences
aur us
Ġreview ing
ult y
ne ath
Ġsc i
ys sey
Ġdis charge
Ġdis abled
Ġdis respect
Ġloc ked
Ġbl ame
Ġcar son
ĠAl ways
ĠV as
ĠV irt
ĠV incent
ĠV ancouver
Ġ4 20
ĠHe aven
ĠHe brew
pro vo
Ġam ple
Ġbr ands
Ġbr owse
Ġover ly
ific ate
Ġtrans it
Ġtrans formation
ĠNo ah
br aska
Ġrel ieve
ric a
Ġcre ampie
Ġrem y
ĠPro gress
Ġappro aches
Ġgu ided
Ġval ued
Ġfin anc
gr owing
Ġinv ites
Ġ8 9
ins ky
Ġtri als
Ġ10 6
uss ia
Ġconsider able
Ġ18 5
Ġ18 90
Ġ18 56
Ġinter im
ĠSh um
ĠWe bs
ĠBr aves
ĠLe ave
ĠLe vel
Ġ0 3
Ġcur ry
ĠShe ikh
vers ion
Ġint ends
ĠAir ways
Ġimp rison
Ġgovern ed
Ġgovern ance
Ġmar ble
iet ies
20 13
ĠMon ths
Ġinc idents
Ġhand led
cle an
ĠAm azing
ey e
sh afen
Ġmag ician
ĠIm age
ĠIm perial
Ġconf ig
Ġbrief ly
Ġspace craft
Ġ17 89
ĠCol lection
Ġwar ri
ĠAc id
ĠCr im
ĠCr acks
ĠSim pson
Ġ13 7
Ġfire fighter
Ġsand box
ĠX ia
ĠOr lando
rest aurant
__ __
can be
Ġgrass es
Ġswim s
Ġimm unity
Ġcir cus
Ġinvest ments
Ġappear ances
ĠAtt orney
che ck
ĠJo ey
Ġsubst it
Ġamb ience
ĠSer gio
ĠBill board
ĠCo ord
apt olites
ĠMc N
ocr ine
Ġbi ology
Ġlim bs
Ġden oting
who le
Ġaw ful
ran ked
ett es
ett ings
Ġapplic able
Ġcirc ular
Ġspot ted
Al an
Ġrequire ment
Ġnorth western
Ġameric ans
ĠMad onna
ĠRich mond
Ġemer ges
Ġsens ing
Ġmagn itude
Ġmotor way
Ġdeterm ining
Ġten ant
Ġlit ter
ĠGener ation
200 5
200 6
Ġsmart phone
Ġadm it
col or
ĠSl ow
Ġmel od
Ġneut rons
Un der
ĠAct ress
ĠEgypt ians
cont ent
comm end
ĠCharl eston
Ġperm it
ĠCoun ter
dr ama
Ġattend ees
Ġcabin ets
Ġacademic Disc
ĠGal ile
Ġacqu iring
Ġlaunch ing
ĠCD s
Ġresist ant
Ġspokes person
ĠFire fox
Ġbond ing
Ġpurs ued
ĠPet ers
Ġlegisl ature
Ġtim ber
Ġconcent rate
ĠTal king
Ġaccept ance
Ġid yll
Ġcock tail
ĠCommission er
Ġgentle man
appe ar
Ġwrest ler
Ġutil izing
Ġchlor ide
Ġpump kin
Ġlin en
Ġvary ing
some one
Ġgymn asium
Ġtooth p
Ġtrib unal
ĠOw en
ĠUkr ainian
ĠPerform ance
Ġtransm it
ĠTele vision
CC N
ambur gers
install ation
Christ ine
ĠAst ron
Ġspons or
Ġpir ate
Ġoverwhel med
Ġacknowled ges
Ġirrit ated
Ġion ic
oval ent
Ang ela
pol it
ĠAdmin istration
Ġsnowboard er
ĠAppro val
ĠHans en
Ġcro che
ĠPed as
Ġfacil itate
ĠIncor rect
ĠIncre ase
Ġure thra
cour se
ĠDiscuss ion
ĠSad ly
Ġnurt uring
Ġmas ks
Ġgi ants
ĠMult iple
ĠConcer ns
ĠNem at
Ġembry o
ĠCult ure
Ġcompassion ate
Ben jamin
educ ational
Ġjur isd
inh abitants
ĠTreat y
Ġpedest rian
Ġunem ployment
Ġtempor arily
Ġba iley
Ġmere ly
ĠNash ville
ĠSchedu le
happ iness
Ġaller gy
Ġcance led
Div ide
Ġasth ma
ĠFriedrich shafen
Ġenorm ous
ĠGuatemal a
ĠPiazz ia
Ġbree ze
Ġparenthes es
wos ix
ĠTIT LE
Ġgraff iti
ĠacademicDisc ipline
Ġidyll ic
! )
. \
1 12
2 10
2 20
9 37
; )
; .
A tt
B o
C R
C ase
C ola
C ynthia
D uring
D ec
F o
H S
H ave
K endall
P eter
R est
R osa
T ER
` `
c u
c ore
c ott
c ogen
d ogs
d escription
f oc
h l
h ur
k ok
l c
l oss
l iga
m un
m ynameis
n othing
p ay
r idge
s im
s chool
t ot
t oc
v or
v io
v ii
y oung
Ġ oo
Ġ ous
Ġt in
Ġt ony
Ġt ends
Ġt utor
in th
on et
Ġs hat
Ġs asha
Ġs ausage
at y
Ġw ipe
or able
Ġc reek
re f
Ġf led
Ġp u
Ġp iv
Ġp ours
Ġp esticides
Ġp overty
Ġb ak
ou m
Ġm asters
al ation
Ġd ances
Ġd awn
om o
Ġn ov
Ġh ah
ĠT ip
ĠT ouch
ĠT XXX
Ġl u
Ġl bs
ĠA RE
Ġg or
Ġg le
Ġg ig
Ġg ut
Ġg rilling
ot yp
ot roph
Ġe ld
Ġbe ast
ĠI ch
ĠS atellite
et op
et ah
qu ick
Ġ" -
os pel
ĠC rit
ĠC ous
Ġr idden
ĠW u
ĠW ash
ur an
Ġquestion ed
ĠB R
ĠB ros
ĠP am
ĠP att
ĠG B
ap ag
if ty
ess ential
ĠM ade
ĠM eth
ie v
ie val
ĠH A
ĠH P
ĠH ob
ĠH off
ac id
se ven
Ġsh ave
Ġsh ame
Ġsh immer
Ġsh adows
ĠD ish
st ocks
ĠR F
ĠR ic
ĠR ide
ĠR up
ĠF at
el in
ill es
Ġ( ,
Ġ( ?)
ort s
ĠE u
ist ical
Ġch alk
Ġch ili
Ġch urches
Ġ2 16
Ġcan oe
ĠN it
ĠN ATION
ĠL uis
ĠL yn
ĠL arge
ĠL ankan
ĠL ONDON
Ġex ports
all the
ĠJ ed
ĠJ ungle
Ġk ite
ĠO S
ĠO ddie
Ġj ed
Ġj ose
pl us
ub s
Ġun ident
Ġun happiness
ast urbation
Ġ' -
Ġall ies
Ġsp at
Ġsp iders
ere lla
ĠU rb
ĠU EF
Ġplay wright
ĠQu ality
ĠQu ora
ab ella
Ġno ble
Ġfe ast
Ġfe ared
ĠK ills
ĠK enny
cl os
ĠCh icken
app ointed
Ġkn ight
Ġkn ock
Ġtext ile
Ġhel m
ne ous
Ġsa udi
Ġres ides
Ġres pected
Ġoff ense
ys burg
Ġdis m
Ġloc omotive
Ġbl own
ens on
ens tein
ĠV f
ĠV and
Ġreason ably
Ġbr ut
Ġem its
Ġ20 6
Ġind ie
Ġover coming
ĠInd ians
Ġrel atives
Ġvers a
ĠPro tection
Ġend uring
gg ie
ĠAr lington
Ġstr iving
gr ow
Ġsur fer
Ġsur pass
Ġinv isible
ty ard
tain ed
ĠFr ances
ins tein
Ġment ally
Ġmet ropolis
Ġsl ipped
Ġsun burn
Ġ18 62
Ġinst itute
ĠFor ces
ho oting
ĠLe aves
ym outh
Ġel ite
Ġunder neath
ĠPl ans
Ġmed ioc
vent wosix
ĠSc an
ĠSc out
ĠMar ine
ĠMar ian
ĠZ itar
Ġmil estone
fe eling
ene gal
Ġmar ijuana
Ġsw orn
att ract
Ġcell ul
Ġlearn s
Ġindic ator
Ġwind ing
Ġsal inity
Ġide ally
ĠPh araoh
Ġu pt
Ġ14 4
ĠMan itoba
ĠTex ans
Ġheart felt
row d
Ġcat hedral
Ġdep ot
Ġtem p
ann on
18 0
ĠEn t
Ġrefer endum
Ġsoft ly
Ġtrad emark
Ġbit es
Ġmult in
Ġrecommend ations
ĠSouth ampton
cus e
plify ing
Ġunique ly
17 26
ĠWas her
ĠGu ys
Ġcover age
Ġur ge
Ġimpro per
Ġgoal ie
acter ial
ĠSup ply
Ġport able
owd own
Ġdraw ings
ĠAss ad
ĠAss istance
Ġfig ured
amb ique
ĠComp rehensive
ĠMic ro
Ġcoll ide
Ġhorse power
Ġconve ction
Ġreport ers
Ġenc oded
ĠNet flix
Ġhospital s
anger ous
Ġcard iac
Ġdrop ping
ĠEd inburgh
ĠDr agon
Ġemploy ed
Ġsho ots
Ġpath ogens
Ġcru el
Ġalle les
ĠPlay Station
ĠSch warzenegger
Ġchalleng ed
inter esting
ĠMa o
Ġreb ell
Ġrob in
ĠTim othy
ĠDem ocracy
Ġinn ocent
ĠVal ue
Ġearl iest
Ġlo ans
Ġfashion able
Ġmechan isms
Ġcalc ulations
Ġsediment s
ĠDi agonal
aver n
enz i
enz o
Ġaust in
ĠEll en
Ġpra ising
Ġmuse ums
Ġorg asm
uke mia
Ġfle et
ĠiP ad
Ġdom ination
Ġfilter ed
bel ieve
ĠRom ans
ĠConf eder
Ġcollabor ated
ĠTal ks
Ġmarch ing
Ġcoc oa
ĠSu z
Ġsac red
Ġwheel chair
Ġmit ochond
Ġsettle ments
Ġsust ained
Ġfart hest
ĠFar mer
Ġpredomin ant
Ġconsequ ence
ĠSC ORE
Ġdent al
Ġtooth brush
ĠWor king
Ġshoot er
Ġbass ist
Ġchrist ian
Ġcoeff ic
may be
Ġnom ination
Ġhab en
Ġlimit ations
Ġspons ored
ĠTar get
Ġconstitution al
Ġpharm aceutical
Ġom n
ĠNik ol
Ġboun cing
prof it
Ġobst acle
ĠAur on
ĠCat hedral
ĠBurn ing
Ġphilos opher
Ġcompliment s
Ġfacil itating
Ġcosm os
Ġpeacekeep ing
rys ler
Ġresil ient
Ġrefract ion
Ġinstruct or
Ġnutrit ious
Ġbrilliant ly
ĠBuddh ism
exper ienced
Ġsib ling
Ġcany on
Gen re
Ġcact us
ĠHug o
Ġdispers ed
Ġali ens
Ġschol ars
Ġspar king
Ġattent ive
engu ins
ĠBes ides
Ġfool ish
ĠHumph rys
Sur face
ĠDy kes
Ġoccas ions
Ġbulgar ian
Jeff rey
develop ed
Ġace tic
ĠGaz ette
ĠWire less
Ġpeach leaf
ĠRena issance
lus coni
Ġhiber nation
ĠDian e
Ġlandsl ides
Ġenthusiast ically
Ġrelent less
Ġpian ist
Ġobl ig
ĠAth let
Ġimpul ses
Ġskelet al
onese ventwosix
ĠCaval iers
Ġprok aryotes
Ġadequ ate
Ġcardi ovascular
Ġkarn ar
Ġprotagon ist
HING TON
Fusion Genre
ĠFeed back
ĠUEF A
ĠZitar rosa
% ,
' ?"
* .
2 29
5 24
A ny
B O
B est
C ap
D ogs
E xt
E rin
H ung
J ul
J oseph
K ids
L ord
L ind
M AN
M ex
N ote
N asa
P ress
S ex
T ag
V ery
W ords
a ids
b oo
c ular
e ight
f ro
f inal
f iction
g old
g ulation
l ich
l ake
m g
m uch
n ovel
p p
p ings
r ust
r ink
s burg
v irus
x on
y ards
z ero
Ġ ),
Ġt ak
Ġt ai
he a
in us
Ġs ydney
at ility
Ġw anna
or c
or us
Ġc em
Ġc ovalent
an amo
Ġf iscal
it en
Ġp el
Ġp acking
le au
Ġm uddy
Ġd azz
Ġd vd
Ġth rilled
Ġth reesome
Ġin ability
Ġh ij
Ġh arness
ĠT R
ĠT ak
ĠT ru
ĠT igers
Ġl ing
Ġl amb
Ġbe an
id uous
am bo
am ateur
ĠS ac
ĠS aul
ĠS itu
ĠC R
ĠC age
ĠC ats
Ġr on
Ġr ats
Ġr ush
Ġr inse
im i
im er
im ag
im ming
ĠW at
Ġwh isk
ve led
Ġqu ake
ad vant
Ġst ump
ĠB M
ĠB orman
ĠP ract
um bled
if fe
ess im
ag gy
ag ically
Ġv ag
ant anamo
ĠM T
ĠM ind
ĠM ile
ĠM ick
ĠM EDI
ĠH ence
ĠH ank
ĠH omer
Ġpl anted
ĠD D
ĠD iet
ĠD esc
ĠD oris
ĠD olphins
st orm
ĠR E
ĠR ing
ĠR ent
ĠF ed
ĠF iles
ĠF olk
el le
ill ery
Ġch ile
Ġch ronic
Ġch ambers
Ġat op
Ġcan als
ĠN ut
ĠN ova
ĠN umbers
ĠN CAA
Ġse xy
ĠL enn
ĠL WW
ĠL umpur
ĠL CCN
Ġle aps
Ġk icks
art ist
act ites
Ġde lete
Ġde ceased
ĠO C
ang led
ang ular
pl anes
Ġgo og
Ġun healthy
we eds
Ġout law
Ġword ing
ĠTh ought
ĠTh ird
ĠTh rones
Ġgr en
ĠU l
oo led
Ġar ctic
ab olic
ip ras
form at
ĠCh r
ĠCh an
ĠCh um
ĠCh oice
ĠCh uck
Ġrest r
ass ic
to know
Ġ3 65
Ġo xide
Ġo atmeal
Ġro ast
Ġro pes
Ġ19 23
oth s
Ġup load
put ers
ne e
ne xt
Ġres id
Ġres olved
Ġbet s
ĠWh ose
Ġspec ifies
ĠUn cle
Ġpar cel
Ġsc ales
Ġsc uba
Ġbl amed
Ġser bia
ign ant
Ġbu zz
Ġper pet
Ġper ception
ĠV iktor
Ġ4 16
Ġ4 50
Ġcontext s
pro per
Ġam azed
ck lace
ood les
Ġem peror
Ġcons pir
Ġany body
ath lete
Ġfil aments
ĠCon ifers
Ġad option
Ġad verb
int a
Ġcountry Origin
Ġcent ered
Ġsk yl
Ġmy st
Ġend orse
Ġexpl o
ĠTr aining
Ġair borne
gr and
gr amm
Ġmusic FusionGenre
Ġcr ab
ah r
Ġreg ulators
amp ed
Ġinv esting
Ġinv aded
ĠSp in
Ġ7 20
ins ter
Ġtri umphant
Ġsl id
Ġrun off
Ġgl oom
Ġdef ine
Ġdef ending
Ġdef ended
Ġext r
ĠSh o
ĠCam bodia
ĠBr other
Ġkey Person
Ġref und
Ġstory book
Ġdidn t
Ġint ers
erv ation
erv ice
Ġlight weight
ĠPl aces
Ġed ited
Ġed ges
ĠMar cus
Ġ12 1
Ġ12 2
Ġapp end
ĠZ en
Ġexc av
iet h
Ġorder ing
Ġhard est
20 14
ĠBut ter
Ġsn ap
ĠAd ult
Ġwind pipe
Ġ16 6
Ġ11 8
Ġclean liness
atter y
ern atural
Ġcontin ually
Ġcrit eria
Ġtest osterone
Ġheart warming
Ġdevelop s
por ter
Ġcat aly
Ġphot ography
Ġbar celona
Ġtable ts
af at
Ġcompet ent
Ġshirt less
arch y
Ġformer Team
Ġmot orb
ĠMay o
work ers
Ġpen et
Ġir ish
ĠOr iginal
Ġsour ced
ĠNorth west
Ġphys ician
ĠMal i
Ġemb ody
Ġemb edd
ĠAng els
play er
ĠHar vey
eb a
ĠAg ree
Ġremember ing
che ap
Ġstat ues
ĠWild e
ĠWild weeds
Ġ23 2
Ġaccess ory
Ġdiscover ies
aid ers
Ġround ed
ĠComp anies
36 5
arr ant
lant a
Ġden y
co at
Ġwel comes
Ġinit iate
head ed
Ġdark er
Ġinflu enza
Ġsoon er
ĠSm oking
Al ice
Al though
you will
Ġtouch down
ĠMag dal
Ġdecl aration
Ġmagn ifying
reed om
Ġcontract ion
Ġut erus
Ġdeterm ines
Ġund erm
Ġcoast line
Ġ?" .
Ġban ner
Ġadm ire
ĠSl ovak
Ġformat ting
Ġbicy cl
Ġneut ron
AG UE
roy o
Ġpil gr
Ġmer ged
Ġinstrument al
Ġpup il
Ġterror ists
Ġhar bour
ĠMel issa
Ġlibr aries
Ġfunction ing
Ġsmell s
bour g
Ġpig gy
ĠAnders en
Ġattend ance
Ġterrit orial
Ġflo ats
Ġfirm ly
Ġlawn mower
Ġcitiz en
atell ites
By Nasa
hal f
ĠMont g
ĠRog ers
Ġflour ishing
istr ator
ĠPen etration
Ġdepos ited
Ġutil izes
ĠEs sex
ĠHard cover
ION S
Ġvow el
ĠStat ue
ĠBal tic
pop ular
Ġselected ByNasa
Ġsevere ly
big tits
file ext
Ġpros pect
Ġswitch ing
ĠHor se
Ġcous ins
Ġaccord ion
ĠBol t
ĠAst ros
Ġchap ters
Ġrecy cled
Ġacceler ation
Ġalt ar
Ġregister ed
ĠLiber al
Ġrat io
ocy tes
Ġhol onym
ĠRou leau
El ena
Ġcaps ule
ĠWolf sburg
ĠFro st
Ġmos que
Ġmunic ipal
Ġorch ids
Ġhes itate
Ġspong e
Ġallerg ies
Ġindones ia
ĠGro zny
Ġdorm ant
uccess ful
ĠHyd rogen
Ġrecess ion
Ġattach ment
Ġacronym s
fol io
Ġsib lings
Ġstead ily
Ġcany ons
techn ology
ĠPhys ical
Ġslee ves
Ġnorthe ast
Ġnorthe astern
topl ankton
Ġlob ster
ĠTs ipras
ĠNam ib
ĠEat Type
ĠLut her
Ġunpre cedented
Ġdispos al
Ġey el
Ġphenomen on
ĠLem on
Ġanalog ies
Ġtrump et
ISC ONTI
Ġgeomet ry
Det ermine
Ġgly cogen
ĠCommun ist
ĠChop in
ĠactiveYearsStart Year
onom ous
Ġcuc umber
Ġampl itude
ĠFerg uson
Ġhydraul ic
NU ED
ĠSadd am
ĠHond uras
Ġspook y
exc ited
Ġinhab ited
ĠSebast ian
~* ~*
Arom i
Ġtourn aments
ĠShum ai
Ġcoeffic ients
ĠMEDI A
Ġembedd ed
ISCONTI NUED
' )
+ '
A W
A w
A ugust
C le
C am
E X
E ven
G B
H z
H ouse
H arry
J une
J esus
K eep
N E
N ear
N atalie
O OR
P s
P age
Q L
R obin
S U
S aturday
T em
b ach
b ishop
c ord
c ounter
d owns
f resh
k on
l os
l ower
l ins
l ength
l anguage
m om
n est
n ia
n Number
p ublic
s of
s qu
s ted
s ized
t ow
u ced
v ance
w id
z ar
Ċ ĠĠĠ
Ġ ich
Ġ owed
in eral
en i
es a
es la
es liga
is u
Ġf t
it ial
Ġp neum
Ġp heromones
Ġp essim
Ġb art
Ġb ru
Ġb room
Ġb ureau
Ġb osnia
Ġan throp
le ast
te o
Ġm l
Ġm aps
ar est
al om
al ways
Ġd os
Ġd ash
Ġd olphins
Ġth ief
Ġn os
ce le
Ġh av
Ġh int
Ġh atch
Ġh ails
Ġh ailing
ĠT omb
ĠT anz
Ġl il
Ġl oom
est ers
est rial
Ġg ov
Ġg au
Ġe agles
Ġbe ers
am on
am ateurs
ĠS ands
ĠThe m
Ġre ed
ĠC os
ĠC reat
ĠC ole
ĠC auses
Ġr ome
Ġit chy
ur able
Ġon look
ig t
Ġqu ilt
un c
un its
ad ays
ĠB ooks
ĠB order
ĠP UB
ĠG ust
ĠG ett
ĠG host
um a
um per
ap plication
Ġas p
Ġas ylum
ess ional
ĠM O
ĠM ack
ĠM ach
ĠM ood
ĠM ouse
ĠM echan
ĠM acedonia
ĠH amm
ĠH ays
ĠH oll
ĠH igher
Ġpro pose
Ġhe y
Ġsh ocking
Ġsh ifts
pe i
ĠD in
ĠD akota
st age
st icks
and ro
ĠR w
ĠF amil
Ġnot orious
oun ce
Ġ( @
ĠE ither
Ġcan e
ĠN at
ĠN BC
ĠN athan
Ġse wer
ĠL is
ĠL ag
ĠL ance
ĠL ink
ĠL iam
ĠL unch
ave ling
ĠIn sects
oc um
Ġk o
Ġk ale
ud y
Ġj og
Ġj esus
Ġj esse
ĠY ang
ĠY orkshire
Ġun e
iz ations
Ġ' +'
Ġal ban
ere m
ry ing
ĠTh an
ound ed
Ġgr iddle
Ġgr asp
av oid
Ġar afat
ous ing
ĠK B
ĠK ee
ĠK iss
ĠK ell
ĠK uala
Ġcl o
Ġcl owns
ip se
ĠCh avez
ĠSt ocks
Ġo ct
Ġo bey
Ġprov inces
Ġ19 07
ak ar
oth alam
Ġkn ocked
erm o
ult uous
Ġoff set
Ġsc ot
Ġdis ruption
ob ia
ens is
Ġper enn
Ġper ceive
ject ives
ĠV oice
ĠV icia
Ġam o
Ġbr ass
Ġcons iders
iss an
Ġany time
Ġad ren
Ġrec ur
ĠInd ies
cre ase
Ġsub par
ced es
Ġrem in
ten eg
Ġprice y
cer t
Ġdown hill
Ġdec iduous
Ġstr ay
arm ed
Ġtop s
Th anks
ah o
Ġnumber ed
hip s
enn ess
Ġmet ric
Ġsl ows
Ġsl ippery
ystem s
be autiful
ros is
au ce
Ġconsider ate
Ġ18 96
Ġinter ference
ĠDe S
ho tel
ĠLe eds
ĠLe aders
Can adian
Ġref lex
Ġstory line
ĠBe yond
ĠBe auty
ĠBl ake
Ġbre eds
Ġint imate
ism atic
Ġimp at
ĠJohn s
Ġmar veled
ung s
Ġpot tery
Ġdist ract
Ġdist inction
Ġhard working
ĠGr am
ĠAb dullah
rop ic
Ġinc ent
ĠAm endment
Ġcour tyard
sh ore
ĠPh D
abor ation
Ġ14 5
Ġ14 8
Ġvill a
Ġlaw maker
Ġground water
mon ia
pr ises
with s
ĠPresident ial
Ġcat ast
Ġdep icted
Ġes p
18 8
Ġrecomm ending
Ġsoft wares
Ġtele com
14 4
Ġoil s
Ġclos ure
ĠCar r
Ġpolice men
tic les
ĠMay a
elt ics
17 5
Ġcond ense
ĠPal mer
Ġir regular
Ġeth anol
Ġreact or
ĠNot es
Ġsimpl est
Ġswim mer
25 2
Ġrad ar
Ġport rays
inc or
inc ere
Ġmach inery
Ġcup cakes
eff ect
Ġra id
Ġstri ps
Ġvibr ate
Ġelse where
Ġhal ted
ĠSer ge
ĠSer bian
ĠCent ury
Ġeyes ight
Ġdeal er
Ġcarbon ate
ĠComp ared
28 2
Ġer ode
Ġ194 3
ĠSep ar
Ġbi omes
AS ON
Ġcoll aborate
Ġcop ied
ĠBu ild
Ġ29 5
umb ent
Ġconsum es
Ġfac ade
As soc
ĠDr iving
you c
sec ond
sec urity
Ġinf ilt
redict able
ĠTrans port
Ġflu ids
Ġlack ed
ĠBel ize
ĠAnt arctica
She ll
Ġsymbol izing
ĠSl av
ĠSl oven
iff s
ĠMil k
Ġmel ts
Ġjoy ous
Ġselect ions
Ġindepend ently
ĠSec urities
Ġtro op
agn oli
Ġbroad er
Ġbroad casted
Ġiron ing
cont rol
Ġhill ary
Ġcondition er
ĠLoc al
Ġqual ify
ĠJul ius
ĠDep ot
Ġevapor ated
udi om
Ġju icy
olute ly
Ġpig ment
ĠStar bucks
dr ive
Ġapproach ing
Ġemphas is
Ġdefe ating
hu ang
ĠBirth day
Ġfro gs
ĠEvery thing
Ġloud ly
Ġspokes woman
Ġliter ally
Ġ110 1
ĠRom agnoli
Ġdomin ated
Ġprepar ations
Ġrou gher
ĠLeg ends
Ġillust rious
Ġaccept ing
Ġwrest lers
Ġutil ized
Ġpump ed
ĠDick ens
Ġfort un
Ġhyp othalam
ĠDVD s
ĠTem ple
acc one
Ġinfl amm
bal anced
Ġacknow ledge
Ġoh io
ĠWars aw
ĠBas il
Ġspr out
Ġhumor ous
Ġpros pects
ĠBang alore
Ġcommission er
years ago
ĠJud y
ĠSie ge
Ġlect ures
Ġassign ments
Ġintention ally
Ġenzym e
ĠVis it
Ġcolle ges
Ġadvoc ated
Ste ve
gener ation
Ġrepeated ly
Ġrefres hed
ĠElectric ity
ĠCy cl
Ġcaut iously
Ġpsych ological
Ġinterpre ted
Ġprompt ly
ĠMur phy
Ġesc aped
Ġpunch ing
ĠColl ins
Ġisl am
prof ile
din and
ĠEver ton
ĠHind u
May be
ĠCas ino
aaaa aaaa
Jo el
Ġnutrit ion
ĠFight ing
Every one
oust ic
ĠFL OOR
ĠAdvent ures
Ġbuff et
Pat ricia
Ġexception ally
ĠTitan ic
LISH ER
Ġcav ity
ĠSwe at
Ġleisure ly
Ġepid ermis
Ġimmers ive
Ġreef s
Ġguerrill as
Ġende avors
mind ed
Ġig neous
Ġhik ers
ĠCommer ce
Ġze bras
ĠClem atis
Ġswo ops
oxy ribonucleic
Ġware house
again st
ĠLock heed
Ġteasp oon
Ġvoy age
ĠNich olas
Ġargent ina
ĠAlph aretta
Ġbod ily
grad ation
ĠAless io
Ġintel lectu
Ġdisli ked
Ġhybr id
yrgyz stan
Hen ry
Sus an
Ġthir teen
Ġcris py
ĠShir ley
Ġsamb al
Ġpreval ent
lc Number
ĠNATION ALITY
Ġ'- '
Ġmultin ational
ĠChum akov
ĠPUB LISHER
Ġhypothalam us
2 000
2 21
7 00
A dam
A IR
B er
B ay
B ritish
C at
D is
D ensity
F ive
F el
H ar
I ES
I ts
M il
N O
P resent
T ony
U ST
U pon
V ol
V ict
Y I
a qu
b ear
b athroom
c ats
d uring
f an
f ing
f ill
f orth
f ried
f olk
g el
h ig
k ab
m ight
m ens
m atch
m und
m illion
m oil
n t
n ym
p c
p one
p air
p oll
r ently
r amento
s in
s ite
s outh
t od
t orn
t ier
t ube
u u
w ight
Ġ AND
Ġa ven
in f
er i
on est
on el
Ġs orted
Ġs orrow
at ories
Ġw ag
Ġw att
Ġw ww
Ġw reck
or ide
or ca
or eline
Ġp act
Ġp acific
Ġan a
ou les
le hem
te am
Ġm ater
Ġm owing
Ġm ga
Ġm osa
Ġto ll
Ġd ive
Ġd amp
Ġd na
Ġd itch
Ġd angers
as er
Ġin conven
Ġis ang
ic ides
end e
Ġn un
Ġh ouston
Ġh amburger
ĠT am
ĠT ank
est ab
est ically
iv ar
iv est
ĠA id
ĠA uf
ĠA waiting
Ġg own
Ġg ib
Ġg aps
Ġbe ak
ĠS pl
ĠS ale
ĠC ov
Ġr it
Ġr ink
ur ban
Ġwh ilst
ig uel
ut u
Ġqu eries
un ting
ad ic
Ġquestion ing
Ġst ack
Ġst ero
ĠB il
ĠB achelor
ch urch
ĠP ine
ĠP erm
ĠP ipe
ĠG ol
ĠG wen
ol er
il ion
ap ut
if a
Ġas phalt
ag uay
ant ine
ĠM its
ĠM ets
ĠM ills
ĠM aple
ĠH ang
ĠH ood
ĠH urt
ĠH OME
ac io
Ġsh anghai
Ġsh ovel
Ġsh redd
ĠD ress
ĠD ana
ĠD awn
ĠD KK
st ay
st ation
st Runway
ul iani
ĠR ot
ĠR osen
ĠR aiders
ĠF ang
ĠF oss
ĠF ederation
el come
ov an
ĠE C
ĠE rie
Ġme teor
Ġ2 14
ĠN R
ĠN W
ĠN an
ĠN orthe
Ġwe aving
ide mic
ĠL ane
rit ion
ĠQ iu
Ġex its
ĠIn jury
Ġtr end
Ġtr ace
Ġtr acking
ĠJ way
ĠJ orge
oc ese
Ġle ver
Ġle opard
Ġle ukemia
Ġk ang
ans son
ice llular
ine m
th r
Ġj aw
Ġj ackson
aus s
ĠY or
ong o
ub ric
Ġun r
Ġun rest
iz ar
Ġpe ers
Ġout let
ĠTh under
ks wagen
Ġgr azing
Ġgr aptolites
av ier
ind icated
Ġno isy
ĠK y
ĠK ap
ĠK ang
ĠK och
Ġpre cious
Ġcomp ares
ĠCh and
ĠCh ocolate
ĠSt anding
ĠSt orage
Ġ19 05
hes ive
Ġkn ot
erm al
ne ider
clud e
Ġres olving
ĠRe write
Ġpar al
Ġpar adise
Ġloc ker
Ġbl oc
Ġbl ending
Ġbl ocking
Ġph on
Ġph osph
ĠAn k
Ġcount s
cept ive
Ġcar riage
Ġcar rot
Ġadd iction
ark o
res hold
res istant
Ġsol ved
Ġco exist
Ġtrans action
Ġtrans plant
Ġbel ts
Ġthr ust
ĠNe braska
Ġlong ing
ric anes
Ġche ered
ef t
Ġfact ions
off ers
Ġrem orse
Ġvers e
Ġnam ing
Ġmy anmar
ĠPro p
Ġsup ernatural
Ġwrit ings
Ġval iant
Ġexpl ored
ĠCan adians
Ġback ed
In ter
Ġair ing
Ġsing ular
Ġtop ping
ier i
ex pl
ĠSp ot
anc ies
anc ia
ash ioned
con nected
Ġdon ate
ĠSe pt
com pl
Ġmet ro
Ġpass port
be k
Ġdef inite
au f
Ġunderstand s
Ġext ends
ĠSh ares
Ġsign aling
Ġput in
ĠBr avo
ĠDe puty
Ġperform ers
Ġcare ers
Ġbelong ed
ĠCl ay
Ġ0 2
Ġstand off
Ġint u
Ġint im
erv es
Ġmed ieval
ĠSc ript
Ġret reat
Ġ12 3
Ġ12 8
ĠZ oo
ĠZ hongshan
Ġsw apped
Ġdiv ides
ron icles
Ġz inc
Ġz oom
ĠEx cuse
Ġhard wood
20 6
Ġtyp ing
ĠMon oc
ĠAb bas
Ġsn ails
Ġsn apping
Ġseason ally
Ġsal am
Ġsal vation
Ġ15 4
Re al
ik ov
Ġ11 264
Ġpur ified
19 5
Ġbuy ers
ĠMan ufact
Ġtest imony
Ġblood y
Ġjo ints
12 1
izz y
Ġvisit or
Ġeduc ated
ĠCont enta
Ġbro ker
ingu ished
18 4
Ġlog s
Ġrecommend s
13 2
ĠSun ni
Ġiss nNumber
ha ul
Ġste llar
ĠSte in
ĠMal ta
eter y
Ġsea led
Ġswim suit
Ġknowledge able
Ġpaper work
Ġmass es
ĠPar adise
esc ence
27 9
Ex plain
Ġdifficult ies
che m
Ġsym b
ĠAss ume
Ġsubst itute
29 0
Ġwat ts
ĠCo x
Ġdam n
28 7
apor ation
ĠEm b
Ġbi ome
unk er
Ġswe ats
Ġcompan ion
Ġcompan ions
Ġmountain ous
ett i
Ġheavy weight
umb ling
reg ation
33 3
rie ve
Ġstuff ed
Ġrepro duces
Ġones elf
Ġinf inite
Ġsil hou
abb its
Ġoccup y
Ġscr atched
ĠSch neider
Ġsed an
uzz le
iff any
ĠSen ators
Ġskill ful
ĠDes mond
Ġspl endid
ĠBro oke
Ġadmin ister
sequ ently
clus ions
car bon
Ġru pe
ĠSol utions
ĠSpec ified
ĠLE AGUE
Ġju ven
Ġvolcan os
Ġinstall ing
ums y
Ġcooper ative
ĠFe el
Ġrid iculous
Ġthick er
EN S
Ġwitness ing
li hood
Ġrul ers
ĠĠĠĠ ĠĠ
At hens
ĠPet ersburg
Ġwaters ki
Ġsail ors
Ġmail box
ĠWil kins
Ġmor ph
Ġdu ct
Ġrib s
Ġunw ind
Ġrepair ing
opt ions
organ ic
Ġreform s
Ġretain ed
ĠHo over
ĠInt ro
De cember
ogen ic
ogen ous
Ġapolog ies
Ġgeor gia
Ġdisag reed
ĠStat Bank
Ġrare ly
Ġtables p
ĠStud ents
acc ount
bro ken
ĠSum er
Ġresear ched
point s
ĠAff ord
ĠAccess ing
Ġparas itic
Ġcliff s
Ġdia lect
ĠJud ge
Ġfulf illing
ĠNic ole
ĠKar zai
fun ction
Ġdeter ior
onna is
Ġdram atically
Ġfet us
Ġacknowled ging
Ġpadd ling
Ġdisappe ared
chi oles
Ġconnot ations
Ġaccum ulation
Ġrh ym
Ġrh yme
Ġveter an
Ġtum ultuous
ĠRou te
Ġha irst
Ġenable d
Ġshr ink
ĠElectron ics
Ġgraph ic
Ġcondens ing
Ġcondens ation
Ġscream ed
Jan uary
amer ican
awa ited
Ġencomp assing
Ġcourage ous
Ġalign s
Ġancest or
ĠBry an
Off ice
Ġtherap ist
ĠObject s
Ġresem ble
ĠAsher ton
sad ness
Ġsuperv is
ĠIg or
Ġevacu ated
Ġescal ating
ĠCloud s
ĠMotors ports
ĠPa isa
ĠPers ian
Ġswed ish
Ġsax ophone
ĠES PN
ĠCla udiom
Ġduplic ates
Ġoc lcNumber
ĠPRE MIUM
ĠInte gr
ĠCurt is
ĠChes ter
Ġstabil ize
compet ent
Ret ired
ĠMB As
Ġri ots
ĠJP EG
upp ence
ĠTreas ury
Ġendang ered
Ġded uce
TIT LE
ĠAppe al
ĠMadd en
Ġbarbec ue
Ġcust ody
Ġtramp oline
Ġbroadc asts
Ġnel son
ĠMorm on
ĠStephan ie
ĠMoy ine
ĠXia olong
ĠVf L
Surface Type
ĠOC LC
Ġinters ection
Ġonlook ers
ĠGett ysburg
teneg ro
Ġstero ids
ĠJway dan
ĠClaudiom accone
' "
( (
1 15
3 10
3 30
3 50
C ats
C OU
E ric
E arth
F itz
F rance
G R
H ello
K S
L O
L ist
M ore
O b
P os
Q ue
R ock
T P
T aq
V e
W ar
b order
c ool
c rap
d ata
e ment
e otype
h ound
h ra
h aving
l ov
m id
m ur
m oving
o i
o ating
p lease
p acks
p ictures
s it
s ie
t v
t one
u ction
y oun
z t
z hi
z burg
Ġ ou
Ġ AN
Ġ ).
Ġ ott
Ġt amil
Ġa k
he et
er ate
Ġs ou
Ġs atellites
Ġw iped
Ġw oven
Ġc d
Ġc er
Ġc ass
Ġc af
Ġc asc
Ġc ooled
of u
re view
Ġf use
Ġf ixt
it on
it iba
ing les
Ġp ins
Ġb isc
ou fl
le arn
Ġm r
Ġm atures
Ġm ule
Ġm igrants
ar ak
Ġd arfur
Ġth or
Ġth aws
om ery
Ġn our
Ġh ob
ĠT C
ĠT ot
ĠT IF
ON Y
TI F
ER E
Ġl b
Ġl ith
Ġl imb
Ġl aps
est inal
iv ier
Ġg er
Ġg ad
ot on
ot ting
am ente
ĠS H
ĠS r
ĠS ig
ĠS ach
ĠS aying
ĠS aints
ĠS anchez
qu eline
Ġre use
Ġre iter
ĠC res
ĠC itiz
ĠC eltics
Ġr ay
Ġr ang
Ġr af
Ġfor cing
ĠW R
ĠW aves
ur u
Ġwh ore
ig rant
op ol
Ġst iff
ĠB ing
ĠB ass
ĠB ott
ĠP le
ĠP ul
ĠP ale
ĠP AR
ĠG ore
ĠG PS
Ġcon ventional
Ġab rupt
ag h
Ġv ladimir
ĠM ob
ĠM unic
ĠH og
ĠH erman
ĠH ots
ĠH erc
ĠH imal
ac er
Ġsh amp
Ġsh iver
Ġsh ores
Ġpl ains
ĠD h
ĠD rake
ul ent
and hi
ĠR us
ĠR ip
ĠF irm
ould er
ov in
ĠE van
ĠE LE
ist ol
Ġch ords
Ġch illy
ĠN othing
ĠN amed
Ġse al
Ġse ized
ĠL ed
ĠL ate
ĠL OL
ĠL LC
Ġex pel
pt osp
ĠJ ong
ĠJ akarta
Ġk osovo
ans on
act s
act ly
act ivity
Ġj im
Ġj unta
ary otic
ub by
Ġbec k
Ġdes irable
Ġma id
Ġma ze
our ist
ia o
Ġgr id
Ġar oma
Ġplay room
ĠK ir
ĠK ub
ĠK irk
ĠK urdish
per cent
ip ur
Ġpre view
Ġcomp atible
are as
ĠSt ri
ass i
Ġro be
Ġ19 22
Ġup wards
cess ion
Ġcont ested
Ġcont amination
Ġhel ium
Ġag ility
Ġplace ment
Ġneed les
ĠSo ld
ĠRe agan
ink le
ink ler
itt en
Ġdis cre
ĠEng ines
Ġbl and
Ġbl ouse
Ġbl ends
ens en
ign ific
Ġcar riers
ĠAl icia
Ġacc using
ĠV or
ĠV II
Ġcap e
air es
Ġstep ping
ors che
Ġsm iled
Ġem it
Ġover time
ĠCon struction
Ġhigh lighted
ĠIs le
cre ated
Ġrel iability
Ġcol omb
off ice
the real
Ġrem oves
Ġrem inding
ĠPro du
Ġend urance
ĠAr men
ĠAr ctic
Ġsup pose
Ġi yo
ĠAmeric as
Ġdec isive
Ġstr anger
Ġfin ancing
uc us
arm s
Ġcr est
Ġass umption
Ġreg ain
ĠSp al
ĠSp iel
ĠSp rings
Ġproduct ive
Ġdel ta
Ġsl opes
be come
Ġdef ault
Ġvar ies
uss ion
ĠLe v
ĠLe ad
avor ite
Ġpop ulated
Ġaut obi
Ġunder went
Ġdisc iples
lic ted
ĠAir man
eng es
Ġ12 7
fl ight
fe w
Ġsw iss
ung sten
Ġappe aring
pri ately
att r
Ġclass mates
els h
ows ki
yn olds
Ġ16 9
ves ted
Ġsad dam
ĠDo ors
ĠPh ot
Ġconf irming
let ters
Ġbeh alf
Ġnight time
Ġvill agers
Ġtre ad
Ġground breaking
ĠAlex ey
Ġve gas
12 6
12 00
ĠSk in
Ġdevelop ers
bre aker
ĠAc ids
Ġfull Name
ĠSim s
Ġrev olves
Ġcomplex ity
Ġassoc iate
ĠCar roll
ĠRead ing
Ġshare holders
pec ified
Ġearth worm
Ġabs urd
ĠMal colm
ĠMe an
Ġengine ers
Ġben edict
ĠFl at
omb ie
gle cted
Ġaff irm
inc ome
AT H
ĠCor al
ĠReg ards
ĠOf fer
ps in
Ġcy topl
press o
more gulation
add um
ev o
Ġpopulation Density
Ġill usion
Ġcrowd s
Add ison
Add iction
Ġabbrev iated
Ġbreat hes
ĠTom ato
Ġpersonal ities
AS E
ĠGl enn
Ġbas in
ĠRec ipes
Ġapprec iating
ĠPer iod
reg arded
rin king
Ġnet herlands
Ġnet working
Ġspeed ing
As s
elf th
serv ice
IT A
Ġterr estrial
Ġemploy ment
sec ure
Ġspo ons
Ġgarden ing
Ġsyn thesis
Ġflu ctu
Ġgar ment
Ġanaly zed
gl ass
ĠBel ow
Ġscr ut
Ġdecor ating
Ġbattle field
RE CTED
sp ace
Ġten ure
iel s
ster eotype
ĠSuper ior
200 7
umber of
umber land
Ġlif ts
Ġcas inos
uzz i
Ġerr ands
Ġmel odies
ĠHer itage
Ġgun men
ĠPri or
ĠVe ins
Ġtur moil
Ġpred icted
ĠAnn ie
hold ing
Ġeight h
ĠVal encia
Ġquarter ly
Ġuns atis
Ġuns uccessful
cont roll
med iate
Ġastron omer
Ġcow ork
amil iar
ĠOut side
Ġqual ifying
ĠJul ie
Ġcolon ial
Ġobtain ing
CO DE
Ġdin er
ĠFe eling
osc ope
Ġinh abit
Ġinh alation
roat ian
Ġhun ted
Ġheight ened
Ġmal icious
ĠVol ume
ĠVol vo
Ġindul ging
Ġexhib ited
Ġrout ines
Ġbound ary
Ġreserv ed
Ġdiam onds
Ġvoc abul
ĠGet ting
Ġcel ery
Ġinterview s
Ġgarn ers
.' "
ĠTor ino
erse ys
Ġdiet ary
pack ed
Ġfriendship s
Ġchlor opl
ĠRepresent ative
Ġowl s
Ġble eding
Ġdepend ent
roid ism
Ġtreas ury
Ġfold ing
ĠOw ls
Ġspray ed
do ing
Ġdim ensions
Ġshed s
Ġdepth s
Ġein en
Ġcoord inate
Ġfulf illed
Ġpit uitary
ĠJoh ansson
Ġspark ed
Sam uel
fun ny
cond ition
ĠBroad casting
Ġspons ors
Ġadvoc ating
rock et
ĠOper a
Ġiv ory
Ġgang bang
ĠTerm inal
ĠXh amster
mir al
Ġcounterpart y
ĠCop y
Ġchop sticks
Ġbol t
Ġisol ating
ĠPalaeont ol
log y
Ġreward ing
ĠBurn s
cor rect
ĠMix ed
ĠCher yl
Ġcompr ised
ĠInvest ment
Ġscream ing
ĠPed ro
nut rition
Ġmos qu
Ġcancel led
Ġmerch ants
Ġexem pl
Ġhes it
Ġbless ed
Ġhydrocar bon
Ġinsight ful
Ġpersu aded
Ġbom ber
Ġlymph oma
Ġcler ic
Ġpist on
ĠPolit ical
Ġstroll er
ĠHug hes
ĠOd yssey
ĠChap ter
Ġtrigger ed
Ġkidn apped
ĠGib son
perform ance
Ġdisagree ments
Ġloyal ty
ĠVit amin
Ġsupple ment
Ġsupple ments
Ġswed en
ĠDyn asty
Ġobvious ly
ĠHein lein
ĠPred icate
Ġsuppl ier
ĠAmb assador
ĠBent on
ĠEston ia
Ġfisher man
ĠGren ada
Ġasex ually
ĠDI RECTED
Ġresent ful
Ġwatermel on
Sec onds
ĠBarb ara
Ġmalays ia
Ġtet rap
Ġcrocod iles
Ġliz ard
Ġrobber y
ĠFertil ization
ĠEmm y
gradu ate
Ġilleg ally
Les lie
Ġdisrespect ful
Ġjurisd iction
Case y
otroph s
ĠRF ID
Ġ(, )
Ġmedioc re
Ġcellul ose
ĠLenn on
Ġgoog le
Ġskyl ine
Ġpneum onia
Taq addum
crap ers
Ġshamp oo
Ġcytopl asm
Ġvocabul ary
1 000
B ad
B ook
B issau
C offee
D as
D ad
D ING
F riend
F ebruary
G e
H unter
J ane
K E
M o
M id
N ever
N ovember
P ictures
R ich
R achel
R SE
S H
S w
T ry
V el
V AC
W ood
X L
b ooking
c ane
d or
d ogging
f ired
g ang
g oes
g ender
h orn
h ttp
h umans
i kes
l op
l ishes
n umer
o an
q aida
r ice
r iverside
s le
s ystem
s eries
t le
t ruck
u ble
v iii
w au
w ald
x Hamster
y ang
y sters
y toplankton
Ġ 000
Ġ osm
Ġt ides
Ġt ug
Ġt ying
Ġt ails
Ġt igers
Ġt wee
Ġt rophic
Ġa ri
in et
in ced
Ġthe oretical
on ce
on ation
on omy
on zo
Ġs words
Ġs incere
es pace
Ġw ie
Ġw aking
Ġw ont
or an
Ġc ables
of th
an et
re Per
Ġf ade
Ġp od
Ġp ag
Ġp ies
Ġp eter
Ġp awn
le ader
le aders
te es
te enth
Ġm ary
Ġm erc
Ġm cc
ar ag
Ġto ads
ent ieth
Ġd at
Ġd read
as d
as per
Ġin active
ed ar
ic us
xt on
om al
Ġh p
Ġh aw
Ġh amburgers
ĠT ac
ĠT its
Ġl act
iv o
ĠA way
ĠA rian
Ġg orgeous
ĠI th
ĠS ut
ĠS ell
ĠS ah
ro b
et o
et hat
Ġre aff
os i
ir s
Ġr anks
Ġr ipped
Ġr abies
Ġfor wards
ĠW ir
ĠW ide
ĠW itch
Ġwh oles
ig ation
ig ail
out door
ad vert
Ġfo li
ri o
ri zz
ri oles
Ġst atic
Ġst ained
ĠB S
ĠB od
ĠB ru
ĠB osnian
ĠP and
ĠP ix
ĠP ush
od an
ĠG O
ĠG lor
ĠG raz
ĠG avin
il is
um en
Ġv ines
Ġv ague
ĠM I
ĠM is
ĠM ission
ĠM athematic
ie ves
ter ror
ĠH R
ĠH our
ĠH av
ĠH ands
ac ion
ac char
Ġpro active
Ġhe ars
Ġsh oreline
ĠD ee
ĠD ane
ĠR u
ĠR ise
ĠR ear
ain ted
ĠE ating
Ġch ir
Ġch rome
Ġch avez
Ġat lanta
ĠN A
ĠN ag
ĠN av
Ġwe eds
ĠL otto
Ġtr ig
Ġtr agically
ĠJ aya
Ġus eless
Ġk im
Ġk ai
Ġk urdish
Ġk ettle
Ġj ac
Ġj ul
aus ing
pl ings
ub en
Ġun l
Ġun ivers
ue z
our ing
Ġpe el
rect ion
ver bs
Ġop ener
Ġsp raw
ĠTh orn
ĠU P
ĠU m
ĠU ran
av i
oo by
ab brev
ĠK W
ĠK es
ĠK em
ĠK ofi
Ġen rolled
Ġcomp rehend
ĠCh amber
ĠSt uff
ass ium
to or
to open
Ġspe edy
Ġ19 26
Ġperson ally
ak k
ise x
ear chers
put ing
ne o
Ġres iding
Ġoff shore
ĠUn ve
ĠRe e
Ġsc ans
ob odan
Ġbl isters
Ġfl aw
Ġfl ashing
Ġshe er
Ġcar ve
Ġcar olina
ĠAl ong
Ġper f
ĠV o
ĠHe ights
Ġequ ality
Ġam end
Ġam used
Ġbr ains
Ġyear ly
Ġlist ing
Ġcons ent
Ġcons ort
Ġcons ensus
Ġfil ament
ix on
red ients
int hes
ĠNe ither
Ġsk irts
Ġdr owning
ph an
Ġend ors
Ġgu ang
Ġfin est
Ġmod ule
Ġanim ation
Ġsur gical
irl ing
ier t
Ġreg ulatory
Ġdi agram
Ch ar
Ch arl
ĠSp ong
con tr
Ġ8 6
Ġdon ut
Ġdon uts
com position
Ġ10 4
Ġ10 97
be g
be ad
Ġgl ist
uss ian
Ġ18 00
Ġ18 85
Ġ18 89
Ġ18 57
Ġ18 61
Ġinter fer
ĠSh aw
Ġinst inct
Ġsign ifying
Ġmiss es
ĠWe ymouth
ĠFor ward
ĠDe uts
ĠLe ah
ug ar
Ġrequ esting
Ġgener ic
ĠCl ock
ĠCl aire
Ġschool bag
Ġcur ve
ĠShe ila
Ġint end
ract ical
Ġimp acted
ĠZ oe
10 9
Ġmil ksh
Ġpot assium
ĠEx hib
ĠEx ercise
Ġdist racted
Ġhead line
Ġhead lines
20 60
ĠMon roe
Ġweek ends
ĠAd ults
Ġinc umbent
ĠAm ateur
Ġ15 2
idd ing
ĠUS B
Ġ11 7
hor se
ĠIm m
Ġconf isc
Ġoper as
Ġpast ries
Ġann ually
Ġsuc c
let cher
Ġactiv ated
Ġrece iver
Ġrece ipt
19 8
OP UL
Ġ17 7
ĠCal vin
Ġsepar ately
Ġfamous ly
Ġhair s
Ġbar riers
Ġbar gain
Ġmess engers
Ġtem ples
Ġwall paper
for ward
ĠEn h
Ġrev olving
Ġkil ogram
Ġep it
Ġcompet itor
uff le
Ġbase man
Ġpresent er
Ġens ured
Ġvol atile
uel ing
Ġnumer al
Ġur anium
ĠNorth western
ĠII T
Ġsqu ished
Ġcomb inations
ĠFl oyd
ĠPhil ippe
Ġview ing
OU ND
Ġparaphr ased
60 3
Ġbank er
Ġfit ted
Pro duct
ĠSam ar
Ġ100 1
ĠReg ular
Ġcamp fire
Ġimpress ively
Ġren amed
ĠCo hen
Ġdam aging
Ġoutd ated
Ġprob able
ĠHis pan
Ġden otes
Ġpal ates
Ġdry ing
Ġmic rosoft
lin er
ĠPer cy
Ġbur row
Ġsatisf ies
ĠRes p
ĠLa os
ij k
unt ary
Ġcirc ulated
Ġbright ness
IS T
Com puter
ĠPaul a
ĠPaul o
Ġspo iled
ĠMad agascar
Ġsyn ag
olec ules
abb ath
ĠMag gie
Ġdecl are
Ġsem if
ĠDay ton
Ġhur dle
Just in
Ġcommunic ating
RE W
ĠSuper league
Ġbill ions
Ġalternative ly
Ġec ological
Ġblank ets
pre pared
Ġformat ted
Ġcontr asting
Ġworth y
Ġteach ings
gi unta
Ġlo af
Ġmer ge
ubb ed
cont act
Ġastron omical
umin ous
comm ended
Ġflag ship
ĠCalc ium
ĠMel anie
Ġperm ineral
ĠAv ocado
Ġconv inced
ĠFe ature
ĠProf ile
Ġstom ata
Ġped al
Ġchance llor
ĠSur prise
Mar ie
ĠEv aporation
Ġrail ing
Ġnegot iators
sm ith
sm anship
ĠSal zburg
Ġsequ ences
ĠSil k
ĠPan ucci
Ġrod ents
ĠRequ ired
Ġmad rid
ĠKat ie
Ġnavig ated
Ġcorpor ations
Ġconcent rated
Ġho llow
Ġcollabor ative
ĠPrince ton
Ġincorpor ate
ĠLuc iano
Ġdepos ition
Ġnap kin
Ġcopy right
pie ces
ĠPrem iership
Ġadvance ments
Ġcompar able
Ġprop he
Ġliber ty
Ġboost ing
Ġadjust ments
ĠAT P
Ġtrib al
Ġemp athy
Ġresear cher
ĠMatt arella
Ġdim in
ĠAff air
ĠVi enna
Ġinvent ory
ĠVietnam ese
ĠMcC ain
Ġspark ly
ĠNic olas
olph in
Ġconstruct ing
Ġacceler ate
Ġacceler ates
Ġstretch ing
Ġcolle ague
Ste ven
Ġber ries
kilomet rePer
Ġembarrass ment
ĠOper ating
ĠDownload s
Ġmort ar
Ind ia
Ġadap ting
ĠBudd ha
ĠLeon ard
Ġeru ptions
Ġkitt y
Ġcraft smanship
Ġremind s
Ġdeleg ates
ĠAlexand ra
ĠBron x
ĠLibr ary
ĠEvent ually
Ġfol ks
Ġbare ly
ĠRoll ing
Ġhen ry
Ġalg or
ĠGrant ville
Ġsubt le
Ġinsur gents
Ġspong es
ĠIndepend ent
ĠSE ASON
Ġallerg ic
Ġthread s
Ġfer mentation
ĠDust in
Ġcorrespond s
Ġbom bs
Ġglac ier
Ġglac iers
Ġcease fire
airo bi
Aust in
Ġappet izing
Ġslee ve
Ġrect angle
ĠFal cons
ĠBox ing
Ġpanc akes
Ġtoss ed
Ġinterpret ation
Ġniger ia
ĠCut ting
ĠDest roy
ĠGard ner
ĠMedic are
Ġguerrill a
uls ion
Ġcomprom ise
Ġdum plings
ĠAB B
ĠCatal an
ĠBund esliga
ĠMonth ly
ĠBeng al
ĠFlower ing
imp se
ĠGall ery
ĠBrun o
Ġcompens ation
ĠPG A
etch up
Ġalp acas
ĠHarriet stown
Ġwand ering
Ġunp redictable
Ġsched ules
Ġukr aine
Ġaesthet ics
Ġanch or
ĠReds kins
MEMBER S
ĠKad him
Ġecl ipse
Ġvamp ire
Ġhazard ous
alg ic
Ġsuccul ent
ĠCirc uit
ĠHyp hae
Ġloun ge
ĠNemat oda
Ġous ted
Ġbak ery
ĠNit rogen
ĠNikol ai
Lind sey
ĠSitu ated
Ġconspir acy
ĠMagdal ene
ĠMontg omery
wid th
Ġintellectu al
aput ale
Ġsilhou ette
ĠSpal letti
wau kee
ĠArian espace
Ġfoli age
Ġpermineral ization
kilometrePer Seconds
" )?
2 26
A g
A h
B on
B oy
B uy
C ast
C raig
C ustomer
D D
D ou
D ear
D VD
E ast
E uro
E gypt
F A
F K
G L
G old
G round
G AS
H P
H R
H ate
H mmm
J uly
J enny
K im
L ee
M in
M et
N elson
N ET
O ver
P R
P ass
S ure
S ix
T ell
T oday
U D
U I
U IL
V ATION
W in
a very
b ies
b ull
b usiness
c ir
c ouple
d oc
d uper
e er
g ary
h ud
h ams
i rosis
j bead
l ost
l und
l uster
l inked
m all
m akes
m ember
n u
n ab
n amic
o xygen
p it
s v
s ided
s oftware
s lee
t of
t ree
t ax
v on
w ang
w ild
w arm
w rote
Ġt i
Ġt ul
Ġa uch
he ard
in x
in idad
en o
er obic
on ian
Ġs ights
at im
Ġw age
Ġw ives
Ġw ickets
Ġc ooks
an te
an ations
an uts
Ġf ist
Ġf ost
it ical
it imate
ing uis
Ġp ave
Ġp aved
Ġb ore
Ġb atch
Ġm p
Ġm um
Ġm ourn
Ġm obil
Ġto kyo
al id
al one
Ġd ign
Ġd enser
Ġth igh
Ġin jection
Ġin experienced
ic her
end ant
om ination
Ġn odd
ce ptions
Ġh ilar
Ġh ips
ĠT a
ĠT iffany
ON G
ON T
Ġl apse
Ġl unar
ĠA ug
Ġg onna
Ġg ospel
us al
us ch
ct urnal
Ġe i
Ġe thereal
id os
am ics
ĠI ulia
ĠS N
Ġy asser
Ġy acht
Ġsent ene
ir ies
ir ky
ĠC ine
Ġr abbits
ĠW B
ĠW et
ur g
ld on
ut a
ut ta
un ge
ri ad
ri ka
op al
op ed
op ening
ĠB out
ch lor
ĠP ent
ĠP all
ĠP ron
od el
Ġne ph
Ġne pal
ĠG osl
ol in
ol ta
Ġab d
Ġab dullah
ap est
ag na
Ġv a
Ġv oid
ĠM iley
ĠM aker
ĠM iguel
ĠH ost
ĠH ass
Ġfr y
Ġpro long
Ġsh it
Ġsh ipped
Ġsh ingles
Ġpl aster
ĠD O
ĠD erry
ĠD BS
st ock
Ġdo ct
ĠR ES
ĠR ate
ĠR ole
ĠR ANK
ĠF O
ĠF ighter
ĠF isher
ĠF reedom
el ible
ort a
ĠE yes
ĠE OL
ist on
Ġch im
Ġch ill
Ġcom for
ase ous
ust ers
ĠN as
ĠN AME
Ġwe ed
ĠL ars
ĠL ipp
ĠL uck
rit is
Ġli ed
Ġex ert
Ġex changes
pt s
oc ar
Ġle ans
Ġk i
art en
Ġde an
Ġde fer
Ġde mean
Ġde tected
Ġde gradation
ice ps
ud er
ud ge
up on
th y
Ġj ason
Ġj eff
ĠY am
ĠY uk
ĠY emen
ish a
ish ment
Ġun ions
Ġun even
iz a
ast ics
Ġtheir s
our ning
Ġpe oples
ure th
Ġal s
Ġal right
ĠTh ousands
Ġgr am
ĠU TC
av ings
Ġar bit
ab ble
Ġwill iams
ĠK now
Ġen large
Ġ5 12
Ġ5 34
ount ers
ip ids
ber ger
ĠCh anged
ĠSt ores
ĠSt arts
Ġap ron
Ġ3 000
em b
em er
Ġo ysters
Ġaf ghan
oy le
app ers
Ġprov en
Ġ19 15
Ġ19 16
ak in
oth ic
ond ers
Ġres ted
Ġspec ie
ĠUn iversities
ĠUn installation
ĠRe verse
ĠRe ynolds
Ġpar lor
ink i
Ġsc an
Ġsc out
ys s
Ġdis arm
Ġdis continued
Ġbl ows
Ġbl ended
Ġfl own
ict ions
Ġcar ving
Ġper for
Ġev id
Ġev oking
ĠV ine
ĠV ij
ĠV owels
Ġcap ability
Ġ4 90
ĠHe ather
pro b
Ġequ ity
get ting
Ġam azon
ck er
Ġchar ter
Ġcons erve
Ġcons olid
iss ed
Ġover view
Ġover turn
res a
Ġsol ace
Ġtrans fers
Ġbel gium
ĠYou can
Ġrec onsider
ĠInd ex
Ġrel ies
Ġcapital s
the med
Ġvers atility
Ġins ulate
Ġ6 18
Ġserv ers
Ġsup plied
Ġexpl ode
Ġexpl anations
Ġdown ward
ĠTr ave
ient o
Ġpub s
Ġpub erty
gr owth
Ġtop pings
Ġexp ense
Ġcr ane
Ġcr ashes
Ġass uming
gan o
pos s
pos itions
Ġlot ion
Ch ild
Ch inese
Ġinv alid
ĠSp an
Ġhome owners
ĠNew ton
Ġread ily
Ġmet aphor
ody namic
Ġsl ave
be ach
Ġvar ieties
Ġ18 20
Ġ18 97
Ġ18 69
Ġ18 98
aut om
Ġmin er
ĠSh an
ĠSh ower
Ġeas ing
ĠBr owse
Ġstar fish
ho on
ĠLe ptosp
ug u
Ġpop s
Ġvis ibility
ĠCl imate
Ġ0 800
Ġel igible
Ġsubject ive
Ġbody Style
ĠBo ost
Ġapp rehend
Ġsw ap
ĠGr ow
ĠGr av
rop od
cle aning
Re quest
Ġsound ed
ĠUS S
Ġpain ts
sh aring
room s
Ġcontent ious
ert ia
An other
Ġpoint y
39 0
aff le
Ġconf ron
Ġcost ly
19 23
ivid ual
ĠTex an
ĠAll igator
Ġjo e
pr ising
AM P
und y
ters t
Ġbar r
ann ie
Ġland l
Ġsurf ers
Ġauthor ized
Ġlog istics
Ġsuccess ion
ĠAp artments
Ġconcer ts
13 1
Ġ13 1
Ġpress ures
Ġsafe guard
Ġeconom ies
Ġprofess ions
17 6
ec il
ĠX VI
ald o
ped o
ĠAustral ians
Ġfloor ing
Ġfloor Count
Ġearth worms
ĠEl vis
Ġemb ar
can cer
11 00
Ġtw isted
ĠNot ice
ĠAg riculture
Ġimm un
esc o
inc ott
And rew
Ġconst itutes
back er
che stra
Ġpri x
Ġactress es
ĠAss ess
Ġharm ed
ĠHotel s
Ġlisten ers
Ġant ig
AR DE
Ġaccess ing
Ġslow ing
str ument
Ġdeal t
tr ust
36 1
Ġpan or
23 5
Ġlim iting
aj o
aj an
Ġcertain ty
Ġden ies
Ġsurround s
ĠGl end
Ġaw ait
ĠDen is
Ġhost ages
Ġaccom pany
Ġvict orious
Ġov al
Ġ29 2
ĠSing ing
rill er
ĠPart icip
ĠAugust us
Ġhistor ian
cell s
Al imentum
Ġnote worthy
ĠDr um
Ġpost pone
mas hed
ĠIns ular
ĠIns ert
Ġarchitect s
Ġge ological
Ġge ography
Ġpromin ence
oles cent
Ġemer gence
Ġanaly st
ĠHel en
ĠHel per
ĠAnt ig
ĠCOU RSE
200 4
uzz y
Are a
Ġwild flowers
Ġwarn ings
ĠVe get
ĠTim or
AG ES
raf ting
Ġorb iting
ĠMor o
ĠBay ern
Ġrespond ing
Ġenter prise
Ġfoot wear
ĠSub urban
Ġhar ry
ĠTechn ological
ĠTechn ologies
amed a
Ġstress ful
ĠAv iv
Ġconv iction
Ġpuzz les
Ġquot ation
ĠFind ing
Ġmulti plication
ĠEll is
EN CE
Ġunf amiliar
Ġpreserv es
Ġguard ians
Ġdownload s
Ġreserv oir
bel ief
Ġlegisl ators
Ġdomin ance
Ġmultiply ing
asp berry
ba o
Ġrou lette
ĠMer cedes
Ġillust rated
De ath
des erved
Ġpump s
ĠHam id
Ġdan iel
Ġnurs es
Ġpossess es
ĠBook er
Ġdrag ged
Ġpray ers
ĠStud io
ipl inary
Ġwid ow
ĠCO MP
Ġevolution ary
ĠBab ylon
Ġcontinent al
Ġfold ers
ĠHung ary
Ġdoub les
ĠEp id
Ġgast ropod
Ġcine matic
EM ONY
ĠVers ion
ĠBol ivia
Christ opher
ĠGre ater
Ġdav is
ĠMir ror
OW N
Ġtend ency
Ġcrack down
Ġpillow s
Ġappl iance
Ġplug in
ĠTerm s
Ġsav ings
Ġillumin ate
ĠMahm oud
ĠCorn er
Ġaccum ulated
Ġboun cy
Ġenfor ce
Ġtum or
Ġestim ates
Ġexplos ions
Ġexplos ives
Ġpure ly
Ġbare foot
Ġcompr ising
Ġcondens ed
Ġhyper nym
Ġmanip ulative
Ġforg ive
Ġforg iveness
ĠMagn etic
ĠTerr ace
Ġmarvel ous
Us ing
ĠWAS HINGTON
ĠBuddh ist
Ġnurt ured
Ġmicro organisms
Ġnin th
Ġimplement ing
Cont in
Ġpant ies
ĠDeb bie
Ġkay ak
Ġcommemor ate
Girl s
ĠWel come
Ġabdom inal
Ġcontradict ory
ĠVac ation
Ġcategor ized
Ġsweep ing
IGH T
Ġrubb ing
Ġprosper ity
ĠSat urn
Ġexped ition
Ġlav ish
Ġbeet les
ĠJob s
Ġaccent u
ĠVirus es
Ġlac rosse
Ġenlight en
Ġtrem endous
Ġward robe
Ġbord ered
Ġcontamin ated
ĠPriv acy
Ġstrat osphere
ĠBever ly
Consider ing
Ġalgebra ic
provo king
Ġwarri or
ĠCrim inal
Ġpiv otal
ĠARE A
Ġshimmer ing
Ġhelm ets
ĠConfeder ate
fro gs
Ġmotorb ike
ĠAgree ments
fileext ension
Ġpessim istic
ĠDeS oto
Ġmosa ic
COU NT
ĠCitiz ens
ĠELE VATION
nab is
Ġsentene ce
Ġdemean or
ĠLeptosp irosis
! ",
" ."
2 24
7 13
8 37
; &
; ).
A ur
B rett
C ur
C ons
C ocum
D ER
D ong
F un
F ish
F red
G reen
J esse
K at
L ou
L os
L ong
L ED
M a
M ix
M ont
M ATER
N W
N ation
N one
R oman
R oger
S y
S oc
T ex
T ruck
W ave
Y ay
Z E
b ot
b ef
b ike
b oud
c oon
c rafted
d ing
d est
d istance
d rug
d aughter
e an
f s
f ant
f ac
f ory
h it
h aus
i at
k or
l ap
l ies
m ers
m ary
m ove
m ature
m oon
m aterial
o of
o ks
p resent
p icture
r r
r ations
r aine
s mashed
t est
t ics
t ops
v ia
v ae
z h
Ġt ones
Ġt RNA
he llo
he jiang
in hua
er vers
Ġs oviet
at z
es p
Ġw ow
Ġw orm
Ġw iring
Ġw icked
Ġc ope
Ġc ured
Ġc ovenant
an ian
Ġf c
Ġf err
ing he
ing ing
Ġp ension
Ġp eso
Ġp ardon
Ġb ile
Ġb acks
Ġb aker
Ġb oris
Ġm ow
Ġm un
Ġm alt
Ġto e
al an
Ġd c
Ġd rip
Ġth omas
as el
Ġis omer
end able
Ġn c
Ġn od
Ġh orns
ĠT rib
ĠT ink
ĠT ales
ĠT esla
AN CE
Ġl ag
Ġl ubric
Ġg rief
Ġe go
Ġbe gg
Ġbe lls
id al
id able
am en
ĠI C
ĠI vy
ĠS U
ĠS oo
ĠS yn
ĠS no
ĠS aga
ĠS QL
ro lling
ĠThe ory
et ter
Ġy o
qu al
qu ets
qu iet
ĠC S
ĠC atch
ĠC uc
ĠC row
ĠC ream
ĠC abin
ĠC otton
ĠC rosse
Ġr ag
Ġr ented
Ġr aced
ation ally
im an
im ple
im edia
ĠW ich
ĠW ick
ĠW ake
ur en
ur red
Ġwh ales
Ġqu int
Ġqu inn
un til
ad m
ad as
ad ier
Ġst are
Ġst ool
Ġst ains
ĠB Y
ĠB ie
ĠB BQ
ch aracter
ĠP y
ĠP DF
ĠP orsche
od iac
Ġne oph
Ġne glected
ĠG a
ĠG ather
il ib
il ipp
um ably
Ġcon qu
Ġcon junction
Ġcon clusions
ag r
Ġv in
Ġv or
Ġv ests
Ġv irginia
Ġv enezuela
ant ino
ĠM ond
ĠM uch
ĠM atter
ĠM achine
ĠM LB
ĠH at
ĠH ack
ĠH az
ĠH oya
ĠH VAC
ac om
ac ist
Ġsh aky
pe lling
ĠD ino
ĠD ancing
ĠD uty
ĠD isease
ĠD wight
st y
ul as
ĠR ings
ĠR och
ĠR oses
ĠR abbit
ĠR inse
ĠF ur
ĠF uel
ĠF idel
ĠF emale
el ong
Ġte hran
ĠE rosion
ĠE valu
ist o
Ġch ases
Ġch amber
Ġcom o
Ġ2 11
Ġcan on
ĠN E
ĠN avig
Ġse in
Ġse ct
Ġwe ary
ĠL A
ĠL ength
ĠL ana
ĠL omb
ĠL akers
Ġli k
ĠQ aeda
led o
Ġtr ous
Ġtr avers
Ġtr icycle
ĠJ ord
oc us
oc ative
Ġk h
Ġk on
act or
Ġde uter
Ġlike lihood
Ġj our
Ġj ugg
Ġj si
Ġj oseph
ĠY eltsin
pl ates
ub ishi
ub arak
Ġun aware
ard y
ard oll
Ġma hm
Ġpe at
we b
Ġout rage
Ġal together
Ġall uring
Ġsp ike
Ġgr inder
Ġar k
Ġar senal
Ġ. ',
ous se
ind le
Ġfe ather
ĠK o
ĠK r
per t
Ġen semble
Ġac res
Ġ5 000
cl iffe
ip ing
ip ation
Ġim perial
ost omes
ĠSt reng
ĠSt rugg
ĠSt ainless
ass ed
Ġ3 30
Ġher bs
app oint
Ġprov isions
Ġ19 19
Ġperson a
Ġtext book
clud es
ach ment
Ġpart ly
ask er
Ġname ly
ĠRe ports
lish ing
ire ment
Ġdis heart
Ġdis integr
Ġfl esh
Ġfl ips
Ġfl aws
Ġph ases
ĠAn atomy
ee zed
Ġpunctu ations
ens ation
ens ional
ens pan
Ġcomm issioned
ĠAl ps
ĠAl geria
Ġper u
Ġev olving
Ġ4 79
pro duced
Ġwater ways
Ġam endment
Ġsm ith
Ġnear er
orn ings
Ġind elible
Ġover d
Ġover haul
Ġco ats
ath a
ĠNo kia
Ġtweet s
Ġdet aine
Ġdet roit
Ġad orable
Ġad jectives
ĠNe eds
Ġrel uct
ric an
Ġ[ [-
off ic
inn ess
Ġform idable
Ġpo x
Ġins ulation
ĠPro te
ph ot
ĠCom ic
Ġbo om
Ġgu inea
man ufact
Ġback packs
az ers
gr an
ool og
Ġsur ve
ier en
Ġass et
ah an
amp ing
ĠSp y
Ġ7 13
Ġmon ks
Ġcle aring
Ġtri ump
ft ime
Ġsun bat
Ġline up
Ġgl ance
Ġgl owing
Ġ18 4
Ġ18 66
Ġ18 65
Ġ18 75
Ġ18 99
Ġ18 49
Ġ18 71
Ġinter tw
Ġstud ios
ĠSh aring
ĠSh uttle
Ġinst ant
urs or
ĠBr ing
ĠBr ent
ĠDe composition
Ġstar ch
ug ene
Ġpop ulous
Ġkey word
par ation
Ġgener ators
ĠCl ash
Ġ0 9
ral ian
Ġel bow
Ġcur tains
Ġbre asts
Ġbre wery
ĠBo ats
Ġint ently
Ġdisc rim
ĠSc ope
Ġed ict
ĠZ ucker
Ġevent ual
Ġsw amp
Ġkind a
Ġz hongshan
pect or
Ġthought fully
Ġball ot
20 17
ĠMon te
ĠAb bey
ĠAd rin
ĠPre tty
occ up
Ġsal ts
Ġmark ers
ĠAm anda
Ġ15 9
Ġcolor ado
Ġobject ives
Ġsure ly
ik k
ik istan
ik kat
uck ed
19 69
19 99
ĠMan uzzi
Ġtre k
Ġve in
ĠTe jan
und i
ĠAc commodation
ĠCr us
Ġ: (
ann i
Ġland marks
18 6
ĠSim mons
vious ly
Ġrev ival
ĠAp par
af i
Ġmult icellular
Ġadv ances
13 6
ĠSouth west
ĠCar ly
Ġpress ured
16 0
bon y
Ġlinguist ics
St r
cret ion
ha ft
17 2
Ġenvironment ally
ĠX XX
ĠOr chestra
ĠContin ental
Ġroad side
de ad
iny our
Ġsqu irts
Ġ22 7
Ġ22 8
Ġtw itter
min ent
ĠNot able
ĠFl ag
OU R
Ġrepl ied
27 6
inc o
eff icient
Ġra is
Ġra ids
Ġdem ocrats
ye llow
Ġnon living
Ġ23 00
ĠComp ilation
ĠMic key
IN E
Ġethnic ity
Ġabbrev iations
arr ison
ĠPerson al
Ġbi ologists
AS S
ĠOlymp ique
ĠGl ad
Ġtour s
Ġswe pt
Ġenc ounters
Ġtom b
Ġ26 4
Ġdeb ts
Ġcast les
ĠRes ults
ĠJim bo
ij i
As k
serv ing
Ġcontact ing
Ġcaptiv ates
Com ment
Ġboard ing
Ġpriv ile
ĠHigh ly
Ġemploy s
Ġge othermal
Ġsyn thetic
Ġsett lers
ĠTrans fers
66 66
Ġflu oride
ĠRich ards
Ġspread sheet
oper ation
Ġmagn ets
Ġanaly zes
gl omer
47 7
pen etration
Ġexh ale
Ġprem ises
lim inary
Ġdemonstr ators
200 3
Ġsolid ifying
TH E
AC K
oul os
Ġspir al
Ġelev ating
IC E
Ġlo op
Ġbroad casting
Ġuns pecified
Ġmer ging
portun ity
ĠQue bec
ĠEr nest
ĠNor folk
Ġastron omers
ĠHen ri
ĠLouis ville
Ġcalc ulating
Ġtransfer ring
ĠDep ression
Ġmill imeters
Ġru ins
Ġfollowed By
ĠUs er
otter ies
Ġvan ity
Ġmir rors
Ġtraff icking
tect ive
ĠAv ril
avig ne
Ne gative
Ġcomment ary
Ġtank er
Ġbrave ly
Be ing
ĠSur v
Ġworry ing
Ġrespons es
utt gart
utt ikkat
Ġstrip ped
Ġpreserv ation
Ġdownload ed
Ġnegot iate
ĠWal mart
ĠRad cliffe
Ġfle e
ĠAL MA
ĠPo ir
En ter
ĠExt ra
Ġdil ate
ande z
Ġsynt ax
Ġportray al
ĠInter est
Pr of
Ġsecure ly
Ġsweat y
Ġtim ing
Ġload s
Ġrib osomes
antic ipated
pth roat
Ġsort ing
Ġnic kel
ĠBan ana
Ġfertil izer
Ġdebut Team
ĠGe off
Ġillust rates
oz oa
ĠRay mond
onym ous
Ġlin er
ĠWeb ber
Per form
ĠCard inal
Ġpossess ing
Ġpossess ed
Ġflex ibility
Ġhoney bees
Ġelim ination
acc ording
Ġrival ry
ĠBab e
Ġborrow ing
Ġbranch ing
ĠDub ai
sol id
Ġembr aced
Ġthy roid
ais y
Ġrac quet
Ġfrag rant
uy ah
Ġcine mat
Ġsne aky
Christ ian
ĠJoh an
Ġinspect ors
ĠSecond ary
ĠIndust ries
Ġgamet ophytes
ymph ony
!!!! !!!!
Ġwhis ky
ĠOper ation
type of
Ġhem oglobin
ĠUnderstand ing
Am mann
ĠKn owing
Ġsco op
Ġovers ee
Ġech inoderms
Ġcounterpart s
Ġorche str
ĠLy onnais
ĠDev il
Ġtum ors
ĠTra il
ĠTra ffic
don ald
Ġperman ently
avers ham
sup ported
ĠMom ent
Ġgraph ics
ĠHold ing
Ġturt les
Ġsubt racted
ĠArm strong
Ġawa iting
del iver
ĠLie utenant
ĠSem inary
ĠHit ler
ĠBah rain
Ġseas ide
rav iolet
ĠPant hers
Ġdisturb ing
Russ ia
Ġcert ificate
Ġmang a
Ġherb ivores
soc cer
ĠCub an
Ġdesper ately
atern al
Ġevacu ation
Ġll ama
ĠViking s
engu in
ĠCele br
ĠFer dinand
Ġdepict ing
Ġfare well
Ġabdom en
Ġbang ladesh
Ġhik er
ĠCN B
ĠCommer cial
Ġsuppl iers
ĠGang sta
Ġjelly fish
Ġingen uity
ĠQueens land
Ġster oid
Ġcong regation
ĠMut ations
ĠFurther more
Ġkenn edy
Bre ak
Ital ian
Ġdynam ics
Ġillustr ations
Ġillustr ator
Ġupgr ades
phe w
lys is
ĠCind erella
ĠChir ac
Ġskys crapers
ĠStraw berry
Ġthunderst orms
ĠLO VE
cum shot
Ġcree py
[...]
