{
  "version": "1.0",
  "truncation": null,
  "padding": null,
  "added_tokens": [
    {
      "id": 0,
      "content": "<|endoftext|>",
      "single_word": false,
      "lstrip": false,
      "rstrip": false,
      "normalized": true,
      "special": true
    },
    {
      "id": 1,
      "content": "<QUESTION>",
      "single_word": false,
      "lstrip": false,
      "rstrip": false,
      "normalized": false,
      "special": true
    },
    {
      "id": 2,
      "content": "<ANSWER>",
      "single_word": false,
      "lstrip": false,
      "rstrip": false,
      "normalized": false,
      "special": true
    },
    {
      "id": 21396,
      "content": "[PAD]",
      "single_word": false,
      "lstrip": false,
      "rstrip": false,
      "normalized": false,
      "special": true
    }
  ],
  "normalizer": null,
  "pre_tokenizer": {
    "type": "ByteLevel",
    "add_prefix_space": false,
    "trim_offsets": true,
    "use_regex": true
  },
  "post_processor": {
    "type": "ByteLevel",
    "add_prefix_space": true,
    "trim_offsets": false,
    "use_regex": true
  },
  "decoder": {
    "type": "ByteLevel",
    "add_prefix_space": true,
    "trim_offsets": true,
    "use_regex": true
  },
  "model": {
    "type": "BPE",
    "dropout": null,
    "unk_token": null,
    "continuing_subword_prefix": "",
    "end_of_word_suffix": "",
    "fuse_unk": false,
    "byte_fallback": false,
    "ignore_merges": false,
    "vocab": {
      "<|endoftext|>": 0,
      "<QUESTION>": 1,
      "<ANSWER>": 2,
      "!": 3,
      "\"": 4,
      "#": 5,
      "$": 6,
      "%": 7,
      "&": 8,
      "'": 9,
      "(": 10,
      ")": 11,
      "*": 12,
      "+": 13,
      ",": 14,
      "-": 15,
      ".": 16,
      "/": 17,
      "0": 18,
      "1": 19,
      "2": 20,
      "3": 21,
      "4": 22,
      "5": 23,
      "6": 24,
      "7": 25,
      "8": 26,
      "9": 27,
      ":": 28,
      ";": 29,
      "<": 30,
      "=": 31,
      ">": 32,
      "?": 33,
      "@": 34,
      "A": 35,
      "B": 36,
      "C": 37,
      "D": 38,
      "E": 39,
      "F": 40,
      "G": 41,
      "H": 42,
      "I": 43,
      "J": 44,
      "K": 45,
      "L": 46,
      "M": 47,
      "N": 48,
      "O": 49,
      "P": 50,
      "Q": 51,
      "R": 52,
      "S": 53,
      "T": 54,
      "U": 55,
      "V": 56,
      "W": 57,
      "X": 58,
      "Y": 59,
      "Z": 60,
      "[": 61,
      "\\": 62,
      "]": 63,
      "^": 64,
      "_": 65,
      "`": 66,
      "a": 67,
      "b": 68,
      "c": 69,
      "d": 70,
      "e": 71,
      "f": 72,
      "g": 73,
      "h": 74,
      "i": 75,
      "j": 76,
      "k": 77,
      "l": 78,
      "m": 79,
      "n": 80,
      "o": 81,
      "p": 82,
      "q": 83,
      "r": 84,
      "s": 85,
      "t": 86,
      "u": 87,
      "v": 88,
      "w": 89,
      "x": 90,
      "y": 91,
      "z": 92,
      "{": 93,
      "|": 94,
      "}": 95,
      "~": 96,
      "¡": 97,
      "¢": 98,
      "£": 99,
      "¤": 100,
      "¥": 101,
      "¦": 102,
      "§": 103,
      "¨": 104,
      "©": 105,
      "ª": 106,
      "«": 107,
      "¬": 108,
      "®": 109,
      "¯": 110,
      "°": 111,
      "±": 112,
      "²": 113,
      "³": 114,
      "´": 115,
      "µ": 116,
      "¶": 117,
      "·": 118,
      "¸": 119,
      "¹": 120,
      "º": 121,
      "»": 122,
      "¼": 123,
      "½": 124,
      "¾": 125,
      "¿": 126,
      "À": 127,
      "Á": 128,
      "Â": 129,
      "Ã": 130,
      "Ä": 131,
      "Å": 132,
      "Æ": 133,
      "Ç": 134,
      "È": 135,
      "É": 136,
      "Ê": 137,
      "Ë": 138,
      "Ì": 139,
      "Í": 140,
      "Î": 141,
      "Ï": 142,
      "Ð": 143,
      "Ñ": 144,
      "Ò": 145,
      "Ó": 146,
      "Ô": 147,
      "Õ": 148,
      "Ö": 149,
      "×": 150,
      "Ø": 151,
      "Ù": 152,
      "Ú": 153,
      "Û": 154,
      "Ü": 155,
      "Ý": 156,
      "Þ": 157,
      "ß": 158,
      "à": 159,
      "á": 160,
      "â": 161,
      "ã": 162,
      "ä": 163,
      "å": 164,
      "æ": 165,
      "ç": 166,
      "è": 167,
      "é": 168,
      "ê": 169,
      "ë": 170,
      "ì": 171,
      "í": 172,
      "î": 173,
      "ï": 174,
      "ð": 175,
      "ñ": 176,
      "ò": 177,
      "ó": 178,
      "ô": 179,
      "õ": 180,
      "ö": 181,
      "÷": 182,
      "ø": 183,
      "ù": 184,
      "ú": 185,
      "û": 186,
      "ü": 187,
      "ý": 188,
      "þ": 189,
      "ÿ": 190,
      "Ā": 191,
      "ā": 192,
      "Ă": 193,
      "ă": 194,
      "Ą": 195,
      "ą": 196,
      "Ć": 197,
      "ć": 198,
      "Ĉ": 199,
      "ĉ": 200,
      "Ċ": 201,
      "ċ": 202,
      "Č": 203,
      "č": 204,
      "Ď": 205,
      "ď": 206,
      "Đ": 207,
      "đ": 208,
      "Ē": 209,
      "ē": 210,
      "Ĕ": 211,
      "ĕ": 212,
      "Ė": 213,
      "ė": 214,
      "Ę": 215,
      "ę": 216,
      "Ě": 217,
      "ě": 218,
      "Ĝ": 219,
      "ĝ": 220,
      "Ğ": 221,
      "ğ": 222,
      "Ġ": 223,
      "ġ": 224,
      "Ģ": 225,
      "ģ": 226,
      "Ĥ": 227,
      "ĥ": 228,
      "Ħ": 229,
      "ħ": 230,
      "Ĩ": 231,
      "ĩ": 232,
      "Ī": 233,
      "ī": 234,
      "Ĭ": 235,
      "ĭ": 236,
      "Į": 237,
      "į": 238,
      "İ": 239,
      "ı": 240,
      "Ĳ": 241,
      "ĳ": 242,
      "Ĵ": 243,
      "ĵ": 244,
      "Ķ": 245,
      "ķ": 246,
      "ĸ": 247,
      "Ĺ": 248,
      "ĺ": 249,
      "Ļ": 250,
      "ļ": 251,
      "Ľ": 252,
      "ľ": 253,
      "Ŀ": 254,
      "ŀ": 255,
      "Ł": 256,
      "ł": 257,
      "Ń": 258,
      "Ġt": 259,
      "Ġa": 260,
      "he": 261,
      "in": 262,
      "en": 263,
      "Ġthe": 264,
      "Ġs": 265,
      "on": 266,
      "er": 267,
      "es": 268,
      "at": 269,
      "Ġw": 270,
      "is": 271,
      "Ġc": 272,
      "Ġ<": 273,
      "re": 274,
      "Ġf": 275,
      "Ġb": 276,
      "an": 277,
      "of": 278,
      "Ġp": 279,
      "it": 280,
      "or": 281,
      "Ġan": 282,
      "ing": 283,
      "ou": 284,
      "Ġm": 285,
      "le": 286,
      "ion": 287,
      "Ġd": 288,
      "te": 289,
      "Ġin": 290,
      "Ġto": 291,
      "Ġth": 292,
      "ar": 293,
      "as": 294,
      "Ġis": 295,
      "al": 296,
      "ent": 297,
      "Ġn": 298,
      "ed": 299,
      "Ġof": 300,
      "ic": 301,
      "xt": 302,
      "end": 303,
      "Ġh": 304,
      "Ġand": 305,
      "Ġg": 306,
      "om": 307,
      "Ġl": 308,
      "text": 309,
      "AN": 310,
      "ER": 311,
      "ES": 312,
      "IO": 313,
      "QU": 314,
      "SW": 315,
      "TIO": 316,
      "|>": 317,
      "Ġ<|": 318,
      "oftext": 319,
      "endoftext": 320,
      "ANSW": 321,
      "ESTIO": 322,
      "QUESTIO": 323,
      "ANSWER": 324,
      "QUESTION": 325,
      "ce": 326,
      "ll": 327,
      "ow": 328,
      "tion": 329,
      "Ġe": 330,
      "iv": 331,
      "Ġy": 332,
      "qu": 333,
      "wer": 334,
      "us": 335,
      "swer": 336,
      "Ġr": 337,
      "ot": 338,
      "Ġbe": 339,
      "id": 340,
      "Ġwh": 341,
      "Ġre": 342,
      "Ġit": 343,
      "ly": 344,
      "ct": 345,
      "am": 346,
      "Ġqu": 347,
      "Ġ-": 348,
      "Ġanswer": 349,
      "os": 350,
      "Ġthat": 351,
      "Ġthis": 352,
      "Ġ\"": 353,
      "estion": 354,
      "et": 355,
      "ay": 356,
      "Ġquestion": 357,
      "ence": 358,
      "ir": 359,
      "op": 360,
      "im": 361,
      "Ġsent": 362,
      "Ġon": 363,
      "Ġpr": 364,
      "ld": 365,
      "Ġfor": 366,
      "Ġyou": 367,
      "Ġhe": 368,
      "Ġst": 369,
      "ur": 370,
      "un": 371,
      "ation": 372,
      "ig": 373,
      "ve": 374,
      "od": 375,
      "Ġsentence": 376,
      "ers": 377,
      "out": 378,
      "ad": 379,
      "Ġfo": 380,
      "ch": 381,
      "ate": 382,
      "ke": 383,
      "Ġfr": 384,
      "ut": 385,
      "Ġare": 386,
      "if": 387,
      "ol": 388,
      "ith": 389,
      "Ġne": 390,
      "Ġcon": 391,
      "Ġwith": 392,
      "Ġas": 393,
      "Ġ1": 394,
      "um": 395,
      "il": 396,
      "est": 397,
      "Ġv": 398,
      "Ġor": 399,
      "ive": 400,
      "'s": 401,
      "Ġch": 402,
      "ri": 403,
      "ap": 404,
      "ess": 405,
      "Ġwhat": 406,
      "Ġab": 407,
      "Ġwas": 408,
      "llow": 409,
      "ag": 410,
      "ov": 411,
      "Ġj": 412,
      "ac": 413,
      "Ġdo": 414,
      "Ġsh": 415,
      "se": 416,
      "ble": 417,
      "ant": 418,
      "ie": 419,
      "st": 420,
      "Ġfollow": 421,
      "Ġte": 422,
      "oc": 423,
      "Ġcan": 424,
      "ht": 425,
      "ter": 426,
      "Ġnot": 427,
      "Ġat": 428,
      "her": 429,
      "Ġse": 430,
      "ould": 431,
      "Ġk": 432,
      "Ġfollowing": 433,
      "Ġfrom": 434,
      "Ġpl": 435,
      "Ġle": 436,
      "Ġcom": 437,
      "pe": 438,
      "Ġ(": 439,
      "and": 440,
      "oun": 441,
      "ill": 442,
      "ain": 443,
      "Ġwor": 444,
      "Ġ=": 445,
      "ul": 446,
      "ase": 447,
      "Ġde": 448,
      "the": 449,
      "Ġi": 450,
      "Ġwe": 451,
      "Ġno": 452,
      "Ġme": 453,
      "Ġby": 454,
      "Ġex": 455,
      "Ġ2": 456,
      "Ġgiv": 457,
      "Ġabout": 458,
      "th": 459,
      "Ġen": 460,
      ").": 461,
      "ight": 462,
      "Ġgiven": 463,
      "ore": 464,
      "ist": 465,
      "Ġun": 466,
      "Ġtr": 467,
      "ich": 468,
      "Ġthey": 469,
      "ity": 470,
      "ort": 471,
      "Ġal": 472,
      "ust": 473,
      "Ġus": 474,
      "Ġpos": 475,
      "Ġli": 476,
      "ome": 477,
      "Ġwhe": 478,
      "ave": 479,
      ".\"": 480,
      "ite": 481,
      "up": 482,
      "ide": 483,
      "ame": 484,
      "ies": 485,
      "ds": 486,
      "ok": 487,
      "all": 488,
      "Ġman": 489,
      "Ġso": 490,
      "led": 491,
      "Ġwhich": 492,
      "el": 493,
      "ud": 494,
      "Ġar": 495,
      "Ġyes": 496,
      "Ġsp": 497,
      "ong": 498,
      "ine": 499,
      "ted": 500,
      "tions": 501,
      "Ġop": 502,
      "Ġlike": 503,
      "ment": 504,
      "art": 505,
      "ated": 506,
      "Ġtw": 507,
      "ans": 508,
      "ace": 509,
      "ast": 510,
      "answer": 511,
      "ice": 512,
      "Ġgo": 513,
      "aus": 514,
      "act": 515,
      "pl": 516,
      "Ġwould": 517,
      "own": 518,
      "ak": 519,
      "Ġhave": 520,
      "Ġout": 521,
      "ary": 522,
      "ish": 523,
      "ub": 524,
      "ang": 525,
      "one": 526,
      "ake": 527,
      "Ġwr": 528,
      "Ġdes": 529,
      "wh": 530,
      "iz": 531,
      "ver": 532,
      "Ġgr": 533,
      "ab": 534,
      "ry": 535,
      "si": 536,
      "age": 537,
      "Ġcor": 538,
      "ove": 539,
      "Ġsome": 540,
      "Ġad": 541,
      "Ġyour": 542,
      "able": 543,
      "Ġpe": 544,
      "Ġbec": 545,
      "Ġbut": 546,
      "our": 547,
      "Ġhis": 548,
      "ally": 549,
      "ue": 550,
      "Ġ'": 551,
      "Ġwill": 552,
      "av": 553,
      "Ġcl": 554,
      "Ġif": 555,
      "Ġdoes": 556,
      "ard": 557,
      "Ġhas": 558,
      "ure": 559,
      "ĠĠ": 560,
      "Ġac": 561,
      "rect": 562,
      "Ġ.": 563,
      "tep": 564,
      "pr": 565,
      "Ġall": 566,
      "lease": 567,
      "irst": 568,
      "Ġone": 569,
      "Ġo": 570,
      "ause": 571,
      "ener": 572,
      "ook": 573,
      "Ġfirst": 574,
      "Ġpre": 575,
      "rib": 576,
      "Ġwho": 577,
      "other": 578,
      "ose": 579,
      "Ġtheir": 580,
      "ip": 581,
      "ian": 582,
      "uc": 583,
      "Ġim": 584,
      "Ġam": 585,
      "ative": 586,
      "oug": 587,
      "Ġrev": 588,
      "Ġfood": 589,
      "ack": 590,
      "Ġaf": 591,
      "Ġdat": 592,
      "ial": 593,
      "ous": 594,
      "iew": 595,
      "Ġplay": 596,
      "ost": 597,
      "umm": 598,
      "Ġthere": 599,
      "Ġhow": 600,
      "ind": 601,
      "ound": 602,
      "ating": 603,
      "ople": 604,
      "'t": 605,
      "ass": 606,
      "Ġdesc": 607,
      "sible": 608,
      "ick": 609,
      "Ġdata": 610,
      "Ġint": 611,
      "Ġcorrect": 612,
      "for": 613,
      "Ġfe": 614,
      "Ġcomp": 615,
      "what": 616,
      "og": 617,
      "Ġpeople": 618,
      "ount": 619,
      "ile": 620,
      "cl": 621,
      "Ġ,": 622,
      "Ġbr": 623,
      "Ġbecause": 624,
      "Ġgener": 625,
      "Ġkn": 626,
      "ater": 627,
      "Ġreview": 628,
      "ia": 629,
      "Ġfam": 630,
      "Ġ19": 631,
      "ily": 632,
      "are": 633,
      "Ġcal": 634,
      "Ġplease": 635,
      "Ġnew": 636,
      "day": 637,
      "port": 638,
      "we": 639,
      "Ġspe": 640,
      "pt": 641,
      "Ġ5": 642,
      "Ġmov": 643,
      "itt": 644,
      "Ġmore": 645,
      "Ġthese": 646,
      "ise": 647,
      "ber": 648,
      "over": 649,
      "Ġtell": 650,
      "itive": 651,
      "ime": 652,
      "Ġher": 653,
      "form": 654,
      "Ġprod": 655,
      "Ġph": 656,
      "00": 657,
      "Ġwhen": 658,
      "Ġpossible": 659,
      "Ġap": 660,
      "ars": 661,
      "Ġwhere": 662,
      "oy": 663,
      "Ġwords": 664,
      "king": 665,
      "ug": 666,
      "ates": 667,
      "Ġrest": 668,
      "Ġeng": 669,
      "Ġq": 670,
      "Ġoff": 671,
      "Ġprov": 672,
      "Ġtext": 673,
      "Ġtwo": 674,
      "ire": 675,
      "ason": 676,
      "Ġcont": 677,
      "Ġup": 678,
      "put": 679,
      "app": 680,
      "Ġdescrib": 681,
      "ild": 682,
      "Ġpar": 683,
      "ect": 684,
      "gative": 685,
      "Ġadd": 686,
      "Ġhel": 687,
      "Ġpositive": 688,
      "uct": 689,
      "ory": 690,
      "ge": 691,
      "Ġother": 692,
      "Ġcount": 693,
      "Ġro": 694,
      "Ġcalled": 695,
      "Ġ3": 696,
      "Ġsay": 697,
      "Ġcho": 698,
      "Ġbl": 699,
      "aur": 700,
      "ased": 701,
      "erson": 702,
      "Ġcontext": 703,
      "fer": 704,
      "Ġnegative": 705,
      "ere": 706,
      "Ġcomm": 707,
      "Ġhelp": 708,
      "ail": 709,
      "hes": 710,
      "iment": 711,
      "Ġlet": 712,
      "ical": 713,
      "Ġits": 714,
      "Ġinto": 715,
      "oth": 716,
      "Ġver": 717,
      "ach": 718,
      "Ġloc": 719,
      "uation": 720,
      "Ġwrite": 721,
      "Ġrestaur": 722,
      "Ġrestaurant": 723,
      "ne": 724,
      "so": 725,
      "ens": 726,
      "Ġbest": 727,
      "Ġsc": 728,
      "Ġbet": 729,
      "ult": 730,
      "ance": 731,
      "Ġpart": 732,
      "ces": 733,
      "Ġind": 734,
      "Ġres": 735,
      "Ġtime": 736,
      "erm": 737,
      "Ġmake": 738,
      "ks": 739,
      "Ġfl": 740,
      "Ġdr": 741,
      "Ġget": 742,
      "Ġjust": 743,
      "Ġcr": 744,
      "ings": 745,
      "clud": 746,
      "Ġgenerate": 747,
      "ord": 748,
      "lect": 749,
      "Ġfamily": 750,
      "Ġstep": 751,
      "ty": 752,
      "Ġthem": 753,
      "ond": 754,
      "ices": 755,
      "Ġshe": 756,
      "Ġser": 757,
      "Ġsumm": 758,
      "Ġco": 759,
      "Ġbu": 760,
      "lish": 761,
      "Ġperson": 762,
      "Ġplace": 763,
      "Ġmar": 764,
      "Ġname": 765,
      "Ġhere": 766,
      "Ġdis": 767,
      "ited": 768,
      "Ġhapp": 769,
      "ough": 770,
      "Ġwater": 771,
      "unct": 772,
      "Ġafter": 773,
      "Ġstr": 774,
      "Ġabove": 775,
      "Ġdid": 776,
      "ask": 777,
      "Ġneed": 778,
      "Ġchar": 779,
      "Ġsee": 780,
      "Ġag": 781,
      "Ġsm": 782,
      "Ġke": 783,
      "Ġsol": 784,
      "Ġmovie": 785,
      "Ġmost": 786,
      "Ġacc": 787,
      "cho": 788,
      "ree": 789,
      "Ġye": 790,
      "Ġcar": 791,
      "ident": 792,
      "Ġfri": 793,
      "Ġoptions": 794,
      "..": 795,
      "ink": 796,
      "Ġev": 797,
      "Ġgood": 798,
      "Ġcap": 799,
      "Ġboth": 800,
      "Ġart": 801,
      "Ġfriend": 802,
      "Ġcity": 803,
      "Ġbig": 804,
      "Ġpunct": 805,
      "Ġinform": 806,
      "Ġent": 807,
      "ivers": 808,
      "ade": 809,
      "Ġenglish": 810,
      "hing": 811,
      "Ġsa": 812,
      "Ġsim": 813,
      "ood": 814,
      "per": 815,
      "Ġhad": 816,
      "Ġshould": 817,
      "Ġwere": 818,
      "Ġequ": 819,
      "Ġreason": 820,
      "ange": 821,
      "ii": 822,
      "Ġper": 823,
      "Ġsentiment": 824,
      "Ġspec": 825,
      "Ġfin": 826,
      "Ġwork": 827,
      "Ġvery": 828,
      "?\"": 829,
      "cre": 830,
      "ai": 831,
      "ff": 832,
      "Ġem": 833,
      "Ġanswers": 834,
      "Ġinformation": 835,
      "yp": 836,
      "Ġinst": 837,
      "cept": 838,
      "Ġrem": 839,
      "Ġpro": 840,
      "Ġair": 841,
      "erg": 842,
      "Ġcould": 843,
      "Ġrec": 844,
      "old": 845,
      "Ġtit": 846,
      "ital": 847,
      "br": 848,
      "Ġact": 849,
      "Ġeat": 850,
      "Ġfil": 851,
      "Ġproc": 852,
      "ock": 853,
      "Ġprem": 854,
      "Ġhig": 855,
      "Ġgre": 856,
      "Ġform": 857,
      "step": 858,
      "Ġtal": 859,
      "hed": 860,
      "Ġdet": 861,
      "omet": 862,
      "way": 863,
      "Ġbo": 864,
      "ition": 865,
      "orn": 866,
      "Ġdif": 867,
      "ple": 868,
      "Ġtask": 869,
      "ors": 870,
      "Ġmus": 871,
      "Ġwhile": 872,
      "eet": 873,
      "ys": 874,
      "Ġche": 875,
      "omer": 876,
      "Ġbel": 877,
      "options": 878,
      "Ġnext": 879,
      "Ġfeel": 880,
      "Ġprocess": 881,
      "Ġsame": 882,
      "ents": 883,
      "Ġmean": 884,
      "Ġ20": 885,
      "Ġtweet": 886,
      "fri": 887,
      "land": 888,
      "Ġfact": 889,
      "Ġbased": 890,
      "Ġthan": 891,
      "Ġjo": 892,
      "Ġtrans": 893,
      "ject": 894,
      "ution": 895,
      "ath": 896,
      "Ġpres": 897,
      "ons": 898,
      "Ġcust": 899,
      "ign": 900,
      "Ġshow": 901,
      "Ġpunctuation": 902,
      "friend": 903,
      "Ġpo": 904,
      "Ġalso": 905,
      "ize": 906,
      "Ġthr": 907,
      "Ġlook": 908,
      "Ġstate": 909,
      "Ġthen": 910,
      "eric": 911,
      "Ġthink": 912,
      "Ġstates": 913,
      "Ġknow": 914,
      "ious": 915,
      "iss": 916,
      "Ġtitle": 917,
      "',": 918,
      "Ġsk": 919,
      "Ġsup": 920,
      "Ġla": 921,
      "Ġrating": 922,
      "Ġlead": 923,
      "Ġcustomer": 924,
      "fe": 925,
      "ix": 926,
      "Ġ4": 927,
      "Ġz": 928,
      "ower": 929,
      "Ġever": 930,
      "Ġnear": 931,
      "aph": 932,
      "Ġatt": 933,
      "Ġproduct": 934,
      "Ġsummary": 935,
      "air": 936,
      "fore": 937,
      "ting": 938,
      "Ġinter": 939,
      "Ġnum": 940,
      "Ġmeans": 941,
      "Ġpremise": 942,
      "Ġwom": 943,
      "Ġbir": 944,
      "Ġmight": 945,
      "Ġund": 946,
      "Ġunited": 947,
      "ittle": 948,
      "Ġdiffer": 949,
      "ale": 950,
      "ms": 951,
      "Ġover": 952,
      "Ġcre": 953,
      "Ġmy": 954,
      "Ġdown": 955,
      "urn": 956,
      "Ġmany": 957,
      "Ġcountry": 958,
      "friendly": 959,
      "ful": 960,
      "les": 961,
      "Ġany": 962,
      "Ġgu": 963,
      "ific": 964,
      "ides": 965,
      "Ġread": 966,
      "ween": 967,
      ",\"": 968,
      "ep": 969,
      "Ġ[": 970,
      "Ġsomet": 971,
      "othes": 972,
      "ify": 973,
      "Ġshort": 974,
      "atur": 975,
      "Ġfun": 976,
      "Ġmay": 977,
      "oper": 978,
      "ought": 979,
      "get": 980,
      "Ġsu": 981,
      "Ġwant": 982,
      "Ġcol": 983,
      "Ġlist": 984,
      "Ġday": 985,
      "Ġlong": 986,
      "Ġlittle": 987,
      "Ġright": 988,
      "Ġ+": 989,
      "ense": 990,
      "atch": 991,
      "ouse": 992,
      "ational": 993,
      "Ġarea": 994,
      "Ġcons": 995,
      "Ġenerg": 996,
      "Ġbetween": 997,
      "Ġcent": 998,
      "Ġdi": 999,
      "ict": 1000,
      "Ġdog": 1001,
      "Ġexpl": 1002,
      "Ġknown": 1003,
      "Ġdescribes": 1004,
      "als": 1005,
      "Ġhigh": 1006,
      "Ġsub": 1007,
      "Ġmak": 1008,
      "Ġbeing": 1009,
      "Ġcapital": 1010,
      "Ġcase": 1011,
      "ateg": 1012,
      "aces": 1013,
      "Ġdifferent": 1014,
      "ra": 1015,
      "any": 1016,
      "Ġmon": 1017,
      "Ġins": 1018,
      "Ġlocated": 1019,
      "Ġequation": 1020,
      "Ġenergy": 1021,
      "Ġhim": 1022,
      "ided": 1023,
      "vel": 1024,
      "Ġshop": 1025,
      "Ġcam": 1026,
      "Ġrel": 1027,
      "ypothes": 1028,
      "ypothesis": 1029,
      "ph": 1030,
      "wr": 1031,
      "Ġoption": 1032,
      "Ġthrough": 1033,
      "Ġmade": 1034,
      "ions": 1035,
      "Ġlang": 1036,
      "Ġlangu": 1037,
      "Ġway": 1038,
      "Ġpol": 1039,
      "Ġmet": 1040,
      "Ġfilm": 1041,
      "be": 1042,
      "ient": 1043,
      "ert": 1044,
      "Ġcateg": 1045,
      "red": 1046,
      "Ġsomeone": 1047,
      "Ġameric": 1048,
      "type": 1049,
      "Ġsur": 1050,
      "Ġpass": 1051,
      "Ġinclud": 1052,
      "Ġhouse": 1053,
      "Ġgl": 1054,
      "Ġlar": 1055,
      "Ġusing": 1056,
      "Ġbook": 1057,
      "Ġbeen": 1058,
      "Ġproper": 1059,
      "Ġcorrectly": 1060,
      "Ġcharact": 1061,
      "Ġsaid": 1062,
      "ning": 1063,
      "ases": 1064,
      "Ġear": 1065,
      "Ġonly": 1066,
      "Ġ200": 1067,
      "ences": 1068,
      "Ġfound": 1069,
      "Ġback": 1070,
      "Ġnow": 1071,
      "Ġbefore": 1072,
      "Ġbuild": 1073,
      "Ġsomething": 1074,
      "ience": 1075,
      "raph": 1076,
      "sent": 1077,
      "wor": 1078,
      "Ġsl": 1079,
      "Ġsing": 1080,
      "Ġmain": 1081,
      "Ġinput": 1082,
      "Ġvers": 1083,
      "Ġtrue": 1084,
      "write": 1085,
      "sentence": 1086,
      "ger": 1087,
      "Ġcommon": 1088,
      "Ġsmall": 1089,
      "].": 1090,
      "pos": 1091,
      "Ġmin": 1092,
      "ope": 1093,
      "Ġteam": 1094,
      "Ġworld": 1095,
      "Ġuse": 1096,
      "Ġspaces": 1097,
      "Ġprovide": 1098,
      "Ġeattype": 1099,
      "Ġlanguage": 1100,
      "fin": 1101,
      "ull": 1102,
      "ĠĊ": 1103,
      "Ġcle": 1104,
      "Ġtop": 1105,
      "icle": 1106,
      "ows": 1107,
      "Ġchoose": 1108,
      "Ġyears": 1109,
      "Ġevery": 1110,
      "not": 1111,
      "ual": 1112,
      "Ġ8": 1113,
      "aring": 1114,
      "Ġplaying": 1115,
      "ric": 1116,
      "Ġtri": 1117,
      "Ġpub": 1118,
      "Ġtoget": 1119,
      "Ġnam": 1120,
      "Ġhold": 1121,
      "Ġrock": 1122,
      "Ġserv": 1123,
      "Ġ201": 1124,
      "Ġtogether": 1125,
      "\",": 1126,
      "Ġthings": 1127,
      "Ġask": 1128,
      "Ġsec": 1129,
      "Ġwoman": 1130,
      "gan": 1131,
      "io": 1132,
      "Ġu": 1133,
      "Ġsit": 1134,
      "Ġfind": 1135,
      "ody": 1136,
      "Ġexper": 1137,
      "Ġused": 1138,
      "Ġmusic": 1139,
      "joy": 1140,
      "mber": 1141,
      "ese": 1142,
      "Ġdon": 1143,
      "Ġless": 1144,
      "Ġass": 1145,
      "az": 1146,
      "anc": 1147,
      "Ġmiss": 1148,
      "Ġel": 1149,
      "Ġreg": 1150,
      "agraph": 1151,
      "Ġenjoy": 1152,
      "Ġparagraph": 1153,
      "ailed": 1154,
      "ied": 1155,
      "Ġanim": 1156,
      "oup": 1157,
      "press": 1158,
      "Ġchoices": 1159,
      "Ġspecial": 1160,
      "Ġed": 1161,
      "int": 1162,
      "Ġwar": 1163,
      "Ġtoo": 1164,
      "Ġval": 1165,
      "Ġversion": 1166,
      "ier": 1167,
      "ĊĊ": 1168,
      "esday": 1169,
      "Ġbar": 1170,
      "Ġconcept": 1171,
      "Ġdec": 1172,
      "Ġsolve": 1173,
      "how": 1174,
      "Ġtake": 1175,
      "ina": 1176,
      "Ġsense": 1177,
      "iting": 1178,
      "Ġhypothesis": 1179,
      "Ġrivers": 1180,
      "Ġreally": 1181,
      "Ġplant": 1182,
      "Ġword": 1183,
      "ction": 1184,
      "Ġ*": 1185,
      "Ġce": 1186,
      "Ġfast": 1187,
      "Ġbus": 1188,
      "Ġlast": 1189,
      "Ġstud": 1190,
      "ations": 1191,
      "Ġconclud": 1192,
      ".\"?": 1193,
      "ax": 1194,
      "Ġwin": 1195,
      "Ġwal": 1196,
      "Ġmod": 1197,
      "ards": 1198,
      "ention": 1199,
      "ically": 1200,
      "ands": 1201,
      "Ġcomple": 1202,
      "cess": 1203,
      "ef": 1204,
      "ote": 1205,
      "ton": 1206,
      "ench": 1207,
      "Ġsun": 1208,
      "ider": 1209,
      "Ġob": 1210,
      "Ġnumber": 1211,
      "Ġriverside": 1212,
      "uce": 1213,
      "iness": 1214,
      "Ġset": 1215,
      "Ġcur": 1216,
      "Ġbre": 1217,
      "Ġinv": 1218,
      "sel": 1219,
      "ments": 1220,
      "Ġimport": 1221,
      "Ġprovided": 1222,
      "Ġhappy": 1223,
      "ah": 1224,
      "tr": 1225,
      "ype": 1226,
      "ince": 1227,
      "Ġele": 1228,
      "Ġext": 1229,
      "Ġeach": 1230,
      "Ġelect": 1231,
      "Ġ--": 1232,
      "Ġchild": 1233,
      "Ġcompany": 1234,
      "Ġkey": 1235,
      "Ġconclude": 1236,
      "can": 1237,
      "Ġend": 1238,
      "enc": 1239,
      "Ġbody": 1240,
      "uring": 1241,
      "Ġarticle": 1242,
      "Ġfinal": 1243,
      "Ġgreat": 1244,
      "ball": 1245,
      "com": 1246,
      "Ġ0": 1247,
      "Ġwhy": 1248,
      "ures": 1249,
      "ains": 1250,
      "Ġbetter": 1251,
      "Ġnamed": 1252,
      "Ġimportant": 1253,
      "eng": 1254,
      "Ġhum": 1255,
      "erst": 1256,
      "ately": 1257,
      "Ġfamilyfriendly": 1258,
      "Ġeven": 1259,
      "gr": 1260,
      "me": 1261,
      "ins": 1262,
      "Ġwatch": 1263,
      "Ġincre": 1264,
      "Ġred": 1265,
      "Ġital": 1266,
      "Ġyoun": 1267,
      "ording": 1268,
      "chool": 1269,
      "Ġreasoning": 1270,
      "),": 1271,
      "cted": 1272,
      "ying": 1273,
      "Ġschool": 1274,
      "Ġput": 1275,
      "ash": 1276,
      "Ġpric": 1277,
      "ife": 1278,
      "Ġwithout": 1279,
      "blem": 1280,
      "Ġkid": 1281,
      "Ġdefin": 1282,
      "\".": 1283,
      "bers": 1284,
      "cer": 1285,
      "rase": 1286,
      "ven": 1287,
      "Ġaust": 1288,
      "Ġsides": 1289,
      "Ġcof": 1290,
      "Ġtow": 1291,
      "Ġhome": 1292,
      "Ġhard": 1293,
      "Ġgir": 1294,
      "Ġret": 1295,
      "Ġcannot": 1296,
      "Ġappr": 1297,
      "ugg": 1298,
      "ired": 1299,
      "Ġfriends": 1300,
      "Ġinstr": 1301,
      "fee": 1302,
      "Ġcoffee": 1303,
      "aw": 1304,
      "man": 1305,
      "ness": 1306,
      "ro": 1307,
      "ym": 1308,
      "Ġpick": 1309,
      "ities": 1310,
      "Ġdiv": 1311,
      "Ġgame": 1312,
      "Ġline": 1313,
      "ames": 1314,
      "Ġstre": 1315,
      "Ġstar": 1316,
      "Ġ10": 1317,
      "Ġhappen": 1318,
      "Ġleader": 1319,
      "Ġunderst": 1320,
      "Ġconsider": 1321,
      "Ġbuilding": 1322,
      "ply": 1323,
      "Ġ6": 1324,
      "Ġour": 1325,
      "Ġwind": 1326,
      "ank": 1327,
      "amp": 1328,
      "Ġsentences": 1329,
      "Ġstory": 1330,
      "Ġexam": 1331,
      "Ġpresident": 1332,
      "atural": 1333,
      "Ġyoung": 1334,
      "'re": 1335,
      "cle": 1336,
      "ft": 1337,
      "ral": 1338,
      "ther": 1339,
      "Ġtype": 1340,
      "Ġswe": 1341,
      "Ġmo": 1342,
      "Ġeff": 1343,
      "Ġrun": 1344,
      "Ġdel": 1345,
      "Ġdoesn": 1346,
      "ĠĠĠ": 1347,
      "itten": 1348,
      "Ġaccording": 1349,
      "Ġbelong": 1350,
      "Ġcategory": 1351,
      "Ġconcepts": 1352,
      "Ġunderstand": 1353,
      "Ġir": 1354,
      "ering": 1355,
      "Ġdin": 1356,
      "Ġref": 1357,
      "imes": 1358,
      "oney": 1359,
      "Ġproduce": 1360,
      "Ġphrase": 1361,
      "Ġblood": 1362,
      "Ġcentre": 1363,
      "ption": 1364,
      "res": 1365,
      "summ": 1366,
      "Ġve": 1367,
      "Ġterm": 1368,
      "Ġaut": 1369,
      "Ġsout": 1370,
      "Ġnatural": 1371,
      "Ġlight": 1372,
      "ets": 1373,
      "ield": 1374,
      "Ġwell": 1375,
      "this": 1376,
      "Ġgroup": 1377,
      "Ġold": 1378,
      "Ġdescri": 1379,
      "Ġamerican": 1380,
      "ib": 1381,
      "hen": 1382,
      "erange": 1383,
      "Ġ18": 1384,
      "Ġwee": 1385,
      "Ġwritten": 1386,
      "Ġgrow": 1387,
      "Ġroom": 1388,
      "Ġspecific": 1389,
      "Ġstatement": 1390,
      "Ġintern": 1391,
      "Ġincludes": 1392,
      "Ġpricerange": 1393,
      "hip": 1394,
      "ike": 1395,
      "ually": 1396,
      "Ġok": 1397,
      "here": 1398,
      "Ġsong": 1399,
      "ision": 1400,
      "ories": 1401,
      "Ġthing": 1402,
      "Ġlot": 1403,
      "que": 1404,
      "Ġrequ": 1405,
      "amm": 1406,
      "Ġstart": 1407,
      "Ġappe": 1408,
      "Ġtransl": 1409,
      "Ġsubject": 1410,
      "Ġcharacter": 1411,
      "Ġexperience": 1412,
      "ner": 1413,
      "ox": 1414,
      "Ġ7": 1415,
      "Ġsw": 1416,
      "Ġcat": 1417,
      "Ġpop": 1418,
      "ics": 1419,
      "Ġeas": 1420,
      "igin": 1421,
      "str": 1422,
      "aining": 1423,
      "ized": 1424,
      "aving": 1425,
      "Ġoffice": 1426,
      "Ġmark": 1427,
      "Ġagain": 1428,
      "Ġbird": 1429,
      "??": 1430,
      "der": 1431,
      "fl": 1432,
      "ping": 1433,
      "ather": 1434,
      "Ġboy": 1435,
      "Ġpair": 1436,
      "Ġliv": 1437,
      "Ġexpress": 1438,
      "Ġcontr": 1439,
      "ney": 1440,
      "Ġartist": 1441,
      "Ġperform": 1442,
      "Ġmaking": 1443,
      "Ġcell": 1444,
      "to": 1445,
      "Ġcour": 1446,
      "Ġfix": 1447,
      "ane": 1448,
      "arm": 1449,
      "iding": 1450,
      "avor": 1451,
      "Ġcounty": 1452,
      "Ġsuch": 1453,
      "15": 1454,
      "em": 1455,
      "pick": 1456,
      "Ġ/": 1457,
      "ished": 1458,
      "Ġpat": 1459,
      "its": 1460,
      "Ġmove": 1461,
      "Ġmoney": 1462,
      "tem": 1463,
      "ark": 1464,
      "Ġgot": 1465,
      "...": 1466,
      "Ġbusiness": 1467,
      "Ġgive": 1468,
      "Ġwhite": 1469,
      "Ġquestions": 1470,
      "urs": 1471,
      "ured": 1472,
      "Ġsimpl": 1473,
      "Ġdetailed": 1474,
      "Ġboat": 1475,
      "by": 1476,
      "now": 1477,
      "par": 1478,
      "Ġident": 1479,
      "Ġaway": 1480,
      "enn": 1481,
      "Ġwed": 1482,
      "Ġpict": 1483,
      "Ġduring": 1484,
      "Ġnor": 1485,
      "irt": 1486,
      "ung": 1487,
      "utes": 1488,
      "ility": 1489,
      "Ġleg": 1490,
      "Ġclass": 1491,
      "Ġdescribe": 1492,
      "Ġfacts": 1493,
      "Ġmakes": 1494,
      "aut": 1495,
      "con": 1496,
      "cap": 1497,
      "do": 1498,
      "Ġtre": 1499,
      "Ġbri": 1500,
      "Ġmil": 1501,
      "arch": 1502,
      "Ġrus": 1503,
      "iday": 1504,
      "Ġfrench": 1505,
      "acher": 1506,
      "Ġexc": 1507,
      "Ġaround": 1508,
      "Ġ199": 1509,
      "ails": 1510,
      "ailable": 1511,
      "Ġproblem": 1512,
      "Ġairport": 1513,
      "Ġsingle": 1514,
      "ever": 1515,
      "hn": 1516,
      "ling": 1517,
      "ob": 1518,
      "yl": 1519,
      "Ġside": 1520,
      "Ġanother": 1521,
      "Ġnice": 1522,
      "omm": 1523,
      "oss": 1524,
      "Ġstand": 1525,
      "olog": 1526,
      "Ġorgan": 1527,
      "Ġorigin": 1528,
      "ular": 1529,
      "Ġcontin": 1530,
      "Ġlocation": 1531,
      "Ġpubl": 1532,
      "Ġmissing": 1533,
      "Ġanimal": 1534,
      "Ġitalian": 1535,
      "Ġinstruc": 1536,
      "dy": 1537,
      "side": 1538,
      "uch": 1539,
      "uated": 1540,
      "ward": 1541,
      "ene": 1542,
      "Ġsign": 1543,
      "Ġband": 1544,
      "Ġborn": 1545,
      "Ġmen": 1546,
      "Ġdist": 1547,
      "Ġhol": 1548,
      "Ġeur": 1549,
      "apan": 1550,
      "Ġseason": 1551,
      "orts": 1552,
      "Ġgoing": 1553,
      "ogr": 1554,
      "Ġdescribed": 1555,
      "Ġsays": 1556,
      "Ġdisc": 1557,
      "ceptable": 1558,
      "Ġearth": 1559,
      "self": 1560,
      "Ġweek": 1561,
      "Ġown": 1562,
      "Ġturn": 1563,
      "ines": 1564,
      "ented": 1565,
      "ism": 1566,
      "Ġfour": 1567,
      "Ġfavor": 1568,
      "Ġthree": 1569,
      "aster": 1570,
      "Ġfoot": 1571,
      "Ġvis": 1572,
      "Ġvar": 1573,
      "Ġjapan": 1574,
      "ization": 1575,
      "Ġbrit": 1576,
      "Ġproduc": 1577,
      "Ġphot": 1578,
      "Ġindic": 1579,
      "Ġresp": 1580,
      "Ġtalk": 1581,
      "Ġcheap": 1582,
      "Ġcolor": 1583,
      "Ġsecond": 1584,
      "Ġelectr": 1585,
      "ength": 1586,
      "Ġgirl": 1587,
      "please": 1588,
      "ye": 1589,
      "Ġaver": 1590,
      "Ġsad": 1591,
      "Ġwood": 1592,
      "Ġcaus": 1593,
      "Ġpot": 1594,
      "Ġann": 1595,
      "Ġmill": 1596,
      "arize": 1597,
      "ently": 1598,
      "Ġlow": 1599,
      "Ġeag": 1600,
      "iver": 1601,
      "osp": 1602,
      "output": 1603,
      "ages": 1604,
      "Ġunivers": 1605,
      "Ġoffic": 1606,
      "Ġyear": 1607,
      "ways": 1608,
      "Ġmoder": 1609,
      "Ġbrief": 1610,
      "ck": 1611,
      "ech": 1612,
      "hle": 1613,
      "sh": 1614,
      "Ġide": 1615,
      "Ġsure": 1616,
      "Ġsince": 1617,
      "eron": 1618,
      "Ġcare": 1619,
      "Ġfull": 1620,
      "Ġrele": 1621,
      "Ġconv": 1622,
      "Ġchang": 1623,
      "Ġjan": 1624,
      "Ġathle": 1625,
      "Ġspace": 1626,
      "Ġpret": 1627,
      "Ġhowever": 1628,
      "iley": 1629,
      "Ġstrong": 1630,
      "choose": 1631,
      "Ġinstit": 1632,
      "Ġremove": 1633,
      "words": 1634,
      "Ġcurr": 1635,
      "asha": 1636,
      "Ġinstructions": 1637,
      "bum": 1638,
      "ced": 1639,
      "ten": 1640,
      "ute": 1641,
      "Ġx": 1642,
      "Ġsys": 1643,
      "Ġsasha": 1644,
      "ont": 1645,
      "Ġpain": 1646,
      "Ġpast": 1647,
      "Ġmention": 1648,
      "Ġinc": 1649,
      "Ġlive": 1650,
      "Ġlife": 1651,
      "idge": 1652,
      "ires": 1653,
      "Ġhead": 1654,
      "Ġcomb": 1655,
      "akes": 1656,
      "Ġadv": 1657,
      "uck": 1658,
      "ared": 1659,
      "Ġapp": 1660,
      "Ġseries": 1661,
      "Ġdeterm": 1662,
      "Ġeduc": 1663,
      "Ġtown": 1664,
      "name": 1665,
      "ped": 1666,
      "Ġtv": 1667,
      "Ġav": 1668,
      "Ġsugg": 1669,
      "Ġbud": 1670,
      "ann": 1671,
      "anation": 1672,
      "anted": 1673,
      "anish": 1674,
      "Ġmuch": 1675,
      "Ġgas": 1676,
      "Ġlove": 1677,
      "Ġlower": 1678,
      "Ġstop": 1679,
      "Ġash": 1680,
      "Ġchange": 1681,
      "Ġkind": 1682,
      "Ġalbum": 1683,
      "Ġuses": 1684,
      "Ġopen": 1685,
      "aking": 1686,
      "ummy": 1687,
      "itting": 1688,
      "Ġresult": 1689,
      "Ġtransport": 1690,
      "Ġlooking": 1691,
      "Ġsuper": 1692,
      "Ġbirth": 1693,
      "Ġsituation": 1694,
      "Ġkeywords": 1695,
      "Ġconsidered": 1696,
      "ren": 1697,
      "yes": 1698,
      "Ġsoc": 1699,
      "isf": 1700,
      "Ġfree": 1701,
      "Ġthought": 1702,
      "ries": 1703,
      "Ġwearing": 1704,
      "Ġlikely": 1705,
      "Ġoutside": 1706,
      "Ġplays": 1707,
      "Ġsolution": 1708,
      "Ġjohn": 1709,
      "Ġfootball": 1710,
      "Ġaverage": 1711,
      "39": 1712,
      "af": 1713,
      "less": 1714,
      "no": 1715,
      "nesday": 1716,
      "ring": 1717,
      "ts": 1718,
      "ycle": 1719,
      "Ġsal": 1720,
      "err": 1721,
      "atisf": 1722,
      "Ġwa": 1723,
      "Ġwon": 1724,
      "ister": 1725,
      "Ġmat": 1726,
      "Ġtoday": 1727,
      "Ġration": 1728,
      "ady": 1729,
      "Ġ14": 1730,
      "Ġvi": 1731,
      "Ġdoing": 1732,
      "ants": 1733,
      "Ġtele": 1734,
      "Ġoce": 1735,
      "Ġfamil": 1736,
      "Ġ198": 1737,
      "Ġnews": 1738,
      "Ġothers": 1739,
      "Ġmeaning": 1740,
      "Ġjob": 1741,
      "Ġlaw": 1742,
      "Ġmonth": 1743,
      "Ġobject": 1744,
      "Ġeffect": 1745,
      "Ġidentify": 1746,
      "Ġsystem": 1747,
      "Ġrationale": 1748,
      "ae": 1749,
      "aug": 1750,
      "bo": 1751,
      "gener": 1752,
      "iation": 1753,
      "tw": 1754,
      "uesday": 1755,
      "Ġoc": 1756,
      "Ġice": 1757,
      "Ġtuesday": 1758,
      "Ġcook": 1759,
      "rey": 1760,
      "Ġinte": 1761,
      "Ġnational": 1762,
      "Ġyummy": 1763,
      "Ġrep": 1764,
      "und": 1765,
      "Ġnecess": 1766,
      "ume": 1767,
      "Ġvill": 1768,
      "action": 1769,
      "select": 1770,
      "pect": 1771,
      "Ġmem": 1772,
      "Ġoil": 1773,
      "Ġplayed": 1774,
      "Ġtells": 1775,
      "Ġpark": 1776,
      "Ġrob": 1777,
      "Ġblue": 1778,
      "Ġparty": 1779,
      "Ġkeep": 1780,
      "Ġevent": 1781,
      "Ġactiv": 1782,
      "Ġlarge": 1783,
      "Ġsweet": 1784,
      "Ġwednesday": 1785,
      "Ġrussi": 1786,
      "ves": 1787,
      "Ġtest": 1788,
      "Ġallow": 1789,
      "Ġaub": 1790,
      "ena": 1791,
      "Ġcall": 1792,
      "Ġfire": 1793,
      "Ġdate": 1794,
      "Ġthose": 1795,
      "Ġgen": 1796,
      "Ġgover": 1797,
      "Ġreal": 1798,
      "Ġrece": 1799,
      "Ġprogr": 1800,
      "Ġ12": 1801,
      "Ġorder": 1802,
      "Ġcome": 1803,
      "ained": 1804,
      "Ġmeet": 1805,
      "Ġspeak": 1806,
      "Ġaccur": 1807,
      "Ġrecomm": 1808,
      "Ġtalking": 1809,
      "Ġcreate": 1810,
      "Ġcharacters": 1811,
      "Ġclean": 1812,
      "Ġhuman": 1813,
      "Ġdefinition": 1814,
      "Ġsouth": 1815,
      "Ġeurope": 1816,
      "Ġrecommend": 1817,
      "ik": 1818,
      "ique": 1819,
      "sol": 1820,
      "ved": 1821,
      "xic": 1822,
      "yd": 1823,
      "ats": 1824,
      "Ġwent": 1825,
      "Ġcause": 1826,
      "Ġfall": 1827,
      "Ġbed": 1828,
      "Ġbad": 1829,
      "Ġbill": 1830,
      "Ġbab": 1831,
      "Ġpower": 1832,
      "Ġmid": 1833,
      "Ġmag": 1834,
      "Ġhaving": 1835,
      "Ġgerm": 1836,
      "Ġlog": 1837,
      "ived": 1838,
      "Ġrepe": 1839,
      "imately": 1840,
      "Ġprof": 1841,
      "Ġstill": 1842,
      "Ġasking": 1843,
      "Ġvo": 1844,
      "Ġvol": 1845,
      "Ġchina": 1846,
      "Ġjud": 1847,
      "ocks": 1848,
      "Ġdeath": 1849,
      "Ġwhether": 1850,
      "Ġarr": 1851,
      "Ġoper": 1852,
      "Ġoutput": 1853,
      "which": 1854,
      "Ġ197": 1855,
      "Ġengine": 1856,
      "Ġindian": 1857,
      "Ġsupport": 1858,
      "possible": 1859,
      "Ġeveryone": 1860,
      "Ġregion": 1861,
      "Ġwatching": 1862,
      "Ġreturn": 1863,
      "Ġapprox": 1864,
      "Ġbritish": 1865,
      "Ġinstitution": 1866,
      "Ġtransportation": 1867,
      "Ġgovern": 1868,
      "aj": 1869,
      "ny": 1870,
      "tle": 1871,
      "Ġur": 1872,
      "ison": 1873,
      "Ġfile": 1874,
      "Ġball": 1875,
      "ances": 1876,
      "Ġant": 1877,
      "Ġmed": 1878,
      "arn": 1879,
      "Ġnight": 1880,
      "ending": 1881,
      "Ġrich": 1882,
      "Ġheart": 1883,
      "Ġ15": 1884,
      "agine": 1885,
      "Ġship": 1886,
      "Ġsepar": 1887,
      "Ġleft": 1888,
      "Ġworking": 1889,
      "Ġdecre": 1890,
      "ists": 1891,
      "Ġground": 1892,
      "Ġdidn": 1893,
      "Ġago": 1894,
      "Ġattrib": 1895,
      "Ġdirect": 1896,
      "ertain": 1897,
      "Ġcategories": 1898,
      "Ġvalid": 1899,
      "Ġofficial": 1900,
      "Ġbuddy": 1901,
      "Ġocean": 1902,
      "27": 1903,
      "aff": 1904,
      "fect": 1905,
      "ress": 1906,
      "rist": 1907,
      "Ġ9": 1908,
      "Ġtimes": 1909,
      "Ġsand": 1910,
      "Ġcult": 1911,
      "Ġfit": 1912,
      "Ġfif": 1913,
      "Ġfield": 1914,
      "Ġport": 1915,
      "oud": 1916,
      "ouble": 1917,
      "Ġmust": 1918,
      "lex": 1919,
      "Ġden": 1920,
      "Ġisland": 1921,
      "alth": 1922,
      "Ġlo": 1923,
      "Ġbeaut": 1924,
      "ams": 1925,
      "Ġpress": 1926,
      "Ġheat": 1927,
      "ada": 1928,
      "tern": 1929,
      "Ġsports": 1930,
      "plic": 1931,
      "Ġdesign": 1932,
      "Ġprev": 1933,
      "acks": 1934,
      "Ġfamous": 1935,
      "Ġroad": 1936,
      "Ġletter": 1937,
      "Ġseems": 1938,
      "Ġentity": 1939,
      "Ġcambr": 1940,
      "Ġasked": 1941,
      "Ġcomplete": 1942,
      "Ġchildren": 1943,
      "Ġdining": 1944,
      "Ġinternational": 1945,
      "Ġathlete": 1946,
      "aught": 1947,
      "Ġocc": 1948,
      "Ġvillage": 1949,
      "Ġapproximately": 1950,
      "10": 1951,
      "__": 1952,
      "ming": 1953,
      "rb": 1954,
      "Ġest": 1955,
      "Ġste": 1956,
      "Ġwest": 1957,
      "Ġwond": 1958,
      "Ġcup": 1959,
      "Ġbat": 1960,
      "arr": 1961,
      "arily": 1962,
      "Ġhist": 1963,
      "lling": 1964,
      "ush": 1965,
      "Ġrate": 1966,
      "Ġbeh": 1967,
      "ama": 1968,
      "Ġprom": 1969,
      "ified": 1970,
      "Ġcond": 1971,
      "Ġconf": 1972,
      "ster": 1973,
      ".\",": 1974,
      "Ġarm": 1975,
      "Ġgoal": 1976,
      "abor": 1977,
      "Ġbecome": 1978,
      "Ġsaying": 1979,
      "Ġhelps": 1980,
      "choices": 1981,
      "Ġbelie": 1982,
      "Ġunder": 1983,
      "Ġexplanation": 1984,
      "Ġcameron": 1985,
      "Ġglass": 1986,
      "Ġtopic": 1987,
      "Ġholder": 1988,
      "ency": 1989,
      "Ġterms": 1990,
      "Ġtranslate": 1991,
      "Ġagainst": 1992,
      "Ġvisit": 1993,
      "Ġconvers": 1994,
      "Ġdetermine": 1995,
      "generate": 1996,
      "+]": 1997,
      "lo": 1998,
      "uis": 1999,
      "uary": 2000,
      "ature": 2001,
      "Ġcost": 2002,
      "Ġfre": 2003,
      "ores": 2004,
      "teen": 2005,
      "Ġthin": 2006,
      "asing": 2007,
      "Ġhand": 2008,
      "omes": 2009,
      "iving": 2010,
      "ival": 2011,
      "Ġriver": 2012,
      "Ġfront": 2013,
      "iful": 2014,
      "ifies": 2015,
      "ests": 2016,
      "Ġvir": 2017,
      "Ġchain": 2018,
      "Ġtex": 2019,
      "Ġking": 2020,
      "Ġplan": 2021,
      "Ġexp": 2022,
      "Ġ27": 2023,
      "available": 2024,
      "Ġimagine": 2025,
      "Ġcomput": 2026,
      "Ġadded": 2027,
      "Ġstruct": 2028,
      "Ġgreen": 2029,
      "Ġdetails": 2030,
      "Ġwomen": 2031,
      "Ġpolit": 2032,
      "Ġplants": 2033,
      "Ġwalking": 2034,
      "Ġcomplex": 2035,
      "struct": 2036,
      "Ġcourse": 2037,
      "Ġeagle": 2038,
      "Ġfamilies": 2039,
      "Ġaubrey": 2040,
      "Ġcambridge": 2041,
      "'m": 2042,
      "11": 2043,
      "25": 2044,
      "fort": 2045,
      "ium": 2046,
      "ps": 2047,
      "word": 2048,
      "wards": 2049,
      "Ġ?": 2050,
      "inc": 2051,
      "ones": 2052,
      "Ġwall": 2053,
      "Ġwanted": 2054,
      "Ġpet": 2055,
      "ential": 2056,
      "ended": 2057,
      "Ġhour": 2058,
      "Ġrad": 2059,
      "Ġrepr": 2060,
      "urt": 2061,
      "urch": 2062,
      "une": 2063,
      "ilar": 2064,
      "Ġjum": 2065,
      "Ġseen": 2066,
      "thought": 2067,
      "Ġenough": 2068,
      "Ġunique": 2069,
      "Ġalways": 2070,
      "Ġuser": 2071,
      "who": 2072,
      "Ġclos": 2073,
      "Ġclose": 2074,
      "Ġcommun": 2075,
      "Ġbuy": 2076,
      "Ġemo": 2077,
      "Ġprote": 2078,
      "Ġtalks": 2079,
      "Ġnumbers": 2080,
      "Ġinside": 2081,
      "velop": 2082,
      "Ġpolice": 2083,
      "Ġassoc": 2084,
      "Ġbreak": 2085,
      "Ġauth": 2086,
      "Ġdescription": 2087,
      "Ġoriginal": 2088,
      "Ġuniversity": 2089,
      "\"?": 2090,
      "'ll": 2091,
      "gg": 2092,
      "ians": 2093,
      "ration": 2094,
      "yn": 2095,
      "Ġer": 2096,
      "Ġes": 2097,
      "ination": 2098,
      "input": 2099,
      "inese": 2100,
      "ator": 2101,
      "Ġpen": 2102,
      "itc": 2103,
      "Ġtook": 2104,
      "Ġoften": 2105,
      "Ġep": 2106,
      "ott": 2107,
      "ids": 2108,
      "unch": 2109,
      "ode": 2110,
      "Ġwithin": 2111,
      "Ġchinese": 2112,
      "Ġshare": 2113,
      "Ġnovel": 2114,
      "ored": 2115,
      "Ġtrain": 2116,
      "Ġlik": 2117,
      "owns": 2118,
      "Ġwrong": 2119,
      "izes": 2120,
      "Ġimp": 2121,
      "Ġpartic": 2122,
      "Ġreasonable": 2123,
      "Ġfeeling": 2124,
      "Ġcapitalize": 2125,
      "rael": 2126,
      "ully": 2127,
      "summary": 2128,
      "Ġrequires": 2129,
      "Ġcontinue": 2130,
      "Ġjapanese": 2131,
      "Ġeducational": 2132,
      "Ġmonths": 2133,
      "Ġbeautiful": 2134,
      "Ġauthor": 2135,
      "12": 2136,
      "14": 2137,
      "19": 2138,
      "bs": 2139,
      "bre": 2140,
      "gest": 2141,
      "ible": 2142,
      "ky": 2143,
      "lor": 2144,
      "mm": 2145,
      "mosp": 2146,
      "Ġ:": 2147,
      "Ġtyp": 2148,
      "ined": 2149,
      "Ġsqu": 2150,
      "Ġsitting": 2151,
      "atic": 2152,
      "Ġcoun": 2153,
      "Ġcars": 2154,
      "Ġfur": 2155,
      "Ġfight": 2156,
      "Ġpie": 2157,
      "ither": 2158,
      "ioned": 2159,
      "tead": 2160,
      "Ġgames": 2161,
      "Ġeating": 2162,
      "ives": 2163,
      "Ġrom": 2164,
      "Ġrice": 2165,
      "Ġbeg": 2166,
      "Ġprices": 2167,
      "Ġhealth": 2168,
      "Ġstat": 2169,
      "Ġtem": 2170,
      "Ġatmosp": 2171,
      "Ġlee": 2172,
      "ulate": 2173,
      "Ġdevelop": 2174,
      "Ġspanish": 2175,
      "aves": 2176,
      "Ġacceptable": 2177,
      "Ġscale": 2178,
      "Ġflo": 2179,
      "Ġsimilar": 2180,
      "iii": 2181,
      "Ġdays": 2182,
      "Ġsurf": 2183,
      "Ġinvol": 2184,
      "Ġfavorable": 2185,
      "Ġbaby": 2186,
      "Ġtexas": 2187,
      "Ġatmosphere": 2188,
      "20": 2189,
      "de": 2190,
      "dle": 2191,
      "fully": 2192,
      "iam": 2193,
      "light": 2194,
      "rom": 2195,
      "ract": 2196,
      "rons": 2197,
      "uff": 2198,
      "vir": 2199,
      "vision": 2200,
      "erc": 2201,
      "ested": 2202,
      "Ġfive": 2203,
      "Ġment": 2204,
      "Ġmic": 2205,
      "Ġdire": 2206,
      "Ġisol": 2207,
      "enty": 2208,
      "Ġge": 2209,
      "Ġgod": 2210,
      "Ġegg": 2211,
      "lden": 2212,
      "ument": 2213,
      "ession": 2214,
      "ague": 2215,
      "hern": 2216,
      "Ġsecre": 2217,
      "Ġleast": 2218,
      "there": 2219,
      "Ġmexic": 2220,
      "Ġ24": 2221,
      "Ġalong": 2222,
      "izz": 2223,
      "izing": 2224,
      "Ġpeace": 2225,
      "Ġafric": 2226,
      "Ġplayer": 2227,
      "Ġ195": 2228,
      "Ġmovies": 2229,
      "Ġoffers": 2230,
      "Ġneeded": 2231,
      "Ġpunctuated": 2232,
      "Ġpoint": 2233,
      "Ġcapitalized": 2234,
      "Ġinstead": 2235,
      "Ġservice": 2236,
      "Ġdivide": 2237,
      "Ġstarted": 2238,
      "Ġrefers": 2239,
      "Ġsimplify": 2240,
      "Ġpicture": 2241,
      "Ġnorth": 2242,
      "Ġholiday": 2243,
      "Ġcombine": 2244,
      "Ġaccurate": 2245,
      "Ġeuropean": 2246,
      "Ġrepeat": 2247,
      "Ġvoice": 2248,
      "Ġgovernment": 2249,
      "Ġfifteen": 2250,
      "Ġconversation": 2251,
      ".,": 2252,
      "17": 2253,
      "aq": 2254,
      "ex": 2255,
      "ging": 2256,
      "line": 2257,
      "Ġ#": 2258,
      "Ġ&": 2259,
      "Ġtour": 2260,
      "Ġalex": 2261,
      "Ġsatur": 2262,
      "Ġsatisf": 2263,
      "Ġbur": 2264,
      "Ġpan": 2265,
      "Ġmess": 2266,
      "Ġmult": 2267,
      "Ġdig": 2268,
      "endall": 2269,
      "Ġlake": 2270,
      "oph": 2271,
      "Ġprice": 2272,
      "Ġheard": 2273,
      "Ġstars": 2274,
      "ift": 2275,
      "ried": 2276,
      "aper": 2277,
      "aged": 2278,
      "aced": 2279,
      "Ġtech": 2280,
      "Ġkil": 2281,
      "Ġlearn": 2282,
      "Ġnote": 2283,
      "oken": 2284,
      "mentioned": 2285,
      "Ġgolden": 2286,
      "Ġgramm": 2287,
      "Ġox": 2288,
      "Ġgenerated": 2289,
      "Ġphil": 2290,
      "ensive": 2291,
      "Ġgetting": 2292,
      "Ġcool": 2293,
      "Ġentailed": 2294,
      "Ġsimple": 2295,
      "Ġrecon": 2296,
      "Ġformer": 2297,
      "work": 2298,
      "Ġminister": 2299,
      "Ġstudent": 2300,
      "Ġincrease": 2301,
      "Ġwindows": 2302,
      "Ġbelongs": 2303,
      "Ġdescript": 2304,
      "Ġcells": 2305,
      "Ġcauses": 2306,
      "Ġmembers": 2307,
      "Ġsaturday": 2308,
      "'d": 2309,
      "ais": 2310,
      "hypothesis": 2311,
      "iet": 2312,
      "men": 2313,
      "na": 2314,
      "ray": 2315,
      "ters": 2316,
      "ues": 2317,
      "zech": 2318,
      "Ġbak": 2319,
      "Ġbio": 2320,
      "off": 2321,
      "Ġmot": 2322,
      "Ġmary": 2323,
      "Ġmount": 2324,
      "Ġdie": 2325,
      "Ġdav": 2326,
      "teacher": 2327,
      "Ġthir": 2328,
      "Ġthurs": 2329,
      "Ġisrael": 2330,
      "ality": 2331,
      "Ġnet": 2332,
      "ender": 2333,
      "Ġhor": 2334,
      "Ġyor": 2335,
      "Ġbeach": 2336,
      "imb": 2337,
      "Ġprim": 2338,
      "Ġstay": 2339,
      "ural": 2340,
      "Ġnever": 2341,
      "Ġ13": 2342,
      "esting": 2343,
      "acy": 2344,
      "Ġshirt": 2345,
      "Ġkendall": 2346,
      "orementioned": 2347,
      "istan": 2348,
      "Ġusually": 2349,
      "avel": 2350,
      "Ġarch": 2351,
      "Ġtwenty": 2352,
      "Ġwriting": 2353,
      "Ġaforementioned": 2354,
      "ously": 2355,
      "Ġcontent": 2356,
      "Ġhelped": 2357,
      "Ġgets": 2358,
      "ordan": 2359,
      "Ġbuying": 2360,
      "Ġmarch": 2361,
      "Ġactor": 2362,
      "Ġformed": 2363,
      "epend": 2364,
      "Ġamerica": 2365,
      "Ġholding": 2366,
      "otel": 2367,
      "Ġstreet": 2368,
      "Ġiraq": 2369,
      "Ġpopular": 2370,
      "Ġmarket": 2371,
      "Ġstanding": 2372,
      "Ġpublished": 2373,
      "Ġrespon": 2374,
      "Ġannoun": 2375,
      "Ġpretty": 2376,
      "Ġtelevision": 2377,
      "Ġcomputer": 2378,
      "Ġdescriptive": 2379,
      "Ġthursday": 2380,
      "!!": 2381,
      "co": 2382,
      "ched": 2383,
      "een": 2384,
      "gen": 2385,
      "iated": 2386,
      "like": 2387,
      "make": 2388,
      "part": 2389,
      "uf": 2390,
      "uel": 2391,
      "Ġ)": 2392,
      "Ġton": 2393,
      "Ġterr": 2394,
      "inn": 2395,
      "Ġsuc": 2396,
      "Ġwild": 2397,
      "Ġcuis": 2398,
      "Ġfish": 2399,
      "orted": 2400,
      "Ġmaj": 2401,
      "Ġdish": 2402,
      "Ġdivers": 2403,
      "Ġnest": 2404,
      "Ġling": 2405,
      "Ġlab": 2406,
      "Ġlond": 2407,
      "Ġlung": 2408,
      "ivid": 2409,
      "Ġren": 2410,
      "osion": 2411,
      "eth": 2412,
      "urity": 2413,
      "ods": 2414,
      "Ġconc": 2415,
      "Ġ17": 2416,
      "Ġchamp": 2417,
      "Ġjordan": 2418,
      "Ġteacher": 2419,
      "Ġsever": 2420,
      "Ġlevel": 2421,
      "Ġleague": 2422,
      "thing": 2423,
      "Ġenvir": 2424,
      "Ġtrad": 2425,
      "place": 2426,
      "Ġclub": 2427,
      "Ġimpossible": 2428,
      "Ġbring": 2429,
      "Ġspeed": 2430,
      "Ġphone": 2431,
      "imentum": 2432,
      "Ġscience": 2433,
      "Ġdress": 2434,
      "Ġchem": 2435,
      "Ġcheck": 2436,
      "Ġbelow": 2437,
      "Ġshows": 2438,
      "Ġproducts": 2439,
      "Ġcolle": 2440,
      "Ġpassage": 2441,
      "Ġslow": 2442,
      "Ġvalue": 2443,
      "Ġkids": 2444,
      "Ġaustin": 2445,
      "Ġaustral": 2446,
      "Ġrunning": 2447,
      "resp": 2448,
      "Ġokay": 2449,
      "Ġappear": 2450,
      "Ġeasier": 2451,
      "conom": 2452,
      "Ġsignific": 2453,
      "Ġdiscover": 2454,
      "Ġvarious": 2455,
      "two": 2456,
      "Ġrussian": 2457,
      "Ġmiddle": 2458,
      "Ġepis": 2459,
      "Ġsecret": 2460,
      "Ġreconstruct": 2461,
      "Ġlondon": 2462,
      "Ġenviron": 2463,
      "bill": 2464,
      "dam": 2465,
      "ee": 2466,
      "iot": 2467,
      "tt": 2468,
      "til": 2469,
      "uist": 2470,
      "Ġess": 2471,
      "Ġtaking": 2472,
      "Ġsnow": 2473,
      "Ġcou": 2474,
      "Ġczech": 2475,
      "Ġfar": 2476,
      "Ġbit": 2477,
      "Ġanal": 2478,
      "Ġmother": 2479,
      "Ġdut": 2480,
      "Ġdial": 2481,
      "iction": 2482,
      "Ġlength": 2483,
      "Ġyard": 2484,
      "Ġhen": 2485,
      "Ġstore": 2486,
      "Ġ16": 2487,
      "Ġchrist": 2488,
      "apor": 2489,
      "overs": 2490,
      "ief": 2491,
      "Ġcany": 2492,
      "ounds": 2493,
      "ules": 2494,
      "Ġii": 2495,
      "Ġexce": 2496,
      "Ġalimentum": 2497,
      "Ġaction": 2498,
      "Ġ196": 2499,
      "Ġlocal": 2500,
      "Ġindepend": 2501,
      "Ġindivid": 2502,
      "Ġflow": 2503,
      "Ġsteps": 2504,
      "Ġwaterman": 2505,
      "Ġafterwards": 2506,
      "Ġcapt": 2507,
      "Ġremy": 2508,
      "Ġpresent": 2509,
      "Ġpool": 2510,
      "Ġguit": 2511,
      "Ġmaybe": 2512,
      "Ġwants": 2513,
      "Ġcapitalization": 2514,
      "Ġcamp": 2515,
      "Ġbooks": 2516,
      "Ġearly": 2517,
      "Ġminutes": 2518,
      "Ġclear": 2519,
      "Ġtriple": 2520,
      "Ġserves": 2521,
      "Ġsecurity": 2522,
      "azing": 2523,
      "Ġanimals": 2524,
      "room": 2525,
      "Ġdelight": 2526,
      "summarize": 2527,
      "Ġpictures": 2528,
      "ology": 2529,
      "Ġmoderate": 2530,
      "Ġcurrent": 2531,
      "Ġsoccer": 2532,
      "Ġvibr": 2533,
      "Ġattributes": 2534,
      "Ġprevious": 2535,
      "Ġsurface": 2536,
      "Ġisolate": 2537,
      "Ġyork": 2538,
      "Ġcuisine": 2539,
      "18": 2540,
      "32": 2541,
      "cut": 2542,
      "ches": 2543,
      "ges": 2544,
      "hol": 2545,
      "ially": 2546,
      "oon": 2547,
      "rup": 2548,
      "with": 2549,
      "yne": 2550,
      "Ġos": 2551,
      "hel": 2552,
      "inary": 2553,
      "Ġsour": 2554,
      "Ġcame": 2555,
      "Ġfly": 2556,
      "Ġface": 2557,
      "Ġba": 2558,
      "Ġben": 2559,
      "Ġbac": 2560,
      "Ġang": 2561,
      "Ġmix": 2562,
      "Ġtom": 2563,
      "Ġnation": 2564,
      "Ġland": 2565,
      "Ġeast": 2566,
      "Ġeconom": 2567,
      "iven": 2568,
      "Ġrain": 2569,
      "outh": 2570,
      "Ġfriday": 2571,
      "iforn": 2572,
      "iles": 2573,
      "Ġvide": 2574,
      "Ġseed": 2575,
      "Ġkai": 2576,
      "Ġleo": 2577,
      "ulation": 2578,
      "Ġdef": 2579,
      "Ġdece": 2580,
      "Ġtry": 2581,
      "ability": 2582,
      "Ġintr": 2583,
      "Ġcaliforn": 2584,
      "Ġparents": 2585,
      "Ġblack": 2586,
      "onding": 2587,
      "Ġsummarize": 2588,
      "Ġagree": 2589,
      "Ġperi": 2590,
      "Ġfinally": 2591,
      "Ġemb": 2592,
      "Ġproject": 2593,
      "Ġskate": 2594,
      "Ġattack": 2595,
      "Ġ[+]": 2596,
      "Ġsometimes": 2597,
      "ifying": 2598,
      "Ġexplain": 2599,
      "Ġshopping": 2600,
      "Ġlargest": 2601,
      "Ġelabor": 2602,
      "Ġdecided": 2603,
      "Ġwalk": 2604,
      "Ġelectric": 2605,
      "Ġlots": 2606,
      "Ġcontrol": 2607,
      "Ġtrees": 2608,
      "Ġpublic": 2609,
      "Ġphotos": 2610,
      "Ġrobin": 2611,
      "Ġgerman": 2612,
      "Ġjudge": 2613,
      "plicit": 2614,
      "Ġwondering": 2615,
      "Ġtechn": 2616,
      "Ġsuccess": 2617,
      "Ġmajor": 2618,
      "Ġseveral": 2619,
      "Ġsignificant": 2620,
      "Ġcalifornia": 2621,
      "200": 2622,
      "bor": 2623,
      "cus": 2624,
      "lic": 2625,
      "ma": 2626,
      "mark": 2627,
      "ns": 2628,
      "nes": 2629,
      "right": 2630,
      "round": 2631,
      "tal": 2632,
      "ygen": 2633,
      "Ġut": 2634,
      "Ġtur": 2635,
      "Ġsof": 2636,
      "Ġsch": 2637,
      "Ġsym": 2638,
      "erv": 2639,
      "Ġcut": 2640,
      "Ġcart": 2641,
      "rew": 2642,
      "Ġfyne": 2643,
      "Ġbag": 2644,
      "Ġbase": 2645,
      "Ġbought": 2646,
      "Ġpal": 2647,
      "orr": 2648,
      "Ġmut": 2649,
      "ley": 2650,
      "Ġdise": 2651,
      "tech": 2652,
      "Ġtoy": 2653,
      "Ġiss": 2654,
      "Ġhands": 2655,
      "Ġhotel": 2656,
      "ivity": 2657,
      "Ġrefer": 2658,
      "Ġquick": 2659,
      "Ġqueen": 2660,
      "etic": 2661,
      "igh": 2662,
      "umin": 2663,
      "oved": 2664,
      "Ġjack": 2665,
      "Ġcanada": 2666,
      "Ġsea": 2667,
      "Ġled": 2668,
      "Ġcomes": 2669,
      "Ġ28": 2670,
      "Ġuntil": 2671,
      "Ġsold": 2672,
      "els": 2673,
      "Ġopin": 2674,
      "plies": 2675,
      "Ġprep": 2676,
      "uction": 2677,
      "Ġamong": 2678,
      "Ġfew": 2679,
      "Ġbro": 2680,
      "Ġgeneral": 2681,
      "Ġmoving": 2682,
      "bert": 2683,
      "Ġfriendly": 2684,
      "Ġsky": 2685,
      "Ġbirds": 2686,
      "Ġfunny": 2687,
      "Ġdied": 2688,
      "Ġdogs": 2689,
      "Ġstream": 2690,
      "Ġhappened": 2691,
      "Ġveh": 2692,
      "Ġspecifically": 2693,
      "Ġperformance": 2694,
      "Ġmilit": 2695,
      "Ġexciting": 2696,
      "Ġreleased": 2697,
      "Ġchanges": 2698,
      "Ġmentioned": 2699,
      "Ġlogically": 2700,
      "Ġseparate": 2701,
      "Ġfurther": 2702,
      "Ġmentions": 2703,
      "Ġoxygen": 2704,
      "Ġthird": 2705,
      "Ġlinguist": 2706,
      "Ġchemical": 2707,
      "Ġdialog": 2708,
      "Ġvibrant": 2709,
      ".;": 2710,
      "26": 2711,
      "36": 2712,
      "38": 2713,
      "bu": 2714,
      "book": 2715,
      "bian": 2716,
      "field": 2717,
      "gre": 2718,
      "ja": 2719,
      "oes": 2720,
      "ole": 2721,
      "Ġing": 2722,
      "Ġai": 2723,
      "Ġsle": 2724,
      "Ġsar": 2725,
      "ery": 2726,
      "Ġcertain": 2727,
      "Ġfut": 2728,
      "iter": 2729,
      "itable": 2730,
      "Ġmorn": 2731,
      "Ġtold": 2732,
      "ald": 2733,
      "Ġgal": 2734,
      "Ġlat": 2735,
      "Ġlost": 2736,
      "lla": 2737,
      "Ġroy": 2738,
      "Ġriding": 2739,
      "Ġriley": 2740,
      "Ġonce": 2741,
      "Ġstuff": 2742,
      "vey": 2743,
      "Ġconver": 2744,
      "Ġchair": 2745,
      "riate": 2746,
      "esse": 2747,
      "Ġwashing": 2748,
      "Ġju": 2749,
      "Ġdoct": 2750,
      "Ġsex": 2751,
      "Ġsell": 2752,
      "ills": 2753,
      "Ġwel": 2754,
      "Ġweather": 2755,
      "Ġtrying": 2756,
      "Ġaltern": 2757,
      "elt": 2758,
      "ples": 2759,
      "Ġwrote": 2760,
      "Ġcorresp": 2761,
      "Ġcla": 2762,
      "Ġacid": 2763,
      "Ġtherefore": 2764,
      "Ġcontain": 2765,
      "Ġcontrib": 2766,
      "Ġparaph": 2767,
      "Ġpositively": 2768,
      "Ġenter": 2769,
      "Ġprob": 2770,
      "Ġformulate": 2771,
      "Ġpoll": 2772,
      "Ġze": 2773,
      "Ġcenter": 2774,
      "Ġelements": 2775,
      "Ġexample": 2776,
      "Ġidea": 2777,
      "board": 2778,
      "Ġnecessary": 2779,
      "Ġsweetie": 2780,
      "Ġprofession": 2781,
      "Ġestab": 2782,
      "Ġbehind": 2783,
      "Ġhours": 2784,
      "Ġrepres": 2785,
      "Ġimpact": 2786,
      "Ġphilip": 2787,
      "Ġlungs": 2788,
      "Ġguitar": 2789,
      "Ġbailey": 2790,
      "Ġdecember": 2791,
      "Ġelaborate": 2792,
      "Ġdialogue": 2793,
      "Ġmorning": 2794,
      "75": 2795,
      "ding": 2796,
      "dom": 2797,
      "did": 2798,
      "go": 2799,
      "mon": 2800,
      "oen": 2801,
      "rases": 2802,
      "sis": 2803,
      "ties": 2804,
      "zy": 2805,
      "zer": 2806,
      "Ġ$": 2807,
      "Ġ`": 2808,
      "Ġtou": 2809,
      "iny": 2810,
      "Ġsil": 2811,
      "Ġsound": 2812,
      "Ġsyd": 2813,
      "rec": 2814,
      "Ġfac": 2815,
      "Ġbust": 2816,
      "Ġbench": 2817,
      "Ġbike": 2818,
      "itle": 2819,
      "Ġmom": 2820,
      "Ġmath": 2821,
      "Ġdue": 2822,
      "tee": 2823,
      "Ġinfl": 2824,
      "ica": 2825,
      "Ġhot": 2826,
      "Ġgave": 2827,
      "question": 2828,
      "use": 2829,
      "Ġrace": 2830,
      "Ġwhose": 2831,
      "Ġitself": 2832,
      "lym": 2833,
      "Ġquinn": 2834,
      "opriate": 2835,
      "Ġstri": 2836,
      "Ġfocus": 2837,
      "chan": 2838,
      "Ġfrance": 2839,
      "iff": 2840,
      "Ġconne": 2841,
      "acceptable": 2842,
      "Ġshar": 2843,
      "Ġsharing": 2844,
      "ieve": 2845,
      "Ġselect": 2846,
      "Ġsearch": 2847,
      "Ġcomfort": 2848,
      "Ġworks": 2849,
      "Ġmeas": 2850,
      "Ġmember": 2851,
      "Ġmechan": 2852,
      "Ġens": 2853,
      "Ġtracy": 2854,
      "ube": 2855,
      "sib": 2856,
      "pro": 2857,
      "Ġpreced": 2858,
      "Ġphoen": 2859,
      "Ġaddison": 2860,
      "Ġ30": 2861,
      "Ġverb": 2862,
      "Ġflu": 2863,
      "Ġstring": 2864,
      "Ġneeds": 2865,
      "Ġsafe": 2866,
      "Ġsimply": 2867,
      "Ġequip": 2868,
      "Ġremains": 2869,
      "Ġactress": 2870,
      "Ġbox": 2871,
      "Ġpresented": 2872,
      "Ġlooks": 2873,
      "Ġmonday": 2874,
      "Ġmeters": 2875,
      "Ġ2006": 2876,
      "Ġsituated": 2877,
      "anced": 2878,
      "Ġitaly": 2879,
      "Ġgiraff": 2880,
      "Ġinternet": 2881,
      "Ġswim": 2882,
      "cape": 2883,
      "does": 2884,
      "Ġbriefly": 2885,
      "Ġchanged": 2886,
      "Ġwaiting": 2887,
      "Ġmeeting": 2888,
      "Ġpressure": 2889,
      "Ġhistory": 2890,
      "Ġcommunity": 2891,
      "Ġtradition": 2892,
      "Ġcouple": 2893,
      "Ġwashington": 2894,
      "Ġsydney": 2895,
      "Ġphoenix": 2896,
      "76": 2897,
      "ault": 2898,
      "che": 2899,
      "could": 2900,
      "iable": 2901,
      "ients": 2902,
      "more": 2903,
      "most": 2904,
      "ros": 2905,
      "rac": 2906,
      "wa": 2907,
      "wood": 2908,
      "you": 2909,
      "yle": 2910,
      "zz": 2911,
      "Ġten": 2912,
      "hem": 2913,
      "atches": 2914,
      "ising": 2915,
      "Ġcop": 2916,
      "Ġcoc": 2917,
      "Ġfarm": 2918,
      "Ġburn": 2919,
      "Ġple": 2920,
      "orter": 2921,
      "Ġmass": 2922,
      "Ġmater": 2923,
      "Ġda": 2924,
      "Ġdouble": 2925,
      "Ġhar": 2926,
      "Ġhun": 2927,
      "Ġhope": 2928,
      "omb": 2929,
      "Ġlay": 2930,
      "Ġlater": 2931,
      "Ġlady": 2932,
      "Ġeither": 2933,
      "Ġyet": 2934,
      "quid": 2935,
      "uss": 2936,
      "ots": 2937,
      "Ġbeer": 2938,
      "Ġreac": 2939,
      "Ġrepl": 2940,
      "Ġquality": 2941,
      "Ġforce": 2942,
      "iger": 2943,
      "Ġconven": 2944,
      "Ġasia": 2945,
      "Ġ100": 2946,
      "ria": 2947,
      "Ġwaste": 2948,
      "Ġjames": 2949,
      "Ġdep": 2950,
      "Ġip": 2951,
      "Ġexerc": 2952,
      "Ġliquid": 2953,
      "itely": 2954,
      "ude": 2955,
      "Ġspir": 2956,
      "Ġspoken": 2957,
      "Ġoppos": 2958,
      "Ġgrows": 2959,
      "ables": 2960,
      "Ġbecomes": 2961,
      "Ġamazing": 2962,
      "Ġaffect": 2963,
      "Ġfeatur": 2964,
      "Ġoffering": 2965,
      "Ġrole": 2966,
      "Ġnegatively": 2967,
      "Ġletters": 2968,
      "Ġscre": 2969,
      "Ġcoast": 2970,
      "Ġhappens": 2971,
      "asket": 2972,
      "Ġkeys": 2973,
      "Ġsaw": 2974,
      "?\",": 2975,
      "Ġhigher": 2976,
      "lands": 2977,
      "Ġskyl": 2978,
      "Ġcreated": 2979,
      "Ġanyone": 2980,
      "Ġsuitable": 2981,
      "Ġcasey": 2982,
      "Ġrelations": 2983,
      "Ġmeth": 2984,
      "Ġincluding": 2985,
      "Ġglob": 2986,
      "Ġ2005": 2987,
      "Ġsmaller": 2988,
      "Ġwarm": 2989,
      "Ġwinning": 2990,
      "Ġappropriate": 2991,
      "Ġdinner": 2992,
      "capital": 2993,
      "Ġexcited": 2994,
      "Ġavailable": 2995,
      "Ġsuggested": 2996,
      "Ġnecessarily": 2997,
      "Ġactivities": 2998,
      "Ġprogram": 2999,
      "Ġdecrease": 3000,
      "Ġdecreases": 3001,
      "Ġfitz": 3002,
      "Ġthinking": 3003,
      "Ġbegin": 3004,
      "Ġmexico": 3005,
      "Ġmessage": 3006,
      "iety": 3007,
      "Ġmotor": 3008,
      "Ġdavid": 3009,
      "Ġchampions": 3010,
      "Ġenvironment": 3011,
      "Ġdutch": 3012,
      "Ġdelightful": 3013,
      "cutive": 3014,
      "Ġvideo": 3015,
      "Ġopinion": 3016,
      "Ġcorresponding": 3017,
      "Ġ``": 3018,
      "'.": 3019,
      "ba": 3020,
      "bol": 3021,
      "based": 3022,
      "cr": 3023,
      "car": 3024,
      "ev": 3025,
      "ems": 3026,
      "from": 3027,
      "ham": 3028,
      "ior": 3029,
      "lrb": 3030,
      "my": 3031,
      "oe": 3032,
      "oid": 3033,
      "pose": 3034,
      "rrb": 3035,
      "sp": 3036,
      "time": 3037,
      "title": 3038,
      "vant": 3039,
      "wal": 3040,
      "xx": 3041,
      "Ġtim": 3042,
      "Ġapr": 3043,
      "Ġaward": 3044,
      "Ġcir": 3045,
      "Ġcry": 3046,
      "Ġfest": 3047,
      "Ġfill": 3048,
      "Ġfelt": 3049,
      "Ġbi": 3050,
      "Ġbes": 3051,
      "Ġbay": 3052,
      "Ġbank": 3053,
      "Ġbasket": 3054,
      "Ġpu": 3055,
      "Ġperm": 3056,
      "Ġmr": 3057,
      "Ġmir": 3058,
      "Ġmach": 3059,
      "Ġmatch": 3060,
      "Ġmouth": 3061,
      "Ġdone": 3062,
      "Ġdance": 3063,
      "Ġtotal": 3064,
      "icated": 3065,
      "Ġhug": 3066,
      "Ġgun": 3067,
      "Ġeye": 3068,
      "Ġrange": 3069,
      "Ġbegan": 3070,
      "Ġrelease": 3071,
      "Ġreach": 3072,
      "opt": 3073,
      "imin": 3074,
      "Ġonline": 3075,
      "Ġforward": 3076,
      "Ġstation": 3077,
      "veland": 3078,
      "vember": 3079,
      "Ġfore": 3080,
      "Ġfrank": 3081,
      "Ġconst": 3082,
      "ester": 3083,
      "ively": 3084,
      "Ġchurch": 3085,
      "Ġabs": 3086,
      "ager": 3087,
      "Ġjour": 3088,
      "Ġjesse": 3089,
      "Ġshorter": 3090,
      "Ġcancer": 3091,
      "tery": 3092,
      "Ġatom": 3093,
      "Ġseven": 3094,
      "Ġcoming": 3095,
      "Ġnovember": 3096,
      "Ġexpe": 3097,
      "Ġgives": 3098,
      "istration": 3099,
      "Ġalright": 3100,
      "Ġpost": 3101,
      "Ġposition": 3102,
      "itect": 3103,
      "Ġmanuf": 3104,
      "Ġmanager": 3105,
      "ledge": 3106,
      "Ġgoes": 3107,
      "ploy": 3108,
      "Ġoutdo": 3109,
      "Ġadm": 3110,
      "Ġbecame": 3111,
      "Ġ''": 3112,
      "arding": 3113,
      "Ġimplicit": 3114,
      "Ġbrowns": 3115,
      "Ġspeech": 3116,
      "Ġmoves": 3117,
      "Ġprovides": 3118,
      "appo": 3119,
      "Ġcountries": 3120,
      "Ġcommit": 3121,
      "negative": 3122,
      "Ġparts": 3123,
      "Ġflat": 3124,
      "Ġdrug": 3125,
      "Ġdriving": 3126,
      "Ġcharles": 3127,
      "Ġsmo": 3128,
      "Ġkept": 3129,
      "Ġmostly": 3130,
      "Ġbigger": 3131,
      "Ġmusical": 3132,
      "Ġready": 3133,
      "Ġcentral": 3134,
      "Ġhimself": 3135,
      "Ġrelax": 3136,
      "Ġmetal": 3137,
      "iently": 3138,
      "Ġlarger": 3139,
      "Ġsinger": 3140,
      "Ġmaint": 3141,
      "Ġcleveland": 3142,
      "Ġtried": 3143,
      "Ġmusician": 3144,
      "Ġinvest": 3145,
      "selves": 3146,
      "ground": 3147,
      "Ġincreases": 3148,
      "Ġveget": 3149,
      "Ġgrowth": 3150,
      "Ġappears": 3151,
      "Ġpopulation": 3152,
      "Ġliving": 3153,
      "Ġpatrons": 3154,
      "Ġindicates": 3155,
      "Ġpotential": 3156,
      "Ġactivity": 3157,
      "Ġloch": 3158,
      "Ġemotion": 3159,
      "Ġliked": 3160,
      "Ġroman": 3161,
      "Ġtemper": 3162,
      "Ġdevelopment": 3163,
      "Ġafrican": 3164,
      "Ġaustralian": 3165,
      "billies": 3166,
      "Ġingred": 3167,
      "Ġparaphrases": 3168,
      "Ġpreceding": 3169,
      "Ġrelationship": 3170,
      "Ġglobal": 3171,
      "capitalize": 3172,
      "Ġmanufact": 3173,
      "\";": 3174,
      "23": 3175,
      "29": 3176,
      "30": 3177,
      "47": 3178,
      "64": 3179,
      "au": 3180,
      "bl": 3181,
      "born": 3182,
      "cu": 3183,
      "dr": 3184,
      "den": 3185,
      "med": 3186,
      "nam": 3187,
      "por": 3188,
      "pet": 3189,
      "set": 3190,
      "Ġ@": 3191,
      "Ġol": 3192,
      "Ġtas": 3193,
      "Ġtree": 3194,
      "Ġaud": 3195,
      "Ġaug": 3196,
      "ini": 3197,
      "Ġsug": 3198,
      "Ġsix": 3199,
      "eral": 3200,
      "ators": 3201,
      "Ġcul": 3202,
      "Ġcover": 3203,
      "rel": 3204,
      "Ġbin": 3205,
      "Ġbal": 3206,
      "Ġbath": 3207,
      "ana": 3208,
      "anch": 3209,
      "Ġpur": 3210,
      "Ġpage": 3211,
      "Ġpack": 3212,
      "Ġdv": 3213,
      "Ġdest": 3214,
      "Ġdry": 3215,
      "Ġinn": 3216,
      "Ġtool": 3217,
      "ico": 3218,
      "icy": 3219,
      "Ġhal": 3220,
      "Ġham": 3221,
      "Ġhill": 3222,
      "Ġhab": 3223,
      "Ġharm": 3224,
      "Ġgather": 3225,
      "Ġlas": 3226,
      "owl": 3227,
      "ivia": 3228,
      "used": 3229,
      "Ġride": 3230,
      "Ġrocks": 3231,
      "otto": 3232,
      "Ġreport": 3233,
      "aylor": 3234,
      "Ġhear": 3235,
      "Ġheav": 3236,
      "Ġstage": 3237,
      "Ġstocks": 3238,
      "key": 3239,
      "Ġconcer": 3240,
      "Ġ11": 3241,
      "illed": 3242,
      "Ġvict": 3243,
      "Ġable": 3244,
      "Ġjune": 3245,
      "Ġdoc": 3246,
      "anta": 3247,
      "antic": 3248,
      "herlands": 3249,
      "Ġkore": 3250,
      "Ġweight": 3251,
      "Ġexe": 3252,
      "Ġexact": 3253,
      "Ġtray": 3254,
      "Ġtrade": 3255,
      "Ġtravel": 3256,
      "Ġalph": 3257,
      "ustry": 3258,
      "Ġpossib": 3259,
      "Ġsoil": 3260,
      "Ġarms": 3261,
      "play": 3262,
      "Ġgrand": 3263,
      "Ġgrass": 3264,
      "ably": 3265,
      "Ġadult": 3266,
      "Ġacr": 3267,
      "Ġactions": 3268,
      "Ġoh": 3269,
      "Ġamount": 3270,
      "Ġamster": 3271,
      "Ġfeat": 3272,
      "Ġcompet": 3273,
      "ogen": 3274,
      "Ġchoice": 3275,
      "Ġflight": 3276,
      "Ġdraw": 3277,
      "order": 3278,
      "Ġthemselves": 3279,
      "Ġcoll": 3280,
      "Ġdisappo": 3281,
      "Ġaccess": 3282,
      "Ġyellow": 3283,
      "Ġworked": 3284,
      "bruary": 3285,
      "Ġdiff": 3286,
      "Ġthanks": 3287,
      "Ġknowing": 3288,
      "Ġknowledge": 3289,
      "ission": 3290,
      "Ġlaund": 3291,
      "Ġinteresting": 3292,
      "Ġcreating": 3293,
      "ification": 3294,
      "Ġreading": 3295,
      "Ġcollect": 3296,
      "Ġlonger": 3297,
      "Ġhighly": 3298,
      "Ġthroughout": 3299,
      "Ġtrip": 3300,
      "Ġ2012": 3301,
      "ancing": 3302,
      "Ġelse": 3303,
      "Ġcurry": 3304,
      "coming": 3305,
      "Ġincreasing": 3306,
      "Ġputting": 3307,
      "Ġautom": 3308,
      "Ġcourt": 3309,
      "Ġmovement": 3310,
      "Ġproduced": 3311,
      "Ġphoto": 3312,
      "Ġcolorful": 3313,
      "year": 3314,
      "Ġrelevant": 3315,
      "Ġpaint": 3316,
      "Ġincor": 3317,
      "Ġbirthday": 3318,
      "Ġwait": 3319,
      "Ġnewsp": 3320,
      "Ġcooking": 3321,
      "Ġnationality": 3322,
      "Ġreported": 3323,
      "Ġreceive": 3324,
      "Ġmagn": 3325,
      "Ġdirector": 3326,
      "Ġofficials": 3327,
      "Ġportray": 3328,
      "Ġfrequ": 3329,
      "Ġvirus": 3330,
      "Ġstructure": 3331,
      "Ġpolitic": 3332,
      "Ġassociated": 3333,
      "Ġfloor": 3334,
      "Ġannounced": 3335,
      "Ġdiverse": 3336,
      "Ġepisode": 3337,
      "Ġindividual": 3338,
      "Ġperiod": 3339,
      "Ġmilitary": 3340,
      "Ġsleep": 3341,
      "Ġalternative": 3342,
      "Ġzeal": 3343,
      "Ġphilipp": 3344,
      "Ġtouch": 3345,
      "Ġbustling": 3346,
      "Ġequipment": 3347,
      "Ġmaterial": 3348,
      "Ġskylar": 3349,
      "Ġfitzbillies": 3350,
      "Ġbasketball": 3351,
      "Ġculinary": 3352,
      "Ġalphab": 3353,
      "Ġamsterdam": 3354,
      "!\"": 3355,
      "85": 3356,
      "ael": 3357,
      "bur": 3358,
      "ctions": 3359,
      "cient": 3360,
      "dd": 3361,
      "date": 3362,
      "ew": 3363,
      "ees": 3364,
      "hus": 3365,
      "iant": 3366,
      "kmen": 3367,
      "mas": 3368,
      "mic": 3369,
      "pte": 3370,
      "person": 3371,
      "ror": 3372,
      "some": 3373,
      "tic": 3374,
      "was": 3375,
      "Ġtaylor": 3376,
      "Ġach": 3377,
      "inted": 3378,
      "Ġsn": 3379,
      "Ġsus": 3380,
      "Ġsir": 3381,
      "ern": 3382,
      "ato": 3383,
      "Ġwife": 3384,
      "ises": 3385,
      "Ġcm": 3386,
      "Ġcycle": 3387,
      "Ġfat": 3388,
      "Ġbul": 3389,
      "Ġpup": 3390,
      "Ġpath": 3391,
      "ites": 3392,
      "orry": 3393,
      "Ġmur": 3394,
      "Ġdark": 3395,
      "Ġdaught": 3396,
      "Ġisn": 3397,
      "ales": 3398,
      "Ġnons": 3399,
      "iced": 3400,
      "icip": 3401,
      "icient": 3402,
      "icycle": 3403,
      "Ġhall": 3404,
      "Ġhond": 3405,
      "Ġhosp": 3406,
      "Ġgar": 3407,
      "Ġles": 3408,
      "Ġlands": 3409,
      "llo": 3410,
      "Ġrac": 3411,
      "Ġrais": 3412,
      "ida": 3413,
      "Ġanswered": 3414,
      "oses": 3415,
      "irm": 3416,
      "ops": 3417,
      "Ġforest": 3418,
      "Ġheld": 3419,
      "Ġstom": 3420,
      "Ġstad": 3421,
      "Ġstyle": 3422,
      "add": 3423,
      "change": 3424,
      "utral": 3425,
      "oles": 3426,
      "olution": 3427,
      "Ġconse": 3428,
      "uments": 3429,
      "iling": 3430,
      "Ġview": 3431,
      "Ġchief": 3432,
      "aps": 3433,
      "Ġwasn": 3434,
      "tering": 3435,
      "Ġsele": 3436,
      "Ġsepte": 3437,
      "Ġplate": 3438,
      "Ġleave": 3439,
      "Ġdelect": 3440,
      "Ġ21": 3441,
      "Ġ25": 3442,
      "Ġunacceptable": 3443,
      "asts": 3444,
      "Ġolym": 3445,
      "Ġimpr": 3446,
      "Ġimpress": 3447,
      "Ġfebruary": 3448,
      "ogn": 3449,
      "cles": 3450,
      "clus": 3451,
      "Ġphys": 3452,
      "000": 3453,
      "Ġrobert": 3454,
      "ensical": 3455,
      "ensions": 3456,
      "Ġscore": 3457,
      "Ġscient": 3458,
      "Ġindustry": 3459,
      "Ġrese": 3460,
      "Ġdra": 3461,
      "Ġcold": 3462,
      "Ġdiss": 3463,
      "Ġsmok": 3464,
      "Ġevapor": 3465,
      "Ġperfect": 3466,
      "Ġemail": 3467,
      "Ġforms": 3468,
      "Ġfeelings": 3469,
      "Ġjoin": 3470,
      "Ġskin": 3471,
      "Ġleading": 3472,
      "Ġattract": 3473,
      "Ġanything": 3474,
      "Ġ[-": 3475,
      "Ġconsum": 3476,
      "Ġexplosion": 3477,
      "Ġrelig": 3478,
      "Ġrelated": 3479,
      "phone": 3480,
      "Ġsurround": 3481,
      "Ġinclude": 3482,
      "Ġproperty": 3483,
      "Ġproperties": 3484,
      "Ġ2010": 3485,
      "Ġuk": 3486,
      "Ġelement": 3487,
      "enced": 3488,
      "mei": 3489,
      "Ġdefinitely": 3490,
      "Ġtowards": 3491,
      "Ġmoon": 3492,
      "Ġolder": 3493,
      "Ġsongs": 3494,
      "Ġtreat": 3495,
      "Ġorganization": 3496,
      "Ġdiscuss": 3497,
      "Ġfavorite": 3498,
      "Ġindicate": 3499,
      "Ġelectrical": 3500,
      "Ġwoods": 3501,
      "Ġideal": 3502,
      "Ġcurrently": 3503,
      "Ġadvent": 3504,
      "Ġcookies": 3505,
      "Ġgenre": 3506,
      "solve": 3507,
      "ydr": 3508,
      "Ġculture": 3509,
      "Ġbattle": 3510,
      "Ġpolitical": 3511,
      "Ġemotions": 3512,
      "Ġtypes": 3513,
      "Ġsquare": 3514,
      "Ġpiece": 3515,
      "Ġeggs": 3516,
      "Ġarchitect": 3517,
      "Ġcollege": 3518,
      "Ġbacon": 3519,
      "Ġseeds": 3520,
      "Ġturkmen": 3521,
      "Ġvehicle": 3522,
      "Ġroyal": 3523,
      "Ġclaim": 3524,
      "Ġinflu": 3525,
      "Ġmechanical": 3526,
      "Ġgiraffe": 3527,
      "Ġconveniently": 3528,
      "Ġfestival": 3529,
      "Ġmachine": 3530,
      "Ġaugust": 3531,
      "Ġacross": 3532,
      "Ġfeatured": 3533,
      "Ġhospital": 3534,
      "Ġseptember": 3535,
      "Ġdelectable": 3536,
      "Ġolymp": 3537,
      "01": 3538,
      "04": 3539,
      "37": 3540,
      "43": 3541,
      "80": 3542,
      "90": 3543,
      "but": 3544,
      "bel": 3545,
      "col": 3546,
      "come": 3547,
      "fred": 3548,
      "gh": 3549,
      "given": 3550,
      "ober": 3551,
      "po": 3552,
      "pre": 3553,
      "rop": 3554,
      "uate": 3555,
      "water": 3556,
      "ze": 3557,
      "Ġum": 3558,
      "Ġtenn": 3559,
      "ening": 3560,
      "Ġsum": 3561,
      "Ġsick": 3562,
      "Ġsorry": 3563,
      "ised": 3564,
      "Ġcas": 3565,
      "Ġcow": 3566,
      "Ġciv": 3567,
      "Ġcath": 3568,
      "Ġcases": 3569,
      "ready": 3570,
      "Ġfig": 3571,
      "Ġfans": 3572,
      "Ġfaster": 3573,
      "Ġbott": 3574,
      "oft": 3575,
      "Ġpay": 3576,
      "Ġpizz": 3577,
      "itr": 3578,
      "itor": 3579,
      "itch": 3580,
      "Ġmich": 3581,
      "Ġded": 3582,
      "Ġdom": 3583,
      "Ġdang": 3584,
      "Ġinf": 3585,
      "Ġinj": 3586,
      "Ġinit": 3587,
      "Ġtower": 3588,
      "Ġnort": 3589,
      "Ġnarr": 3590,
      "icult": 3591,
      "Ġhoc": 3592,
      "Ġhost": 3593,
      "Ġhurt": 3594,
      "Ġgard": 3595,
      "omas": 3596,
      "Ġlim": 3597,
      "Ġlens": 3598,
      "owing": 3599,
      "Ġeu": 3600,
      "Ġeyes": 3601,
      "Ġrow": 3602,
      "Ġbear": 3603,
      "idence": 3604,
      "Ġitems": 3605,
      "cts": 3606,
      "ctober": 3607,
      "Ġprot": 3608,
      "Ġprime": 3609,
      "Ġprize": 3610,
      "unk": 3611,
      "unt": 3612,
      "erse": 3613,
      "ades": 3614,
      "Ġneur": 3615,
      "Ġconvey": 3616,
      "Ġvan": 3617,
      "Ġchann": 3618,
      "agn": 3619,
      "aging": 3620,
      "acc": 3621,
      "Ġshap": 3622,
      "Ġkong": 3623,
      "Ġleaves": 3624,
      "Ġcomic": 3625,
      "Ġdeal": 3626,
      "Ġmel": 3627,
      "Ġmeal": 3628,
      "Ġexh": 3629,
      "Ġenc": 3630,
      "Ġunit": 3631,
      "Ġalready": 3632,
      "Ġsoon": 3633,
      "Ġarg": 3634,
      "Ġspend": 3635,
      "Ġspot": 3636,
      "astic": 3637,
      "acter": 3638,
      "aker": 3639,
      "ublic": 3640,
      "ava": 3641,
      "Ġcloud": 3642,
      "Ġclimb": 3643,
      "Ġoctober": 3644,
      "Ġimplies": 3645,
      "Ġplayers": 3646,
      "Ġcompan": 3647,
      "Ġbrand": 3648,
      "Ġ194": 3649,
      "pty": 3650,
      "Ġengaged": 3651,
      "Ġtextual": 3652,
      "Ġhelping": 3653,
      "new": 3654,
      "ultane": 3655,
      "Ġindia": 3656,
      "Ġresour": 3657,
      "Ġcra": 3658,
      "Ġsolid": 3659,
      "Ġaccident": 3660,
      "Ġsimultane": 3661,
      "Ġempty": 3662,
      "Ġrecover": 3663,
      "Ġrecogn": 3664,
      "Ġlaug": 3665,
      "Ġshorts": 3666,
      "Ġrights": 3667,
      "Ġsubst": 3668,
      "Ġpassed": 3669,
      "posed": 3670,
      "Ġholds": 3671,
      "Ġexperi": 3672,
      "Ġassist": 3673,
      "Ġsunday": 3674,
      "Ġelev": 3675,
      "Ġwindow": 3676,
      "Ġsweat": 3677,
      "Ġmole": 3678,
      "Ġrunway": 3679,
      "Ġdelic": 3680,
      "Ġsouthern": 3681,
      "Ġgrowing": 3682,
      "Ġrequire": 3683,
      "Ġstarts": 3684,
      "Ġstarting": 3685,
      "Ġperforming": 3686,
      "Ġeager": 3687,
      "Ġjanuary": 3688,
      "Ġstopped": 3689,
      "Ġthoughts": 3690,
      "Ġobjects": 3691,
      "Ġrussia": 3692,
      "solution": 3693,
      "Ġpowerful": 3694,
      "Ġvolume": 3695,
      "Ġreturned": 3696,
      "Ġvalidate": 3697,
      "Ġcultural": 3698,
      "Ġsteel": 3699,
      "Ġhistor": 3700,
      "Ġbelieve": 3701,
      "Ġjumping": 3702,
      "Ġclosed": 3703,
      "itchen": 3704,
      "Ġlikes": 3705,
      "Ġcounter": 3706,
      "Ġsimilarity": 3707,
      "Ġmulti": 3708,
      "Ġkilomet": 3709,
      "Ġbakers": 3710,
      "Ġmountains": 3711,
      "Ġhorse": 3712,
      "Ġanaly": 3713,
      "Ġeconomic": 3714,
      "Ġagreement": 3715,
      "Ġskateboard": 3716,
      "Ġdisease": 3717,
      "Ġsarah": 3718,
      "Ġjuly": 3719,
      "problem": 3720,
      "Ġdaily": 3721,
      "Ġreplaced": 3722,
      "Ġfeatures": 3723,
      "Ġchampionship": 3724,
      "Ġdifficult": 3725,
      "Ġlaundry": 3726,
      "Ġnonsensical": 3727,
      "Ġstomach": 3728,
      "Ġresearch": 3729,
      "Ġcivil": 3730,
      "Ġnorthern": 3731,
      "Ġsimultaneously": 3732,
      "']": 3733,
      "21": 3734,
      "24": 3735,
      "bles": 3736,
      "cules": 3737,
      "ember": 3738,
      "gers": 3739,
      "gment": 3740,
      "iest": 3741,
      "kn": 3742,
      "lers": 3743,
      "mar": 3744,
      "punct": 3745,
      "pred": 3746,
      "rant": 3747,
      "rict": 3748,
      "sc": 3749,
      "son": 3750,
      "utions": 3751,
      "va": 3752,
      "war": 3753,
      "when": 3754,
      "Ġill": 3755,
      "Ġtable": 3756,
      "Ġtiny": 3757,
      "Ġari": 3758,
      "head": 3759,
      "hest": 3760,
      "ino": 3761,
      "inking": 3762,
      "Ġson": 3763,
      "Ġsam": 3764,
      "Ġsite": 3765,
      "Ġsounds": 3766,
      "era": 3767,
      "ero": 3768,
      "athe": 3769,
      "isc": 3770,
      "isite": 3771,
      "Ġches": 3772,
      "Ġcaught": 3773,
      "reland": 3774,
      "Ġfing": 3775,
      "Ġfiction": 3776,
      "Ġban": 3777,
      "Ġbas": 3778,
      "Ġbored": 3779,
      "anes": 3780,
      "Ġpock": 3781,
      "Ġpages": 3782,
      "Ġpaper": 3783,
      "itic": 3784,
      "oria": 3785,
      "Ġancient": 3786,
      "ouis": 3787,
      "Ġmaster": 3788,
      "let": 3789,
      "Ġder": 3790,
      "Ġdad": 3791,
      "Ġinse": 3792,
      "Ġinfer": 3793,
      "aries": 3794,
      "alizes": 3795,
      "Ġnon": 3796,
      "Ġnap": 3797,
      "Ġnoun": 3798,
      "Ġnuc": 3799,
      "Ġhong": 3800,
      "Ġhub": 3801,
      "Ġhair": 3802,
      "Ġhmm": 3803,
      "Ġlouis": 3804,
      "ceived": 3805,
      "lls": 3806,
      "Ġeth": 3807,
      "ivating": 3808,
      "quisite": 3809,
      "Ġrid": 3810,
      "Ġrod": 3811,
      "Ġround": 3812,
      "oting": 3813,
      "Ġquot": 3814,
      "osing": 3815,
      "Ġprop": 3816,
      "Ġproud": 3817,
      "Ġstock": 3818,
      "Ġstories": 3819,
      "urb": 3820,
      "odies": 3821,
      "oduct": 3822,
      "ership": 3823,
      "char": 3824,
      "uting": 3825,
      "olf": 3826,
      "Ġneutral": 3827,
      "Ġvice": 3828,
      "Ġchall": 3829,
      "Ġchick": 3830,
      "ago": 3831,
      "Ġdoor": 3832,
      "iewer": 3833,
      "Ġnotes": 3834,
      "Ġatl": 3835,
      "Ġsem": 3836,
      "Ġkin": 3837,
      "Ġleaving": 3838,
      "illy": 3839,
      "Ġworry": 3840,
      "Ġdem": 3841,
      "Ġdecl": 3842,
      "these": 3843,
      "thesis": 3844,
      "Ġireland": 3845,
      "Ġexquisite": 3846,
      "Ġtrack": 3847,
      "Ġtraining": 3848,
      "Ġtrivia": 3849,
      "Ġusers": 3850,
      "Ġspores": 3851,
      "aceae": 3852,
      "owned": 3853,
      "Ġgrad": 3854,
      "Ġclowns": 3855,
      "Ġwhole": 3856,
      "iano": 3857,
      "uced": 3858,
      "Ġimply": 3859,
      "Ġamid": 3860,
      "Ġcompound": 3861,
      "Ġbrain": 3862,
      "Ġgenerally": 3863,
      "well": 3864,
      "Ġ50": 3865,
      "Ġapart": 3866,
      "Ġapply": 3867,
      "Ġprovince": 3868,
      "apped": 3869,
      "Ġparad": 3870,
      "Ġ35": 3871,
      "erek": 3872,
      "Ġhelpful": 3873,
      "ension": 3874,
      "Ġjustifies": 3875,
      "Ġcris": 3876,
      "Ġcrimin": 3877,
      "Ġserious": 3878,
      "Ġcozy": 3879,
      "Ġdishes": 3880,
      "Ġevents": 3881,
      "Ġentertain": 3882,
      "Ġemerg": 3883,
      "Ġremember": 3884,
      "Ġactive": 3885,
      "Ġpremier": 3886,
      "Ġhighest": 3887,
      "Ġboard": 3888,
      "Ġlaunch": 3889,
      "Ġattention": 3890,
      "Ġoverall": 3891,
      "Ġ['": 3892,
      "Ġdiet": 3893,
      "Ġpolicy": 3894,
      "Ġsurpr": 3895,
      "Ġpasses": 3896,
      "Ġ2004": 3897,
      "Ġ2007": 3898,
      "Ġfounded": 3899,
      "Ġsinging": 3900,
      "Ġteams": 3901,
      "Ġregarding": 3902,
      "ints": 3903,
      "Ġstudents": 3904,
      "comple": 3905,
      "Ġaustria": 3906,
      "Ġdividing": 3907,
      "Ġhappening": 3908,
      "Ġiron": 3909,
      "Ġiran": 3910,
      "Ġeasy": 3911,
      "Ġeasily": 3912,
      "Ġlived": 3913,
      "Ġexpressed": 3914,
      "Ġwedding": 3915,
      "Ġowner": 3916,
      "Ġproduction": 3917,
      "Ġmillion": 3918,
      "Ġpretend": 3919,
      "ucky": 3920,
      "Ġeducation": 3921,
      "Ġsuperher": 3922,
      "after": 3923,
      "Ġmatter": 3924,
      "Ġlawn": 3925,
      "Ġeventually": 3926,
      "Ġallowed": 3927,
      "Ġmagaz": 3928,
      "Ġanticip": 3929,
      "Ġmedical": 3930,
      "Ġoccur": 3931,
      "Ġexpand": 3932,
      "Ġproteins": 3933,
      "ynthesis": 3934,
      "Ġpieces": 3935,
      "Ġstatus": 3936,
      "Ġinvolved": 3937,
      "Ġdirected": 3938,
      "Ġ1955": 3939,
      "Ġsatisfaction": 3940,
      "Ġgrammat": 3941,
      "Ġprimarily": 3942,
      "Ġ):": 3943,
      "Ġtonight": 3944,
      "Ġrenowned": 3945,
      "ruption": 3946,
      "Ġsymbol": 3947,
      "Ġpalest": 3948,
      "Ġfuture": 3949,
      "Ġdoctor": 3950,
      "Ġpollution": 3951,
      "Ġestablish": 3952,
      "Ġrepresent": 3953,
      "Ġverbalizes": 3954,
      "Ġcocum": 3955,
      "Ġopposite": 3956,
      "Ġexpected": 3957,
      "Ġoutdoor": 3958,
      "Ġhabit": 3959,
      "Ġexactly": 3960,
      "Ġnewspaper": 3961,
      "Ġpolitician": 3962,
      "Ġzealand": 3963,
      "Ġphilippines": 3964,
      "Ġhonda": 3965,
      "Ġlandscape": 3966,
      "Ġdissatisf": 3967,
      "Ġdedicated": 3968,
      "Ġhockey": 3969,
      "Ġchannel": 3970,
      "punctuation": 3971,
      "predict": 3972,
      "Ġnucle": 3973,
      "Ġchicken": 3974,
      "aa": 3975,
      "ban": 3976,
      "band": 3977,
      "cil": 3978,
      "ffer": 3979,
      "hu": 3980,
      "hold": 3981,
      "ios": 3982,
      "jo": 3983,
      "mal": 3984,
      "met": 3985,
      "mail": 3986,
      "nn": 3987,
      "ned": 3988,
      "oo": 3989,
      "pite": 3990,
      "ron": 3991,
      "ued": 3992,
      "would": 3993,
      "where": 3994,
      "Ġiv": 3995,
      "Ġult": 3996,
      "Ġ__": 3997,
      "Ġovers": 3998,
      "Ġtar": 3999,
      "Ġtight": 4000,
      "Ġtall": 4001,
      "Ġaven": 4002,
      "inent": 4003,
      "ened": 4004,
      "Ġsan": 4005,
      "Ġsail": 4006,
      "atives": 4007,
      "isl": 4008,
      "isted": 4009,
      "Ġcatch": 4010,
      "reat": 4011,
      "Ġfred": 4012,
      "Ġfuel": 4013,
      "Ġbol": 4014,
      "Ġbub": 4015,
      "Ġbodies": 4016,
      "Ġpak": 4017,
      "orida": 4018,
      "oust": 4019,
      "leg": 4020,
      "lebr": 4021,
      "Ġdor": 4022,
      "Ġtoys": 4023,
      "Ġtodd": 4024,
      "Ġthough": 4025,
      "Ġthomas": 4026,
      "aling": 4027,
      "Ġnative": 4028,
      "edy": 4029,
      "icit": 4030,
      "Ġhur": 4031,
      "Ġhind": 4032,
      "Ġlu": 4033,
      "Ġlion": 4034,
      "Ġlov": 4035,
      "Ġeight": 4036,
      "Ġrat": 4037,
      "Ġrather": 4038,
      "Ġrules": 4039,
      "otes": 4040,
      "amin": 4041,
      "Ġquite": 4042,
      "ays": 4043,
      "imate": 4044,
      "Ġprince": 4045,
      "Ġstor": 4046,
      "ury": 4047,
      "odes": 4048,
      "Ġfru": 4049,
      "ifor": 4050,
      "olic": 4051,
      "Ġconstr": 4052,
      "Ġasks": 4053,
      "umb": 4054,
      "ump": 4055,
      "estlers": 4056,
      "Ġvit": 4057,
      "Ġorange": 4058,
      "rill": 4059,
      "Ġjim": 4060,
      "Ġjoy": 4061,
      "Ġnothing": 4062,
      "Ġkill": 4063,
      "Ġkitchen": 4064,
      "Ġplaces": 4065,
      "pec": 4066,
      "pete": 4067,
      "Ġworth": 4068,
      "Ġdeep": 4069,
      "they": 4070,
      "Ġian": 4071,
      "Ġexpect": 4072,
      "Ġexchange": 4073,
      "though": 4074,
      "Ġuncle": 4075,
      "Ġunifor": 4076,
      "Ġalk": 4077,
      "Ġalab": 4078,
      "Ġalthough": 4079,
      "Ġsoy": 4080,
      "Ġarab": 4081,
      "Ġspain": 4082,
      "Ġsport": 4083,
      "Ġwriter": 4084,
      "Ġwrestlers": 4085,
      "Ġdesk": 4086,
      "Ġdespite": 4087,
      "avors": 4088,
      "ipes": 4089,
      "iped": 4090,
      "Ġimm": 4091,
      "Ġreviewer": 4092,
      "icking": 4093,
      "Ġfell": 4094,
      "Ġbrown": 4095,
      "Ġknew": 4096,
      "Ġcalc": 4097,
      "Ġmoved": 4098,
      "Ġproviding": 4099,
      "Ġupon": 4100,
      "Ġaddress": 4101,
      "Ġroll": 4102,
      "neys": 4103,
      "Ġflorida": 4104,
      "Ġcrow": 4105,
      "Ġcross": 4106,
      "Ġcritic": 4107,
      "Ġsummer": 4108,
      "Ġmarit": 4109,
      "Ġmarried": 4110,
      "Ġdisp": 4111,
      "Ġdisney": 4112,
      "Ġhappiness": 4113,
      "Ġstrugg": 4114,
      "Ġstrength": 4115,
      "Ġaccom": 4116,
      "choice": 4117,
      "Ġcarry": 4118,
      "Ġenthus": 4119,
      "Ġequal": 4120,
      "Ġperceived": 4121,
      "Ġworkers": 4122,
      "Ġemploy": 4123,
      "Ġcouldn": 4124,
      "Ġrecord": 4125,
      "Ġactually": 4126,
      "Ġmuse": 4127,
      "Ġfactory": 4128,
      "Ġskill": 4129,
      "Ġ45": 4130,
      "Ġnumeric": 4131,
      "Ġsuffer": 4132,
      "Ġexplicit": 4133,
      "raid": 4134,
      "Ġinsur": 4135,
      "Ġlanguages": 4136,
      "Ġways": 4137,
      "erto": 4138,
      "Ġslight": 4139,
      "Ġcommonly": 4140,
      "positive": 4141,
      "Ġtriples": 4142,
      "Ġservices": 4143,
      "Ġedition": 4144,
      "Ġcelebr": 4145,
      "Ġstudying": 4146,
      "Ġwinter": 4147,
      "Ġmodel": 4148,
      "Ġsunlight": 4149,
      "Ġsetting": 4150,
      "Ġbread": 4151,
      "trans": 4152,
      "Ġextra": 4153,
      "Ġkidneys": 4154,
      "Ġstret": 4155,
      "Ġ65": 4156,
      "Ġefforts": 4157,
      "Ġweeks": 4158,
      "Ġ75": 4159,
      "Ġlives": 4160,
      "Ġexpressing": 4161,
      "Ġcontract": 4162,
      "Ġsimplifies": 4163,
      "Ġlegal": 4164,
      "ological": 4165,
      "Ġdistrict": 4166,
      "Ġvariable": 4167,
      "Ġrespond": 4168,
      "Ġelectrom": 4169,
      "Ġelectrons": 4170,
      "Ġmodern": 4171,
      "Ġmoderately": 4172,
      "Ġcarefully": 4173,
      "Ġsocial": 4174,
      "Ġviol": 4175,
      "Ġlawy": 4176,
      "Ġintegr": 4177,
      "Ġrepublic": 4178,
      "Ġallows": 4179,
      "Ġreceived": 4180,
      "Ġprogress": 4181,
      "Ġcleaning": 4182,
      "Ġgermany": 4183,
      "Ġoperating": 4184,
      "Ġregional": 4185,
      "Ġmedic": 4186,
      "Ġdirectly": 4187,
      "Ġwonder": 4188,
      "Ġcondens": 4189,
      "Ġcondition": 4190,
      "Ġarmy": 4191,
      "load": 4192,
      "Ġthinks": 4193,
      "Ġparticip": 4194,
      "Ġparticles": 4195,
      "Ġcarson": 4196,
      "Ġmicros": 4197,
      "Ġafrica": 4198,
      "Ġdigit": 4199,
      "Ġresponse": 4200,
      "Ġlevels": 4201,
      "Ġappearance": 4202,
      "Ġchristmas": 4203,
      "Ġcanyon": 4204,
      "Ġcanyons": 4205,
      "Ġexception": 4206,
      "Ġindependent": 4207,
      "Ġbenef": 4208,
      "Ġelectricity": 4209,
      "Ġbaseball": 4210,
      "Ġsoldier": 4211,
      "Ġpreparing": 4212,
      "build": 4213,
      "Ġgalax": 4214,
      "Ġprofessional": 4215,
      "Ġcomfortable": 4216,
      "Ġmeasure": 4217,
      "Ġfluid": 4218,
      "Ġswimming": 4219,
      "racted": 4220,
      "Ġexercise": 4221,
      "Ġspirit": 4222,
      "Ġapril": 4223,
      "Ġmirror": 4224,
      "esterday": 4225,
      "Ġjourney": 4226,
      "Ġcommittee": 4227,
      "Ġtemperature": 4228,
      "Ġingredient": 4229,
      "nament": 4230,
      "Ġsugar": 4231,
      "Ġbathroom": 4232,
      "Ġdvd": 4233,
      "Ġdocument": 4234,
      "Ġautomatic": 4235,
      "Ġachieve": 4236,
      "Ġstadium": 4237,
      "Ġ[-]": 4238,
      "Ġumbre": 4239,
      "Ġmichael": 4240,
      "Ġdanger": 4241,
      "Ġcompanies": 4242,
      "Ġresources": 4243,
      "Ġdelicious": 4244,
      "marine": 4245,
      "Ġnouns": 4246,
      "Ġhmmm": 4247,
      "Ġcrisis": 4248,
      "Ġmagazine": 4249,
      "Ġavenue": 4250,
      "Ġpakistan": 4251,
      "Ġalabama": 4252,
      "Ġenthusi": 4253,
      ");": 4254,
      "22": 4255,
      "28": 4256,
      "34": 4257,
      "35": 4258,
      "65": 4259,
      "77": 4260,
      "83": 4261,
      "[+]": 4262,
      "bon": 4263,
      "big": 4264,
      "body": 4265,
      "cent": 4266,
      "cast": 4267,
      "cious": 4268,
      "cycle": 4269,
      "ded": 4270,
      "eper": 4271,
      "ler": 4272,
      "lie": 4273,
      "mer": 4274,
      "maker": 4275,
      "nic": 4276,
      "ram": 4277,
      "rina": 4278,
      "ser": 4279,
      "ta": 4280,
      "tes": 4281,
      "tical": 4282,
      "uing": 4283,
      "ule": 4284,
      "van": 4285,
      "viation": 4286,
      "wise": 4287,
      "ya": 4288,
      "yan": 4289,
      "Ġic": 4290,
      "Ġom": 4291,
      "Ġtakes": 4292,
      "Ġage": 4293,
      "ining": 4294,
      "enar": 4295,
      "erick": 4296,
      "atory": 4297,
      "atrina": 4298,
      "Ġwat": 4299,
      "Ġwid": 4300,
      "Ġwire": 4301,
      "Ġwaves": 4302,
      "Ġcab": 4303,
      "Ġcotto": 4304,
      "ream": 4305,
      "Ġfed": 4306,
      "Ġber": 4307,
      "Ġboss": 4308,
      "Ġpus": 4309,
      "Ġpurch": 4310,
      "Ġpiano": 4311,
      "orge": 4312,
      "organ": 4313,
      "Ġmos": 4314,
      "Ġmad": 4315,
      "Ġmold": 4316,
      "Ġdan": 4317,
      "Ġdir": 4318,
      "Ġdirt": 4319,
      "Ġdancing": 4320,
      "Ġtoky": 4321,
      "Ġisot": 4322,
      "ali": 4323,
      "Ġnut": 4324,
      "Ġnav": 4325,
      "Ġnitr": 4326,
      "icul": 4327,
      "icles": 4328,
      "Ġhatches": 4329,
      "Ġgym": 4330,
      "Ġgift": 4331,
      "omy": 4332,
      "Ġlif": 4333,
      "Ġlap": 4334,
      "Ġlines": 4335,
      "Ġlunch": 4336,
      "cel": 4337,
      "lliot": 4338,
      "Ġelliot": 4339,
      "Ġyesterday": 4340,
      "Ġrise": 4341,
      "ctar": 4342,
      "aming": 4343,
      "oser": 4344,
      "Ġprin": 4345,
      "Ġforces": 4346,
      "Ġheated": 4347,
      "oduced": 4348,
      "uth": 4349,
      "Ġareas": 4350,
      "Ġastr": 4351,
      "Ġchances": 4352,
      "rie": 4353,
      "Ġabil": 4354,
      "Ġje": 4355,
      "Ġjason": 4356,
      "ached": 4357,
      "Ġdoll": 4358,
      "sem": 4359,
      "blems": 4360,
      "Ġcandid": 4361,
      "tered": 4362,
      "Ġplaus": 4363,
      "peare": 4364,
      "Ġdead": 4365,
      "Ġweap": 4366,
      "Ġ22": 4367,
      "Ġgiving": 4368,
      "that": 4369,
      "Ġenh": 4370,
      "Ġunion": 4371,
      "Ġtrouble": 4372,
      "Ġalmost": 4373,
      "Ġalfred": 4374,
      "Ġspring": 4375,
      "asty": 4376,
      "Ġgoog": 4377,
      "Ġwouldn": 4378,
      "uba": 4379,
      "Ġgray": 4380,
      "abb": 4381,
      "Ġwilliam": 4382,
      "Ġclou": 4383,
      "Ġclothes": 4384,
      "Ġacqu": 4385,
      "Ġacade": 4386,
      "Ġ..": 4387,
      "iphol": 4388,
      "iana": 4389,
      "Ġimage": 4390,
      "Ġimages": 4391,
      "Ġaffe": 4392,
      "Ġafraid": 4393,
      "Ġcompared": 4394,
      "ograph": 4395,
      "Ġoffer": 4396,
      "Ġcontact": 4397,
      "Ġadding": 4398,
      "Ġaddition": 4399,
      "Ġotherwise": 4400,
      "Ġroof": 4401,
      "Ġchoosing": 4402,
      "Ġblock": 4403,
      "Ġblank": 4404,
      "Ġsched": 4405,
      "Ġresist": 4406,
      "Ġflavors": 4407,
      "Ġdrink": 4408,
      "Ġdrinking": 4409,
      "Ġcrash": 4410,
      "Ġcrude": 4411,
      "Ġcoord": 4412,
      "Ġcharge": 4413,
      "Ġcharming": 4414,
      "Ġseeking": 4415,
      "Ġages": 4416,
      "Ġcarried": 4417,
      "fficient": 4418,
      "Ġinstance": 4419,
      "Ġairpl": 4420,
      "Ġrecent": 4421,
      "Ġfilled": 4422,
      "Ġmuscles": 4423,
      "Ġpoaceae": 4424,
      "Ġsupply": 4425,
      "Ġzone": 4426,
      "Ġzizz": 4427,
      "Ġzero": 4428,
      "Ġcream": 4429,
      "Ġcolors": 4430,
      "Ġconscious": 4431,
      "Ġdiox": 4432,
      "Ġmonica": 4433,
      "Ġamericans": 4434,
      "Ġsurv": 4435,
      "Ġgluc": 4436,
      "Ġslower": 4437,
      "Ġeverything": 4438,
      "Ġnames": 4439,
      "Ġserved": 4440,
      "Ġ2014": 4441,
      "Ġ2015": 4442,
      "Ġ2018": 4443,
      "ancy": 4444,
      "Ġenjoying": 4445,
      "Ġenjoyed": 4446,
      "Ġwarrant": 4447,
      "Ġwinds": 4448,
      "Ġwinner": 4449,
      "Ġsung": 4450,
      "Ġbrett": 4451,
      "Ġhumans": 4452,
      "group": 4453,
      "Ġinstrument": 4454,
      "aware": 4455,
      "Ġconsidering": 4456,
      "Ġ189": 4457,
      "Ġfixed": 4458,
      "Ġlegs": 4459,
      "Ġbritain": 4460,
      "Ġstronger": 4461,
      "akespeare": 4462,
      "Ġapprec": 4463,
      "Ġsalient": 4464,
      "tware": 4465,
      "Ġinteger": 4466,
      "Ġintegers": 4467,
      "Ġbedroom": 4468,
      "Ġsupporting": 4469,
      "Ġrichard": 4470,
      "Ġships": 4471,
      "Ġbattery": 4472,
      "Ġprompt": 4473,
      "Ġprominent": 4474,
      "Ġconfirm": 4475,
      "Ġglasses": 4476,
      "Ġvirg": 4477,
      "Ġstructures": 4478,
      "Ġwalls": 4479,
      "Ġradio": 4480,
      "Ġjump": 4481,
      "Ġerosion": 4482,
      "breviation": 4483,
      "Ġstatue": 4484,
      "Ġdirection": 4485,
      "Ġmexican": 4486,
      "expl": 4487,
      "Ġburger": 4488,
      "Ġisraeli": 4489,
      "Ġnetherlands": 4490,
      "Ġlabel": 4491,
      "Ġdressed": 4492,
      "Ġessential": 4493,
      "Ġindependence": 4494,
      "Ġcampus": 4495,
      "Ġpicturesque": 4496,
      "Ġsource": 4497,
      "Ġintroduced": 4498,
      "Ġsoftware": 4499,
      "Ġschiphol": 4500,
      "orrow": 4501,
      "Ġquickly": 4502,
      "Ġbroad": 4503,
      "Ġlatin": 4504,
      "Ġlatest": 4505,
      "Ġacidic": 4506,
      "Ġprobably": 4507,
      "Ġconnection": 4508,
      "Ġipod": 4509,
      "Ġscreen": 4510,
      "Ġmethods": 4511,
      "walk": 4512,
      "Ġpuerto": 4513,
      "Ġabsor": 4514,
      "Ġdrugs": 4515,
      "Ġmaintaining": 4516,
      "Ġvegetables": 4517,
      "Ġhalf": 4518,
      "Ġheavy": 4519,
      "Ġkorean": 4520,
      "Ġexecutive": 4521,
      "Ġsleeping": 4522,
      "Ġalphabet": 4523,
      "Ġphysical": 4524,
      "Ġsmoking": 4525,
      "Ġevaporation": 4526,
      "Ġturkmenistan": 4527,
      "Ġbottom": 4528,
      "Ġpizza": 4529,
      "Ġgarden": 4530,
      "Ġcraig": 4531,
      "Ġinsects": 4532,
      "Ġentertainment": 4533,
      "complete": 4534,
      "Ġnuclear": 4535,
      "Ġbubbles": 4536,
      "transl": 4537,
      "Ġelectromagn": 4538,
      "Ġexceptional": 4539,
      "Ġumbrella": 4540,
      "Ġtokyo": 4541,
      "Ġisotope": 4542,
      "Ġastron": 4543,
      "Ġgoogle": 4544,
      "Ġzizzi": 4545,
      "Ġdioxide": 4546,
      "Ġwarranty": 4547,
      ".'": 4548,
      "13": 4549,
      "48": 4550,
      "68": 4551,
      "86": 4552,
      "aid": 4553,
      "aired": 4554,
      "bar": 4555,
      "back": 4556,
      "count": 4557,
      "des": 4558,
      "ell": 4559,
      "fr": 4560,
      "fam": 4561,
      "hd": 4562,
      "hr": 4563,
      "hai": 4564,
      "house": 4565,
      "iar": 4566,
      "iac": 4567,
      "ipe": 4568,
      "just": 4569,
      "ki": 4570,
      "kins": 4571,
      "lin": 4572,
      "long": 4573,
      "look": 4574,
      "lished": 4575,
      "lines": 4576,
      "mus": 4577,
      "mart": 4578,
      "oot": 4579,
      "pp": 4580,
      "run": 4581,
      "rig": 4582,
      "rad": 4583,
      "rate": 4584,
      "tc": 4585,
      "tain": 4586,
      "town": 4587,
      "ving": 4588,
      "wich": 4589,
      "Ġid": 4590,
      "Ġoun": 4591,
      "Ġ?\"": 4592,
      "Ġerr": 4593,
      "Ġtick": 4594,
      "Ġtax": 4595,
      "Ġtiger": 4596,
      "Ġald": 4597,
      "inian": 4598,
      "Ġther": 4599,
      "Ġsed": 4600,
      "Ġsave": 4601,
      "Ġsize": 4602,
      "Ġwet": 4603,
      "Ġwine": 4604,
      "Ġwax": 4605,
      "Ġwavel": 4606,
      "isation": 4607,
      "Ġca": 4608,
      "Ġcit": 4609,
      "Ġcave": 4610,
      "Ġcard": 4611,
      "reg": 4612,
      "ret": 4613,
      "Ġfa": 4614,
      "Ġfant": 4615,
      "Ġfair": 4616,
      "Ġfert": 4617,
      "Ġbid": 4618,
      "Ġbone": 4619,
      "Ġbands": 4620,
      "Ġbib": 4621,
      "Ġborder": 4622,
      "Ġbacter": 4623,
      "ita": 4624,
      "Ġmart": 4625,
      "Ġmax": 4626,
      "Ġmeron": 4627,
      "Ġdal": 4628,
      "Ġderek": 4629,
      "Ġthreat": 4630,
      "ara": 4631,
      "aran": 4632,
      "entina": 4633,
      "Ġnic": 4634,
      "Ġnations": 4635,
      "Ġnurs": 4636,
      "Ġhy": 4637,
      "Ġhus": 4638,
      "Ġhav": 4639,
      "Ġhyp": 4640,
      "Ġhah": 4641,
      "Ġhole": 4642,
      "Ġgases": 4643,
      "Ġgained": 4644,
      "omi": 4645,
      "Ġlin": 4646,
      "Ġlate": 4647,
      "Ġlak": 4648,
      "Ġlack": 4649,
      "lly": 4650,
      "iva": 4651,
      "ivate": 4652,
      "Ġyip": 4653,
      "Ġrul": 4654,
      "Ġrub": 4655,
      "Ġranch": 4656,
      "Ġrico": 4657,
      "Ġitem": 4658,
      "lys": 4659,
      "osomes": 4660,
      "eters": 4661,
      "iring": 4662,
      "ims": 4663,
      "Ġones": 4664,
      "Ġforum": 4665,
      "Ġstands": 4666,
      "igg": 4667,
      "igs": 4668,
      "odle": 4669,
      "odied": 4670,
      "Ġfold": 4671,
      "Ġframe": 4672,
      "oline": 4673,
      "Ġneigh": 4674,
      "Ġasher": 4675,
      "ilton": 4676,
      "Ġvac": 4677,
      "Ġvote": 4678,
      "Ġvapor": 4679,
      "Ġchat": 4680,
      "Ġchrom": 4681,
      "Ġabbreviation": 4682,
      "Ġjose": 4683,
      "Ġjones": 4684,
      "Ġshared": 4685,
      "Ġshakespeare": 4686,
      "antly": 4687,
      "Ġseat": 4688,
      "Ġsequ": 4689,
      "Ġkatrina": 4690,
      "pee": 4691,
      "ula": 4692,
      "ulf": 4693,
      "Ġdev": 4694,
      "Ġdete": 4695,
      "Ġweb": 4696,
      "Ġnoodle": 4697,
      "istry": 4698,
      "Ġunable": 4699,
      "Ġtrim": 4700,
      "Ġali": 4701,
      "Ġalan": 4702,
      "Ġalarm": 4703,
      "Ġliber": 4704,
      "uper": 4705,
      "Ġarth": 4706,
      "Ġspoon": 4707,
      "asting": 4708,
      "ishing": 4709,
      "Ġdesert": 4710,
      "izab": 4711,
      "rys": 4712,
      "ĠĠĠĠĠ": 4713,
      "Ġ...": 4714,
      "iple": 4715,
      "ouses": 4716,
      "icks": 4717,
      "Ġintest": 4718,
      "ford": 4719,
      "Ġbroken": 4720,
      "Ġengland": 4721,
      "Ġtexts": 4722,
      "Ġcontains": 4723,
      "Ġcontaining": 4724,
      "Ġupset": 4725,
      "Ġcomma": 4726,
      "Ġcommission": 4727,
      "Ġverifying": 4728,
      "Ġresident": 4729,
      "Ġrespect": 4730,
      "Ġflower": 4731,
      "Ġcrown": 4732,
      "Ġpersonal": 4733,
      "Ġdisplay": 4734,
      "Ġcharges": 4735,
      "Ġagre": 4736,
      "reek": 4737,
      "Ġcarbon": 4738,
      "Ġenters": 4739,
      "Ġreasons": 4740,
      "Ġemph": 4741,
      "Ġremoved": 4742,
      "Ġproblems": 4743,
      "Ġtits": 4744,
      "Ġgreater": 4745,
      "Ġboasts": 4746,
      "orno": 4747,
      "Ġthank": 4748,
      "Ġtransfer": 4749,
      "Ġpresc": 4750,
      "Ġshowing": 4751,
      "Ġzoo": 4752,
      "Ġunderg": 4753,
      "Ġcreator": 4754,
      "Ġguard": 4755,
      "Ġsubmarine": 4756,
      "Ġrelation": 4757,
      "Ġrelief": 4758,
      "Ġrocket": 4759,
      "Ġ2011": 4760,
      "aza": 4761,
      "Ġmission": 4762,
      "Ġelena": 4763,
      "Ġelizab": 4764,
      "Ġdecide": 4765,
      "Ġdecision": 4766,
      "Ġsett": 4767,
      "tract": 4768,
      "Ġextract": 4769,
      "Ġhumor": 4770,
      "Ġevening": 4771,
      "Ġdivision": 4772,
      "Ġdelaware": 4773,
      "Ġsouthe": 4774,
      "Ġtranslation": 4775,
      "Ġmarkets": 4776,
      "Ġliver": 4777,
      "Ġfixing": 4778,
      "Ġ1993": 4779,
      "Ġ1998": 4780,
      "Ġstandard": 4781,
      "Ġtalked": 4782,
      "Ġsadly": 4783,
      "Ġcausing": 4784,
      "Ġcaused": 4785,
      "Ġuniverse": 4786,
      "Ġideas": 4787,
      "Ġcareer": 4788,
      "Ġpainting": 4789,
      "Ġadvice": 4790,
      "anna": 4791,
      "Ġsalt": 4792,
      "pects": 4793,
      "Ġaccurately": 4794,
      "Ġarrived": 4795,
      "Ġopera": 4796,
      "Ġrichards": 4797,
      "Ġdenmark": 4798,
      "Ġoccup": 4799,
      "Ġoccurs": 4800,
      "Ġcostume": 4801,
      "Ġplanet": 4802,
      "incia": 4803,
      "Ġradical": 4804,
      "Ġassociation": 4805,
      "Ġauthorities": 4806,
      "199": 4807,
      "Ġtypically": 4808,
      "Ġcouncil": 4809,
      "Ġpeaceful": 4810,
      "Ġpoints": 4811,
      "Ġtournament": 4812,
      "Ġgrammar": 4813,
      "imbap": 4814,
      "Ġprimary": 4815,
      "Ġiraqi": 4816,
      "Ġresponsible": 4817,
      "Ġannounce": 4818,
      "Ġwildwood": 4819,
      "Ġconcise": 4820,
      "Ġconcert": 4821,
      "Ġslowly": 4822,
      "Ġepisodes": 4823,
      "Ġhenry": 4824,
      "Ġcaptivating": 4825,
      "Ġangry": 4826,
      "Ġembodied": 4827,
      "Ġphotosynthesis": 4828,
      "Ġtechnology": 4829,
      "Ġissue": 4830,
      "Ġreferring": 4831,
      "Ġjacket": 4832,
      "Ġlinguistically": 4833,
      "Ġconverted": 4834,
      "Ġwelcoming": 4835,
      "Ġmoment": 4836,
      "Ġtraditional": 4837,
      "Ġpleas": 4838,
      "Ġhunting": 4839,
      "Ġcryst": 4840,
      "Ġperman": 4841,
      "Ġatoms": 4842,
      "Ġemotional": 4843,
      "Ġmanufactur": 4844,
      "Ġtaste": 4845,
      "Ġbalance": 4846,
      "Ġhamilton": 4847,
      "Ġdisappointed": 4848,
      "Ġincorrect": 4849,
      "Ġselection": 4850,
      "Ġimprove": 4851,
      "Ġtennis": 4852,
      "Ġneurons": 4853,
      "Ġrecovery": 4854,
      "Ġexperienced": 4855,
      "Ġmolecules": 4856,
      "known": 4857,
      "Ġchess": 4858,
      "Ġbasic": 4859,
      "Ġparadise": 4860,
      "Ġsuperhero": 4861,
      "Ġgrammatically": 4862,
      "Ġpalestinian": 4863,
      "Ġconstruction": 4864,
      "Ġaccompl": 4865,
      "Ġmuseum": 4866,
      "Ġslightly": 4867,
      "Ġmicrosoft": 4868,
      "Ġcabin": 4869,
      "Ġdirty": 4870,
      "iculously": 4871,
      "Ġabilene": 4872,
      "Ġclouds": 4873,
      "explanation": 4874,
      "translate": 4875,
      "Ġounces": 4876,
      "Ġwavelength": 4877,
      "Ġcitiz": 4878,
      "Ġmeronym": 4879,
      "Ġyippee": 4880,
      "Ġelizabeth": 4881,
      "\")": 4882,
      "'ve": 4883,
      "03": 4884,
      "31": 4885,
      "42": 4886,
      "44": 4887,
      "50": 4888,
      "82": 4889,
      "87": 4890,
      "==": 4891,
      "aul": 4892,
      "boy": 4893,
      "ca": 4894,
      "cher": 4895,
      "case": 4896,
      "cia": 4897,
      "ear": 4898,
      "fast": 4899,
      "fire": 4900,
      "gu": 4901,
      "his": 4902,
      "hum": 4903,
      "illow": 4904,
      "la": 4905,
      "lim": 4906,
      "ml": 4907,
      "net": 4908,
      "nect": 4909,
      "oted": 4910,
      "py": 4911,
      "pie": 4912,
      "pted": 4913,
      "rin": 4914,
      "rit": 4915,
      "roy": 4916,
      "sen": 4917,
      "ses": 4918,
      "sing": 4919,
      "sun": 4920,
      "syl": 4921,
      "uan": 4922,
      "uous": 4923,
      "vi": 4924,
      "var": 4925,
      "vent": 4926,
      "vol": 4927,
      "view": 4928,
      "ww": 4929,
      "wom": 4930,
      "will": 4931,
      "wide": 4932,
      "zan": 4933,
      "Ġ_": 4934,
      "Ġign": 4935,
      "Ġeric": 4936,
      "Ġowl": 4937,
      "Ġtan": 4938,
      "Ġtam": 4939,
      "Ġtub": 4940,
      "Ġtone": 4941,
      "Ġtrib": 4942,
      "Ġtank": 4943,
      "inse": 4944,
      "inated": 4945,
      "Ġtheory": 4946,
      "Ġsend": 4947,
      "Ġsings": 4948,
      "Ġsyn": 4949,
      "Ġsanta": 4950,
      "esh": 4951,
      "ati": 4952,
      "Ġwave": 4953,
      "Ġwide": 4954,
      "Ġwound": 4955,
      "isk": 4956,
      "Ġcd": 4957,
      "Ġcy": 4958,
      "Ġcig": 4959,
      "Ġcum": 4960,
      "Ġcows": 4961,
      "Ġcute": 4962,
      "rected": 4963,
      "Ġfos": 4964,
      "Ġfired": 4965,
      "Ġfancy": 4966,
      "Ġbh": 4967,
      "Ġbor": 4968,
      "Ġbost": 4969,
      "Ġbatch": 4970,
      "Ġbending": 4971,
      "Ġbicycle": 4972,
      "anut": 4973,
      "Ġpou": 4974,
      "Ġpenn": 4975,
      "ora": 4976,
      "origin": 4977,
      "Ġanger": 4978,
      "Ġmal": 4979,
      "Ġmind": 4980,
      "Ġmars": 4981,
      "Ġmike": 4982,
      "Ġmiam": 4983,
      "Ġdu": 4984,
      "Ġdies": 4985,
      "Ġdia": 4986,
      "Ġduck": 4987,
      "Ġdanish": 4988,
      "Ġinfe": 4989,
      "Ġincomplete": 4990,
      "Ġthous": 4991,
      "ares": 4992,
      "arning": 4993,
      "asa": 4994,
      "alled": 4995,
      "alog": 4996,
      "Ġnin": 4997,
      "Ġnar": 4998,
      "Ġnick": 4999,
      "Ġnix": 5000,
      "Ġnature": 5001,
      "ici": 5002,
      "Ġhit": 5003,
      "Ġhate": 5004,
      "Ġhans": 5005,
      "Ġhors": 5006,
      "Ġhired": 5007,
      "Ġhoney": 5008,
      "Ġhamm": 5009,
      "Ġharr": 5010,
      "Ġhydr": 5011,
      "Ġhints": 5012,
      "Ġhoust": 5013,
      "Ġgus": 5014,
      "Ġgiant": 5015,
      "Ġgathe": 5016,
      "oming": 5017,
      "Ġlit": 5018,
      "Ġlacks": 5019,
      "Ġlisted": 5020,
      "llig": 5021,
      "Ġrue": 5022,
      "Ġrose": 5023,
      "Ġroles": 5024,
      "iders": 5025,
      "idden": 5026,
      "aman": 5027,
      "Ġqual": 5028,
      "Ġquiz": 5029,
      "osis": 5030,
      "osed": 5031,
      "iration": 5032,
      "Ġprivate": 5033,
      "Ġhey": 5034,
      "Ġstun": 5035,
      "Ġstating": 5036,
      "adi": 5037,
      "ado": 5038,
      "Ġfresh": 5039,
      "uttle": 5040,
      "Ġneck": 5041,
      "Ġnectar": 5042,
      "Ġasian": 5043,
      "ils": 5044,
      "ilities": 5045,
      "Ġvirt": 5046,
      "Ġvault": 5047,
      "Ġchlor": 5048,
      "rian": 5049,
      "apt": 5050,
      "apers": 5051,
      "agen": 5052,
      "ova": 5053,
      "Ġjr": 5054,
      "aca": 5055,
      "acle": 5056,
      "aches": 5057,
      "Ġshoe": 5058,
      "stud": 5059,
      "Ġteen": 5060,
      "ocking": 5061,
      "Ġcanal": 5062,
      "Ġattem": 5063,
      "Ġsect": 5064,
      "Ġplot": 5065,
      "Ġplans": 5066,
      "Ġlearning": 5067,
      "Ġcomedy": 5068,
      "people": 5069,
      "Ġ(-": 5070,
      "ander": 5071,
      "Ġ===": 5072,
      "ulated": 5073,
      "their": 5074,
      "Ġiii": 5075,
      "three": 5076,
      "Ġuns": 5077,
      "Ġtruth": 5078,
      "Ġalask": 5079,
      "Ġposs": 5080,
      "Ġmanaged": 5081,
      "Ġspent": 5082,
      "Ġspending": 5083,
      "Ġopport": 5084,
      "artist": 5085,
      "plant": 5086,
      "why": 5087,
      "vert": 5088,
      "Ġgrove": 5089,
      "Ġgrade": 5090,
      "Ġgranted": 5091,
      "abel": 5092,
      "Ġcorruption": 5093,
      "Ġpeanut": 5094,
      "Ġbutton": 5095,
      "Ġclaus": 5096,
      "Ġclue": 5097,
      "pres": 5098,
      "prov": 5099,
      "product": 5100,
      "Ġprefer": 5101,
      "Ġintric": 5102,
      "Ġintended": 5103,
      "Ġbrother": 5104,
      "weet": 5105,
      "Ġtelling": 5106,
      "Ġherself": 5107,
      "ugu": 5108,
      "Ġupdate": 5109,
      "Ġ32": 5110,
      "Ġ38": 5111,
      "Ġcommas": 5112,
      "Ġcommand": 5113,
      "ensity": 5114,
      "Ġscott": 5115,
      "Ġscenar": 5116,
      "Ġflavor": 5117,
      "Ġdrop": 5118,
      "Ġdrum": 5119,
      "Ġjustice": 5120,
      "Ġcrust": 5121,
      "Ġcruc": 5122,
      "Ġserver": 5123,
      "Ġsummar": 5124,
      "Ġcoat": 5125,
      "Ġcoach": 5126,
      "Ġcooper": 5127,
      "Ġmarvel": 5128,
      "Ġstrateg": 5129,
      "Ġagnes": 5130,
      "Ġsmiling": 5131,
      "Ġsolar": 5132,
      "Ġcarr": 5133,
      "Ġcarpet": 5134,
      "Ġevidence": 5135,
      "Ġentail": 5136,
      "Ġsimps": 5137,
      "Ġfinanc": 5138,
      "Ġfinished": 5139,
      "Ġairlines": 5140,
      "bra": 5141,
      "Ġacts": 5142,
      "Ġacting": 5143,
      "Ġboot": 5144,
      "Ġcheer": 5145,
      "Ġcheese": 5146,
      "ignit": 5147,
      "Ġpoet": 5148,
      "Ġlooked": 5149,
      "Ġmyth": 5150,
      "Ġguest": 5151,
      "Ġreads": 5152,
      "Ġfung": 5153,
      "Ġfunction": 5154,
      "Ġmayor": 5155,
      "Ġsuz": 5156,
      "Ġconserv": 5157,
      "Ġexplor": 5158,
      "Ġmonitor": 5159,
      "Ġmeticulously": 5160,
      "bee": 5161,
      "bell": 5162,
      "Ġpassing": 5163,
      "Ġpassion": 5164,
      "Ġbackground": 5165,
      "works": 5166,
      "Ġslide": 5167,
      "Ġslip": 5168,
      "Ġmineral": 5169,
      "fined": 5170,
      "Ġ87": 5171,
      "Ġserving": 5172,
      "Ġdonald": 5173,
      "Ġassum": 5174,
      "ancer": 5175,
      "Ġenjoyable": 5176,
      "Ġanimated": 5177,
      "Ġbarrel": 5178,
      "Ġelection": 5179,
      "Ġextracted": 5180,
      "encies": 5181,
      "mexic": 5182,
      "aws": 5183,
      "Ġstarred": 5184,
      "Ġ105": 5185,
      "Ġgroups": 5186,
      "ibiot": 5187,
      "Ġtranslates": 5188,
      "Ġexpresses": 5189,
      "Ġartists": 5190,
      "Ġsimpler": 5191,
      "Ġboats": 5192,
      "Ġmilk": 5193,
      "Ġdistrib": 5194,
      "Ġholes": 5195,
      "Ġearthqu": 5196,
      "Ġweekly": 5197,
      "Ġturning": 5198,
      "Ġelectron": 5199,
      "shot": 5200,
      "Ġfully": 5201,
      "Ġxp": 5202,
      "Ġincident": 5203,
      "Ġdetermined": 5204,
      "Ġavoid": 5205,
      "Ġsuggestion": 5206,
      "Ġsuggests": 5207,
      "Ġgasoline": 5208,
      "Ġresults": 5209,
      "Ġbirthplace": 5210,
      "Ġmathem": 5211,
      "Ġeffects": 5212,
      "Ġintellig": 5213,
      "Ġgenes": 5214,
      "Ġspeaker": 5215,
      "Ġprofile": 5216,
      "Ġurine": 5217,
      "Ġantibiot": 5218,
      "Ġseparated": 5219,
      "Ġattribute": 5220,
      "Ġislands": 5221,
      "ackson": 5222,
      "Ġexpensive": 5223,
      "Ġpeter": 5224,
      "Ġpeters": 5225,
      "Ġprotein": 5226,
      "Ġprotect": 5227,
      "Ġpenis": 5228,
      "Ġpenet": 5229,
      "Ġparticular": 5230,
      "Ġromantic": 5231,
      "Ġbegins": 5232,
      "Ġfloors": 5233,
      "Ġinvolve": 5234,
      "Ġ1950": 5235,
      "Ġsatisfied": 5236,
      "Ġkilled": 5237,
      "Ġmountain": 5238,
      "Ġterror": 5239,
      "Ġfishing": 5240,
      "Ġnestled": 5241,
      "Ġaustralia": 5242,
      "Ġdiscovered": 5243,
      "Ġbache": 5244,
      "Ġangel": 5245,
      "Ġeconomy": 5246,
      "Ġattacked": 5247,
      "Ġsoft": 5248,
      "Ġissues": 5249,
      "Ġprepared": 5250,
      "Ġchemicals": 5251,
      "Ġdoctors": 5252,
      "Ġwelcome": 5253,
      "Ġestablished": 5254,
      "Ġrepresents": 5255,
      "Ġfocuses": 5256,
      "Ġensuring": 5257,
      "Ġbeginning": 5258,
      "Ġmotorcycle": 5259,
      "Ġcircu": 5260,
      "Ġmrs": 5261,
      "Ġhuge": 5262,
      "Ġforever": 5263,
      "Ġsmooth": 5264,
      "Ġolive": 5265,
      "Ġbinignit": 5266,
      "Ġdestination": 5267,
      "Ġvictoria": 5268,
      "Ġfrequency": 5269,
      "Ġviruses": 5270,
      "Ġrachel": 5271,
      "Ġraised": 5272,
      "Ġconsecutive": 5273,
      "Ġimpressive": 5274,
      "Ġdraft": 5275,
      "Ġreligious": 5276,
      "Ġinfluence": 5277,
      "Ġolympic": 5278,
      "pool": 5279,
      "Ġfigure": 5280,
      "Ġencour": 5281,
      "Ġrecognized": 5282,
      "urbation": 5283,
      "Ġchalleng": 5284,
      "Ġkinetic": 5285,
      "Ġsurprised": 5286,
      "Ġestablishment": 5287,
      "Ġ____": 5288,
      "Ġloves": 5289,
      "Ġcrowd": 5290,
      "Ġmaritime": 5291,
      "Ġemployees": 5292,
      "Ġsuffering": 5293,
      "Ġinsurance": 5294,
      "Ġcelebrate": 5295,
      "Ġviolin": 5296,
      "Ġlawyer": 5297,
      "building": 5298,
      "Ġgalaxies": 5299,
      "Ġdocumentary": 5300,
      "vania": 5301,
      "Ġpushing": 5302,
      "Ġcandidate": 5303,
      "Ġweapons": 5304,
      "Ġconsciousness": 5305,
      "Ġsurvive": 5306,
      "Ġglucose": 5307,
      "Ġabsorb": 5308,
      "Ġastronaut": 5309,
      "justification": 5310,
      "Ġfertil": 5311,
      "Ġbibimbap": 5312,
      "Ġbacteria": 5313,
      "Ġneighbor": 5314,
      "Ġintestine": 5315,
      "Ġemphas": 5316,
      "earth": 5317,
      "sylvania": 5318,
      "Ġboston": 5319,
      "Ġpennsylvania": 5320,
      "Ġmiami": 5321,
      "Ġhorses": 5322,
      "Ġhouston": 5323,
      "Ġgathered": 5324,
      "Ġvaults": 5325,
      "student": 5326,
      "Ġalaska": 5327,
      "Ġopportun": 5328,
      "Ġintelligence": 5329,
      "Ġcircuit": 5330,
      "16": 5331,
      "45": 5332,
      "56": 5333,
      "66": 5334,
      "78": 5335,
      "\\$": 5336,
      "],": 5337,
      "ahe": 5338,
      "aled": 5339,
      "aver": 5340,
      "bc": 5341,
      "base": 5342,
      "both": 5343,
      "cs": 5344,
      "cow": 5345,
      "cking": 5346,
      "cra": 5347,
      "cope": 5348,
      "die": 5349,
      "even": 5350,
      "first": 5351,
      "ga": 5352,
      "gar": 5353,
      "gas": 5354,
      "got": 5355,
      "gans": 5356,
      "games": 5357,
      "hi": 5358,
      "har": 5359,
      "high": 5360,
      "hydr": 5361,
      "ij": 5362,
      "ius": 5363,
      "iers": 5364,
      "iate": 5365,
      "james": 5366,
      "ken": 5367,
      "little": 5368,
      "life": 5369,
      "mun": 5370,
      "mented": 5371,
      "nal": 5372,
      "nish": 5373,
      "otion": 5374,
      "pan": 5375,
      "pire": 5376,
      "ris": 5377,
      "row": 5378,
      "rich": 5379,
      "rock": 5380,
      "su": 5381,
      "she": 5382,
      "top": 5383,
      "tweet": 5384,
      "ua": 5385,
      "uled": 5386,
      "uted": 5387,
      "uals": 5388,
      "uism": 5389,
      "vas": 5390,
      "vest": 5391,
      "west": 5392,
      "ware": 5393,
      "zen": 5394,
      "ĊĠĠ": 5395,
      "Ġod": 5396,
      "Ġore": 5397,
      "Ġter": 5398,
      "Ġtag": 5399,
      "Ġtale": 5400,
      "Ġtired": 5401,
      "Ġtaught": 5402,
      "Ġaw": 5403,
      "Ġay": 5404,
      "Ġaar": 5405,
      "Ġaired": 5406,
      "Ġaids": 5407,
      "hew": 5408,
      "henot": 5409,
      "inct": 5410,
      "inst": 5411,
      "inoc": 5412,
      "inia": 5413,
      "Ġsate": 5414,
      "Ġsud": 5415,
      "Ġsav": 5416,
      "Ġsens": 5417,
      "Ġsoup": 5418,
      "Ġsib": 5419,
      "Ġsorr": 5420,
      "Ġsilly": 5421,
      "erd": 5422,
      "erig": 5423,
      "atal": 5424,
      "atomy": 5425,
      "isms": 5426,
      "Ġcub": 5427,
      "Ġcode": 5428,
      "Ġcube": 5429,
      "reut": 5430,
      "repe": 5431,
      "Ġfake": 5432,
      "Ġfare": 5433,
      "Ġfought": 5434,
      "Ġbow": 5435,
      "Ġbum": 5436,
      "Ġbold": 5437,
      "Ġbik": 5438,
      "Ġbible": 5439,
      "Ġbomb": 5440,
      "anaman": 5441,
      "ofthe": 5442,
      "Ġpc": 5443,
      "Ġpow": 5444,
      "Ġpil": 5445,
      "Ġpul": 5446,
      "Ġpurs": 5447,
      "Ġpaul": 5448,
      "Ġphenot": 5449,
      "itory": 5450,
      "itzer": 5451,
      "Ġmer": 5452,
      "Ġmis": 5453,
      "Ġmit": 5454,
      "Ġmor": 5455,
      "Ġmun": 5456,
      "leton": 5457,
      "Ġdre": 5458,
      "Ġdave": 5459,
      "Ġdick": 5460,
      "Ġdyn": 5461,
      "tell": 5462,
      "Ġinm": 5463,
      "Ġtoled": 5464,
      "Ġthri": 5465,
      "arant": 5466,
      "asion": 5467,
      "ashing": 5468,
      "Ġisabel": 5469,
      "also": 5470,
      "ento": 5471,
      "enter": 5472,
      "Ġns": 5473,
      "Ġnov": 5474,
      "Ġnba": 5475,
      "eded": 5476,
      "icago": 5477,
      "enders": 5478,
      "endra": 5479,
      "Ġhi": 5480,
      "Ġhop": 5481,
      "Ġhamp": 5482,
      "Ġhouses": 5483,
      "Ġgh": 5484,
      "Ġgag": 5485,
      "Ġgender": 5486,
      "Ġgiles": 5487,
      "Ġlord": 5488,
      "Ġlym": 5489,
      "Ġloud": 5490,
      "Ġlabor": 5491,
      "Ġlift": 5492,
      "Ġloved": 5493,
      "Ġlava": 5494,
      "Ġlucky": 5495,
      "Ġetc": 5496,
      "Ġra": 5497,
      "Ġrig": 5498,
      "Ġrap": 5499,
      "Ġrip": 5500,
      "Ġrack": 5501,
      "Ġrings": 5502,
      "Ġrabb": 5503,
      "Ġrinse": 5504,
      "otic": 5505,
      "idance": 5506,
      "Ġreve": 5507,
      "Ġreaction": 5508,
      "Ġreplic": 5509,
      "osted": 5510,
      "Ġ\"\"": 5511,
      "iro": 5512,
      "Ġpract": 5513,
      "Ġstain": 5514,
      "Ġstick": 5515,
      "Ġstaff": 5516,
      "Ġstores": 5517,
      "aded": 5518,
      "adel": 5519,
      "Ġfol": 5520,
      "ifts": 5521,
      "Ġconnect": 5522,
      "Ġasad": 5523,
      "Ġassem": 5524,
      "Ġaspects": 5525,
      "Ġ111": 5526,
      "Ġ112": 5527,
      "ille": 5528,
      "Ġven": 5529,
      "Ġord": 5530,
      "Ġorgans": 5531,
      "Ġchile": 5532,
      "rible": 5533,
      "ription": 5534,
      "essed": 5535,
      "essions": 5536,
      "Ġja": 5537,
      "Ġjer": 5538,
      "Ġshall": 5539,
      "Ġshown": 5540,
      "Ġshoes": 5541,
      "Ġshuttle": 5542,
      "iel": 5543,
      "stand": 5544,
      "stream": 5545,
      "Ġtel": 5546,
      "ocr": 5547,
      "ocese": 5548,
      "Ġnotice": 5549,
      "Ġsear": 5550,
      "Ġseam": 5551,
      "Ġselling": 5552,
      "Ġsegment": 5553,
      "Ġkh": 5554,
      "Ġkant": 5555,
      "Ġkills": 5556,
      "Ġplates": 5557,
      "Ġplaza": 5558,
      "Ġcomments": 5559,
      "Ġcompete": 5560,
      "pear": 5561,
      "Ġ(\"": 5562,
      "aint": 5563,
      "Ġdeb": 5564,
      "Ġdear": 5565,
      "Ġdepos": 5566,
      "Ġdepart": 5567,
      "thew": 5568,
      "Ġwebs": 5569,
      "Ġexclus": 5570,
      "Ġexposed": 5571,
      "Ġ23": 5572,
      "Ġ215": 5573,
      "ights": 5574,
      "Ġunw": 5575,
      "Ġunfort": 5576,
      "Ġunlike": 5577,
      "Ġtraff": 5578,
      "Ġtroph": 5579,
      "Ġalp": 5580,
      "Ġalone": 5581,
      "Ġarres": 5582,
      "Ġarena": 5583,
      "Ġaromi": 5584,
      "Ġspy": 5585,
      "abat": 5586,
      "agement": 5587,
      "Ġcorrected": 5588,
      "Ġadare": 5589,
      "Ġadvert": 5590,
      "Ġbutter": 5591,
      "Ġclar": 5592,
      "Ġclay": 5593,
      "Ġclare": 5594,
      "Ġclients": 5595,
      "Ġclimate": 5596,
      "ĠĠĠĠ": 5597,
      "Ġaccept": 5598,
      "Ġpred": 5599,
      "Ġamy": 5600,
      "Ġamerig": 5601,
      "Ġafgh": 5602,
      "Ġplayground": 5603,
      "inder": 5604,
      "assed": 5605,
      "assoc": 5606,
      "Ġintense": 5607,
      "Ġfear": 5608,
      "Ġfeed": 5609,
      "Ġfellow": 5610,
      "Ġfeature": 5611,
      "Ġcomposer": 5612,
      "oga": 5613,
      "class": 5614,
      "Ġbrows": 5615,
      "Ġbraz": 5616,
      "Ġreviews": 5617,
      "Ġ1918": 5618,
      "Ġcalm": 5619,
      "ports": 5620,
      "Ġphones": 5621,
      "Ġrestr": 5622,
      "Ġoffensive": 5623,
      "Ġprovincia": 5624,
      "Ġcontents": 5625,
      "Ġupd": 5626,
      "Ġdescribing": 5627,
      "Ġparis": 5628,
      "Ġparent": 5629,
      "Ġcommons": 5630,
      "Ġdriver": 5631,
      "Ġdrops": 5632,
      "Ġcrick": 5633,
      "Ġserve": 5634,
      "Ġsummit": 5635,
      "Ġbuzz": 5636,
      "Ġmaria": 5637,
      "Ġwaterlo": 5638,
      "Ġcharging": 5639,
      "Ġseek": 5640,
      "Ġseem": 5641,
      "Ġsmile": 5642,
      "Ġsolutions": 5643,
      "Ġaccount": 5644,
      "Ġcarl": 5645,
      "Ġcarries": 5646,
      "Ġgoods": 5647,
      "Ġartwork": 5648,
      "Ġentire": 5649,
      "Ġsale": 5650,
      "Ġsauce": 5651,
      "Ġequival": 5652,
      "Ġfinance": 5653,
      "Ġfinnish": 5654,
      "Ġremaining": 5655,
      "Ġremark": 5656,
      "Ġairbase": 5657,
      "Ġactors": 5658,
      "Ġfiles": 5659,
      "Ġfilms": 5660,
      "Ġgrey": 5661,
      "Ġformat": 5662,
      "Ġchecking": 5663,
      "Ġfeels": 5664,
      "Ġjoke": 5665,
      "Ġjoint": 5666,
      "Ġtransit": 5667,
      "Ġpresence": 5668,
      "Ġshowc": 5669,
      "iously": 5670,
      "Ġskills": 5671,
      "Ġsupplies": 5672,
      "Ġsuppose": 5673,
      "Ġleads": 5674,
      "Ġattended": 5675,
      "Ġattached": 5676,
      "Ġdifference": 5677,
      "Ġanymore": 5678,
      "Ġguy": 5679,
      "Ġguess": 5680,
      "Ġguests": 5681,
      "Ġguaran": 5682,
      "Ġsufficient": 5683,
      "icts": 5684,
      "Ġexplained": 5685,
      "Ġsubtract": 5686,
      "Ġinspe": 5687,
      "Ġcamera": 5688,
      "phia": 5689,
      "Ġmetric": 5690,
      "Ġlarry": 5691,
      "Ġbooking": 5692,
      "Ġ2001": 5693,
      "Ġfounder": 5694,
      "Ġbackup": 5695,
      "final": 5696,
      "Ġ83": 5697,
      "Ġ85": 5698,
      "Ġ887": 5699,
      "rics": 5700,
      "Ġ2013": 5701,
      "Ġ2016": 5702,
      "Ġsecure": 5703,
      "Ġexperiment": 5704,
      "Ġmusicians": 5705,
      "Ġassign": 5706,
      "Ġassume": 5707,
      "anco": 5708,
      "Ġspecializing": 5709,
      "Ġdecor": 5710,
      "Ġbush": 5711,
      "Ġstudy": 5712,
      "Ġwalt": 5713,
      "tress": 5714,
      "Ġeleph": 5715,
      "Ġextension": 5716,
      "Ġended": 5717,
      "Ġhumph": 5718,
      "Ġincreased": 5719,
      "Ġpriced": 5720,
      "Ġkidney": 5721,
      "Ġdefined": 5722,
      "Ġtoward": 5723,
      "Ġretail": 5724,
      "Ġmotion": 5725,
      "Ġruns": 5726,
      "Ġdelhi": 5727,
      "Ġunderstanding": 5728,
      "Ġrefle": 5729,
      "Ġreflect": 5730,
      "Ġbloodstream": 5731,
      "summer": 5732,
      "Ġlighting": 5733,
      "iban": 5734,
      "ibility": 5735,
      "hens": 5736,
      "hentic": 5737,
      "Ġrooms": 5738,
      "Ġappeared": 5739,
      "Ġcats": 5740,
      "Ġboys": 5741,
      "Ġlegisl": 5742,
      "Ġclassify": 5743,
      "Ġclassified": 5744,
      "Ġ1994": 5745,
      "Ġ1995": 5746,
      "Ġ1996": 5747,
      "ologies": 5748,
      "Ġmenu": 5749,
      "Ġdistance": 5750,
      "Ġdistinct": 5751,
      "ograms": 5752,
      "Ġweekend": 5753,
      "Ġturned": 5754,
      "astern": 5755,
      "Ġvariety": 5756,
      "Ġproducer": 5757,
      "Ġindicating": 5758,
      "Ġgirls": 5759,
      "Ġgirlfriend": 5760,
      "Ġsadness": 5761,
      "Ġwooden": 5762,
      "Ġpotato": 5763,
      "Ġmentioning": 5764,
      "Ġincome": 5765,
      "Ġheads": 5766,
      "Ġcombined": 5767,
      "Ġadvanced": 5768,
      "Ġavail": 5769,
      "anned": 5770,
      "Ġfreezer": 5771,
      "Ġjohnson": 5772,
      "Ġfootballer": 5773,
      "Ġkeeping": 5774,
      "Ġallowing": 5775,
      "Ġgenus": 5776,
      "Ġordered": 5777,
      "Ġmidsummer": 5778,
      "Ġoperation": 5779,
      "Ġ1971": 5780,
      "Ġurban": 5781,
      "Ġballs": 5782,
      "Ġnights": 5783,
      "Ġ1500": 5784,
      "2776": 5785,
      "Ġsandwich": 5786,
      "Ġfields": 5787,
      "Ġloose": 5788,
      "Ġdesigned": 5789,
      "Ġbehold": 5790,
      "Ġbelieved": 5791,
      "Ġkingdom": 5792,
      "Ġplanning": 5793,
      "Ġexpans": 5794,
      "Ġescape": 5795,
      "Ġfighting": 5796,
      "Ġgeorge": 5797,
      "Ġmessages": 5798,
      "Ġmultiple": 5799,
      "Ġdigest": 5800,
      "Ġbaked": 5801,
      "!!!": 5802,
      "Ġterritory": 5803,
      "Ġdiversity": 5804,
      "Ġchampion": 5805,
      "Ġcollection": 5806,
      "Ġdiscovery": 5807,
      "Ġsecretary": 5808,
      "Ġenvironments": 5809,
      "Ġexcell": 5810,
      "Ġindividuals": 5811,
      "Ġclearly": 5812,
      "Ġmixed": 5813,
      "Ġtomorrow": 5814,
      "Ġdefense": 5815,
      "Ġperiods": 5816,
      "Ġembarr": 5817,
      "Ġsuccessful": 5818,
      "Ġsuccessfully": 5819,
      "Ġsignificantly": 5820,
      "Ġutil": 5821,
      "Ġdiseases": 5822,
      "uminous": 5823,
      "Ġbroke": 5824,
      "Ġvehicles": 5825,
      "Ġlinguistic": 5826,
      "Ġfutures": 5827,
      "Ġweathering": 5828,
      "Ġentered": 5829,
      "Ġprobable": 5830,
      "Ġfacing": 5831,
      "Ġfacility": 5832,
      "Ġconnected": 5833,
      "Ġshares": 5834,
      "Ġensure": 5835,
      "Ġcopy": 5836,
      "Ġreached": 5837,
      "Ġconstit": 5838,
      "Ġsmoke": 5839,
      "Ġinvestig": 5840,
      "aux": 5841,
      "Ġpurpose": 5842,
      "Ġdestroy": 5843,
      "Ġharmon": 5844,
      "Ġconcerns": 5845,
      "Ġpossibly": 5846,
      "Ġincorpor": 5847,
      "Ġmagnifying": 5848,
      "burg": 5849,
      "Ġsusp": 5850,
      "Ġconsequ": 5851,
      "clusion": 5852,
      "Ġscientific": 5853,
      "Ġsurrounded": 5854,
      "Ġadventures": 5855,
      "Ġolympics": 5856,
      "Ġcasual": 5857,
      "Ġcowper": 5858,
      "Ġdomin": 5859,
      "Ġinitial": 5860,
      "Ġnarrator": 5861,
      "Ġlaughing": 5862,
      "Ġrequirements": 5863,
      "Ġanalytical": 5864,
      "scale": 5865,
      "Ġariane": 5866,
      "Ġfingers": 5867,
      "Ġbananaman": 5868,
      "Ġpocket": 5869,
      "Ġethnic": 5870,
      "Ġcriminal": 5871,
      "Ġpremiered": 5872,
      "Ġhabitats": 5873,
      "Ġdissatisfied": 5874,
      "Ġfrederick": 5875,
      "Ġdorian": 5876,
      "Ġhurry": 5877,
      "Ġlux": 5878,
      "Ġfruits": 5879,
      "Ġvitamin": 5880,
      "Ġarabic": 5881,
      "Ġstruggle": 5882,
      "Ġexplicitly": 5883,
      "Ġstretched": 5884,
      "Ġintegrity": 5885,
      "Ġdangerous": 5886,
      "organisation": 5887,
      "Ġmoscow": 5888,
      "Ġnavig": 5889,
      "Ġprincess": 5890,
      "Ġplausible": 5891,
      "Ġaffected": 5892,
      "Ġvirginia": 5893,
      "family": 5894,
      "Ġaldrin": 5895,
      "Ġsediment": 5896,
      "Ġfaith": 5897,
      "Ġhaven": 5898,
      "Ġrubber": 5899,
      "Ġjoseph": 5900,
      "Ġdevice": 5901,
      "Ġdetect": 5902,
      "Ġcrowne": 5903,
      "Ġagreed": 5904,
      "Ġsettings": 5905,
      "Ġrichardson": 5906,
      "Ġoccupation": 5907,
      "Ġcabinet": 5908,
      "Ġsynt": 5909,
      "Ġdialect": 5910,
      "Ġthousands": 5911,
      "Ġharris": 5912,
      "Ġsector": 5913,
      "Ġintricate": 5914,
      "Ġscenario": 5915,
      "Ġcrucial": 5916,
      "Ġsummarizes": 5917,
      "Ġfinancial": 5918,
      "mexican": 5919,
      "Ġantibiotics": 5920,
      "Ġsorrento": 5921,
      "reuters": 5922,
      "repeat": 5923,
      "Ġpulled": 5924,
      "Ġphenotype": 5925,
      "itzerland": 5926,
      "Ġtoledo": 5927,
      "Ġisabelle": 5928,
      "Ġrigid": 5929,
      "adelphia": 5930,
      "Ġdeposit": 5931,
      "Ġunfortun": 5932,
      "Ġunlikely": 5933,
      "Ġtraffic": 5934,
      "Ġarrested": 5935,
      "Ġamerigas": 5936,
      "Ġafghan": 5937,
      "Ġbrazil": 5938,
      "Ġcommonsense": 5939,
      "Ġwaterloo": 5940,
      "Ġequivalent": 5941,
      "Ġremarkable": 5942,
      "'?": 5943,
      "02": 5944,
      "05": 5945,
      "49": 5946,
      "800": 5947,
      "98": 5948,
      "away": 5949,
      "bi": 5950,
      "bal": 5951,
      "bus": 5952,
      "bet": 5953,
      "bag": 5954,
      "box": 5955,
      "cas": 5956,
      "call": 5957,
      "card": 5958,
      "cars": 5959,
      "corn": 5960,
      "cons": 5961,
      "camp": 5962,
      "cotto": 5963,
      "dan": 5964,
      "dave": 5965,
      "dmore": 5966,
      "ek": 5967,
      "eed": 5968,
      "fa": 5969,
      "fen": 5970,
      "fal": 5971,
      "gon": 5972,
      "ged": 5973,
      "gir": 5974,
      "gian": 5975,
      "gia": 5976,
      "ho": 5977,
      "hal": 5978,
      "hall": 5979,
      "hard": 5980,
      "iled": 5981,
      "iating": 5982,
      "iere": 5983,
      "iences": 5984,
      "ji": 5985,
      "jan": 5986,
      "ker": 5987,
      "lit": 5988,
      "lar": 5989,
      "lace": 5990,
      "lake": 5991,
      "lier": 5992,
      "law": 5993,
      "mr": 5994,
      "mat": 5995,
      "mom": 5996,
      "mam": 5997,
      "main": 5998,
      "mary": 5999,
      "male": 6000,
      "ners": 6001,
      "oh": 6002,
      "oor": 6003,
      "oll": 6004,
      "pon": 6005,
      "ported": 6006,
      "rated": 6007,
      "rans": 6008,
      "rick": 6009,
      "rants": 6010,
      "sid": 6011,
      "spe": 6012,
      "show": 6013,
      "serv": 6014,
      "super": 6015,
      "tar": 6016,
      "tim": 6017,
      "uk": 6018,
      "vin": 6019,
      "win": 6020,
      "wick": 6021,
      "wax": 6022,
      "wagen": 6023,
      "your": 6024,
      "yrics": 6025,
      "zi": 6026,
      "Ġil": 6027,
      "Ġ\\$": 6028,
      "Ġtun": 6029,
      "Ġtong": 6030,
      "Ġtip": 6031,
      "Ġtire": 6032,
      "Ġtink": 6033,
      "Ġtensions": 6034,
      "Ġtasty": 6035,
      "Ġtsun": 6036,
      "Ġaid": 6037,
      "Ġawards": 6038,
      "Ġauf": 6039,
      "het": 6040,
      "inh": 6041,
      "inch": 6042,
      "inistration": 6043,
      "Ġtheater": 6044,
      "Ġsi": 6045,
      "Ġsy": 6046,
      "Ġsoph": 6047,
      "oni": 6048,
      "oner": 6049,
      "onds": 6050,
      "onary": 6051,
      "onym": 6052,
      "erve": 6053,
      "erness": 6054,
      "Ġwit": 6055,
      "Ġwise": 6056,
      "Ġcind": 6057,
      "Ġcater": 6058,
      "Ġcured": 6059,
      "Ġcakes": 6060,
      "Ġcreek": 6061,
      "reason": 6062,
      "Ġfi": 6063,
      "Ġflex": 6064,
      "Ġfault": 6065,
      "Ġbot": 6066,
      "Ġbain": 6067,
      "Ġbang": 6068,
      "Ġbare": 6069,
      "Ġbond": 6070,
      "Ġbowl": 6071,
      "Ġpy": 6072,
      "Ġpic": 6073,
      "Ġpac": 6074,
      "Ġpenc": 6075,
      "Ġpump": 6076,
      "itage": 6077,
      "itob": 6078,
      "oro": 6079,
      "Ġanx": 6080,
      "Ġanth": 6081,
      "Ġanton": 6082,
      "Ġanahe": 6083,
      "Ġanatomy": 6084,
      "oub": 6085,
      "ouri": 6086,
      "Ġml": 6087,
      "Ġmig": 6088,
      "Ġmac": 6089,
      "Ġmist": 6090,
      "Ġmerc": 6091,
      "ione": 6092,
      "Ġdam": 6093,
      "Ġdod": 6094,
      "Ġdess": 6095,
      "Ġdna": 6096,
      "tel": 6097,
      "teed": 6098,
      "Ġtomm": 6099,
      "Ġthus": 6100,
      "Ġthrew": 6101,
      "arter": 6102,
      "asper": 6103,
      "Ġispart": 6104,
      "ala": 6105,
      "Ġnr": 6106,
      "Ġnod": 6107,
      "Ġnose": 6108,
      "Ġnik": 6109,
      "Ġniger": 6110,
      "eden": 6111,
      "icians": 6112,
      "icaca": 6113,
      "ends": 6114,
      "Ġhu": 6115,
      "Ġhon": 6116,
      "Ġhat": 6117,
      "Ġhorn": 6118,
      "Ġhung": 6119,
      "Ġhidden": 6120,
      "Ġhosted": 6121,
      "Ġandra": 6122,
      "Ġgi": 6123,
      "Ġgall": 6124,
      "Ġgable": 6125,
      "Ġgamp": 6126,
      "Ġgently": 6127,
      "Ġgrill": 6128,
      "Ġgifts": 6129,
      "oms": 6130,
      "omal": 6131,
      "omers": 6132,
      "Ġlos": 6133,
      "Ġlose": 6134,
      "Ġlaur": 6135,
      "Ġlakes": 6136,
      "Ġliter": 6137,
      "Ġloses": 6138,
      "Ġlyrics": 6139,
      "llite": 6140,
      "llular": 6141,
      "Ġec": 6142,
      "Ġeater": 6143,
      "ivated": 6144,
      "ivores": 6145,
      "usion": 6146,
      "Ġring": 6147,
      "Ġram": 6148,
      "Ġrail": 6149,
      "Ġrib": 6150,
      "Ġrene": 6151,
      "Ġrising": 6152,
      "Ġryan": 6153,
      "otal": 6154,
      "Ġbees": 6155,
      "Ġwhate": 6156,
      "Ġreply": 6157,
      "Ġrefined": 6158,
      "lynn": 6159,
      "americ": 6160,
      "amazing": 6161,
      "Ġquit": 6162,
      "Ġquote": 6163,
      "osen": 6164,
      "aya": 6165,
      "imed": 6166,
      "implicit": 6167,
      "Ġonto": 6168,
      "Ġprok": 6169,
      "Ġpriest": 6170,
      "Ġfort": 6171,
      "Ġforth": 6172,
      "Ġhello": 6173,
      "Ġstove": 6174,
      "Ġstocking": 6175,
      "Ġstoner": 6176,
      "ersion": 6177,
      "adian": 6178,
      "cha": 6179,
      "chang": 6180,
      "ifier": 6181,
      "olai": 6182,
      "umph": 6183,
      "ilt": 6184,
      "ilion": 6185,
      "estic": 6186,
      "Ġvoc": 6187,
      "Ġvast": 6188,
      "Ġvary": 6189,
      "Ġvision": 6190,
      "Ġchance": 6191,
      "Ġchicago": 6192,
      "Ġchosen": 6193,
      "rients": 6194,
      "apore": 6195,
      "essel": 6196,
      "Ġabund": 6197,
      "agon": 6198,
      "Ġjon": 6199,
      "Ġjos": 6200,
      "Ġjane": 6201,
      "Ġjackson": 6202,
      "acon": 6203,
      "acing": 6204,
      "acus": 6205,
      "acchar": 6206,
      "stay": 6207,
      "Ġfollows": 6208,
      "Ġcanvas": 6209,
      "Ġnotable": 6210,
      "Ġnoticed": 6211,
      "Ġkans": 6212,
      "Ġkaz": 6213,
      "Ġplaster": 6214,
      "Ġplanned": 6215,
      "Ġcompr": 6216,
      "Ġcompress": 6217,
      "Ġcomics": 6218,
      "andon": 6219,
      "aine": 6220,
      "Ġworried": 6221,
      "Ġdebut": 6222,
      "then": 6223,
      "Ġmeant": 6224,
      "Ġmeals": 6225,
      "Ġexist": 6226,
      "Ġ29": 6227,
      "Ġenlight": 6228,
      "istic": 6229,
      "isture": 6230,
      "Ġunicycle": 6231,
      "Ġtrail": 6232,
      "Ġalco": 6233,
      "Ġlies": 6234,
      "Ġlibr": 6235,
      "itement": 6236,
      "okes": 6237,
      "Ġmanual": 6238,
      "Ġsoap": 6239,
      "eland": 6240,
      "udi": 6241,
      "Ġartery": 6242,
      "Ġardmore": 6243,
      "Ġspam": 6244,
      "Ġspart": 6245,
      "Ġtwice": 6246,
      "aka": 6247,
      "aked": 6248,
      "akles": 6249,
      "aryotes": 6250,
      "Ġdesire": 6251,
      "while": 6252,
      "Ġgroc": 6253,
      "avilion": 6254,
      "Ġacids": 6255,
      "priced": 6256,
      "Ġprec": 6257,
      "Ġamb": 6258,
      "atively": 6259,
      "Ġafford": 6260,
      "Ġdates": 6261,
      "asser": 6262,
      "asses": 6263,
      "assion": 6264,
      "Ġcompare": 6265,
      "Ġcompassion": 6266,
      "ogs": 6267,
      "Ġbright": 6268,
      "Ġbrought": 6269,
      "Ġknitting": 6270,
      "Ġnewly": 6271,
      "itters": 6272,
      "itively": 6273,
      "Ġheritage": 6274,
      "Ġpharm": 6275,
      "Ġapplic": 6276,
      "ugs": 6277,
      "Ġtextbook": 6278,
      "Ġ31": 6279,
      "ference": 6280,
      "Ġhelpers": 6281,
      "Ġletting": 6282,
      "othing": 6283,
      "neither": 6284,
      "Ġscr": 6285,
      "Ġscand": 6286,
      "Ġpartner": 6287,
      "Ġresort": 6288,
      "kswagen": 6289,
      "Ġflag": 6290,
      "Ġcrab": 6291,
      "Ġcracks": 6292,
      "Ġcrush": 6293,
      "Ġsheep": 6294,
      "Ġserene": 6295,
      "Ġbuilt": 6296,
      "Ġpersony": 6297,
      "Ġmarcia": 6298,
      "Ġdisput": 6299,
      "Ġdisorder": 6300,
      "Ġstra": 6301,
      "Ġcharlie": 6302,
      "Ġseeing": 6303,
      "Ġagent": 6304,
      "Ġaccum": 6305,
      "....": 6306,
      "Ġgoodness": 6307,
      "Ġcapac": 6308,
      "Ġbiggest": 6309,
      "Ġshoulder": 6310,
      "Ġpercent": 6311,
      "Ġfinish": 6312,
      "Ġemir": 6313,
      "Ġinstant": 6314,
      "Ġinstall": 6315,
      "Ġinstances": 6316,
      "Ġinstalled": 6317,
      "Ġremained": 6318,
      "Ġproce": 6319,
      "Ġairways": 6320,
      "erger": 6321,
      "Ġrecipes": 6322,
      "Ġtiticaca": 6323,
      "Ġfilip": 6324,
      "Ġtalent": 6325,
      "Ġtalented": 6326,
      "Ġtaliban": 6327,
      "Ġboiling": 6328,
      "Ġprocesses": 6329,
      "Ġ2068": 6330,
      "Ġjoe": 6331,
      "Ġjoh": 6332,
      "Ġpoison": 6333,
      "Ġpolys": 6334,
      "Ġstatements": 6335,
      "Ġknows": 6336,
      "Ġskating": 6337,
      "Ġskilled": 6338,
      "Ġsupposed": 6339,
      "Ġlaun": 6340,
      "Ġzomb": 6341,
      "Ġproductivity": 6342,
      "Ġinterest": 6343,
      "Ġdifferences": 6344,
      "Ġcreates": 6345,
      "Ġdowntown": 6346,
      "Ġguards": 6347,
      "Ġguiana": 6348,
      "Ġguidance": 6349,
      "Ġlisten": 6350,
      "Ġlistening": 6351,
      "Ġexplore": 6352,
      "Ġexplains": 6353,
      "anye": 6354,
      "Ġmonarch": 6355,
      "Ġinsp": 6356,
      "Ġinsul": 6357,
      "Ġshops": 6358,
      "Ġrelieve": 6359,
      "Ġrelatives": 6360,
      "Ġpolish": 6361,
      "bec": 6362,
      "Ġsurvey": 6363,
      "Ġincluded": 6364,
      "Ġearlier": 6365,
      "Ġ2002": 6366,
      "Ġfoundation": 6367,
      "Ġbuildings": 6368,
      "Ġsingapore": 6369,
      "Ġmainly": 6370,
      "Ġverse": 6371,
      "Ġsmallest": 6372,
      "Ġuseful": 6373,
      "Ġeverybody": 6374,
      "Ġ80": 6375,
      "Ġtriumph": 6376,
      "Ġfinding": 6377,
      "Ġregistration": 6378,
      "Ġenjoyment": 6379,
      "Ġedited": 6380,
      "Ġedward": 6381,
      "Ġbarb": 6382,
      "Ġbarny": 6383,
      "Ġdecis": 6384,
      "Ġdecades": 6385,
      "Ġfastest": 6386,
      "Ġstudied": 6387,
      "Ġstudios": 6388,
      "Ġmodi": 6389,
      "Ġobst": 6390,
      "Ġsetence": 6391,
      "Ġinvented": 6392,
      "Ġextern": 6393,
      "canoes": 6394,
      "encing": 6395,
      "comfort": 6396,
      "insky": 6397,
      "Ġdefinitively": 6398,
      "Ġinstruments": 6399,
      "Ġpicking": 6400,
      "Ġstarter": 6401,
      "Ġstarring": 6402,
      "Ġ623": 6403,
      "Ġsweats": 6404,
      "Ġmoisture": 6405,
      "Ġvegan": 6406,
      "Ġauthentic": 6407,
      "Ġrequest": 6408,
      "Ġtranslated": 6409,
      "Ġ72": 6410,
      "Ġswitzerland": 6411,
      "strong": 6412,
      "Ġlivorno": 6413,
      "Ġcontrovers": 6414,
      "Ġcellphone": 6415,
      "152": 6416,
      "employ": 6417,
      "Ġpatient": 6418,
      "Ġpattern": 6419,
      "Ġpatrick": 6420,
      "bye": 6421,
      "Ġidentified": 6422,
      "enny": 6423,
      "ennial": 6424,
      "Ġnorthe": 6425,
      "Ġnormal": 6426,
      "context": 6427,
      "Ġexcitement": 6428,
      "Ġ1991": 6429,
      "ommy": 6430,
      "Ġorganism": 6431,
      "Ġcontinues": 6432,
      "Ġturns": 6433,
      "Ġproduces": 6434,
      "Ġindication": 6435,
      "Ġmillions": 6436,
      "Ġofficially": 6437,
      "shire": 6438,
      "Ġreleases": 6439,
      "Ġconvention": 6440,
      "Ġathletes": 6441,
      "Ġinstitute": 6442,
      "Ġheadqu": 6443,
      "Ġsuggest": 6444,
      "Ġopened": 6445,
      "afted": 6446,
      "Ġtelephone": 6447,
      "Ġ1983": 6448,
      "Ġ1984": 6449,
      "Ġ1986": 6450,
      "Ġlawmaker": 6451,
      "Ġeffective": 6452,
      "Ġcalling": 6453,
      "Ġprograms": 6454,
      "Ġfalling": 6455,
      "Ġrepeated": 6456,
      "Ġarray": 6457,
      "Ġ1978": 6458,
      "Ġengineering": 6459,
      "Ġportland": 6460,
      "althy": 6461,
      "Ġroads": 6462,
      "Ġestate": 6463,
      "Ġconfident": 6464,
      "Ġarmstrong": 6465,
      "Ġgoalie": 6466,
      "Ġvisitors": 6467,
      "Ġcosts": 6468,
      "Ġfret": 6469,
      "Ġplanets": 6470,
      "Ġexpands": 6471,
      "Ġcomputers": 6472,
      "Ġgreenland": 6473,
      "income": 6474,
      "Ġradiation": 6475,
      "Ġreprod": 6476,
      "Ġjumps": 6477,
      "Ġcloser": 6478,
      "Ġclosest": 6479,
      "Ġbreaks": 6480,
      "Ġnovelist": 6481,
      "Ġdeveloped": 6482,
      "Ġinvolves": 6483,
      "Ġmicrow": 6484,
      "Ġdirections": 6485,
      "ophy": 6486,
      "Ġkilograms": 6487,
      "Ġlearned": 6488,
      "Ġnotebook": 6489,
      "Ġphiladelphia": 6490,
      "Ġ137": 6491,
      "Ġrenal": 6492,
      "Ġessence": 6493,
      "Ġchristian": 6494,
      "Ġ1963": 6495,
      "Ġosbor": 6496,
      "Ġoscar": 6497,
      "Ġsources": 6498,
      "Ġcamel": 6499,
      "Ġdefenders": 6500,
      "Ġutility": 6501,
      "Ġcartr": 6502,
      "Ġmutation": 6503,
      "Ġmutations": 6504,
      "365": 6505,
      "green": 6506,
      "great": 6507,
      "oleon": 6508,
      "Ġgalvest": 6509,
      "Ġconverts": 6510,
      "Ġsexual": 6511,
      "Ġseller": 6512,
      "Ġcontribute": 6513,
      "Ġstrike": 6514,
      "wait": 6515,
      "zzle": 6516,
      "Ġcopper": 6517,
      "Ġfarmer": 6518,
      "Ġlays": 6519,
      "Ġreaches": 6520,
      "Ġmethod": 6521,
      "Ġapron": 6522,
      "Ġbesides": 6523,
      "Ġforeign": 6524,
      "Ġconstant": 6525,
      "Ġjournal": 6526,
      "Ġpositions": 6527,
      "Ġinvestors": 6528,
      "Ġingredients": 6529,
      "472": 6530,
      "Ġtasks": 6531,
      "Ġpurple": 6532,
      "Ġpackage": 6533,
      "Ġdryer": 6534,
      "Ġtools": 6535,
      "Ġreports": 6536,
      "Ġvictory": 6537,
      "Ġkorea": 6538,
      "Ġohio": 6539,
      "Ġcompetitive": 6540,
      "Ġcompetition": 6541,
      "Ġdrawing": 6542,
      "Ġalphabets": 6543,
      "Ġbulbs": 6544,
      "Ġbulgar": 6545,
      "Ġpupil": 6546,
      "Ġdaughters": 6547,
      "Ġgarth": 6548,
      "Ġlesbian": 6549,
      "Ġattracting": 6550,
      "Ġtreatment": 6551,
      "Ġadventure": 6552,
      "prem": 6553,
      "Ġcatholic": 6554,
      "Ġinjured": 6555,
      "Ġnarrative": 6556,
      "Ġlenses": 6557,
      "Ġshape": 6558,
      "Ġshapes": 6559,
      "Ġexhib": 6560,
      "Ġbrandon": 6561,
      "Ġlaugh": 6562,
      "Ġsubstit": 6563,
      "Ġassistant": 6564,
      "Ġelevation": 6565,
      "Ġeagerly": 6566,
      "Ġsteelers": 6567,
      "Ġkilometers": 6568,
      "Ġskateboarder": 6569,
      "Ġfinger": 6570,
      "Ġfictional": 6571,
      "Ġpockets": 6572,
      "Ġnapoleon": 6573,
      "Ġatlantic": 6574,
      "Ġgraduate": 6575,
      "Ġamidst": 6576,
      "Ġapplying": 6577,
      "Ġcriminals": 6578,
      "Ġemergency": 6579,
      "Ġrepresentatives": 6580,
      "Ġdissatisfaction": 6581,
      "Ġoverse": 6582,
      "Ġbolt": 6583,
      "Ġstorage": 6584,
      "Ġuniform": 6585,
      "Ġuniforms": 6586,
      "Ġcalculate": 6587,
      "Ġdispute": 6588,
      "Ġmedicine": 6589,
      "Ġenthusiastic": 6590,
      "Ġfederal": 6591,
      "Ġnutrients": 6592,
      "Ġdollars": 6593,
      "Ġacademic": 6594,
      "Ġadditional": 6595,
      "Ġschedule": 6596,
      "Ġresistance": 6597,
      "Ġairplanes": 6598,
      "Ġbroadcast": 6599,
      "Ġelectromagnetic": 6600,
      "desc": 6601,
      "Ġthermal": 6602,
      "registration": 6603,
      "Ġnursing": 6604,
      "Ġlakers": 6605,
      "Ġfolded": 6606,
      "Ġchromosomes": 6607,
      "Ġflowering": 6608,
      "Ġpermanent": 6609,
      "Ġcitizens": 6610,
      "humans": 6611,
      "netherlands": 6612,
      "singer": 6613,
      "views": 6614,
      "woman": 6615,
      "Ġwidely": 6616,
      "Ġcumshot": 6617,
      "Ġbatchoy": 6618,
      "Ġninja": 6619,
      "Ġnarendra": 6620,
      "Ġnixon": 6621,
      "Ġhanson": 6622,
      "Ġhydrogen": 6623,
      "Ġstunning": 6624,
      "Ġteenage": 6625,
      "plantes": 6626,
      "Ġcarrots": 6627,
      "Ġconservative": 6628,
      "Ġexploration": 6629,
      "Ġearthquake": 6630,
      "Ġmathemat": 6631,
      "Ġpetersfield": 6632,
      "Ġbachelor": 6633,
      "Ġchallenges": 6634,
      "craft": 6635,
      "Ġoregon": 6636,
      "Ġtagalog": 6637,
      "Ġsatellite": 6638,
      "Ġcubes": 6639,
      "Ġdreams": 6640,
      "Ġthrilling": 6641,
      "Ġgaga": 6642,
      "Ġrapid": 6643,
      "Ġseamless": 6644,
      "Ġbrowser": 6645,
      "Ġupdates": 6646,
      "Ġinspection": 6647,
      "Ġavailability": 6648,
      "Ġsuspended": 6649,
      "Ġluxur": 6650,
      "business": 6651,
      "between": 6652,
      "fenring": 6653,
      "girl": 6654,
      "waxed": 6655,
      "Ġtinker": 6656,
      "Ġwitness": 6657,
      "Ġbottle": 6658,
      "itoba": 6659,
      "Ġanaheim": 6660,
      "Ġdodge": 6661,
      "Ġdessert": 6662,
      "Ġispartof": 6663,
      "Ġnodded": 6664,
      "Ġgabled": 6665,
      "Ġeatery": 6666,
      "Ġwhatever": 6667,
      "american": 6668,
      "accharides": 6669,
      "Ġkansas": 6670,
      "Ġalcohol": 6671,
      "Ġspartacus": 6672,
      "Ġaffordable": 6673,
      "Ġpolysaccharides": 6674,
      "Ġzombie": 6675,
      "Ġ6235": 6676,
      "Ġosborne": 6677,
      "Ġgalveston": 6678,
      "&#": 6679,
      "(-": 6680,
      ")?": 6681,
      "--": 6682,
      ".?": 6683,
      "07": 6684,
      "210": 6685,
      "60": 6686,
      "67": 6687,
      "600": 6688,
      "74": 6689,
      "95": 6690,
      "bine": 6691,
      "bone": 6692,
      "bhai": 6693,
      "cor": 6694,
      "city": 6695,
      "dv": 6696,
      "don": 6697,
      "dies": 6698,
      "dong": 6699,
      "down": 6700,
      "derson": 6701,
      "double": 6702,
      "eb": 6703,
      "elect": 6704,
      "fk": 6705,
      "fs": 6706,
      "face": 6707,
      "fact": 6708,
      "fare": 6709,
      "fold": 6710,
      "furt": 6711,
      "gree": 6712,
      "good": 6713,
      "hou": 6714,
      "hom": 6715,
      "hang": 6716,
      "hire": 6717,
      "happ": 6718,
      "hood": 6719,
      "hinoc": 6720,
      "ien": 6721,
      "ju": 6722,
      "job": 6723,
      "kes": 6724,
      "kil": 6725,
      "kia": 6726,
      "know": 6727,
      "las": 6728,
      "low": 6729,
      "lad": 6730,
      "loc": 6731,
      "lled": 6732,
      "love": 6733,
      "lav": 6734,
      "link": 6735,
      "liam": 6736,
      "mi": 6737,
      "mot": 6738,
      "may": 6739,
      "mod": 6740,
      "mess": 6741,
      "mill": 6742,
      "mel": 6743,
      "mice": 6744,
      "mog": 6745,
      "mates": 6746,
      "mower": 6747,
      "mission": 6748,
      "mitters": 6749,
      "nd": 6750,
      "nor": 6751,
      "nas": 6752,
      "nity": 6753,
      "oat": 6754,
      "oqu": 6755,
      "oke": 6756,
      "oach": 6757,
      "oja": 6758,
      "oala": 6759,
      "pat": 6760,
      "pal": 6761,
      "pop": 6762,
      "pol": 6763,
      "pace": 6764,
      "pack": 6765,
      "post": 6766,
      "power": 6767,
      "penter": 6768,
      "rise": 6769,
      "rene": 6770,
      "rush": 6771,
      "sion": 6772,
      "sim": 6773,
      "sub": 6774,
      "ship": 6775,
      "spec": 6776,
      "tv": 6777,
      "tube": 6778,
      "uj": 6779,
      "uv": 6780,
      "uency": 6781,
      "uwait": 6782,
      "vii": 6783,
      "wan": 6784,
      "wand": 6785,
      "wave": 6786,
      "yet": 6787,
      "ykes": 6788,
      "zar": 6789,
      "Ġow": 6790,
      "Ġ.\"": 6791,
      "Ġure": 6792,
      "Ġug": 6793,
      "Ġions": 6794,
      "Ġtie": 6795,
      "Ġtide": 6796,
      "Ġtab": 6797,
      "Ġtack": 6798,
      "Ġtough": 6799,
      "Ġtons": 6800,
      "Ġtense": 6801,
      "Ġturt": 6802,
      "Ġtube": 6803,
      "Ġak": 6804,
      "Ġaz": 6805,
      "Ġais": 6806,
      "Ġake": 6807,
      "Ġaunt": 6808,
      "Ġahead": 6809,
      "Ġaimed": 6810,
      "hear": 6811,
      "hello": 6812,
      "inform": 6813,
      "inting": 6814,
      "enate": 6815,
      "enst": 6816,
      "enous": 6817,
      "enge": 6818,
      "enger": 6819,
      "Ġtheore": 6820,
      "Ġske": 6821,
      "Ġsag": 6822,
      "Ġsort": 6823,
      "Ġsous": 6824,
      "Ġsister": 6825,
      "Ġsenate": 6826,
      "onch": 6827,
      "onut": 6828,
      "onia": 6829,
      "eros": 6830,
      "esome": 6831,
      "esena": 6832,
      "espie": 6833,
      "atthe": 6834,
      "atile": 6835,
      "attering": 6836,
      "Ġwish": 6837,
      "Ġwake": 6838,
      "Ġwings": 6839,
      "Ġwires": 6840,
      "Ġwik": 6841,
      "Ġwolf": 6842,
      "Ġwigg": 6843,
      "issi": 6844,
      "isible": 6845,
      "Ġcant": 6846,
      "Ġcher": 6847,
      "Ġcine": 6848,
      "Ġcast": 6849,
      "Ġcake": 6850,
      "Ġcaut": 6851,
      "Ġcries": 6852,
      "Ġcesena": 6853,
      "rev": 6854,
      "rell": 6855,
      "read": 6856,
      "really": 6857,
      "reme": 6858,
      "Ġfan": 6859,
      "Ġfay": 6860,
      "Ġfine": 6861,
      "Ġbon": 6862,
      "Ġbion": 6863,
      "Ġbent": 6864,
      "Ġbiting": 6865,
      "anz": 6866,
      "anak": 6867,
      "anales": 6868,
      "anova": 6869,
      "Ġpd": 6870,
      "Ġpiv": 6871,
      "Ġpad": 6872,
      "Ġpour": 6873,
      "Ġpomer": 6874,
      "Ġpull": 6875,
      "Ġpuck": 6876,
      "Ġpush": 6877,
      "Ġpais": 6878,
      "Ġplym": 6879,
      "Ġpillow": 6880,
      "Ġpapers": 6881,
      "Ġpavilion": 6882,
      "itis": 6883,
      "itate": 6884,
      "itivity": 6885,
      "itude": 6886,
      "ords": 6887,
      "orgia": 6888,
      "Ġanab": 6889,
      "ingan": 6890,
      "oul": 6891,
      "ouver": 6892,
      "Ġmb": 6893,
      "Ġmas": 6894,
      "Ġmine": 6895,
      "Ġmast": 6896,
      "Ġmound": 6897,
      "Ġmood": 6898,
      "Ġmower": 6899,
      "Ġmale": 6900,
      "Ġmatur": 6901,
      "Ġmah": 6902,
      "Ġmumb": 6903,
      "Ġmommy": 6904,
      "lee": 6905,
      "Ġdm": 6906,
      "Ġdar": 6907,
      "Ġdll": 6908,
      "Ġdim": 6909,
      "Ġdil": 6910,
      "Ġdust": 6911,
      "Ġdip": 6912,
      "Ġdune": 6913,
      "Ġdrew": 6914,
      "Ġdwell": 6915,
      "Ġdancer": 6916,
      "Ġdykes": 6917,
      "tems": 6918,
      "Ġinev": 6919,
      "Ġthy": 6920,
      "Ġthick": 6921,
      "arity": 6922,
      "asse": 6923,
      "alis": 6924,
      "alism": 6925,
      "entially": 6926,
      "Ġnu": 6927,
      "Ġnom": 6928,
      "Ġnine": 6929,
      "Ġnone": 6930,
      "Ġnails": 6931,
      "Ġnatal": 6932,
      "Ġnerve": 6933,
      "edom": 6934,
      "icing": 6935,
      "ication": 6936,
      "icate": 6937,
      "icial": 6938,
      "Ġhom": 6939,
      "Ġhang": 6940,
      "Ġhaz": 6941,
      "Ġhugg": 6942,
      "Ġhaw": 6943,
      "Ġhomes": 6944,
      "Ġandy": 6945,
      "Ġandrew": 6946,
      "Ġgur": 6947,
      "Ġgill": 6948,
      "Ġgain": 6949,
      "Ġgolf": 6950,
      "oma": 6951,
      "omacc": 6952,
      "Ġlic": 6953,
      "Ġlie": 6954,
      "Ġlone": 6955,
      "Ġlank": 6956,
      "Ġlane": 6957,
      "Ġlush": 6958,
      "Ġlomb": 6959,
      "Ġlww": 6960,
      "Ġeen": 6961,
      "ivals": 6962,
      "Ġyug": 6963,
      "Ġyach": 6964,
      "Ġyale": 6965,
      "user": 6966,
      "uses": 6967,
      "ussi": 6968,
      "Ġrim": 6969,
      "Ġrif": 6970,
      "Ġraf": 6971,
      "ota": 6972,
      "otrans": 6973,
      "Ġbean": 6974,
      "Ġbell": 6975,
      "Ġbeam": 6976,
      "Ġbeef": 6977,
      "Ġbells": 6978,
      "idity": 6979,
      "idae": 6980,
      "idency": 6981,
      "Ġwhit": 6982,
      "Ġreact": 6983,
      "Ġrebel": 6984,
      "ament": 6985,
      "amed": 6986,
      "amic": 6987,
      "amination": 6988,
      "Ġquiet": 6989,
      "Ġanswering": 6990,
      "osys": 6991,
      "oslav": 6992,
      "eter": 6993,
      "ira": 6994,
      "opa": 6995,
      "imum": 6996,
      "Ġpron": 6997,
      "Ġpray": 6998,
      "Ġpride": 6999,
      "Ġprinc": 7000,
      "Ġforests": 7001,
      "Ġfortress": 7002,
      "Ġyouth": 7003,
      "Ġhex": 7004,
      "Ġster": 7005,
      "Ġstone": 7006,
      "Ġstack": 7007,
      "Ġstood": 7008,
      "Ġstyl": 7009,
      "Ġstye": 7010,
      "Ġstunt": 7011,
      "urities": 7012,
      "igor": 7013,
      "igenous": 7014,
      "veys": 7015,
      "adow": 7016,
      "aders": 7017,
      "adict": 7018,
      "adder": 7019,
      "adron": 7020,
      "chant": 7021,
      "child": 7022,
      "china": 7023,
      "christ": 7024,
      "keep": 7025,
      "keeper": 7026,
      "Ġfrust": 7027,
      "uten": 7028,
      "utch": 7029,
      "ola": 7030,
      "olve": 7031,
      "olate": 7032,
      "olina": 7033,
      "Ġconveys": 7034,
      "Ġ110": 7035,
      "umes": 7036,
      "umber": 7037,
      "ilation": 7038,
      "ilty": 7039,
      "esto": 7040,
      "esty": 7041,
      "estig": 7042,
      "Ġvon": 7043,
      "Ġvic": 7044,
      "Ġvow": 7045,
      "Ġvine": 7046,
      "Ġvotes": 7047,
      "Ġchop": 7048,
      "Ġchoc": 7049,
      "Ġchip": 7050,
      "Ġchasing": 7051,
      "Ġchrys": 7052,
      "rip": 7053,
      "riev": 7054,
      "apes": 7055,
      "appear": 7056,
      "essor": 7057,
      "Ġabuse": 7058,
      "Ġwasher": 7059,
      "agm": 7060,
      "agull": 7061,
      "agena": 7062,
      "oven": 7063,
      "Ġjun": 7064,
      "Ġjac": 7065,
      "Ġjail": 7066,
      "Ġjaz": 7067,
      "Ġjava": 7068,
      "acl": 7069,
      "aco": 7070,
      "ache": 7071,
      "Ġshot": 7072,
      "Ġshiny": 7073,
      "Ġshiva": 7074,
      "sein": 7075,
      "blebee": 7076,
      "anti": 7077,
      "antry": 7078,
      "antage": 7079,
      "antically": 7080,
      "stars": 7081,
      "Ġteach": 7082,
      "Ġteeth": 7083,
      "oca": 7084,
      "Ġcans": 7085,
      "Ġcanadian": 7086,
      "teries": 7087,
      "Ġseg": 7088,
      "Ġsean": 7089,
      "Ġsevent": 7090,
      "Ġseagull": 7091,
      "Ġkm": 7092,
      "Ġkent": 7093,
      "Ġkay": 7094,
      "Ġkarn": 7095,
      "Ġkarant": 7096,
      "Ġkanye": 7097,
      "Ġklink": 7098,
      "Ġkoala": 7099,
      "Ġkuwait": 7100,
      "Ġplane": 7101,
      "Ġplaced": 7102,
      "Ġlea": 7103,
      "Ġleap": 7104,
      "Ġleak": 7105,
      "Ġlemon": 7106,
      "Ġleban": 7107,
      "Ġcompl": 7108,
      "peace": 7109,
      "anda": 7110,
      "andel": 7111,
      "illa": 7112,
      "Ġworse": 7113,
      "Ġworst": 7114,
      "ulates": 7115,
      "ulses": 7116,
      "Ġdeer": 7117,
      "Ġdeed": 7118,
      "Ġdebr": 7119,
      "Ġdepress": 7120,
      "Ġdebu": 7121,
      "Ġdemon": 7122,
      "Ġdegree": 7123,
      "Ġwear": 7124,
      "Ġnokia": 7125,
      "Ġbylo": 7126,
      "Ġbyproduct": 7127,
      "Ġexcept": 7128,
      "Ġexped": 7129,
      "Ġ26": 7130,
      "Ġ232": 7131,
      "thr": 7132,
      "Ġenvel": 7133,
      "Ġenron": 7134,
      "istics": 7135,
      "isticated": 7136,
      "Ġunknown": 7137,
      "Ġtrist": 7138,
      "Ġtrust": 7139,
      "Ġtrud": 7140,
      "Ġtrapped": 7141,
      "Ġalg": 7142,
      "Ġalger": 7143,
      "Ġalumin": 7144,
      "Ġalham": 7145,
      "Ġalleg": 7146,
      "Ġusb": 7147,
      "Ġusual": 7148,
      "Ġpositivity": 7149,
      "Ġliz": 7150,
      ".\".": 7151,
      "Ġmanning": 7152,
      "Ġmaniac": 7153,
      "Ġmanzan": 7154,
      "Ġmanagement": 7155,
      "uda": 7156,
      "uder": 7157,
      "Ġarist": 7158,
      "Ġaraf": 7159,
      "Ġarteries": 7160,
      "Ġspar": 7161,
      "Ġspice": 7162,
      "Ġspons": 7163,
      "Ġspray": 7164,
      "Ġspiders": 7165,
      "Ġopens": 7166,
      "arters": 7167,
      "acellular": 7168,
      "asta": 7169,
      "Ġgoals": 7170,
      "austed": 7171,
      "actically": 7172,
      "ishment": 7173,
      "angdong": 7174,
      "izers": 7175,
      "Ġgrant": 7176,
      "Ġgrown": 7177,
      "Ġgrab": 7178,
      "Ġgrav": 7179,
      "Ġgrains": 7180,
      "Ġgrae": 7181,
      "Ġgrinder": 7182,
      "abi": 7183,
      "abase": 7184,
      "Ġcorp": 7185,
      "Ġcorner": 7186,
      "Ġcorps": 7187,
      "Ġcoronary": 7188,
      "Ġpeach": 7189,
      "Ġbecoming": 7190,
      "avour": 7191,
      "Ġclick": 7192,
      "Ġclint": 7193,
      "Ġcliff": 7194,
      "Ġclothing": 7195,
      "ardo": 7196,
      "proc": 7197,
      "price": 7198,
      "Ġprey": 7199,
      "ribe": 7200,
      "Ġamen": 7201,
      "Ġambian": 7202,
      "Ġrevision": 7203,
      "Ġdatabase": 7204,
      "ials": 7205,
      "ousin": 7206,
      "force": 7207,
      "Ġfewer": 7208,
      "Ġfeet": 7209,
      "Ġfears": 7210,
      "Ġcompar": 7211,
      "Ġcompilation": 7212,
      "ogging": 7213,
      "click": 7214,
      "Ġbrom": 7215,
      "Ġbrus": 7216,
      "Ġbrace": 7217,
      "Ġbrenn": 7218,
      "Ġbrush": 7219,
      "Ġbronch": 7220,
      "Ġgenerations": 7221,
      "Ġgenerators": 7222,
      "Ġ1925": 7223,
      "weight": 7224,
      "Ġspeaking": 7225,
      "itty": 7226,
      "formed": 7227,
      "Ġapat": 7228,
      "arsat": 7229,
      "oyal": 7230,
      "Ġrestless": 7231,
      "Ġcontamination": 7232,
      "Ġupcoming": 7233,
      "Ġupscale": 7234,
      "apping": 7235,
      "Ġparas": 7236,
      "Ġparliam": 7237,
      "Ġhelmet": 7238,
      "Ġ33": 7239,
      "Ġ343": 7240,
      "Ġblows": 7241,
      "Ġblowing": 7242,
      "Ġbladder": 7243,
      "icalartist": 7244,
      "Ġscared": 7245,
      "Ġscored": 7246,
      "Ġindeed": 7247,
      "Ġindigenous": 7248,
      "Ġresolution": 7249,
      "ermark": 7250,
      "Ġfluff": 7251,
      "Ġdrive": 7252,
      "Ġdrafted": 7253,
      "Ġserie": 7254,
      "Ġcoe": 7255,
      "Ġcohom": 7256,
      "Ġwatermel": 7257,
      "Ġstraw": 7258,
      "Ġcharm": 7259,
      "Ġagents": 7260,
      "Ġsmart": 7261,
      "Ġsmell": 7262,
      "Ġkevin": 7263,
      "Ġsolanales": 7264,
      "Ġcarpenter": 7265,
      "Ġcarolina": 7266,
      "Ġgoodbye": 7267,
      "Ġartur": 7268,
      "Ġperf": 7269,
      "Ġpert": 7270,
      "Ġperennial": 7271,
      "Ġspecify": 7272,
      "Ġfinds": 7273,
      "Ġfinland": 7274,
      "Ġworkman": 7275,
      "Ġembr": 7276,
      "Ġempire": 7277,
      "Ġremov": 7278,
      "Ġremain": 7279,
      "Ġrecently": 7280,
      "Ġrecords": 7281,
      "Ġeats": 7282,
      "Ġfilter": 7283,
      "Ġgreg": 7284,
      "Ġgrew": 7285,
      "Ġgrease": 7286,
      "Ġformation": 7287,
      "hedral": 7288,
      "pleas": 7289,
      "orsche": 7290,
      "Ġcustomers": 7291,
      "Ġshowed": 7292,
      "Ġpoor": 7293,
      "Ġpole": 7294,
      "Ġthrow": 7295,
      "Ġthrowing": 7296,
      "issan": 7297,
      "Ġsupple": 7298,
      "Ġsupermark": 7299,
      "Ġlah": 7300,
      "Ġlazar": 7301,
      "Ġratings": 7302,
      "Ġleaders": 7303,
      "Ġleadership": 7304,
      "Ġ43": 7305,
      "Ġ46": 7306,
      "Ġzingan": 7307,
      "Ġnearly": 7308,
      "Ġnearby": 7309,
      "Ġattend": 7310,
      "Ġinteraction": 7311,
      "Ġinterviews": 7312,
      "Ġcred": 7313,
      "Ġcrew": 7314,
      "Ġmyster": 7315,
      "Ġdownload": 7316,
      "Ġguide": 7317,
      "Ġguides": 7318,
      "Ġguilty": 7319,
      "Ġguangdong": 7320,
      "Ġreadability": 7321,
      "operation": 7322,
      "Ġcolour": 7323,
      "Ġconsists": 7324,
      "Ġdiaries": 7325,
      "Ġdiocese": 7326,
      "Ġmonument": 7327,
      "Ġinsights": 7328,
      "Ġrelatively": 7329,
      "Ġmets": 7330,
      "Ġmetals": 7331,
      "bey": 7332,
      "bein": 7333,
      "beef": 7334,
      "ertaining": 7335,
      "Ġpassive": 7336,
      "Ġpasseng": 7337,
      "Ġgluten": 7338,
      "Ġlarva": 7339,
      "Ġbooker": 7340,
      "Ġproperly": 7341,
      "Ġearfl": 7342,
      "Ġ2000": 7343,
      "Ġ2003": 7344,
      "Ġ2009": 7345,
      "working": 7346,
      "Ġslows": 7347,
      "Ġmainten": 7348,
      "Ġmini": 7349,
      "Ġmining": 7350,
      "Ġteammates": 7351,
      "finite": 7352,
      "Ġtops": 7353,
      "Ġtrial": 7354,
      "Ġservants": 7355,
      "Ġ2017": 7356,
      "Ġsits": 7357,
      "Ġexperts": 7358,
      "ancur": 7359,
      "Ġelite": 7360,
      "Ġregister": 7361,
      "Ġregistry": 7362,
      "Ġedges": 7363,
      "intment": 7364,
      "Ġwarming": 7365,
      "Ġwarns": 7366,
      "Ġbarry": 7367,
      "Ġbarack": 7368,
      "Ġdeciding": 7369,
      "Ġtakeover": 7370,
      "Ġceo": 7371,
      "Ġbusy": 7372,
      "Ġstudies": 7373,
      "Ġstudio": 7374,
      "Ġwalter": 7375,
      "Ġmodified": 7376,
      "Ġsunny": 7377,
      "Ġsunrise": 7378,
      "Ġobama": 7379,
      "Ġobser": 7380,
      "Ġobtain": 7381,
      "Ġsets": 7382,
      "Ġsetup": 7383,
      "Ġcurious": 7384,
      "Ġbreat": 7385,
      "Ġbreath": 7386,
      "Ġinvention": 7387,
      "Ġinvaders": 7388,
      "track": 7389,
      "Ġextensions": 7390,
      "Ġends": 7391,
      "comp": 7392,
      "comics": 7393,
      "Ġ0800": 7394,
      "english": 7395,
      "insula": 7396,
      "Ġreduce": 7397,
      "Ġredhead": 7398,
      "Ġredtube": 7399,
      "Ġyounger": 7400,
      "Ġschools": 7401,
      "Ġaustrian": 7402,
      "Ġharder": 7403,
      "Ġretired": 7404,
      "Ġapprov": 7405,
      "nessee": 7406,
      "roll": 7407,
      "road": 7408,
      "Ġdivided": 7409,
      "Ġdivisible": 7410,
      "Ġstreets": 7411,
      "Ġsweater": 7412,
      "Ġeffort": 7413,
      "Ġefficient": 7414,
      "Ġdeliver": 7415,
      "Ġrefres": 7416,
      "Ġveil": 7417,
      "Ġvegas": 7418,
      "Ġtermin": 7419,
      "Ġspecification": 7420,
      "Ġinternal": 7421,
      "Ġrequired": 7422,
      "Ġswiss": 7423,
      "Ġcathedral": 7424,
      "Ġeastern": 7425,
      "Ġexpression": 7426,
      "Ġcontrasting": 7427,
      "Ġcontradict": 7428,
      "Ġtreated": 7429,
      "Ġmilf": 7430,
      "Ġmilest": 7431,
      "ylum": 7432,
      "Ġsideways": 7433,
      "Ġsidewalk": 7434,
      "ossil": 7435,
      "Ġorganell": 7436,
      "Ġorganisms": 7437,
      "Ġoriginally": 7438,
      "Ġcontinued": 7439,
      "Ġsignals": 7440,
      "Ġholonym": 7441,
      "Ġholbein": 7442,
      "Ġeuropa": 7443,
      "Ġowners": 7444,
      "Ġfourth": 7445,
      "Ġphotograph": 7446,
      "Ġcheaper": 7447,
      "Ġcolorado": 7448,
      "Ġsecondary": 7449,
      "Ġsaddam": 7450,
      "Ġpotter": 7451,
      "Ġannoy": 7452,
      "Ġannual": 7453,
      "Ġuniversal": 7454,
      "shake": 7455,
      "Ġchanging": 7456,
      "Ġpretending": 7457,
      "Ġpasta": 7458,
      "Ġlively": 7459,
      "Ġheadaches": 7460,
      "Ġcombining": 7461,
      "Ġadvance": 7462,
      "Ġadvantage": 7463,
      "annah": 7464,
      "Ġlovely": 7465,
      "Ġlowercase": 7466,
      "Ġresulting": 7467,
      "Ġsituations": 7468,
      "Ġsociety": 7469,
      "Ġmatthew": 7470,
      "Ġtelex": 7471,
      "Ġoceans": 7472,
      "Ġfamiliar": 7473,
      "Ġ1980": 7474,
      "Ġ1981": 7475,
      "Ġjobs": 7476,
      "Ġeffectively": 7477,
      "Ġidentifying": 7478,
      "boat": 7479,
      "boards": 7480,
      "Ġrepair": 7481,
      "Ġmemor": 7482,
      "Ġparker": 7483,
      "Ġkeeps": 7484,
      "Ġtesting": 7485,
      "Ġreception": 7486,
      "Ġreceiving": 7487,
      "Ġ120": 7488,
      "Ġ126": 7489,
      "Ġlogan": 7490,
      "Ġvolkswagen": 7491,
      "Ġvolcanoes": 7492,
      "Ġjudgment": 7493,
      "Ġarrest": 7494,
      "Ġarrive": 7495,
      "Ġarrival": 7496,
      "Ġ1970": 7497,
      "Ġ1972": 7498,
      "Ġengineers": 7499,
      "Ġsupporters": 7500,
      "Ġinstitutional": 7501,
      "Ġantique": 7502,
      "Ġmedia": 7503,
      "Ġhearts": 7504,
      "275": 7505,
      "Ġ90": 7506,
      "Ġdenver": 7507,
      "Ġdenoting": 7508,
      "Ġpressing": 7509,
      "Ġpreview": 7510,
      "Ġoccasion": 7511,
      "Ġcupboard": 7512,
      "Ġbehav": 7513,
      "Ġconfused": 7514,
      "Ġarmed": 7515,
      "Ġgoalkeeper": 7516,
      "Ġbelieves": 7517,
      "Ġconversations": 7518,
      "loch": 7519,
      "Ġfreedom": 7520,
      "Ġviral": 7521,
      "Ġstructured": 7522,
      "incinn": 7523,
      "Ġclosing": 7524,
      "Ġassociating": 7525,
      "Ġera": 7526,
      "Ġerup": 7527,
      "Ġeste": 7528,
      "Ġpenal": 7529,
      "Ġpeninsula": 7530,
      "itcase": 7531,
      "itches": 7532,
      "Ġimpulses": 7533,
      "Ġsquadron": 7534,
      "Ġcounted": 7535,
      "Ġfurlong": 7536,
      "Ġhealthy": 7537,
      "Ġtemple": 7538,
      "Ġtempor": 7539,
      "2015": 7540,
      "Ġmichel": 7541,
      "Ġgeoff": 7542,
      "Ġholidays": 7543,
      "Ġtourists": 7544,
      "Ġburg": 7545,
      "Ġpanama": 7546,
      "Ġgrammy": 7547,
      "Ġcools": 7548,
      "Ġnetwork": 7549,
      "Ġarchive": 7550,
      "Ġresponds": 7551,
      "iatedmus": 7552,
      "Ġterrain": 7553,
      "Ġwilde": 7554,
      "Ġwilderness": 7555,
      "Ġconcent": 7556,
      "Ġspeeds": 7557,
      "Ġdresses": 7558,
      "eeee": 7559,
      "Ġsnowy": 7560,
      "Ġsnowman": 7561,
      "Ġanalys": 7562,
      "Ġhenna": 7563,
      "Ġhenderson": 7564,
      "Ġ1965": 7565,
      "Ġflowing": 7566,
      "Ġflowers": 7567,
      "Ġsourced": 7568,
      "Ġflying": 7569,
      "iveness": 7570,
      "Ġdefensive": 7571,
      "Ġintruder": 7572,
      "Ġattacking": 7573,
      "Ġcontrolled": 7574,
      "Ġtechnologies": 7575,
      "Ġmajority": 7576,
      "Ġsymb": 7577,
      "Ġcartoon": 7578,
      "Ġmutant": 7579,
      "uminated": 7580,
      "Ġamongst": 7581,
      "267": 7582,
      "Ġconvert": 7583,
      "Ġclaudi": 7584,
      "Ġcontributions": 7585,
      "Ġcontributing": 7586,
      "Ġenterpr": 7587,
      "going": 7588,
      "Ġsilk": 7589,
      "Ġsoundwave": 7590,
      "Ġstriker": 7591,
      "iffy": 7592,
      "Ġsharks": 7593,
      "Ġmeasures": 7594,
      "Ġboxer": 7595,
      "Ġgiraffes": 7596,
      "racial": 7597,
      "Ġtennessee": 7598,
      "Ġcopies": 7599,
      "Ġcoconut": 7600,
      "Ġmassive": 7601,
      "Ġdaa": 7602,
      "Ġharold": 7603,
      "Ġreactions": 7604,
      "Ġdepending": 7605,
      "Ġdepiction": 7606,
      "Ġdepicts": 7607,
      "Ġfeaturing": 7608,
      "Ġscreaming": 7609,
      "baan": 7610,
      "Ġcirc": 7611,
      "Ġpuzzle": 7612,
      "Ġfrankfurt": 7613,
      "Ġatomic": 7614,
      "Ġoutdoors": 7615,
      "Ġadmired": 7616,
      "Ġadministration": 7617,
      "Ġrelaxing": 7618,
      "Ġromanian": 7619,
      "Ġrelationships": 7620,
      "Ġmanufacture": 7621,
      "3085": 7622,
      "cule": 7623,
      "related": 7624,
      "Ġpackaging": 7625,
      "Ġharmful": 7626,
      "Ġpossibility": 7627,
      "Ġpossibilities": 7628,
      "Ġcollabor": 7629,
      "Ġincreasingly": 7630,
      "Ġportraying": 7631,
      "Ġportrayed": 7632,
      "Ġfrequently": 7633,
      "Ġassociatedband": 7634,
      "burgh": 7635,
      "Ġsnack": 7636,
      "Ġpathogen": 7637,
      "Ġmurm": 7638,
      "Ġmurder": 7639,
      "Ġdarkness": 7640,
      "Ġdaughter": 7641,
      "Ġdaughtry": 7642,
      "Ġgarage": 7643,
      "Ġ250": 7644,
      "Ġscientists": 7645,
      "Ġattractive": 7646,
      "Ġconsumer": 7647,
      "Ġsurrounding": 7648,
      "Ġdiscussion": 7649,
      "Ġarchitecture": 7650,
      "Ġturkmenabat": 7651,
      "Ġtennant": 7652,
      "Ġsumer": 7653,
      "Ġcasino": 7654,
      "Ġcowboy": 7655,
      "Ġcathy": 7656,
      "Ġinfantry": 7657,
      "Ġhostage": 7658,
      "Ġneurotrans": 7659,
      "Ġexhausted": 7660,
      "Ġargentina": 7661,
      "Ġspotless": 7662,
      "Ġclimbing": 7663,
      "Ġaccidentally": 7664,
      "Ġsubstance": 7665,
      "Ġelevator": 7666,
      "Ġmolecule": 7667,
      "Ġhistoric": 7668,
      "Ġhistorical": 7669,
      "Ġcounterpart": 7670,
      "Ġkilometre": 7671,
      "Ġanalyze": 7672,
      "Ġilluminated": 7673,
      "Ġdaddy": 7674,
      "Ġrodrig": 7675,
      "character": 7676,
      "Ġchallenge": 7677,
      "Ġatlanta": 7678,
      "Ġsemantically": 7679,
      "Ġkinds": 7680,
      "Ġdemocr": 7681,
      "Ġdecline": 7682,
      "Ġlawnmower": 7683,
      "Ġanticipation": 7684,
      "Ġexpanding": 7685,
      "Ġhabitat": 7686,
      "hua": 7687,
      "john": 7688,
      "Ġivanova": 7689,
      "Ġsailors": 7690,
      "Ġhinduism": 7691,
      "Ġlionel": 7692,
      "Ġfruit": 7693,
      "Ġkilling": 7694,
      "Ġunclear": 7695,
      "Ġalkali": 7696,
      "ipedia": 7697,
      "Ġcalcio": 7698,
      "Ġskillfully": 7699,
      "Ġ45275": 7700,
      "Ġstretch": 7701,
      "Ġintegral": 7702,
      "Ġwonderland": 7703,
      "Ġcondensing": 7704,
      "Ġconditions": 7705,
      "Ġbenefits": 7706,
      "3528": 7707,
      "Ġiccs": 7708,
      "Ġwidows": 7709,
      "Ġberth": 7710,
      "Ġberlin": 7711,
      "Ġpurchase": 7712,
      "Ġnitrogen": 7713,
      "celium": 7714,
      "Ġdollar": 7715,
      "Ġenhances": 7716,
      "Ġacquire": 7717,
      "Ġacquired": 7718,
      "Ġacademy": 7719,
      "Ġscheduled": 7720,
      "Ġcoordinated": 7721,
      "Ġairplane": 7722,
      "Ġwindsor": 7723,
      "Ġerror": 7724,
      "Ġerrors": 7725,
      "Ġtickets": 7726,
      "Ġwaxml": 7727,
      "Ġcafe": 7728,
      "return": 7729,
      "Ġfantas": 7730,
      "Ġfantastic": 7731,
      "Ġdalton": 7732,
      "Ġhybr": 7733,
      "Ġhussein": 7734,
      "Ġhahn": 7735,
      "Ġruling": 7736,
      "Ġvacation": 7737,
      "Ġsequences": 7738,
      "Ġarthur": 7739,
      "Ġprescription": 7740,
      "Ġsoutheast": 7741,
      "Ġsoutheastern": 7742,
      "Ġannouncement": 7743,
      "Ġpleasant": 7744,
      "Ġpleasure": 7745,
      "Ġcrystal": 7746,
      "Ġcrystals": 7747,
      "Ġmanufacturer": 7748,
      "Ġmanufacturers": 7749,
      "volume": 7750,
      "Ġtribune": 7751,
      "Ġcigare": 7752,
      "Ġpoured": 7753,
      "Ġdiesel": 7754,
      "Ġinfection": 7755,
      "Ġnickname": 7756,
      "iciary": 7757,
      "Ġfreshwater": 7758,
      "Ġvirtual": 7759,
      "Ġattempted": 7760,
      "Ġstrategy": 7761,
      "Ġsimpsons": 7762,
      "Ġfungal": 7763,
      "Ġassumed": 7764,
      "Ġsmoothly": 7765,
      "Ġastronauts": 7766,
      "Ġneighborhood": 7767,
      "Ġopportunities": 7768,
      "Ġawesome": 7769,
      "Ġsudden": 7770,
      "Ġsavannah": 7771,
      "Ġfarewell": 7772,
      "Ġbumblebee": 7773,
      "Ġpowys": 7774,
      "Ġpaulo": 7775,
      "Ġinmarsat": 7776,
      "Ġstainless": 7777,
      "Ġfolk": 7778,
      "Ġ11264": 7779,
      "Ġvenue": 7780,
      "Ġchilean": 7781,
      "Ġsearched": 7782,
      "Ġdepartment": 7783,
      "Ġadvertise": 7784,
      "associatedmus": 7785,
      "Ġcricketers": 7786,
      "Ġguaranteed": 7787,
      "Ġexperiments": 7788,
      "Ġelephant": 7789,
      "Ġhumphrys": 7790,
      "Ġlegislative": 7791,
      "Ġdigestive": 7792,
      "Ġexcellent": 7793,
      "Ġembarrassed": 7794,
      "Ġsyntactically": 7795,
      "Ġafghanistan": 7796,
      "Ġtongue": 7797,
      "Ġsophisticated": 7798,
      "reasoning": 7799,
      "Ġanxiety": 7800,
      "Ġmlb": 7801,
      "Ġmigrants": 7802,
      "Ġdamage": 7803,
      "Ġtommy": 7804,
      "Ġnigeria": 7805,
      "Ġhornady": 7806,
      "Ġlaura": 7807,
      "Ġecosys": 7808,
      "changing": 7809,
      "Ġabundant": 7810,
      "Ġjoshua": 7811,
      "Ġkazem": 7812,
      "Ġcomprising": 7813,
      "isticorigin": 7814,
      "Ġgrocery": 7815,
      "Ġapplication": 7816,
      "Ġdisputes": 7817,
      "Ġstraight": 7818,
      "Ġcapacity": 7819,
      "Ġproceed": 7820,
      "Ġlaunched": 7821,
      "Ġbarbie": 7822,
      "Ġdecisions": 7823,
      "Ġobstacle": 7824,
      "Ġexternal": 7825,
      "Ġheadquarters": 7826,
      "Ġreproduction": 7827,
      "Ġcartridge": 7828,
      "describe": 7829,
      "Ġluxurious": 7830,
      "happy": 7831,
      "renees": 7832,
      "Ġturtles": 7833,
      "Ġaisle": 7834,
      "Ġakeem": 7835,
      "Ġtheorem": 7836,
      "Ġsousa": 7837,
      "Ġwikipedia": 7838,
      "Ġbionico": 7839,
      "Ġbentancur": 7840,
      "Ġpivotal": 7841,
      "Ġpomeranz": 7842,
      "Ġplymouth": 7843,
      "Ġanabolic": 7844,
      "Ġmasturbation": 7845,
      "Ġmumbai": 7846,
      "asseh": 7847,
      "Ġnatalie": 7848,
      "Ġhuggy": 7849,
      "Ġgurian": 7850,
      "Ġgillespie": 7851,
      "omaccone": 7852,
      "Ġlanka": 7853,
      "Ġyugoslav": 7854,
      "ussia": 7855,
      "Ġrimfire": 7856,
      "Ġrifle": 7857,
      "Ġstylisticorigin": 7858,
      "Ġchocolate": 7859,
      "Ġseventh": 7860,
      "Ġkarnar": 7861,
      "Ġkaranth": 7862,
      "Ġdebuted": 7863,
      "Ġdemonstr": 7864,
      "Ġexpedition": 7865,
      "Ġenvelope": 7866,
      "Ġtrudging": 7867,
      "Ġaluminum": 7868,
      "Ġalhambra": 7869,
      "Ġarafat": 7870,
      "Ġsponsors": 7871,
      "Ġsprayer": 7872,
      "Ġgraeme": 7873,
      "Ġclinton": 7874,
      "Ġambiance": 7875,
      "Ġbrennan": 7876,
      "Ġparliament": 7877,
      "Ġfluffy": 7878,
      "Ġcohomology": 7879,
      "Ġwatermelon": 7880,
      "Ġsupermarket": 7881,
      "Ġmystery": 7882,
      "Ġpassengers": 7883,
      "Ġearflaps": 7884,
      "Ġmaintenance": 7885,
      "Ġredheaded": 7886,
      "Ġorganelles": 7887,
      "incinnati": 7888,
      "Ġclaudiomaccone": 7889,
      "308539": 7890,
      "Ġneurotransmitters": 7891,
      "Ġrodrigo": 7892,
      "Ġdemocratic": 7893,
      "associatedmusicalartist": 7894,
      "\"\"": 7895,
      "):": 7896,
      ")\",": 7897,
      ".).": 7898,
      "//": 7899,
      "015": 7900,
      "075": 7901,
      "339": 7902,
      "400": 7903,
      "417": 7904,
      "53": 7905,
      "57": 7906,
      "512": 7907,
      "849": 7908,
      "://": 7909,
      ";&#": 7910,
      "_).": 7911,
      "aud": 7912,
      "aign": 7913,
      "afl": 7914,
      "aism": 7915,
      "aids": 7916,
      "ben": 7917,
      "bir": 7918,
      "bad": 7919,
      "best": 7920,
      "biz": 7921,
      "bage": 7922,
      "bour": 7923,
      "bling": 7924,
      "bush": 7925,
      "baked": 7926,
      "bnd": 7927,
      "cn": 7928,
      "cup": 7929,
      "certain": 7930,
      "cumin": 7931,
      "di": 7932,
      "dess": 7933,
      "del": 7934,
      "dav": 7935,
      "dog": 7936,
      "dra": 7937,
      "derek": 7938,
      "eking": 7939,
      "eign": 7940,
      "fly": 7941,
      "fun": 7942,
      "fil": 7943,
      "fight": 7944,
      "fish": 7945,
      "four": 7946,
      "fro": 7947,
      "gi": 7948,
      "gam": 7949,
      "gun": 7950,
      "god": 7951,
      "gant": 7952,
      "game": 7953,
      "gage": 7954,
      "gure": 7955,
      "hos": 7956,
      "hate": 7957,
      "hand": 7958,
      "have": 7959,
      "hong": 7960,
      "hour": 7961,
      "hope": 7962,
      "hmed": 7963,
      "ih": 7964,
      "ixt": 7965,
      "iors": 7966,
      "iations": 7967,
      "iately": 7968,
      "iables": 7969,
      "je": 7970,
      "jar": 7971,
      "jour": 7972,
      "joe": 7973,
      "jamin": 7974,
      "ko": 7975,
      "kat": 7976,
      "kum": 7977,
      "kuba": 7978,
      "kota": 7979,
      "liv": 7980,
      "lay": 7981,
      "lide": 7982,
      "lime": 7983,
      "lings": 7984,
      "lob": 7985,
      "length": 7986,
      "lery": 7987,
      "lasses": 7988,
      "mo": 7989,
      "mone": 7990,
      "mult": 7991,
      "made": 7992,
      "mets": 7993,
      "mike": 7994,
      "march": 7995,
      "making": 7996,
      "matches": 7997,
      "miffy": 7998,
      "nx": 7999,
      "nings": 8000,
      "natural": 8001,
      "niest": 8002,
      "nivores": 8003,
      "oian": 8004,
      "oons": 8005,
      "oops": 8006,
      "pm": 8007,
      "pse": 8008,
      "ptions": 8009,
      "pard": 8010,
      "path": 8011,
      "pins": 8012,
      "phen": 8013,
      "phew": 8014,
      "roc": 8015,
      "rine": 8016,
      "rish": 8017,
      "rates": 8018,
      "rance": 8019,
      "rences": 8020,
      "ront": 8021,
      "sw": 8022,
      "sy": 8023,
      "sz": 8024,
      "squ": 8025,
      "since": 8026,
      "sports": 8027,
      "slide": 8028,
      "tly": 8029,
      "tos": 8030,
      "take": 8031,
      "tains": 8032,
      "tails": 8033,
      "tops": 8034,
      "uy": 8035,
      "uen": 8036,
      "uly": 8037,
      "uke": 8038,
      "uum": 8039,
      "uable": 8040,
      "vy": 8041,
      "vis": 8042,
      "voc": 8043,
      "vents": 8044,
      "vada": 8045,
      "viii": 8046,
      "ville": 8047,
      "whe": 8048,
      "wed": 8049,
      "wid": 8050,
      "xw": 8051,
      "xpse": 8052,
      "youn": 8053,
      "yards": 8054,
      "yton": 8055,
      "zione": 8056,
      "Ġous": 8057,
      "Ġott": 8058,
      "Ġtet": 8059,
      "Ġtig": 8060,
      "Ġties": 8061,
      "Ġtast": 8062,
      "Ġtail": 8063,
      "Ġtorn": 8064,
      "Ġtib": 8065,
      "Ġtamm": 8066,
      "Ġtummy": 8067,
      "Ġtiff": 8068,
      "Ġtiant": 8069,
      "Ġaer": 8070,
      "Ġale": 8071,
      "Ġate": 8072,
      "Ġace": 8073,
      "Ġaur": 8074,
      "Ġads": 8075,
      "Ġawa": 8076,
      "Ġaaa": 8077,
      "Ġaims": 8078,
      "Ġahmed": 8079,
      "hele": 8080,
      "hell": 8081,
      "heir": 8082,
      "hese": 8083,
      "inv": 8084,
      "inen": 8085,
      "inic": 8086,
      "inos": 8087,
      "inate": 8088,
      "inter": 8089,
      "inand": 8090,
      "inces": 8091,
      "infl": 8092,
      "enal": 8093,
      "Ġtheat": 8094,
      "Ġtheres": 8095,
      "Ġsb": 8096,
      "Ġsin": 8097,
      "Ġsri": 8098,
      "Ġsac": 8099,
      "Ġsust": 8100,
      "Ġsled": 8101,
      "Ġsang": 8102,
      "Ġsind": 8103,
      "Ġsover": 8104,
      "Ġsurn": 8105,
      "Ġsought": 8106,
      "Ġsank": 8107,
      "Ġsuck": 8108,
      "Ġsession": 8109,
      "Ġsynthesis": 8110,
      "Ġsaint": 8111,
      "ona": 8112,
      "ony": 8113,
      "oning": 8114,
      "onated": 8115,
      "onso": 8116,
      "onants": 8117,
      "onbur": 8118,
      "eren": 8119,
      "ered": 8120,
      "erce": 8121,
      "erie": 8122,
      "eries": 8123,
      "eria": 8124,
      "erting": 8125,
      "erved": 8126,
      "atin": 8127,
      "atable": 8128,
      "atial": 8129,
      "atting": 8130,
      "ativity": 8131,
      "Ġwi": 8132,
      "Ġwore": 8133,
      "Ġware": 8134,
      "Ġwars": 8135,
      "Ġwides": 8136,
      "Ġwitch": 8137,
      "Ġwillow": 8138,
      "isen": 8139,
      "isers": 8140,
      "israel": 8141,
      "isdom": 8142,
      "Ġcer": 8143,
      "Ġcore": 8144,
      "Ġcased": 8145,
      "Ġcock": 8146,
      "Ġcull": 8147,
      "Ġcaz": 8148,
      "Ġcyl": 8149,
      "Ġcbs": 8150,
      "Ġcnn": 8151,
      "Ġcasting": 8152,
      "rem": 8153,
      "reet": 8154,
      "rehens": 8155,
      "Ġfled": 8156,
      "Ġferm": 8157,
      "Ġfax": 8158,
      "Ġfather": 8159,
      "Ġfires": 8160,
      "Ġfuck": 8161,
      "Ġfiring": 8162,
      "Ġfulf": 8163,
      "Ġferd": 8164,
      "Ġbm": 8165,
      "Ġbother": 8166,
      "Ġbuc": 8167,
      "Ġbass": 8168,
      "Ġberm": 8169,
      "Ġbung": 8170,
      "Ġbunk": 8171,
      "Ġborrow": 8172,
      "aning": 8173,
      "anou": 8174,
      "Ġpun": 8175,
      "Ġpall": 8176,
      "Ġpause": 8177,
      "Ġpia": 8178,
      "Ġpitt": 8179,
      "Ġpint": 8180,
      "Ġpets": 8181,
      "Ġpitc": 8182,
      "Ġpiles": 8183,
      "Ġpunk": 8184,
      "Ġpints": 8185,
      "Ġporsche": 8186,
      "Ġpsy": 8187,
      "itz": 8188,
      "itors": 8189,
      "itism": 8190,
      "itants": 8191,
      "ori": 8192,
      "Ġanne": 8193,
      "ingthe": 8194,
      "ingred": 8195,
      "ouve": 8196,
      "Ġmow": 8197,
      "Ġmpe": 8198,
      "Ġmul": 8199,
      "Ġmort": 8200,
      "Ġmall": 8201,
      "Ġmile": 8202,
      "Ġmug": 8203,
      "Ġmates": 8204,
      "Ġmamm": 8205,
      "Ġmik": 8206,
      "Ġmoles": 8207,
      "Ġmaid": 8208,
      "Ġmerger": 8209,
      "Ġmixt": 8210,
      "leep": 8211,
      "Ġdc": 8212,
      "Ġdd": 8213,
      "Ġdur": 8214,
      "Ġdill": 8215,
      "Ġdup": 8216,
      "Ġdair": 8217,
      "Ġdah": 8218,
      "Ġdamm": 8219,
      "Ġdye": 8220,
      "Ġdada": 8221,
      "Ġditch": 8222,
      "Ġdwar": 8223,
      "Ġdrill": 8224,
      "Ġdream": 8225,
      "tein": 8226,
      "Ġinh": 8227,
      "Ġinclusion": 8228,
      "Ġinfinite": 8229,
      "Ġtooth": 8230,
      "Ġthirst": 8231,
      "Ġthail": 8232,
      "arcas": 8233,
      "asm": 8234,
      "asp": 8235,
      "asil": 8236,
      "asca": 8237,
      "Ġist": 8238,
      "alo": 8239,
      "alist": 8240,
      "alows": 8241,
      "alfred": 8242,
      "aluate": 8243,
      "entle": 8244,
      "Ġni": 8245,
      "Ġnost": 8246,
      "Ġnath": 8247,
      "Ġnope": 8248,
      "Ġnaj": 8249,
      "Ġnurt": 8250,
      "Ġnerv": 8251,
      "Ġnana": 8252,
      "Ġnasa": 8253,
      "icht": 8254,
      "icity": 8255,
      "icide": 8256,
      "icially": 8257,
      "Ġho": 8258,
      "Ġhul": 8259,
      "Ġhust": 8260,
      "Ġhide": 8261,
      "Ġhated": 8262,
      "Ġhook": 8263,
      "Ġhip": 8264,
      "Ġhomer": 8265,
      "Ġhatch": 8266,
      "Ġhrist": 8267,
      "Ġhtt": 8268,
      "Ġhmr": 8269,
      "Ġanders": 8270,
      "Ġandro": 8271,
      "Ġgle": 8272,
      "Ġgam": 8273,
      "Ġgast": 8274,
      "Ġgone": 8275,
      "Ġgab": 8276,
      "Ġgree": 8277,
      "Ġgene": 8278,
      "Ġgigg": 8279,
      "Ġgulf": 8280,
      "Ġgreek": 8281,
      "Ġgentle": 8282,
      "omar": 8283,
      "omotion": 8284,
      "omenal": 8285,
      "Ġlol": 8286,
      "Ġlary": 8287,
      "Ġlugg": 8288,
      "Ġloss": 8289,
      "Ġluck": 8290,
      "Ġlicking": 8291,
      "Ġluminous": 8292,
      "Ġloyal": 8293,
      "Ġlanou": 8294,
      "lli": 8295,
      "llinen": 8296,
      "Ġeld": 8297,
      "Ġeine": 8298,
      "Ġeile": 8299,
      "Ġecl": 8300,
      "Ġeiff": 8301,
      "ivation": 8302,
      "Ġyards": 8303,
      "Ġyield": 8304,
      "Ġyuen": 8305,
      "quality": 8306,
      "usale": 8307,
      "Ġran": 8308,
      "Ġrou": 8309,
      "Ġrent": 8310,
      "Ġric": 8311,
      "Ġros": 8312,
      "Ġray": 8313,
      "Ġrall": 8314,
      "Ġrog": 8315,
      "Ġrare": 8316,
      "Ġrug": 8317,
      "Ġrates": 8318,
      "Ġrough": 8319,
      "Ġrides": 8320,
      "Ġraces": 8321,
      "Ġramp": 8322,
      "Ġraining": 8323,
      "Ġrna": 8324,
      "Ġrita": 8325,
      "Ġrisk": 8326,
      "Ġrhinoc": 8327,
      "othed": 8328,
      "Ġbears": 8329,
      "idens": 8330,
      "Ġwhom": 8331,
      "Ġrept": 8332,
      "Ġreform": 8333,
      "Ġreput": 8334,
      "Ġretr": 8335,
      "Ġreplace": 8336,
      "Ġrebec": 8337,
      "Ġreju": 8338,
      "lycer": 8339,
      "amatic": 8340,
      "Ġque": 8341,
      "Ġquench": 8342,
      "Ġquery": 8343,
      "Ġquora": 8344,
      "osal": 8345,
      "osch": 8346,
      "oske": 8347,
      "osph": 8348,
      "ospect": 8349,
      "osomal": 8350,
      "Ġ\"-": 8351,
      "Ġ\"?": 8352,
      "eto": 8353,
      "etime": 8354,
      "ethese": 8355,
      "irring": 8356,
      "opl": 8357,
      "imon": 8358,
      "imet": 8359,
      "import": 8360,
      "imagine": 8361,
      "imbs": 8362,
      "imeters": 8363,
      "Ġontar": 8364,
      "Ġprison": 8365,
      "Ġprior": 8366,
      "Ġforks": 8367,
      "Ġforty": 8368,
      "Ġforced": 8369,
      "Ġforgot": 8370,
      "Ġheir": 8371,
      "Ġheight": 8372,
      "Ġheating": 8373,
      "Ġhearing": 8374,
      "Ġhemog": 8375,
      "Ġstan": 8376,
      "Ġstry": 8377,
      "Ġstere": 8378,
      "Ġstones": 8379,
      "Ġstored": 8380,
      "Ġstability": 8381,
      "ura": 8382,
      "uries": 8383,
      "urab": 8384,
      "urable": 8385,
      "urdy": 8386,
      "urva": 8387,
      "urface": 8388,
      "unwaxed": 8389,
      "igan": 8390,
      "igently": 8391,
      "odisc": 8392,
      "adays": 8393,
      "Ġfolic": 8394,
      "ateful": 8395,
      "ateles": 8396,
      "Ġfris": 8397,
      "Ġfract": 8398,
      "utical": 8399,
      "ifiable": 8400,
      "oli": 8401,
      "olis": 8402,
      "olled": 8403,
      "olip": 8404,
      "Ġneat": 8405,
      "Ġneph": 8406,
      "Ġnegot": 8407,
      "Ġnephew": 8408,
      "Ġnevada": 8409,
      "Ġcongr": 8410,
      "Ġconstruct": 8411,
      "Ġconclusion": 8412,
      "Ġconference": 8413,
      "Ġasex": 8414,
      "Ġasleep": 8415,
      "ili": 8416,
      "ilies": 8417,
      "Ġvs": 8418,
      "Ġviv": 8419,
      "Ġvot": 8420,
      "Ġvia": 8421,
      "Ġvanc": 8422,
      "Ġvries": 8423,
      "Ġvinc": 8424,
      "Ġvessel": 8425,
      "Ġchose": 8426,
      "Ġchased": 8427,
      "rier": 8428,
      "ript": 8429,
      "Ġabb": 8430,
      "Ġability": 8431,
      "Ġabsol": 8432,
      "Ġabandon": 8433,
      "Ġwashed": 8434,
      "ags": 8435,
      "agment": 8436,
      "agree": 8437,
      "agger": 8438,
      "agues": 8439,
      "ovative": 8440,
      "ovethese": 8441,
      "Ġjp": 8442,
      "Ġjar": 8443,
      "Ġjam": 8444,
      "Ġjul": 8445,
      "Ġjak": 8446,
      "Ġjung": 8447,
      "Ġjerse": 8448,
      "Ġjury": 8449,
      "Ġjfk": 8450,
      "Ġjogging": 8451,
      "acted": 8452,
      "acles": 8453,
      "acier": 8454,
      "Ġdock": 8455,
      "Ġshred": 8456,
      "Ġshady": 8457,
      "Ġshoot": 8458,
      "sea": 8459,
      "see": 8460,
      "sell": 8461,
      "sequ": 8462,
      "bled": 8463,
      "iev": 8464,
      "ieved": 8465,
      "stat": 8466,
      "star": 8467,
      "start": 8468,
      "style": 8469,
      "Ġfollowed": 8470,
      "ocar": 8471,
      "Ġcannes": 8472,
      "htub": 8473,
      "htaking": 8474,
      "term": 8475,
      "terly": 8476,
      "Ġatv": 8477,
      "Ġatkins": 8478,
      "Ġathens": 8479,
      "herent": 8480,
      "Ġsees": 8481,
      "Ġkc": 8482,
      "Ġkoun": 8483,
      "Ġkiss": 8484,
      "Ġkenn": 8485,
      "Ġkush": 8486,
      "Ġkham": 8487,
      "Ġplastic": 8488,
      "Ġplacing": 8489,
      "Ġleith": 8490,
      "Ġleather": 8491,
      "Ġcompe": 8492,
      "Ġcomment": 8493,
      "Ġ(_).": 8494,
      "andan": 8495,
      "illo": 8496,
      "Ġworms": 8497,
      "Ġworship": 8498,
      "ulatory": 8499,
      "Ġdele": 8500,
      "Ġdefe": 8501,
      "Ġdebian": 8502,
      "Ġdegre": 8503,
      "Ġdeeper": 8504,
      "Ġdehydr": 8505,
      "Ġiq": 8506,
      "Ġweary": 8507,
      "Ġwealthy": 8508,
      "Ġnoted": 8509,
      "Ġnobel": 8510,
      "Ġmegan": 8511,
      "Ġexoske": 8512,
      "Ġexagger": 8513,
      "Ġuna": 8514,
      "Ġunve": 8515,
      "Ġunne": 8516,
      "Ġunfl": 8517,
      "Ġunoff": 8518,
      "Ġunemploy": 8519,
      "Ġungure": 8520,
      "Ġtrend": 8521,
      "Ġtrains": 8522,
      "Ġtricks": 8523,
      "Ġtruly": 8524,
      "Ġalign": 8525,
      "Ġalike": 8526,
      "Ġalley": 8527,
      "Ġalmam": 8528,
      "Ġalonso": 8529,
      "Ġalomar": 8530,
      "Ġliking": 8531,
      "Ġwheat": 8532,
      "upadi": 8533,
      "Ġmane": 8534,
      "Ġmanor": 8535,
      "Ġmanuel": 8536,
      "Ġmanitoba": 8537,
      "Ġsoho": 8538,
      "eless": 8539,
      "Ġark": 8540,
      "Ġarcher": 8541,
      "Ġarsen": 8542,
      "Ġspl": 8543,
      "Ġspin": 8544,
      "Ġspit": 8545,
      "Ġspill": 8546,
      "Ġspook": 8547,
      "Ġsperm": 8548,
      "Ġspokes": 8549,
      "tedly": 8550,
      "Ġoppon": 8551,
      "artender": 8552,
      "Ġtwigs": 8553,
      "ansson": 8554,
      "aceans": 8555,
      "aceutical": 8556,
      "astonbur": 8557,
      "Ġgoose": 8558,
      "ausage": 8559,
      "actory": 8560,
      "plom": 8561,
      "akrish": 8562,
      "Ġoutlaw": 8563,
      "Ġoutpost": 8564,
      "angel": 8565,
      "white": 8566,
      "Ġgren": 8567,
      "Ġgran": 8568,
      "Ġgrams": 8569,
      "Ġgrasper": 8570,
      "Ġgrapes": 8571,
      "Ġgrateful": 8572,
      "abilities": 8573,
      "abhar": 8574,
      "abitants": 8575,
      "abovethese": 8576,
      "six": 8577,
      "Ġcory": 8578,
      "Ġcorpor": 8579,
      "Ġsomewhere": 8580,
      "Ġsomebody": 8581,
      "Ġadorn": 8582,
      "Ġadams": 8583,
      "Ġadhd": 8584,
      "Ġadapt": 8585,
      "Ġpete": 8586,
      "Ġpeeking": 8587,
      "Ġpeyton": 8588,
      "avers": 8589,
      "Ġclut": 8590,
      "Ġclip": 8591,
      "Ġclock": 8592,
      "Ġclamp": 8593,
      "Ġclinic": 8594,
      "arded": 8595,
      "Ġacknow": 8596,
      "Ġprepar": 8597,
      "ribed": 8598,
      "ipse": 8599,
      "ipping": 8600,
      "Ġimple": 8601,
      "Ġimmed": 8602,
      "Ġimpec": 8603,
      "Ġamity": 8604,
      "Ġambig": 8605,
      "Ġammun": 8606,
      "Ġamdav": 8607,
      "ackets": 8608,
      "Ġafc": 8609,
      "ousy": 8610,
      "Ġthereby": 8611,
      "Ġhoward": 8612,
      "inda": 8613,
      "inders": 8614,
      "assy": 8615,
      "Ġintact": 8616,
      "Ġintention": 8617,
      "Ġintrons": 8618,
      "Ġintensity": 8619,
      "Ġfem": 8620,
      "Ġfeud": 8621,
      "Ġcomprehens": 8622,
      "oglycer": 8623,
      "ountain": 8624,
      "clue": 8625,
      "clists": 8626,
      "Ġbrave": 8627,
      "Ġbrick": 8628,
      "Ġbridge": 8629,
      "Ġbricks": 8630,
      "Ġbrasil": 8631,
      "Ġbrackets": 8632,
      "Ġgeneration": 8633,
      "Ġgenerating": 8634,
      "Ġgenerates": 8635,
      "Ġ1912": 8636,
      "Ġ1938": 8637,
      "arecr": 8638,
      "Ġnewton": 8639,
      "days": 8640,
      "welling": 8641,
      "Ġspect": 8642,
      "Ġ57": 8643,
      "iseum": 8644,
      "isease": 8645,
      "berto": 8646,
      "Ġhero": 8647,
      "forming": 8648,
      "Ġapo": 8649,
      "Ġapple": 8650,
      "Ġappar": 8651,
      "Ġwhereas": 8652,
      "ugal": 8653,
      "Ġengage": 8654,
      "Ġprovinces": 8655,
      "irected": 8656,
      "Ġupper": 8657,
      "Ġupright": 8658,
      "puter": 8659,
      "Ġaddiction": 8660,
      "Ġhelena": 8661,
      "Ġhelmets": 8662,
      "Ġ37": 8663,
      "Ġchooses": 8664,
      "Ġblend": 8665,
      "Ġblond": 8666,
      "Ġblessed": 8667,
      "erella": 8668,
      "Ġcommerc": 8669,
      "Ġcommerce": 8670,
      "Ġhelper": 8671,
      "hesive": 8672,
      "Ġverifiable": 8673,
      "acht": 8674,
      "achment": 8675,
      "Ġlock": 8676,
      "enstein": 8677,
      "Ġscar": 8678,
      "Ġscot": 8679,
      "Ġscrew": 8680,
      "Ġscript": 8681,
      "Ġindians": 8682,
      "Ġreson": 8683,
      "Ġresign": 8684,
      "Ġresolve": 8685,
      "ermaus": 8686,
      "ermarcas": 8687,
      "Ġflies": 8688,
      "Ġflood": 8689,
      "Ġdrove": 8690,
      "Ġjustify": 8691,
      "Ġcrest": 8692,
      "Ġcrunch": 8693,
      "Ġcrashing": 8694,
      "cluded": 8695,
      "ondeb": 8696,
      "Ġsheik": 8697,
      "Ġshepard": 8698,
      "Ġcox": 8699,
      "Ġcohen": 8700,
      "Ġcoherent": 8701,
      "Ġbuff": 8702,
      "Ġbuys": 8703,
      "Ġmarian": 8704,
      "Ġdisfl": 8705,
      "Ġdislike": 8706,
      "Ġdisruption": 8707,
      "Ġdiscomfort": 8708,
      "Ġstrings": 8709,
      "Ġstrands": 8710,
      "Ġstreng": 8711,
      "Ġaground": 8712,
      "Ġsmith": 8713,
      "Ġsmight": 8714,
      "Ġkem": 8715,
      "Ġkeik": 8716,
      "Ġcarter": 8717,
      "Ġcarbo": 8718,
      "Ġcargo": 8719,
      "Ġcarrie": 8720,
      "identified": 8721,
      "inky": 8722,
      "Ġeva": 8723,
      "Ġevolution": 8724,
      "Ġevaluate": 8725,
      "Ġcaps": 8726,
      "Ġcaption": 8727,
      "Ġarticles": 8728,
      "Ġinformed": 8729,
      "Ġinformative": 8730,
      "Ġentering": 8731,
      "Ġentrop": 8732,
      "Ġentertaining": 8733,
      "iversary": 8734,
      "Ġsaf": 8735,
      "Ġequator": 8736,
      "Ġfinest": 8737,
      "Ġfinite": 8738,
      "Ġemblem": 8739,
      "Ġemoss": 8740,
      "Ġremote": 8741,
      "branes": 8742,
      "Ġactual": 8743,
      "Ġactively": 8744,
      "Ġfiltered": 8745,
      "Ġproced": 8746,
      "Ġgreet": 8747,
      "Ġformats": 8748,
      "Ġformula": 8749,
      "Ġtalia": 8750,
      "Ġdetention": 8751,
      "Ġdetonated": 8752,
      "Ġbob": 8753,
      "Ġboarding": 8754,
      "Ġmuscle": 8755,
      "Ġmuslim": 8756,
      "ysse": 8757,
      "Ġchel": 8758,
      "Ġchew": 8759,
      "Ġcheering": 8760,
      "Ġbelt": 8761,
      "Ġbelinsky": 8762,
      "Ġ2021": 8763,
      "Ġjoel": 8764,
      "Ġtransported": 8765,
      "Ġtransmission": 8766,
      "athon": 8767,
      "Ġpresidency": 8768,
      "Ġpox": 8769,
      "Ġpoems": 8770,
      "Ġthrive": 8771,
      "Ġthrilled": 8772,
      "Ġstatesman": 8773,
      "Ġskane": 8774,
      "Ġskirt": 8775,
      "Ġlazy": 8776,
      "few": 8777,
      "feit": 8778,
      "Ġ432": 8779,
      "Ġ464": 8780,
      "Ġzu": 8781,
      "Ġzur": 8782,
      "Ġnearest": 8783,
      "Ġattacks": 8784,
      "airport": 8785,
      "Ġinterim": 8786,
      "Ġinterested": 8787,
      "Ġinterpol": 8788,
      "Ġinterracial": 8789,
      "Ġnumer": 8790,
      "Ġundoub": 8791,
      "alevel": 8792,
      "mson": 8793,
      "Ġcreative": 8794,
      "Ġcreations": 8795,
      "Ġmycelium": 8796,
      "Ġgufa": 8797,
      "ificent": 8798,
      "Ġreaders": 8799,
      "Ġfunniest": 8800,
      "geting": 8801,
      "Ġsuicide": 8802,
      "Ġwanting": 8803,
      "Ġcolon": 8804,
      "Ġcoliseum": 8805,
      "Ġlisting": 8806,
      "Ġdaytime": 8807,
      "Ġlongest": 8808,
      "Ġconsist": 8809,
      "Ġconsonants": 8810,
      "Ġcentimeters": 8811,
      "Ġdiagn": 8812,
      "Ġdiplom": 8813,
      "Ġhighway": 8814,
      "Ġsubsid": 8815,
      "Ġsublime": 8816,
      "Ġsubsequ": 8817,
      "raim": 8818,
      "anya": 8819,
      "Ġmona": 8820,
      "Ġmont": 8821,
      "Ġinsured": 8822,
      "writer": 8823,
      "Ġpoles": 8824,
      "Ġpoland": 8825,
      "Ġmetrop": 8826,
      "before": 8827,
      "Ġsurp": 8828,
      "Ġsurr": 8829,
      "Ġsurge": 8830,
      "Ġsurger": 8831,
      "Ġpassport": 8832,
      "Ġpassenger": 8833,
      "Ġglastonbur": 8834,
      "Ġlara": 8835,
      "Ġlark": 8836,
      "Ġearned": 8837,
      "Ġ2008": 8838,
      "Ġnowadays": 8839,
      "Ġbuilds": 8840,
      "worm": 8841,
      "world": 8842,
      "Ġslice": 8843,
      "Ġslides": 8844,
      "Ġinputs": 8845,
      "Ġminds": 8846,
      "Ġworldwide": 8847,
      "Ġcleans": 8848,
      "Ġclemson": 8849,
      "Ġrockets": 8850,
      "Ġseconds": 8851,
      "Ġulys": 8852,
      "Ġdont": 8853,
      "Ġlesson": 8854,
      "Ġassault": 8855,
      "Ġmissouri": 8856,
      "Ġmississi": 8857,
      "Ġela": 8858,
      "Ġregions": 8859,
      "Ġregular": 8860,
      "Ġregulatory": 8861,
      "Ġenjoys": 8862,
      "Ġspecializes": 8863,
      "Ġvalues": 8864,
      "Ġvalley": 8865,
      "Ġvaluable": 8866,
      "Ġbarking": 8867,
      "Ġbarney": 8868,
      "Ġlasts": 8869,
      "Ġwalmart": 8870,
      "Ġmodesto": 8871,
      "Ġcompleted": 8872,
      "cessary": 8873,
      "Ġsuns": 8874,
      "Ġobt": 8875,
      "Ġobserv": 8876,
      "Ġnumberof": 8877,
      "Ġcurved": 8878,
      "Ġbreathe": 8879,
      "Ġbreeden": 8880,
      "Ġelected": 8881,
      "Ġelegant": 8882,
      "Ġextr": 8883,
      "Ġextent": 8884,
      "Ġextend": 8885,
      "Ġextensive": 8886,
      "Ġelectro": 8887,
      "Ġ--\"": 8888,
      "Ġende": 8889,
      "comb": 8890,
      "commun": 8891,
      "computer": 8892,
      "Ġhumidity": 8893,
      "Ġschoolbag": 8894,
      "Ġkiddo": 8895,
      "Ġhomemade": 8896,
      "Ġhardwood": 8897,
      "Ġretire": 8898,
      "Ġretrie": 8899,
      "rolling": 8900,
      "Ġpicked": 8901,
      "Ġlinear": 8902,
      "Ġ67": 8903,
      "Ġstoryboards": 8904,
      "Ġexamined": 8905,
      "Ġexamples": 8906,
      "Ġyoungest": 8907,
      "Ġmoe": 8908,
      "Ġmoore": 8909,
      "Ġirish": 8910,
      "Ġiroqu": 8911,
      "Ġdiner": 8912,
      "Ġrefug": 8913,
      "Ġrefract": 8914,
      "Ġveins": 8915,
      "Ġautosomal": 8916,
      "Ġlights": 8917,
      "Ġ1886": 8918,
      "Ġokri": 8919,
      "Ġsongwriter": 8920,
      "Ġappeal": 8921,
      "Ġappearing": 8922,
      "Ġ7339": 8923,
      "Ġswed": 8924,
      "Ġswatches": 8925,
      "Ġpoppins": 8926,
      "Ġmarked": 8927,
      "????": 8928,
      "flies": 8929,
      "floor": 8930,
      "Ġpairs": 8931,
      "Ġcontrast": 8932,
      "Ġperformed": 8933,
      "too": 8934,
      "Ġcourage": 8935,
      "158": 8936,
      "1578": 8937,
      "emed": 8938,
      "Ġmovements": 8939,
      "arked": 8940,
      "Ġsimplicity": 8941,
      "parents": 8942,
      "Ġnoranda": 8943,
      "Ġclasses": 8944,
      "Ġclassic": 8945,
      "Ġclassification": 8946,
      "concept": 8947,
      "contr": 8948,
      "caps": 8949,
      "Ġbrianna": 8950,
      "Ġmilo": 8951,
      "Ġmiles": 8952,
      "Ġrushed": 8953,
      "Ġrussel": 8954,
      "Ġ1997": 8955,
      "ylene": 8956,
      "Ġnicely": 8957,
      "Ġorganizers": 8958,
      "Ġoriginated": 8959,
      "enei": 8960,
      "Ġsigned": 8961,
      "Ġbande": 8962,
      "Ġmeniere": 8963,
      "Ġdistant": 8964,
      "Ġeuro": 8965,
      "Ġseasons": 8966,
      "Ġowns": 8967,
      "Ġvisual": 8968,
      "Ġvariables": 8969,
      "Ġproducers": 8970,
      "Ġcoloring": 8971,
      "Ġanniversary": 8972,
      "Ġmiller": 8973,
      "Ġspacewalk": 8974,
      "Ġstrongly": 8975,
      "Ġstronghold": 8976,
      "Ġcurrencies": 8977,
      "utely": 8978,
      "Ġxham": 8979,
      "Ġxxx": 8980,
      "Ġsystems": 8981,
      "Ġpaine": 8982,
      "Ġpastries": 8983,
      "Ġinches": 8984,
      "Ġsuggesting": 8985,
      "Ġopening": 8986,
      "noon": 8987,
      "Ġsalv": 8988,
      "Ġsales": 8989,
      "Ġsalim": 8990,
      "Ġwaits": 8991,
      "Ġ149": 8992,
      "Ġfamilia": 8993,
      "Ġ1982": 8994,
      "Ġ1985": 8995,
      "Ġ1989": 8996,
      "Ġmeaningful": 8997,
      "Ġoccluded": 8998,
      "Ġrepaired": 8999,
      "Ġmemory": 9000,
      "Ġmembranes": 9001,
      "Ġrobbers": 9002,
      "Ġauburn": 9003,
      "Ġfiremen": 9004,
      "Ġfireworks": 9005,
      "Ġgenome": 9006,
      "Ġrealized": 9007,
      "Ġrealizing": 9008,
      "Ġprogramm": 9009,
      "Ġmeetings": 9010,
      "Ġsouthwest": 9011,
      "Ġrecommended": 9012,
      "solid": 9013,
      "Ġfalls": 9014,
      "Ġbedrock": 9015,
      "Ġbilly": 9016,
      "Ġbillion": 9017,
      "Ġbabies": 9018,
      "Ġmagic": 9019,
      "Ġmagnes": 9020,
      "Ġgerminate": 9021,
      "Ġlogo": 9022,
      "Ġlogic": 9023,
      "Ġprofessor": 9024,
      "Ġvoices": 9025,
      "Ġvolumes": 9026,
      "Ġjudaism": 9027,
      "Ġdeathplace": 9028,
      "Ġoperated": 9029,
      "Ġ1973": 9030,
      "Ġ1975": 9031,
      "Ġ1977": 9032,
      "Ġ1979": 9033,
      "Ġsupportive": 9034,
      "Ġreturns": 9035,
      "Ġgovernor": 9036,
      "Ġgovernments": 9037,
      "ajji": 9038,
      "Ġurl": 9039,
      "Ġurinary": 9040,
      "Ġurugu": 9041,
      "Ġantenn": 9042,
      "Ġ156": 9043,
      "Ġ1526": 9044,
      "Ġshipping": 9045,
      "Ġseparation": 9046,
      "Ġattributed": 9047,
      "Ġvalidity": 9048,
      "Ġoceania": 9049,
      "2731": 9050,
      "Ġsandy": 9051,
      "Ġsandburg": 9052,
      "Ġfifth": 9053,
      "Ġmustang": 9054,
      "Ġdesigns": 9055,
      "Ġprevent": 9056,
      "Ġcompletely": 9057,
      "Ġsteep": 9058,
      "Ġstealing": 9059,
      "Ġwestfield": 9060,
      "Ġwestern": 9061,
      "Ġbatt": 9062,
      "Ġbathtub": 9063,
      "Ġpromoting": 9064,
      "Ġconduct": 9065,
      "Ġconfidence": 9066,
      "Ġconfront": 9067,
      "Ġbelief": 9068,
      "Ġbelieving": 9069,
      "Ġunderwater": 9070,
      "Ġfrew": 9071,
      "Ġhandle": 9072,
      "Ġ2776": 9073,
      "Ġreproduct": 9074,
      "Ġcommunic": 9075,
      "Ġcommunities": 9076,
      "Ġcommunalism": 9077,
      "Ġbuyers": 9078,
      "Ġbreakfast": 9079,
      "Ġespec": 9080,
      "Ġpenyet": 9081,
      "idson": 9082,
      "Ġsharehold": 9083,
      "Ġnovels": 9084,
      "Ġimpurities": 9085,
      "149": 9086,
      "1465": 9087,
      "1942": 9088,
      "Ġsquares": 9089,
      "Ġsquatting": 9090,
      "Ġfighters": 9091,
      "Ġromance": 9092,
      "Ġdeveloping": 9093,
      "Ġinvolving": 9094,
      "death": 9095,
      "Ġmental": 9096,
      "Ġmicro": 9097,
      "Ġmichele": 9098,
      "Ġgeorgia": 9099,
      "Ġgoddess": 9100,
      "Ġsecrets": 9101,
      "therefore": 9102,
      "Ġ2498": 9103,
      "Ġalongside": 9104,
      "exc": 9105,
      "Ġtourist": 9106,
      "Ġalexander": 9107,
      "Ġsatisfactory": 9108,
      "Ġburied": 9109,
      "Ġoxides": 9110,
      "Ġcooler": 9111,
      "Ġbakery": 9112,
      "offensive": 9113,
      "Ġmotivated": 9114,
      "Ġdavis": 9115,
      "Ġdavidson": 9116,
      "Ġthirty": 9117,
      "Ġhoriz": 9118,
      "Ġstays": 9119,
      "Ġstaying": 9120,
      "Ġshirts": 9121,
      "Ġterrace": 9122,
      "Ġdishwas": 9123,
      "Ġlabial": 9124,
      "Ġ1764": 9125,
      "Ġteachers": 9126,
      "Ġtraded": 9127,
      "Ġcheckpo": 9128,
      "Ġslowing": 9129,
      "iotic": 9130,
      "Ġessentially": 9131,
      "Ġ162": 9132,
      "Ġ163": 9133,
      "Ġ1623": 9134,
      "Ġexceeded": 9135,
      "Ġ1964": 9136,
      "Ġ1969": 9137,
      "Ġcapture": 9138,
      "Ġpresenter": 9139,
      "Ġpools": 9140,
      "Ġguitars": 9141,
      "Ġcampaign": 9142,
      "Ġpreviously": 9143,
      "185": 9144,
      "holes": 9145,
      "Ġosaka": 9146,
      "helped": 9147,
      "Ġbenjamin": 9148,
      "Ġmixes": 9149,
      "Ġtomb": 9150,
      "Ġnationwide": 9151,
      "Ġrainfor": 9152,
      "Ġrainwater": 9153,
      "Ġvideodisc": 9154,
      "Ġintrig": 9155,
      "Ġprojects": 9156,
      "Ġpublication": 9157,
      "Ġtechnical": 9158,
      "2000": 9159,
      "2005": 9160,
      "Ġturbine": 9161,
      "Ġcutlery": 9162,
      "Ġbagp": 9163,
      "Ġbags": 9164,
      "Ġbaghd": 9165,
      "Ġpalmone": 9166,
      "Ġpalatial": 9167,
      "Ġmutual": 9168,
      "Ġissued": 9169,
      "Ġreferred": 9170,
      "Ġ283": 9171,
      "Ġsoldiers": 9172,
      "367": 9173,
      "389": 9174,
      "greg": 9175,
      "Ġslept": 9176,
      "Ġcertainly": 9177,
      "Ġsells": 9178,
      "Ġsellers": 9179,
      "Ġcontributes": 9180,
      "Ġprobability": 9181,
      "Ġprofessionals": 9182,
      "Ġguitarist": 9183,
      "Ġtouched": 9184,
      "recipes": 9185,
      "Ġfacial": 9186,
      "Ġbustle": 9187,
      "teellinen": 9188,
      "Ġinflatable": 9189,
      "Ġhotter": 9190,
      "Ġstrip": 9191,
      "Ġsharp": 9192,
[...]
