{"<|endoftext|>":0,"<QUESTION>":1,"<ANSWER>":2,"!":3,"\"":4,"#":5,"$":6,"%":7,"&":8,"'":9,"(":10,")":11,"*":12,"+":13,",":14,"-":15,".":16,"/":17,"0":18,"1":19,"2":20,"3":21,"4":22,"5":23,"6":24,"7":25,"8":26,"9":27,":":28,";":29,"<":30,"=":31,">":32,"?":33,"@":34,"A":35,"B":36,"C":37,"D":38,"E":39,"F":40,"G":41,"H":42,"I":43,"J":44,"K":45,"L":46,"M":47,"N":48,"O":49,"P":50,"Q":51,"R":52,"S":53,"T":54,"U":55,"V":56,"W":57,"X":58,"Y":59,"Z":60,"[":61,"\\":62,"]":63,"^":64,"_":65,"`":66,"a":67,"b":68,"c":69,"d":70,"e":71,"f":72,"g":73,"h":74,"i":75,"j":76,"k":77,"l":78,"m":79,"n":80,"o":81,"p":82,"q":83,"r":84,"s":85,"t":86,"u":87,"v":88,"w":89,"x":90,"y":91,"z":92,"{":93,"|":94,"}":95,"~":96,"¡":97,"¢":98,"£":99,"¤":100,"¥":101,"¦":102,"§":103,"¨":104,"©":105,"ª":106,"«":107,"¬":108,"®":109,"¯":110,"°":111,"±":112,"²":113,"³":114,"´":115,"µ":116,"¶":117,"·":118,"¸":119,"¹":120,"º":121,"»":122,"¼":123,"½":124,"¾":125,"¿":126,"À":127,"Á":128,"Â":129,"Ã":130,"Ä":131,"Å":132,"Æ":133,"Ç":134,"È":135,"É":136,"Ê":137,"Ë":138,"Ì":139,"Í":140,"Î":141,"Ï":142,"Ð":143,"Ñ":144,"Ò":145,"Ó":146,"Ô":147,"Õ":148,"Ö":149,"×":150,"Ø":151,"Ù":152,"Ú":153,"Û":154,"Ü":155,"Ý":156,"Þ":157,"ß":158,"à":159,"á":160,"â":161,"ã":162,"ä":163,"å":164,"æ":165,"ç":166,"è":167,"é":168,"ê":169,"ë":170,"ì":171,"í":172,"î":173,"ï":174,"ð":175,"ñ":176,"ò":177,"ó":178,"ô":179,"õ":180,"ö":181,"÷":182,"ø":183,"ù":184,"ú":185,"û":186,"ü":187,"ý":188,"þ":189,"ÿ":190,"Ā":191,"ā":192,"Ă":193,"ă":194,"Ą":195,"ą":196,"Ć":197,"ć":198,"Ĉ":199,"ĉ":200,"Ċ":201,"ċ":202,"Č":203,"č":204,"Ď":205,"ď":206,"Đ":207,"đ":208,"Ē":209,"ē":210,"Ĕ":211,"ĕ":212,"Ė":213,"ė":214,"Ę":215,"ę":216,"Ě":217,"ě":218,"Ĝ":219,"ĝ":220,"Ğ":221,"ğ":222,"Ġ":223,"ġ":224,"Ģ":225,"ģ":226,"Ĥ":227,"ĥ":228,"Ħ":229,"ħ":230,"Ĩ":231,"ĩ":232,"Ī":233,"ī":234,"Ĭ":235,"ĭ":236,"Į":237,"į":238,"İ":239,"ı":240,"Ĳ":241,"ĳ":242,"Ĵ":243,"ĵ":244,"Ķ":245,"ķ":246,"ĸ":247,"Ĺ":248,"ĺ":249,"Ļ":250,"ļ":251,"Ľ":252,"ľ":253,"Ŀ":254,"ŀ":255,"Ł":256,"ł":257,"Ń":258,"Ġt":259,"Ġa":260,"he":261,"in":262,"en":263,"Ġthe":264,"er":265,"on":266,"Ġs":267,"at":268,"es":269,"is":270,"Ġw":271,"or":272,"Ġc":273,"of":274,"an":275,"re":276,"Ġf":277,"it":278,"ing":279,"Ġ<":280,"Ġp":281,"Ġb":282,"Ġan":283,"ou":284,"le":285,"ion":286,"te":287,"Ġm":288,"ar":289,"Ġto":290,"al":291,"ent":292,"Ġd":293,"Ġth":294,"as":295,"Ġin":296,"Ġis":297,"ed":298,"ic":299,"Ġof":300,"end":301,"xt":302,"Ġand":303,"om":304,"Ġn":305,"ce":306,"text":307,"Ġh":308,"ĠT":309,"ON":310,"TI":311,"TION":312,"ER":313,"AN":314,"ES":315,"QU":316,"SW":317,"endof":318,"ESTION":319,"QUESTION":320,"|>":321,"Ġ<|":322,"ANSW":323,"endoftext":324,"ANSWER":325,"ll":326,"Ġl":327,"ow":328,"est":329,"iv":330,"ĠA":331,"Ġg":332,"ot":333,"us":334,"ct":335,"Ġe":336,"Ġbe":337,"id":338,"wer":339,"ly":340,"swer":341,"am":342,"ĠI":343,"ĠS":344,"ro":345,"ĠThe":346,"et":347,"ence":348,"Ġy":349,"qu":350,"ay":351,"Ġre":352,"Ġthat":353,"Ġ\"":354,"os":355,"Ġsent":356,"ir":357,"ĠC":358,"Ġr":359,"ation":360,"im":361,"Ġfor":362,"Ġit":363,"ĠW":364,"estion":365,"ur":366,"ld":367,"Ġ-":368,"Ġon":369,"ers":370,"Ġthis":371,"Ġanswer":372,"Ġwh":373,"ig":374,"Ġsentence":375,"ate":376,"ve":377,"ut":378,"Ġqu":379,"un":380,"out":381,"ad":382,"Ġfo":383,"Ġyou":384,"ri":385,"op":386,"Ġquestion":387,"Ġst":388,"ke":389,"ĠB":390,"ith":391,"ch":392,"ĠP":393,"Ġwith":394,"od":395,"ive":396,"her":397,"Ġare":398,"Ġne":399,"ĠG":400,"ol":401,"il":402,"um":403,"Ġ1":404,"Ġcon":405,"Ġor":406,"Ġab":407,"'s":408,"ap":409,"if":410,"Ġas":411,"llow":412,"ess":413,"ag":414,"Ġv":415,"Ġwas":416,"ant":417,"ĠM":418,"ie":419,"ter":420,"ĠH":421,"ac":422,"Ġfr":423,"ble":424,"Ġfollow":425,"Ġ=":426,"Ġpro":427,"Ġhe":428,"hat":429,"se":430,"Ġsh":431,"Ġpl":432,"pe":433,"Ġfollowing":434,"ĠD":435,"st":436,"ul":437,"Ġdo":438,"and":439,"ĠR":440,"ĠF":441,"Ġnot":442,"ould":443,"oun":444,"Ġfrom":445,"igh":446,"el":447,"ov":448,"Ġabout":449,"ill":450,"ain":451,"Ġte":452,"ord":453,"Ġ(":454,"ort":455,"ĠE":456,"iven":457,"ist":458,"Ġch":459,"Ġcom":460,"ich":461,"Ġme":462,"Ġat":463,"ase":464,"Ġ2":465,"Ġby":466,"Ġcan":467,"ust":468,"ĠN":469,"Ġse":470,"Ġwe":471,"ide":472,"ĠL":473,"ave":474,"ore":475,"rit":476,"ions":477,"Ġli":478,"ity":479,"ĠQ":480,"led":481,"ame":482,"Ġex":483,"ĠIn":484,"nswer":485,"ome":486,"Ġpos":487,"ight":488,"Ġtr":489,".\"":490,"pt":491,"all":492,"ĠJ":493,"oc":494,"Ġus":495,"Ġle":496,").":497,"Ġk":498,"art":499,"ies":500,"ans":501,"act":502,"Ġde":503,"Ġpr":504,"ment":505,"ice":506,"Ġlike":507,"Ġthey":508,"Ġwhe":509,"king":510,"ine":511,"ud":512,"ted":513,"up":514,"ĠO":515,"The":516,"th":517,"Ġj":518,"aus":519,"ĠWhat":520,"ĠY":521,"ace":522,"ong":523,"Ġwhat":524,"ated":525,"ish":526,"ang":527,"pl":528,"ener":529,"ary":530,"Ġgo":531,"Ġhave":532,"ub":533,"Ġun":534,"able":535,"Ġbec":536,"iz":537,"Ġwhich":538,"ast":539,"ue":540,"Ġdes":541,"ard":542,"Ġma":543,"Ġtheir":544,"Ġ'":545,"one":546,"our":547,"Ġpe":548,"we":549,"ally":550,"ause":551,"ople":552,"Ġman":553,"Ġout":554,"ure":555,"Answer":556,"rect":557,"ian":558,"Ġal":559,"age":560,"ver":561,"own":562,"orm":563,"gh":564,"Ġall":565,"other":566,"ia":567,"Ġop":568,"Ġcor":569,"Ġword":570,"Ġwould":571,"Ġsp":572,"ial":573,"ere":574,"ove":575,"rite":576,"Ġwho":577,"ĠIt":578,"ry":579,"ĠTh":580,"ks":581,"Ġbut":582,"rib":583,"ound":584,"Ġgr":585,"Ġhas":586,"ĠU":587,"Ġpeople":588,"tep":589,"ative":590,"umm":591,"av":592,"oo":593,"ĠGiven":594,"Ġar":595,"ata":596,"Ġplay":597,"Ġbecause":598,"Ġsome":599,"Ġ.":600,"ĠĠ":601,"Ġfood":602,"ĠQu":603,"ating":604,"ab":605,"Ġhis":606,"Ġdesc":607,"ous":608,"lease":609,"ind":610,"itive":611,"Ġno":612,"ose":613,"wo":614,"Ġfe":615,"Ġyour":616,"Ġwill":617,"ater":618,"ĠK":619,"ough":620,"ile":621,"Ġcorrect":622,"per":623,"riend":624,"Ġcl":625,"'t":626,"Ġen":627,"Ġdoes":628,"Ġwor":629,"port":630,"dd":631,"ack":632,"Ġac":633,"Ġ5":634,"iew":635,"cl":636,"ount":637,"ĠQuestion":638,"Ġcal":639,"ip":640,"ber":641,"Ġim":642,"Ġpre":643,"Ġmov":644,"ible":645,"Ġcomp":646,"Ġ,":647,"form":648,"irst":649,"Ġpositive":650,"ost":651,"ect":652,"erson":653,"Ġgiven":654,"ĠCh":655,"Ġrest":656,"Ġdata":657,"are":658,"00":659,"Ġone":660,"gative":661,"Ġso":662,"ick":663,"du":664,"fer":665,"ĠSt":666,"day":667,"over":668,"view":669,"Ġwords":670,"aur":671,"ily":672,"enerate":673,"ge":674,"ng":675,"ass":676,"Ġcalled":677,"Ġap":678,"to":679,"Ġ3":680,"em":681,"Ġfirst":682,"Ġspe":683,"Ġo":684,"What":685,"ime":686,"ĠThis":687,"Ġdescrib":688,"ates":689,"Ġnegative":690,"aurant":691,"sible":692,"Ġfam":693,"Ġaf":694,"Ġrestaurant":695,"Ġro":696,"oy":697,"Ġmore":698,"Ġher":699,"app":700,"Ġother":701,"Ġthese":702,"Ġprov":703,"Ġ19":704,"ra":705,"Ġwhen":706,"hes":707,"Ġperson":708,"ak":709,"oth":710,"Ġup":711,"ise":712,"ear":713,"Ġkn":714,"ason":715,"Ġreview":716,"Ġtwo":717,"cess":718,"ail":719,"Ġmovie":720,"ased":721,"ings":722,"og":723,"erm":724,"Ġsay":725,"ult":726,"Ġdid":727,"Ġtell":728,"Ġtext":729,"Ġcont":730,"Ġwhere":731,"Ġhel":732,"Ġver":733,"Ġyes":734,"ory":735,"put":736,"entence":737,"ild":738,"ree":739,"ru":740,"Ġthere":741,"ĠWrite":742,"ond":743,"ne":744,"Ġits":745,"iment":746,"Ġthem":747,"clud":748,"Ġsa":749,"ctu":750,"ach":751,"lect":752,"Ġres":753,"Ġhelp":754,"ite":755,"Ġbet":756,"ĠPlease":757,"Ġopt":758,"ance":759,"Ġag":760,"Ġsu":761,"Ġplace":762,"Ġbig":763,"Ġneed":764,"ĠSo":765,"ĠWh":766,"ited":767,"ress":768,"Ġoff":769,"Ġspec":770,"ivers":771,"ces":772,"Ġpart":773,"ical":774,"ask":775,"ĠUn":776,"Ġsumm":777,"Ġname":778,"Ġmake":779,"ĠRe":780,"Ġtime":781,"Ġpar":782,"ink":783,"Ġsc":784,"weet":785,"ys":786,"Ġinform":787,"Ġpossible":788,"Ġinto":789,"lish":790,"ire":791,"itt":792,"ype":793,"unctu":794,"old":795,"Ġdis":796,"Ġfamily":797,"Ġgood":798,"Ġnew":799,"ake":800,"mer":801,"Ġcity":802,"ob":803,"ustom":804,"Ġloc":805,"Ġinformation":806,"Ġif":807,"Ġeat":808,"ĠEng":809,"Ġhapp":810,"ook":811,"Ġbl":812,"Ġafter":813,"ptions":814,"Ġfl":815,"Ġmeans":816,"Ġph":817,"Ġcustom":818,"ĠAn":819,"Ġser":820,"ĠYes":821,"ĠGenerate":822,"Ġcount":823,"ple":824,"Ġfeel":825,"Ġact":826,"ee":827,"Ġpunctu":828,"Ġhad":829,"ade":830,"ital":831,"',":832,"yp":833,"ff":834,"Ġget":835,"ict":836,"hing":837,"ens":838,"Ġvery":839,"cept":840,"ign":841,"Ġcomm":842,"Ġabove":843,"Ġshe":844,"Ġsentiment":845,"ĠAnswer":846,"ange":847,"Ġcar":848,"Ġboth":849,"..":850,"ĠAl":851,"Ġbu":852,"Ġper":853,"ious":854,"riendly":855,"Ġwere":856,"Ġrating":857,"ject":858,"Ġev":859,"ai":860,"Ġadd":861,"Ġacc":862,"ition":863,"ep":864,"ĠV":865,"?\"":866,"Ġreason":867,"Ġtask":868,"Ġcap":869,"air":870,"Ġstep":871,"Ġ4":872,"Ġnext":873,"Ġcontext":874,"hen":875,"Ġcustomer":876,"way":877,"ĠHe":878,"Ġmean":879,"pro":880,"Ġjust":881,"Ġbest":882,"Ġwork":883,"Ġequ":884,"ĠHow":885,"Ġcould":886,"ĠEnglish":887,"Ġ+":888,"Ġhow":889,"ices":890,"Ġwater":891,"ize":892,"get":893,"Ġam":894,"ck":895,"Ġchar":896,"Ġbr":897,"ood":898,"als":899,"Ġmost":900,"ors":901,"omet":902,"Ġarea":903,"Ġyear":904,"ren":905,"Ġtal":906,"ents":907,"ations":908,"Ġsm":909,"Ġsame":910,"Ġshould":911,"Ġlist":912,"Ġem":913,"aces":914,"Ġshow":915,"Ġdescribes":916,"reat":917,"Ġart":918,"fore":919,"der":920,"Ġdif":921,"urn":922,"Ġthan":923,"Ġcons":924,"iss":925,"Ġnear":926,"orn":927,"Ġany":928,"Ġ20":929,"ale":930,"Ġind":931,"Ġwant":932,"Ġfun":933,"ark":934,"Ġover":935,"Ġsummary":936,"Ġpunctuation":937,"res":938,"so":939,"Ġstate":940,"ĠHere":941,"ful":942,"Ġknow":943,"Ġent":944,"ĠThey":945,"itle":946,"mise":947,"land":948,"Ġlet":949,"oup":950,"Ġsol":951,"Ġwhile":952,"Step":953,"Ġco":954,"ific":955,"ars":956,"ĠAs":957,"Ġtrans":958,"ĠIf":959,"Ġanswers":960,"ath":961,"Ġnum":962,"Ġfil":963,"ix":964,"oose":965,"Ġke":966,"Ġprodu":967,"any":968,"ween":969,"ution":970,"ĠCon":971,"Ġbel":972,"ĠNo":973,"aph":974,"ower":975,"red":976,"ĠYou":977,"ese":978,"Ġtweet":979,"Ġdet":980,"Ġfriend":981,"Ġad":982,"Ġhigh":983,"Ġrec":984,"hed":985,"ruct":986,"Ġmus":987,"Ġbetween":988,"ident":989,"Ġbeing":990,"ĠUnited":991,"Ġequation":992,"othes":993,"Ġthink":994,"int":995,"ittle":996,"Ġthr":997,"ĠIs":998,"br":999,"ational":1000,"Ġcountry":1001,"ĠInd":1002,"Options":1003,"ĠNe":1004,"Ġlong":1005,"Ġdiffer":1006,"ons":1007,"Ġalso":1008,"Ġsomet":1009,"Ġshort":1010,"uring":1011,"Ġpres":1012,"ought":1013,"Ġusing":1014,",\"":1015,"Ġprocess":1016,"Ġlead":1017,"ience":1018,"Ġinclud":1019,"cre":1020,"Ġrel":1021,"ric":1022,"Ġprovide":1023,"Ġmade":1024,"Ġ[":1025,"Ġwom":1026,"Type":1027,"Ġche":1028,"Ġlittle":1029,"Sentence":1030,"ense":1031,"ef":1032,"Ġsaid":1033,"ĊĊ":1034,"Ġtoo":1035,"Ġoptions":1036,"Ġmight":1037,"tem":1038,"ided":1039,"io":1040,"ell":1041,"very":1042,"Ġcapital":1043,"Ġcol":1044,"Ġexper":1045,"Ġsim":1046,"Ġfact":1047,"angu":1048,"ĠAdd":1049,"meric":1050,"atch":1051,"Ġcent":1052,"Ġday":1053,"ull":1054,"Ġcre":1055,"Ġsub":1056,"Ġmany":1057,"Ġspecial":1058,"ĠeatType":1059,"ypothes":1060,"Ġfind":1061,"ypothesis":1062,"les":1063,"off":1064,"ting":1065,"inn":1066,"ides":1067,"Ġform":1068,"joy":1069,"the":1070,"Ġlangu":1071,"Ġcorrectly":1072,"Ġrivers":1073,"Ġsk":1074,"Ġpo":1075,"\",":1076,"atur":1077,"ied":1078,"Ġcharact":1079,"ĠStates":1080,"Ġdifferent":1081,"Ġthings":1082,"Ġatt":1083,"ced":1084,"ately":1085,"Ġrem":1086,"word":1087,"ateg":1088,"Ġsomeone":1089,"Ġgroup":1090,"Ġdr":1091,"ences":1092,"Ġvers":1093,"ify":1094,"Ġins":1095,"Ġspaces":1096,"Ġriverside":1097,"ward":1098,"Ġnam":1099,"Ġsomething":1100,"ten":1101,"Ġsee":1102,"Ġ6":1103,"Ġtrue":1104,"Ġmy":1105,"ĠPro":1106,"ĠĊ":1107,"Ġenjoy":1108,"ph":1109,"Ġend":1110,"raph":1111,"ouse":1112,"Ġpremise":1113,"tern":1114,"Ġserv":1115,"Ġhim":1116,"Ġfilm":1117,"gg":1118,"Ġthrough":1119,"Ġprice":1120,"Ġused":1121,"Ġway":1122,"arn":1123,"ailed":1124,"ĠWhich":1125,"Write":1126,"gether":1127,"Ġappro":1128,"ĠCom":1129,"gy":1130,"Ġtogether":1131,"ĠAr":1132,"Ġshop":1133,"Ġsup":1134,"Ġbased":1135,"struct":1136,"cer":1137,"Ġthen":1138,"Ġfound":1139,"Ġ201":1140,"Ġbo":1141,"Ġ200":1142,"Ġlanguage":1143,"Ġversion":1144,"Ġwrit":1145,"Ġgu":1146,"Ġevery":1147,"ĠSentence":1148,"blem":1149,"Ġval":1150,"Ġi":1151,"Ġexpl":1152,"oices":1153,"Ġdown":1154,"Ġtitle":1155,"ĠAmeric":1156,"ball":1157,"ĠCan":1158,"ĠTr":1159,"man":1160,"Ġuse":1161,"ient":1162,"Ġback":1163,"Ġimport":1164,"Ġhappy":1165,"ked":1166,"Ġpub":1167,"Ġdec":1168,"Ġteam":1169,"az":1170,"Ġstr":1171,"In":1172,"icle":1173,"Ġair":1174,"Ġsing":1175,"aw":1176,"Ġfin":1177,"Ġonly":1178,"uc":1179,"Ġmod":1180,"ders":1181,"Ġbeen":1182,"Ġagain":1183,"here":1184,"ank":1185,"gr":1186,"arm":1187,"Ġproper":1188,"Ġtop":1189,"Ġlocated":1190,"ues":1191,"ool":1192,"Ġbir":1193,"ider":1194,"Ġbefore":1195,"Ġnamed":1196,"Ġanim":1197,"Ġreally":1198,"Ġdog":1199,"Ġwoman":1200,"cted":1201,"Ġbuild":1202,"Ġexp":1203,"Ġplant":1204,"Ġsur":1205,"ĠItal":1206,"irl":1207,"oh":1208,"not":1209,"Ġimportant":1210,"Ġmusic":1211,"Ġcr":1212,"offee":1213,"Th":1214,"kes":1215,"Ġless":1216,"ather":1217,"ier":1218,"ically":1219,"Ġeach":1220,"Ġass":1221,"ah":1222,"Ġhypothesis":1223,"ib":1224,"Ġcateg":1225,"Ġ*":1226,"Ġreg":1227,"].":1228,"Ġcase":1229,"ĠTo":1230,"Ġconclud":1231,"oes":1232,"Ġcoffee":1233,"ures":1234,"gan":1235,"vel":1236,"agraph":1237,"Ġdi":1238,"Ġsec":1239,"pos":1240,"Ġlot":1241,"ex":1242,"Ġinput":1243,"Ch":1244,"Ġreasoning":1245,"amp":1246,"ĠAnd":1247,"Ġinv":1248,"ular":1249,"Ġstatement":1250,"Ġrep":1251,"Ġpol":1252,"ĠSp":1253,"anc":1254,".\"?":1255,"Ġproduct":1256,"Ġnumber":1257,"hip":1258,"uch":1259,"Ġgame":1260,"Friendly":1261,"ash":1262,"oney":1263,"Ġconclude":1264,"ty":1265,"tain":1266,"aring":1267,"Ġsmall":1268,"Ġoption":1269,"Ġsense":1270,"ĠfamilyFriendly":1271,"Ġ7":1272,"Ġplaying":1273,"Ġmon":1274,"Ġright":1275,"Ġmain":1276,"Ġset":1277,"Ġhome":1278,"ince":1279,"ger":1280,"ĠNew":1281,"ĠFr":1282,"ities":1283,"Ġphr":1284,"Ġparagraph":1285,"Ġsit":1286,"Ġread":1287,"Ġmay":1288,"con":1289,"Ġ8":1290,"Ġdon":1291,"ins":1292,"Ġcle":1293,"ĠThere":1294,"Ġtri":1295,"Ġwell":1296,"Ġmaking":1297,"derst":1298,"Ġment":1299,"Ġgirl":1300,"enn":1301,"ames":1302,"ife":1303,"ĠSe":1304,"Ġprovided":1305,"com":1306,"Ġmet":1307,"outh":1308,"Ġdel":1309,"Ġhold":1310,"ript":1311,"Ġcommon":1312,"ody":1313,"Ġsl":1314,"ystem":1315,"ual":1316,"Ġarticle":1317,"Ġterm":1318,"derstand":1319,"Ġchild":1320,"ike":1321,"ft":1322,"ina":1323,"Ġduring":1324,"Ġrun":1325,"Ġcompany":1326,"Ġpass":1327,"Ġ10":1328,"cepts":1329,"Ġproblem":1330,"be":1331,"Ġsun":1332,"iving":1333,"Ġline":1334,"ands":1335,"ros":1336,"ton":1337,"Ġgl":1338,"Ġener":1339,"How":1340,"Ġlast":1341,"Ġsentences":1342,"chool":1343,"Ġexperience":1344,"Ġknown":1345,"ĠIndian":1346,"Ġphrase":1347,"ments":1348,"Ġob":1349,"lex":1350,"Ġcentre":1351,"This":1352,"duce":1353,"Ġdef":1354,"Summ":1355,"apan":1356,"iver":1357,"ases":1358,"\".":1359,"ane":1360,"au":1361,"late":1362,"Ġvar":1363,"Ġmuch":1364,"uss":1365,"Ġconsider":1366,"Ġbetter":1367,"ock":1368,"Ġunderstand":1369,"aving":1370,"Ġyears":1371,"Ġmoney":1372,"Ġ18":1373,"Ġwal":1374,"Ġenergy":1375,"Ġincludes":1376,"Ġext":1377,"sel":1378,"aut":1379,"olve":1380,"Ġinter":1381,"Range":1382,"Ġstud":1383,"ĠpriceRange":1384,"Ġmin":1385,"ĠSh":1386,"Ġinst":1387,"Ġcannot":1388,"ther":1389,"ics":1390,"Ġaround":1391,"aking":1392,"Ġsign":1393,"ĠAt":1394,"'re":1395,"ĠItalian":1396,"Ġthing":1397,"Ġ--":1398,"Ġtake":1399,"ording":1400,"Ġmiss":1401,"ĠOn":1402,"iness":1403,"ids":1404,"ĠCam":1405,"Ġlar":1406,"II":1407,"its":1408,"ii":1409,"ĠĠĠ":1410,"urs":1411,"ĠLet":1412,"Ġworld":1413,"ness":1414,"Ġput":1415,"ĠWe":1416,"ional":1417,"Ġfriends":1418,"ven":1419,"Ġele":1420,"Ġeas":1421,"ĠBr":1422,"ĠFor":1423,"ĠWhen":1424,"Ġour":1425,"ohn":1426,"iday":1427,"ĠDe":1428,"ts":1429,"??":1430,"rief":1431,"Ġhum":1432,"Ġstar":1433,"Ġold":1434,"ho":1435,"ĠLe":1436,"Ġ/":1437,"rench":1438,"Ġsong":1439,"ork":1440,"avor":1441,"ug":1442,"Ġagainst":1443,"Ġpop":1444,"Ġgenerate":1445,"Ġrequ":1446,"Ġeven":1447,"Ġdescribe":1448,"ym":1449,"ĠAmerican":1450,"udd":1451,"overn":1452,"ature":1453,"Ġaut":1454,"ines":1455,"ĠJapan":1456,"Ġperform":1457,"Ġdescript":1458,"Ġsides":1459,"ooking":1460,"Can":1461,"Ġkey":1462,"Ġnow":1463,"Ġref":1464,"ets":1465,"Ġcare":1466,"by":1467,"par":1468,"Ġanother":1469,"reen":1470,"Ġ9":1471,"Ġvis":1472,"ote":1473,"Ġborn":1474,"Ġlook":1475,"Ġsaying":1476,"Ġgener":1477,"ually":1478,"ney":1479,"ized":1480,"Ġbus":1481,"ĠFrench":1482,"Ġgot":1483,"Ġbuilding":1484,"xim":1485,"Ġstre":1486,"que":1487,"Ġfacts":1488,"Ġbelong":1489,"ech":1490,"Ġplayed":1491,"ĠAust":1492,"ared":1493,"ĠCl":1494,"),":1495,"Ġwithout":1496,"ories":1497,"Ġelect":1498,"Ġstory":1499,"Ġmem":1500,"Ġschool":1501,"ax":1502,"iding":1503,"ĠAf":1504,"Ġdoesn":1505,"Ġ0":1506,"bers":1507,"ral":1508,"Ġel":1509,"igin":1510,"Ġmoder":1511,"Ġdidn":1512,"ĠProduce":1513,"Ġsuch":1514,"Ġgrow":1515,"Ġcur":1516,"Ġpair":1517,"ĠBe":1518,"ĠBl":1519,"Ġspecific":1520,"Ġleader":1521,"ented":1522,"Ġhappen":1523,"friendly":1524,"ying":1525,"Ġplease":1526,"Ġbre":1527,"Ġwatch":1528,"Ġlikely":1529,"ĠShe":1530,"Ġsubject":1531,"Ġunder":1532,"vail":1533,"Ġsays":1534,"Ġbook":1535,"Ġmeaning":1536,"Ġstart":1537,"Ġbody":1538,"vers":1539,"ives":1540,"acher":1541,"Ġsystem":1542,"Ġaccording":1543,"Ġstand":1544,"anted":1545,"ever":1546,"ning":1547,"Ġcharacters":1548,"Ġconcepts":1549,"ont":1550,"ision":1551,"ĠBo":1552,"Ġcategory":1553,"ility":1554,"Ġint":1555,"ract":1556,"Ġdisc":1557,"lic":1558,"idge":1559,"erv":1560,"uro":1561,"ism":1562,"ĠAir":1563,"ains":1564,"Ġtype":1565,"Ġlight":1566,"Ġsecond":1567,"ceptable":1568,"eng":1569,"ining":1570,"Ġboy":1571,"cy":1572,"osp":1573,"ationale":1574,"side":1575,"Ġopen":1576,"words":1577,"ails":1578,"imes":1579,"Ġaway":1580,"ummy":1581,"ĠPl":1582,"amm":1583,"Ġimp":1584,"Ġeff":1585,"olog":1586,"Ġmen":1587,"Ġwee":1588,"Ġown":1589,"Ġgreat":1590,"ived":1591,"wards":1592,"Ġbirth":1593,"Ġgive":1594,"Ġsitu":1595,"Ġgoing":1596,"anation":1597,"Ġmed":1598,"utes":1599,"iting":1600,"ling":1601,"vent":1602,"Ġpict":1603,"ĠSc":1604,"vailable":1605,"arth":1606,"atural":1607,"Ġrele":1608,"Ġret":1609,"Ġed":1610,"ĠMar":1611,"ired":1612,"Ġgovern":1613,"ield":1614,"Ġside":1615,"ison":1616,"Ġoffic":1617,"lete":1618,"otball":1619,"Ġjob":1620,"ĠYour":1621,"Ġmakes":1622,"Ġ12":1623,"Ġapp":1624,"ĠZ":1625,"Ġroom":1626,"Ġhouse":1627,"ĠJohn":1628,"ently":1629,"structions":1630,"Ġlocation":1631,"Ġeng":1632,"arize":1633,"ximately":1634,"yd":1635,"ats":1636,"ĠWater":1637,"Ġyummy":1638,"fl":1639,"10":1640,"Ġthose":1641,"Ġfif":1642,"Ġfavor":1643,"teen":1644,"Ġorigin":1645,"ister":1646,"Ġapproximately":1647,"orth":1648,"Ġthree":1649,"orld":1650,"Ġmil":1651,"Ġbad":1652,"fe":1653,"ished":1654,"ages":1655,"Ġnice":1656,"Ġevent":1657,"Is":1658,"ene":1659,"ĠJapanese":1660,"ully":1661,"oice":1662,"Ġmar":1663,"Ġrock":1664,"Ġcharacter":1665,"Ġwent":1666,"ization":1667,"Ġsw":1668,"peat":1669,"yl":1670,"Ġdiv":1671,"...":1672,"ung":1673,"oft":1674,"Ġappe":1675,"Ġoffice":1676,"Ġkind":1677,"ems":1678,"akes":1679,"utput":1680,"iley":1681,"Ġresult":1682,"ron":1683,"pri":1684,"ner":1685,"Ġwanted":1686,"iation":1687,"ioned":1688,"Ġz":1689,"Ġbeaut":1690,"Ġexc":1691,"Ġdirect":1692,"pect":1693,"Ġnatural":1694,"Ġkeep":1695,"ium":1696,"ĠOptions":1697,"Ġconsidered":1698,"lor":1699,"Ġwon":1700,"ests":1701,"ams":1702,"Summary":1703,"Ġyoung":1704,"ĠPr":1705,"Ġturn":1706,"iet":1707,"Ġlove":1708,"Ġsoc":1709,"ump":1710,"inese":1711,"Ġwritten":1712,"ries":1713,"Wh":1714,"Se":1715,"att":1716,"Ġlow":1717,"plic":1718,"Ġincre":1719,"Please":1720,"ones":1721,"Ġpot":1722,"Ġcell":1723,"Ġorder":1724,"Ġsolution":1725,"ute":1726,"Ġ&":1727,"Ġdescribed":1728,"Ġclass":1729,"Ġexpress":1730,"Ġlearn":1731,"ĠEx":1732,"Ġdist":1733,"Ġfifteen":1734,"bo":1735,"gen":1736,"Ġhere":1737,"Ġaccur":1738,"omm":1739,"Ġhard":1740,"ĠBased":1741,"Ġplan":1742,"Output":1743,"Ġthought":1744,"Ġresp":1745,"ĠInstructions":1746,"verage":1747,"Ġoffer":1748,"ossible":1749,"Ġorgan":1750,"Ġhead":1751,"Ġstrong":1752,"itting":1753,"Ġball":1754,"irt":1755,"20":1756,"Ġlife":1757,"Ġsolve":1758,"els":1759,"Ġfast":1760,"Ġfree":1761,"ĠRem":1762,"augh":1763,"urope":1764,"rist":1765,"ooks":1766,"ways":1767,"fect":1768,"inition":1769,"NA":1770,"ny":1771,"Ġlower":1772,"self":1773,"Ġtyp":1774,"nes":1775,"ĠDet":1776,"ĠGr":1777,"ĠBut":1778,"oss":1779,"ows":1780,"bum":1781,"ĠMon":1782,"ĠRice":1783,"ĠAb":1784,"ĠBoat":1785,"Ġtalking":1786,"ross":1787,"Ġsn":1788,"ĠJan":1789,"ady":1790,"Ġasking":1791,"Ġsingle":1792,"Ġweek":1793,"ĠWorld":1794,"Ġhaving":1795,"Ġseason":1796,"Ġwearing":1797,"Ġuses":1798,"ved":1799,"Ġanimal":1800,"uesday":1801,"ĠData":1802,"ĠFact":1803,"rop":1804,"ĠAd":1805,"Ġ199":1806,"Ġtopic":1807,"Ġrationale":1808,"Ġinc":1809,"ants":1810,"Ġgovernment":1811,"Ġclose":1812,"Ġvalid":1813,"ĠPre":1814,"Ġmove":1815,"uis":1816,"Ġartist":1817,"Ġaverage":1818,"Ġleft":1819,"uddy":1820,"Ġcome":1821,"Ġhuman":1822,"Ġchoices":1823,"Ġindic":1824,"iversity":1825,"Ġhand":1826,"owns":1827,"yn":1828,"occ":1829,"Ġalbum":1830,"anslate":1831,"ermine":1832,"Ġfeeling":1833,"ering":1834,"Ġwind":1835,"Ġchang":1836,"oud":1837,"erman":1838,"Ġsal":1839,"cle":1840,"Ġpresident":1841,"Ġ16":1842,"Ġthin":1843,"Ġmark":1844,"Ġago":1845,"Choose":1846,"ĠThat":1847,"ĠAm":1848,"Ġchoose":1849,"ves":1850,"agine":1851,"ring":1852,"Ġmissing":1853,"Ġwithin":1854,"rey":1855,"Ġfootball":1856,"ĠChinese":1857,"Ġwrite":1858,"ĠNow":1859,"Ġ15":1860,"Ġbuddy":1861,"Ġcaus":1862,"Ġfix":1863,"oor":1864,"alth":1865,"Ġpat":1866,"ursday":1867,"fort":1868,"Ġnecess":1869,"So":1870,"Ġfile":1871,"idd":1872,"Ġemail":1873,"Ġstore":1874,"Ġofficial":1875,"Re":1876,"Ġlooking":1877,"Ġoutside":1878,"Ġplayer":1879,"Ġsound":1880,"ĠSolve":1881,"ĠUS":1882,"Ġcolor":1883,"ey":1884,"Ġcour":1885,"rb":1886,"Ġpain":1887,"ction":1888,"Ġtook":1889,"velop":1890,"Ġquestions":1891,"Ġhelps":1892,"Ġsince":1893,"Ġconvers":1894,"ports":1895,"Ġbeautif":1896,"line":1897,"sh":1898,"Ġobject":1899,"Ġsad":1900,"uisine":1901,"Ġmeet":1902,"izes":1903,"Ġinside":1904,"Ġsweet":1905,"Ġtransl":1906,"Ġcall":1907,"Ġpartic":1908,"acy":1909,"Ġasked":1910,"bine":1911,"room":1912,"ĠPe":1913,"ĠChoose":1914,"itz":1915,"Ġband":1916,"Ġdoing":1917,"Ġcontent":1918,"Ġchildren":1919,"Ġinte":1920,"Ġdining":1921,"Select":1922,"iron":1923,"ĠCount":1924,"ĠWaterman":1925,"ĠBar":1926,"ert":1927,"Ġfinal":1928,"anish":1929,"Ġstill":1930,"Ġsure":1931,"ik":1932,"atis":1933,"Ġtow":1934,"aves":1935,"ential":1936,"Ġpret":1937,"An":1938,"oon":1939,"Ġ11":1940,"Ġask":1941,"Ġpoint":1942,"Ġdetails":1943,"Ġmag":1944,"ĠDoes":1945,"iam":1946,"39":1947,"bs":1948,"Ġocc":1949,"Ġalways":1950,"Ġanimals":1951,"ott":1952,"ipp":1953,"Ġterms":1954,"Ġmonth":1955,"Ġprof":1956,"uck":1957,"Ġide":1958,"tead":1959,"ush":1960,"Ġgames":1961,"Ġwhite":1962,"ays":1963,"ĠDo":1964,"Ġarr":1965,"bridge":1966,"Ġmust":1967,"fully":1968,"ĠJust":1969,"Ġplants":1970,"Ġlive":1971,"Ġred":1972,"Ġexam":1973,"Ġothers":1974,"otel":1975,"aff":1976,"fact":1977,"ternational":1978,"ĠBrit":1979,"ists":1980,"hor":1981,"ĠIm":1982,"less":1983,"ilar":1984,"ĠPh":1985,"olate":1986,"Ġprote":1987,"Pick":1988,"Ġ$":1989,"ednes":1990,"ednesday":1991,"Ġice":1992,"abor":1993,"Ġmoderate":1994,"Ġconf":1995,"Ġstop":1996,"ried":1997,"Ġbrief":1998,"Ġprom":1999,"Ġoper":2000,"Ġfamil":2001,"Ġpast":2002,"Ġann":2003,"arl":2004,"Ġbeautiful":2005,"leep":2006,"Ġsuc":2007,"Ġcheap":2008,"Ġclean":2009,"Ġsugg":2010,"ama":2011,"thing":2012,"atter":2013,"Ġpur":2014,"Ġcontain":2015,"Ġ198":2016,"ĠCambridge":2017,"Ġcost":2018,"ern":2019,"atic":2020,"let":2021,"ĠTV":2022,"Ġcontin":2023,"Ġexplanation":2024,"Ġreasonable":2025,"Ġpower":2026,"Ġwarm":2027,"Ġactiv":2028,"Ġcuisine":2029,"Ġrece":2030,"Ġstates":2031,"ĠPres":2032,"Ġaccurate":2033,"Ġu":2034,"Ġcrit":2035,"ality":2036,"ires":2037,"ifies":2038,"Ġvalue":2039,"ley":2040,"Ġblack":2041,"ĠKing":2042,"ĠThese":2043,"15":2044,"19":2045,"Ġbeh":2046,"Ġbuy":2047,"ĠWhy":2048,"Ġparty":2049,"name":2050,"Ġspace":2051,"light":2052,"Ġ14":2053,"ributes":2054,"Ġtalks":2055,"Ġchange":2056,"ĠMan":2057,"err":2058,"Ġnight":2059,"Ġbelow":2060,"Ġtest":2061,"ator":2062,"OP":2063,"yes":2064,"Ġvill":2065,"Ġ17":2066,"Ġworking":2067,"Ġgen":2068,"Ġplays":2069,"Ġletter":2070,"Ġbird":2071,"Ġreturn":2072,"000":2073,"ivid":2074,"Ġtransport":2075,"priate":2076,"Ġfour":2077,"Ġsport":2078,"Ġblood":2079,"Ġtre":2080,"Ġpopular":2081,"Which":2082,"Ġdesign":2083,"Ġwr":2084,"Ġleg":2085,"ĠTex":2086,"aper":2087,"ĠCal":2088,"Ġsepar":2089,"ĠId":2090,"Ġsitting":2091,"Ġtrain":2092,"ĠAll":2093,"Ġeveryone":2094,"ober":2095,"Ġlaw":2096,"Ġjo":2097,"Ġground":2098,"Ġlarge":2099,"Ġheart":2100,"Ġtells":2101,"Ġrepeat":2102,"ĠContext":2103,"Input":2104,"osphere":2105,"Ġwa":2106,"ique":2107,"mon":2108,"ĠAlex":2109,"Ġcurr":2110,"Ġconversation":2111,"acks":2112,"Generate":2113,"Ġve":2114,"Ġwriting":2115,"Ġsupport":2116,"Ġkeywords":2117,"Ġtalk":2118,"Ġdescriptive":2119,"ots":2120,"pr":2121,"Ġpie":2122,"ulate":2123,"Ġoutput":2124,"ĠCounty":2125,"'m":2126,"ember":2127,"12":2128,"izz":2129,"Ġrate":2130,"Ġvi":2131,"Ġclear":2132,"ending":2133,"Ġaction":2134,"ĠEurope":2135,"avel":2136,"Ġallow":2137,"Ġchain":2138,"ination":2139,"Ġadded":2140,"Ġkids":2141,"mber":2142,"olution":2143,"Ġseries":2144,"Ġtown":2145,"ĠSk":2146,"ada":2147,"Ġdevelop":2148,"Ġacceptable":2149,"ĠChrist":2150,"Ġpolit":2151,"Ġfive":2152,"Ġopin":2153,"Ġfamilies":2154,"AM":2155,"ĠTexas":2156,"ĠHowever":2157,"Ġvisit":2158,"30":2159,"Ġnews":2160,"Ġpunctuated":2161,"ined":2162,"ĠPossible":2163,"ming":2164,"Ġsteps":2165,"Ġhist":2166,"eor":2167,"ĠAI":2168,"por":2169,"ĠTe":2170,"ĠStep":2171,"ĠRob":2172,"Ġfamous":2173,"ape":2174,"ified":2175,"ĠAirport":2176,"ole":2177,"Ġoften":2178,"oved":2179,"Ġeduc":2180,"bre":2181,"Ġwin":2182,"row":2183,"Ġdue":2184,"ury":2185,"Ġsimilar":2186,"ration":2187,"Ġnational":2188,"ubject":2189,"Ġclub":2190,"Ġrain":2191,"Ġatm":2192,"aster":2193,"with":2194,"ope":2195,"Ġseen":2196,"Ġdetailed":2197,"Ġwalking":2198,"ĠReview":2199,"ĠPresident":2200,"ĠTwo":2201,"ĠCol":2202,"och":2203,"ĠCont":2204,"ien":2205,"oll":2206,"Ġbro":2207,"Ġreal":2208,"Ġalong":2209,"Ġemot":2210,"iated":2211,"rote":2212,"raw":2213,"Ġwond":2214,"kay":2215,"Ġ196":2216,"ored":2217,"ica":2218,"Ġhair":2219,"Ġtaking":2220,"itution":2221,"Ġpositively":2222,"Ġcat":2223,"ĠWho":2224,"Ġformed":2225,"Ġreleased":2226,"Ġneeded":2227,"dom":2228,"Ġwar":2229,"und":2230,"tal":2231,"ingu":2232,"ches":2233,"Ġbecome":2234,"ĠChoices":2235,"Ġlots":2236,"Ġfall":2237,"'ll":2238,"Ġath":2239,"Ġenough":2240,"ters":2241,"Ġdate":2242,".\",":2243,"Ġcapitalize":2244,"omes":2245,"Ġtoy":2246,"Ġbeg":2247,"Ġhealth":2248,"Ġphot":2249,"Ġfield":2250,"Ġdep":2251,"Ġoriginal":2252,"Ġusually":2253,"Ġgetting":2254,"ength":2255,"ules":2256,"Ġappropriate":2257,"Ġpictures":2258,"Ġcreate":2259,"Ġatmosphere":2260,"Ġbar":2261,"Ġmess":2262,"ĠAc":2263,"Ġtem":2264,"arily":2265,"unch":2266,"Ġheat":2267,"Ġsignific":2268,"Ġcause":2269,"thought":2270,"Ġentailed":2271,"ĠTherefore":2272,"Ġdeath":2273,"Ġcomput":2274,"Ġvarious":2275,"Ġmentions":2276,"Ġbelongs":2277,"Ġes":2278,"ĠCr":2279,"ĠGold":2280,"Ġenv":2281,"Ġvillage":2282,"Ġ:":2283,"Ġwall":2284,"ordan":2285,"Ġstreet":2286,"ague":2287,"Ġ25":2288,"Ġseems":2289,"rael":2290,"ertain":2291,"rol":2292,"son":2293,"Ġbed":2294,"ouble":2295,"ann":2296,"Ġstanding":2297,"Ġwrote":2298,"ĠPremise":2299,"ially":2300,"Ġland":2301,"Ġsurf":2302,"Ġsleep":2303,"ma":2304,"ival":2305,"Ġarm":2306,"Ġcommun":2307,"Ġinstead":2308,".;":2309,"18":2310,"Ġprogr":2311,"Ġindivid":2312,"Ġdetermine":2313,"Ġfull":2314,"ument":2315,"Ġserves":2316,"for":2317,"ĠPick":2318,"ream":2319,"ĠSim":2320,"ĠOne":2321,"Ġblue":2322,"ĠIdent":2323,"Ġregion":2324,"iable":2325,"ĠJess":2326,"Ġauthor":2327,"vious":2328,"Ġlog":2329,"ĠDetailed":2330,"ok":2331,"ensive":2332,"Ġbreak":2333,"Ġrecomm":2334,"ĠEn":2335,"eron":2336,"Ġheard":2337,"Ġopinion":2338,"Ġrefer":2339,"Ġcritic":2340,"Ġest":2341,"ird":2342,"Ġce":2343,"ware":2344,"Ġservice":2345,"Ġrev":2346,"Ġrelated":2347,"Available":2348,"eth":2349,"ĠForm":2350,"Ġsoft":2351,"ĠCombine":2352,"rew":2353,"Ġtrad":2354,"ogue":2355,"Ġnumbers":2356,"Ġdefinition":2357,"ĠGerman":2358,"ĠWill":2359,"ode":2360,"conom":2361,"ĠAustin":2362,"Ġtable":2363,"Ġpark":2364,"ĠPeople":2365,"ians":2366,"ĠBa":2367,"Ġthinking":2368,"Ġfish":2369,"Ġsuccess":2370,"Ġ#":2371,"Ġkil":2372,"Ġwomen":2373,"lling":2374,"ĠAp":2375,"ĠIdentify":2376,"Ġbit":2377,"Ġbab":2378,"Ġstay":2379,"af":2380,"Ġmult":2381,"izing":2382,"Ġadv":2383,"Ġrepres":2384,"ances":2385,"ĠUniversity":2386,"Ġcool":2387,"isc":2388,"ĠWhere":2389,"aylor":2390,"Ġtele":2391,"Ġtransportation":2392,"Ġrecommend":2393,"Ġtoday":2394,"Ġdescription":2395,"Ġwood":2396,"Ġsuit":2397,"Ġconcer":2398,"asing":2399,"urt":2400,"Ġfront":2401,"Ġrunning":2402,"nect":2403,"Ġx":2404,"Ġgoes":2405,"ew":2406,"key":2407,"ards":2408,"Ġstars":2409,"Tr":2410,"Ġnegatively":2411,"Ġmom":2412,"Ġla":2413,"14":2414,"Ġfight":2415,"ĠLee":2416,"Ġdecided":2417,"13":2418,"ze":2419,"ured":2420,"Ġenviron":2421,"me":2422,"Ġbusiness":2423,"ills":2424,"ĠSouth":2425,"Ġsignificant":2426,"no":2427,"esting":2428,"Ġoil":2429,"Ġshows":2430,"Ġcategories":2431,"ĠBritish":2432,"plete":2433,"Ġ197":2434,"gest":2435,"oman":2436,"ĠSure":2437,"Ġclos":2438,"ĠAfter":2439,"uit":2440,"Ġcame":2441,"ology":2442,"Ġscale":2443,"Ġbox":2444,"Ġ13":2445,"orter":2446,"Ġcountries":2447,"plies":2448,"Ġmilit":2449,"Ġcomplex":2450,"Ġflow":2451,"ulation":2452,"Ġassoc":2453,"ĠAub":2454,"ĠCar":2455,"ĠAsh":2456,"Ġrelations":2457,"Ġsatis":2458,"Ġfire":2459,"Ġpress":2460,"ĠRobin":2461,"xy":2462,"Ġlevel":2463,"Ġsuper":2464,"Ġtree":2465,"ialogue":2466,"Ġactor":2467,"ydney":2468,"Ġep":2469,"ĠSun":2470,"Ġcompet":2471,"uff":2472,"asha":2473,"Ġdiscuss":2474,"Ġfavorable":2475,"ched":2476,"Ġwhy":2477,"Ġpolice":2478,"Ġstarted":2479,"ior":2480,"aced":2481,"Ġjump":2482,"bill":2483,"Ġiss":2484,"ĠCars":2485,"Ġgave":2486,"ume":2487,"Ġsafe":2488,"tic":2489,"Ġbase":2490,"Ġentity":2491,"Ġhour":2492,"ĠJordan":2493,"Ġrecord":2494,"iod":2495,"Ġcapitalization":2496,"Ġsinger":2497,"lege":2498,"hern":2499,"ĠGeor":2500,"Ġoffers":2501,"ĠRead":2502,"Ġshirt":2503,"Ġprevious":2504,"Ġsummarize":2505,"cus":2506,"Ġ?":2507,"ised":2508,"arch":2509,"Ġlingu":2510,"16":2511,"ĠDef":2512,"Ġcut":2513,"ĠMy":2514,"Ġbelie":2515,"Ġrequires":2516,"endall":2517,"Ġpresent":2518,"Ġformer":2519,"ĠFitz":2520,"bon":2521,"ourn":2522,"Ġlinguist":2523,"St":2524,"istan":2525,"Ġuser":2526,"Ġtrying":2527,"ĠSpanish":2528,"Ġfur":2529,"Ġleast":2530,"Me":2531,"ĠHouse":2532,"plify":2533,"ĠQuinn":2534,"Pl":2535,"Ġmot":2536,"Ġgreen":2537,"Ġteacher":2538,"riefly":2539,"Ġathlete":2540,"INA":2541,"rom":2542,"ager":2543,"ĠMay":2544,"ping":2545,"ply":2546,"Ġoffering":2547,"Two":2548,"what":2549,"Ġtotal":2550,"cret":2551,"Ġinstitution":2552,"ĠGolden":2553,"ĠCity":2554,"billies":2555,"ĠSydney":2556,"Ġexplain":2557,"Ġsituation":2558,"cean":2559,"ĠYork":2560,"Ġpretty":2561,"apital":2562,"Ġunique":2563,"ha":2564,"jor":2565,"ĠCase":2566,"Ġing":2567,"Ġhappened":2568,"ĠTaylor":2569,"Ġchanges":2570,"ĠAddison":2571,".,":2572,"Ġshorter":2573,"enix":2574,"Ġeating":2575,"Ġsever":2576,"Ġsold":2577,"Given":2578,"Ġcold":2579,"Ġste":2580,"Ġshare":2581,"elt":2582,"Ġtranslate":2583,"Ġdays":2584,"Ġear":2585,"Ġeconom":2586,"ĠMin":2587,"Ġens":2588,"ĠBailey":2589,"Ġprofess":2590,"17":2591,"Ġfriendly":2592,"INAL":2593,"Ġmix":2594,"ĠFast":2595,"Ġneeds":2596,"Ġinvol":2597,"ested":2598,"Ġhor":2599,"ĠSasha":2600,"Ġsnow":2601,"Ġenvironment":2602,"Ġrange":2603,"Ġholding":2604,"til":2605,"Ġsand":2606,"ged":2607,"ples":2608,"Ġ30":2609,"board":2610,"Ġprim":2611,"hoenix":2612,"ĠCarson":2613,"cent":2614,"ĠEX":2615,"ĠKendall":2616,"ĠFitzbillies":2617,"ores":2618,"Ġhig":2619,"une":2620,"Ġgramm":2621,"Ġsimple":2622,"Ġcomputer":2623,"+]":2624,"ĠChina":2625,"Ġcreated":2626,"\"?":2627,"ĠWould":2628,"Ġtravel":2629,"aturday":2630,"ham":2631,"right":2632,"anks":2633,"Ġface":2634,"Ġcomplete":2635,"Ġeffect":2636,"iddle":2637,"50":2638,"Ġanal":2639,"ĠPhoenix":2640,"Ġcond":2641,"mp":2642,"ena":2643,"Ġdelight":2644,"Hypothesis":2645,"Ġeducational":2646,"Te":2647,"Ġdish":2648,"Ġfew":2649,"Now":2650,"aged":2651,"Ġliving":2652,"ublic":2653,"iverse":2654,"Ġnecessary":2655,"Ġsweetie":2656,"Ġident":2657,"ising":2658,"ĠWas":2659,"Ġpresented":2660,"Ġexample":2661,"Ġtimes":2662,"Ġmount":2663,"ĠPal":2664,"Ġwants":2665,"Qu":2666,"ties":2667,"Ġvol":2668,"Ġwhether":2669,"Ġverb":2670,"ĠEXAM":2671,"aim":2672,"Ġcook":2673,"ĠCasey":2674,"oint":2675,"ĠSte":2676,"chn":2677,"Ġtry":2678,"oad":2679,"inner":2680,"mical":2681,"There":2682,"Ġlength":2683,"Ġrace":2684,"iforn":2685,"Ġmarket":2686,"ec":2687,"work":2688,"Ġdelic":2689,"ĠAubrey":2690,"ĠGu":2691,"duct":2692,"Ġmentioned":2693,"ony":2694,"ĠX":2695,"Ġpen":2696,"Ġvide":2697,"ĠTranslate":2698,"Ġbecame":2699,"Ġeasier":2700,"Ġcells":2701,"ĠImagine":2702,"Ġpublic":2703,"Ġrespon":2704,"ĠJesse":2705,"esh":2706,"Ġamong":2707,"ĠIndia":2708,"Ġattributes":2709,"go":2710,"hel":2711,"agle":2712,"Ġpassage":2713,"Ġ`":2714,"Ġpay":2715,"Ġdress":2716,"ifornia":2717,"oid":2718,"ither":2719,"ald":2720,"Ġprices":2721,"Ġwatching":2722,"bor":2723,"Ġir":2724,"Ġfar":2725,"itional":2726,"Ġincluding":2727,"ground":2728,"ĠCameron":2729,"Ġlay":2730,"inning":2731,"ĠRemy":2732,"Ġcult":2733,"Ġstruct":2734,"Ġsoccer":2735,"aborate":2736,"xygen":2737,"Ġriver":2738,"ĠOr":2739,"resp":2740,"ift":2741,"Ġcapt":2742,"Ġrefers":2743,"Of":2744,"ĠBrowns":2745,"ĠAfric":2746,"Ġdig":2747,"Ġgas":2748,"Ġremove":2749,"year":2750,"imb":2751,"urch":2752,"Ġquick":2753,"ĠTw":2754,"Ġrelationship":2755,"usiness":2756,"ĠBriefly":2757,"Ġsky":2758,"ĠContin":2759,"gar":2760,"Ġtuesday":2761,"Ġegg":2762,"Ġholder":2763,"ped":2764,"rest":2765,"ĠAre":2766,"ino":2767,"ledge":2768,"era":2769,"Ġwrong":2770,"wood":2771,"plicit":2772,"icy":2773,"Ġpicture":2774,"Ġfly":2775,"aterial":2776,"Ġcover":2777,"cks":2778,"uel":2779,"ĠBlue":2780,"Ġbaby":2781,"Ġcomes":2782,"attle":2783,"Ġingred":2784,"atures":2785,"pected":2786,"Ġroad":2787,"ler":2788,"inary":2789,"Ġpick":2790,"Ġtold":2791,"ĠSome":2792,"oliday":2793,"34":2794,"yle":2795,"ĠEarth":2796,"pec":2797,"ĠRuss":2798,"ĠAustral":2799,"Ġwondering":2800,"ilt":2801,"cious":2802,"ana":2803,"ĠSubject":2804,"Ġable":2805,"Ġrole":2806,"Ġsmo":2807,"Ġelaborate":2808,"iety":2809,"!\"":2810,"itions":2811,"mentioned":2812,"Ġfloor":2813,"orning":2814,"acceptable":2815,"Ġnumer":2816,"Ġuntil":2817,"Ġur":2818,"Ġbeach":2819,"ondon":2820,"Ġsour":2821,"illion":2822,"orementioned":2823,"Ġaforementioned":2824,"imentum":2825,"lands":2826,"ges":2827,"lished":2828,"vision":2829,"ability":2830,"Ġbooks":2831,"irm":2832,"ably":2833,"Ġperfect":2834,"enty":2835,"ico":2836,"de":2837,"ĠContinue":2838,"ural":2839,"ĠNorth":2840,"Ġafterwards":2841,"Summarize":2842,"ĠTitle":2843,"udent":2844,"ĠFriday":2845,"Ġearth":2846,"ĠEl":2847,"Ġimpro":2848,"ylar":2849,"ended":2850,"Ġfocus":2851,"ĠMich":2852,"ĠOK":2853,"Ġpeace":2854,"Ġperiod":2855,"Ġcapitalized":2856,"rons":2857,"ĠWar":2858,"ĠII":2859,"Ġconnect":2860,"Ġimplies":2861,"raq":2862,"Ġphys":2863,"Ġsurface":2864,"apitalize":2865,"zz":2866,"Ġtreat":2867,"ĠTracy":2868,"Ġexcited":2869,"Ġabs":2870,"aphr":2871,"Ġacross":2872,"read":2873,"Ġweather":2874,"avy":2875,"Ġmilitary":2876,"Ġ``":2877,"Ġthursday":2878,"aste":2879,"Ġphone":2880,"Ġbike":2881,"ĠMal":2882,"Ġtechn":2883,"ĠAlimentum":2884,"respond":2885,"Ġemb":2886,"Ġdogs":2887,"Ġsuitable":2888,"Ġcam":2889,"eter":2890,"Ġliked":2891,"Ġprep":2892,"gers":2893,"iny":2894,"Ġeth":2895,"ĠIraq":2896,"set":2897,"ĠEagle":2898,"Ġsqu":2899,"ĠAng":2900,"ĠSw":2901,"Ġincor":2902,"ĠSkylar":2903,"Ġmother":2904,"Ġreact":2905,"Ġnever":2906,"Ġ195":2907,"__":2908,"Ġye":2909,"ĠFINAL":2910,"construct":2911,"Ġtrees":2912,"-]":2913,"Ġ@":2914,"He":2915,"Ġplaces":2916,"Ġcomb":2917,"Could":2918,"like":2919,"Ġdev":2920,"?\",":2921,"Ġcheck":2922,"Ġmeeting":2923,"fic":2924,"ends":2925,"Ġhot":2926,"ude":2927,"Ġcontrol":2928,"ĠCalifornia":2929,"!!":2930,"can":2931,"Ġgoal":2932,"Ġmaterial":2933,"Ġannoun":2934,"Ġcele":2935,"zech":2936,"Ġpotential":2937,"Ġearly":2938,"Ġwednesday":2939,"ĠMe":2940,"Ġ''":2941,"11":2942,"athe":2943,"Ġ22":2944,"Ġspeak":2945,"ĠReconstruct":2946,"ae":2947,"Ġsituated":2948,"Ġdone":2949,"Ġisolate":2950,"istance":2951,"asket":2952,"Ġtw":2953,"Ġmajor":2954,"lection":2955,"Ġseveral":2956,"min":2957,"use":2958,"ampions":2959,"Ġparts":2960,"Ġmonths":2961,"OR":2962,"ĠFy":2963,"Ġfavorite":2964,"Ġmouth":2965,"ĠBusiness":2966,"Ġ24":2967,"Ġjustifies":2968,"Ġengine":2969,"Ġben":2970,"ĠNot":2971,"Ġtakes":2972,"ĠFl":2973,"Ġgrass":2974,"ĠKey":2975,"ĠPhil":2976,"urity":2977,"Ġsea":2978,"play":2979,"'.":2980,"ĠCur":2981,"Ġmeas":2982,"Ġsaw":2983,"Ġ)":2984,"Ġelement":2985,"Ġsports":2986,"nic":2987,"ales":2988,"omb":2989,"ctor":2990,"ously":2991,"ĠTuesday":2992,"ĠHar":2993,"Ġdest":2994,"Ġbehind":2995,"ĠFormulate":2996,"Question":2997,"Ġview":2998,"acing":2999,"Ġtemper":3000,"mm":3001,"erc":3002,"Ġbag":3003,"ĠMary":3004,"artment":3005,"ving":3006,"Ġav":3007,"Ġcou":3008,"Ġlater":3009,"Ġdelicious":3010,"aul":3011,"ency":3012,"ĠTri":3013,"ĠHall":3014,"Ġsimpl":3015,"Ġswim":3016,"Place":3017,"25":3018,"OU":3019,"eb":3020,"ender":3021,"Ġonline":3022,"Ġpract":3023,"ĠKai":3024,"Ġfather":3025,"ention":3026,"owl":3027,"hington":3028,"ĠAar":3029,"Ġgets":3030,"Ġknowledge":3031,"Ġproperties":3032,"Teacher":3033,"gle":3034,"tt":3035,"inal":3036,"Ġtypically":3037,"ĠAg":3038,"ĠMonday":3039,"Ġseparate":3040,"Ġrad":3041,"acter":3042,"Ġparaphr":3043,"ĠAlan":3044,"Ġamount":3045,"anch":3046,"Does":3047,"Ġworks":3048,"Ġwalk":3049,"Ġgeneral":3050,"Ġvideo":3051,"Ġocean":3052,"Ġdishes":3053,"iction":3054,"Ġtowards":3055,"Ġhands":3056,"Ġdecre":3057,"Ġaff":3058,"lers":3059,"ready":3060,"ille":3061,"Ġposition":3062,"24":3063,"Ġlooks":3064,"ĠItaly":3065,"Ġelements":3066,"orted":3067,"Ġpaper":3068,"oph":3069,"Ġeffort":3070,"eral":3071,"ĠInternational":3072,"Ġimm":3073,"ĠEngland":3074,"Ġmonday":3075,"ĠSimplify":3076,"Ġbath":3077,"Ġleave":3078,"Ġfunny":3079,"Ġestab":3080,"NT":3081,"Ġcir":3082,"Ġmass":3083,"Ġmatch":3084,"Ġdialogue":3085,"TIONS":3086,"ĠSup":3087,"60":3088,"ises":3089,"Ġwhole":3090,"Ġcarry":3091,"lrb":3092,"ery":3093,"omi":3094,"ĠSports":3095,"Ġinvest":3096,"Ġmembers":3097,"rrb":3098,"Ġmorning":3099,"Ġrepl":3100,"aps":3101,"Ġagree":3102,"ief":3103,"Ġconscious":3104,"Ġletters":3105,"Ġport":3106,"lymp":3107,"ĠPar":3108,"ĠPort":3109,"Ġplayers":3110,"Ġmoving":3111,"earch":3112,"raft":3113,"ternet":3114,"Ġpoints":3115,"ficult":3116,"round":3117,"esc":3118,"ament":3119,"ĠRiley":3120,"Ġrocks":3121,"Ġvariable":3122,"Ġappear":3123,"27":3124,"mark":3125,"Ġremember":3126,"Ġtelevision":3127,"responding":3128,"ĠFyne":3129,"ients":3130,"Ġbank":3131,"Ġleaders":3132,"Ġmaintain":3133,"Ġincrease":3134,"It":3135,"itar":3136,"Ġlocal":3137,"Ġtypes":3138,"inc":3139,"Ġbought":3140,"Ġmach":3141,"Ġmovies":3142,"ĠComplete":3143,"ĠAtt":3144,"Ġcurrent":3145,"Ġavailable":3146,"Ġfeelings":3147,"And":3148,"Ġcup":3149,"Ġfriday":3150,"Ġoxygen":3151,"ĠIsrael":3152,"ached":3153,"ĠOther":3154,"ĠThursday":3155,"icket":3156,"ĠSelect":3157,"ĠDav":3158,"Ġdisapp":3159,"Ex":3160,"Ġled":3161,"Ġproject":3162,"Ġdifficult":3163,"eff":3164,"ĠScience":3165,"AT":3166,"Ġfit":3167,"Ġang":3168,"Ġra":3169,"ĠPol":3170,"Ġconst":3171,"Ġeasy":3172,"kn":3173,"Ġdem":3174,"ference":3175,"Ġdiverse":3176,"owd":3177,"Ġriding":3178,"flu":3179,"Ġhistory":3180,"ED":3181,"back":3182,"che":3183,"vant":3184,"Ġstri":3185,"Ġcomfort":3186,"Ġanything":3187,"Ġvibr":3188,"Ġassociated":3189,"ĠLoch":3190,"Ġadvent":3191,"Ġmodel":3192,"Ġprogram":3193,"Ġdelightful":3194,"uly":3195,"Ġthough":3196,"ocks":3197,"ucle":3198,"Ġtoys":3199,"ĠLondon":3200,"Ġadult":3201,"Pro":3202,"Ġloved":3203,"Ġchoice":3204,"Ġconsciousness":3205,"ĠSam":3206,"ĠAromi":3207,"Ġstudents":3208,"Ġelse":3209,"Translate":3210,"ye":3211,"Ġsym":3212,"ĠJo":3213,"Ġcontrib":3214,"eds":3215,"Ġsearch":3216,"ĠJames":3217,"Ġkid":3218,"Ġalready":3219,"Ġtriple":3220,"Ġminister":3221,"ging":3222,"step":3223,"ĠWest":3224,"Ġcourse":3225,"Ġpri":3226,"Ġcream":3227,"Ġlargest":3228,"Ġidea":3229,"Ġnon":3230,"Ġheld":3231,"Ġactress":3232,"Ġindust":3233,"ĠFrance":3234,"ms":3235,"Ġcelebr":3236,"21":3237,"etic":3238,"ption":3239,"aken":3240,"ification":3241,"Ġperformance":3242,"Ġprotect":3243,"Ġmessage":3244,"Title":3245,"rac":3246,"rec":3247,"Ġbecomes":3248,"Ġfem":3249,"Ġhighly":3250,"Ġboat":3251,"Ġready":3252,"ael":3253,"Ġbasket":3254,"Ġglass":3255,"Ġgrammat":3256,"Ġdraw":3257,"Ġever":3258,"Ġinclude":3259,"Ġreceived":3260,"Ġhours":3261,"wh":3262,"Ġlost":3263,"ago":3264,"ĠAss":3265,"Ġcauses":3266,"ĠChe":3267,"iewer":3268,"ĠNational":3269,"Ġgrowth":3270,"Ġfurther":3271,"Ġnove":3272,"Ġhal":3273,"Ġharm":3274,"utions":3275,"adem":3276,"ĠGreen":3277,"Ġmiddle":3278,"Ġstat":3279,"Ġsubst":3280,"Ġskin":3281,"Ġmember":3282,"ĠHotel":3283,"Ġoppos":3284,"Ġmeth":3285,"Tech":3286,"Ġseg":3287,"raz":3288,"Ġamb":3289,"Ġbring":3290,"Ġlisten":3291,"Ġchemical":3292,"coming":3293,"Ġproblems":3294,"ĠEuropean":3295,"oring":3296,"ivia":3297,"uals":3298,"Ġcoun":3299,"Ġant":3300,"ĠCzech":3301,"Ġstream":3302,"cing":3303,"iers":3304,"ugg":3305,"Ġhit":3306,"Ġ100":3307,"istic":3308,"Ġoverall":3309,"Ġpoll":3310,"ĠAmerica":3311,"Ġpolitical":3312,"Ġrepresent":3313,"AR":3314,"ĠSer":3315,"ĠCor":3316,"ĠWild":3317,"Ġ28":3318,"innish":3319,"Ġson":3320,"ĠReg":3321,"Ġglob":3322,"Ġhotel":3323,"ctober":3324,"quis":3325,"Ġ23":3326,"planation":3327,"ploy":3328,"Ġprovides":3329,"26":3330,"used":3331,"ĠOf":3332,"Ġaddress":3333,"Ġdivide":3334,"ps":3335,"Ġcy":3336,"Ġarch":3337,"Ġclaim":3338,"Ġserve":3339,"ĠKeywords":3340,"press":3341,"ĠCent":3342,"Ġship":3343,"negative":3344,"Ġparents":3345,"sc":3346,"itc":3347,"Ġaccess":3348,"iences":3349,"time":3350,"Ġslow":3351,"Ġfre":3352,"Ġfig":3353,"ĠOl":3354,"Ġcamp":3355,"usion":3356,"Ġprot":3357,"ennis":3358,"Ġgenerated":3359,"more":3360,"Ġlady":3361,"ators":3362,"ara":3363,"alk":3364,"Ġdiscover":3365,"Ġhigher":3366,"ively":3367,"Here":3368,"Ġimplicit":3369,"Ġpiece":3370,"aid":3371,"Ġquality":3372,"add":3373,"str":3374,"ission":3375,"Ġaud":3376,"Ġmath":3377,"Ġeyes":3378,"ancy":3379,"Ġsuggests":3380,"Ġactivities":3381,"iles":3382,"Ġdoll":3383,"Ġdeal":3384,"Ġtried":3385,"ospital":3386,"Ġindicates":3387,"Ġess":3388,"Ġthird":3389,"Ġeither":3390,"Ġrules":3391,"Ġstation":3392,"ĠMex":3393,"hus":3394,"Ġ27":3395,"asts":3396,"Ġrelax":3397,"ufact":3398,"Ġsize":3399,"Ġlaugh":3400,"Ġcarbon":3401,"Ġsometimes":3402,"29":3403,"ĠDan":3404,"Ġnothing":3405,"Ġrelevant":3406,"ev":3407,"Ġinternational":3408,"ĠWrest":3409,"ograph":3410,"Ġpopulation":3411,"brev":3412,"Ġmultip":3413,"Ġburn":3414,"otto":3415,"Ġexact":3416,"ĠOh":3417,"Ġreported":3418,"Ġofficials":3419,"OPT":3420,"Make":3421,"Ġchair":3422,"ĠRep":3423,"aza":3424,"Ġinteresting":3425,"Ġwat":3426,"Ġdance":3427,"Ġround":3428,"ops":3429,"Ġimpress":3430,"Ġtall":3431,"Ġfut":3432,"Ġgold":3433,"amb":3434,"Ġren":3435,"vert":3436,"oogle":3437,"positive":3438,"ugust":3439,"ault":3440,"ĠBill":3441,"tember":3442,"selves":3443,"tr":3444,"Ġcand":3445,"Ġposs":3446,"Ġpreced":3447,"Ġupon":3448,"Ġreply":3449,"Ġmention":3450,"Ġpressure":3451,"Ġhurt":3452,"Ġsocial":3453,"Ġtranslation":3454,"ĠWrestlers":3455,"ered":3456,"erry":3457,"Ġbott":3458,"ĠCo":3459,"Ġdrive":3460,"ĠComp":3461,"Ġexciting":3462,"Ġsoftware":3463,"Ġincorrect":3464,"Ġill":3465,"alizes":3466,"Ġdam":3467,"rove":3468,"Ġhelped":3469,"Ġelectric":3470,"36":3471,"iced":3472,"Ġitems":3473,"ĠWednesday":3474,"Ġepis":3475,"Ġgiving":3476,"ĠGod":3477,"ĠMic":3478,"ĠAlright":3479,"Ġcrowd":3480,"IN":3481,"irus":3482,"apt":3483,"Ġproducts":3484,"Ġspecifically":3485,"28":3486,"cil":3487,"astic":3488,"ĠConcepts":3489,"Ġcollege":3490,"Ġparticip":3491,"uary":3492,"Ġconcern":3493,"Ġprofessional":3494,"'ve":3495,"Add":3496,"icks":3497,"Ġnoun":3498,"iger":3499,"ĠMill":3500,"Ġoutd":3501,"ĠUp":3502,"ĠWilliam":3503,"ĠDefinition":3504,"Ġtou":3505,"rel":3506,"Ġnation":3507,"Ġprob":3508,"Ġethnic":3509,"ued":3510,"Ġer":3511,"Ġinj":3512,"chie":3513,"apor":3514,"Ġvoice":3515,"Ġspecies":3516,"Ġunacceptable":3517,"Ġcorresponding":3518,"rug":3519,"Ġcreating":3520,"Choices":3521,"ĠWashington":3522,"pose":3523,"Ġpicturesque":3524,"ĠTwenty":3525,"Ġactu":3526,"Ġpan":3527,"Ġonce":3528,"Ġ194":3529,"ĠMinister":3530,"Ġfelt":3531,"arter":3532,"ĠMc":3533,"Ġ50":3534,"water":3535,"aging":3536,"ĠHis":3537,"Ġabbrev":3538,"Ġleaves":3539,"Ġsoil":3540,"\";":3541,"Ġdrink":3542,"Ġcourt":3543,"Ġage":3544,"Ġforce":3545,"arr":3546,"Ġproduced":3547,"Ġdesigned":3548,"Ġindividual":3549,"ampionship":3550,"ocr":3551,"cles":3552,"ogn":3553,"struction":3554,"Solve":3555,"pite":3556,"ester":3557,"Ġreach":3558,"ĠGreat":3559,"ĠĠĠĠĠ":3560,"23":3561,"Ġbreat":3562,"Ġnucle":3563,"Ġwebs":3564,"Ġproviding":3565,"Ġnecessarily":3566,"Ġflowers":3567,"ĠAaron":3568,"most":3569,"ĠTom":3570,"ĠEm":3571,"OPTIONS":3572,"Ġmethod":3573,"ĠPerson":3574,"You":3575,"Ġdiss":3576,"my":3577,"ĠBoth":3578,"arden":3579,"Ġfeatures":3580,"Ġguitar":3581,"Ġsecurity":3582,"Ġorganism":3583,"Ġparticular":3584,"uted":3585,"Ġbegan":3586,"ĠSep":3587,"ĠRoman":3588,"Ġking":3589,"Ġimpact":3590,"xide":3591,"Ġbi":3592,"ares":3593,"Ġtool":3594,"icient":3595,"cember":3596,"Ġlim":3597,"Ġpersonal":3598,"Ġsimply":3599,"Ġsmaller":3600,"Ġquickly":3601,"AS":3602,"where":3603,"Ġdise":3604,"ician":3605,"Ġlate":3606,"Ġyet":3607,"ĠOlymp":3608,"aj":3609,"iant":3610,"pick":3611,"Ġsouth":3612,"Ġcertain":3613,"Ġnature":3614,"unk":3615,"Ġcloud":3616,"Ġcoll":3617,"Ġverbalizes":3618,"ĠTriple":3619,"date":3620,"Ġcatch":3621,"Ġisland":3622,"Ġgre":3623,"ĠGoogle":3624,"Ġjud":3625,"ancing":3626,"Ġgenre":3627,"Ġhorse":3628,"lant":3629,"rict":3630,"ĠRober":3631,"Ġmanufact":3632,"ables":3633,"Ġokay":3634,"ulti":3635,"Ġcars":3636,"Ġden":3637,"Ġtalented":3638,"Ġwait":3639,"Ġbaseball":3640,"gress":3641,"who":3642,"Ġsecret":3643,"ĠMarch":3644,"ivil":3645,"ĠDiv":3646,"ĠStr":3647,"ites":3648,"Ġflower":3649,"To":3650,"co":3651,"Ġcross":3652,"ĠCup":3653,"owned":3654,"appy":3655,"Ġeverything":3656,"Ġmatter":3657,"rian":3658,"Ġconve":3659,"Ġvac":3660,"hens":3661,"Ġsurround":3662,"Repeat":3663,"Ġresponse":3664,"Con":3665,"Ġwel":3666,"Ġbal":3667,"ceived":3668,"ĠThanks":3669,"Ġveh":3670,"Ġstructure":3671,"idence":3672,"Ġconven":3673,"ĠLine":3674,"Ġfeature":3675,"akistan":3676,"Ġcustomers":3677,"Ġnovel":3678,"orrow":3679,"ĠFinnish":3680,"Ġscreen":3681,"Ġannounced":3682,"ĠGl":3683,"Ġexcept":3684,"Ġperforming":3685,"Ġeggs":3686,"ipe":3687,"men":3688,"Ġaw":3689,"Ġpal":3690,"Ġdied":3691,"Ġgroups":3692,"Ġgirls":3693,"Ġdry":3694,"ifying":3695,"ĠAmericans":3696,"']":3697,"Ġwife":3698,"Ġhop":3699,"Ġreport":3700,"Ġsurpr":3701,"cc":3702,"Ġtour":3703,"inted":3704,"Ġswe":3705,"ĠDen":3706,"Ġcoach":3707,"Ġeasily":3708,"Ġlung":3709,"ĠFo":3710,"Ġreviewer":3711,"come":3712,"ĠBen":3713,"Ġmeal":3714,"Ġimagine":3715,"Ġbrother":3716,"Ġminutes":3717,"Ġsix":3718,"Ġwide":3719,"ĠSince":3720,"Ġcompan":3721,"ran":3722,"Ġ21":3723,"Ġthemselves":3724,"azing":3725,"Ġairport":3726,"Ġoccur":3727,"ĠCurry":3728,"Ġhost":3729,"ĠWind":3730,"Ġbigger":3731,"Ġaccom":3732,"Ġfemale":3733,"Ġglobal":3734,"orb":3735,"ita":3736,"Ġmic":3737,"Ġfore":3738,"Ġpassed":3739,"Ġcop":3740,"ĠCotto":3741,"ĠBu":3742,"Ġworked":3743,"Ġvict":3744,"Ġfresh":3745,"Ġscient":3746,"Ġremain":3747,"Ġsetence":3748,"Ġwindow":3749,"faction":3750,"Ġrich":3751,"Ġbuilt":3752,"Ġolder":3753,"Ġmountain":3754,"Ġparaphrases":3755,"Ġabbreviation":3756,"lin":3757,"Ġov":3758,"Ġpack":3759,"Ġbas":3760,"ĠGree":3761,"ilities":3762,"Ġ29":3763,"Ġlikes":3764,"Ġdead":3765,"Ġreading":3766,"Ġappears":3767,"Ġsounds":3768,"35":3769,"case":3770,"Ġneigh":3771,"ĠRec":3772,"Ġexperien":3773,"Ġthoughts":3774,"Ġcompetition":3775,"Ġimprove":3776,"ĠCoc":3777,"ĠWith":3778,"ston":3779,"ĠOctober":3780,"Ġcolorful":3781,"Ġkilled":3782,"ĠGeorge":3783,"Ġvibrant":3784,"Ġbasketball":3785,"Ġfuture":3786,"uce":3787,"ĠBur":3788,"Ġenc":3789,"Ġactions":3790,"Ġcomma":3791,"Ġdecision":3792,"orry":3793,"Ġbio":3794,"Ġlands":3795,"uments":3796,"ĠState":3797,"Ġproduce":3798,"ĠRemove":3799,"40":3800,"Ġhat":3801,"Ġlives":3802,"ĠSing":3803,"ett":3804,"ovember":3805,"Ġ40":3806,"Ġapprec":3807,"37":3808,"We":3809,"iling":3810,"ĠMart":3811,"Ġweight":3812,"Ġdemon":3813,"ĠOkay":3814,"ĠComm":3815,"Ġtrip":3816,"izza":3817,"racted":3818,"ĠSeptember":3819,"Ġachie":3820,"estin":3821,"rill":3822,"Ġheavy":3823,"Ġliqu":3824,"Ġways":3825,"Ġintro":3826,"If":3827,"iate":3828,"edy":3829,"ĠDon":3830,"ula":3831,"Ġupset":3832,"Ġcolors":3833,"Ġsick":3834,"olf":3835,"Ġcoming":3836,"ĠWhite":3837,"Ġautom":3838,"Ġdirectly":3839,"Ġactivity":3840,"Ġcul":3841,"Ġinit":3842,"owing":3843,"Ġkill":3844,"Ġdeep":3845,"Ġcareer":3846,"Ġtemperature":3847,"Ġearn":3848,"ĠPart":3849,"Ġsus":3850,"Ġbust":3851,"Ġtom":3852,"ĠThen":3853,"Ġstories":3854,"Ġcontains":3855,"Ġlonger":3856,"affe":3857,"itchen":3858,"atest":3859,"Ġrelease":3860,"Ġdrin":3861,"Ġpreceding":3862,"head":3863,"Ġgather":3864,"Ġtrack":3865,"Ġ['":3866,"Ġ2010":3867,"ule":3868,"Ġdark":3869,"ĠAugust":3870,"Ġitself":3871,"Ġstage":3872,"Ġchall":3873,"ĠNext":3874,"Ġregard":3875,"Ġbirds":3876,"izzi":3877,"cape":3878,"oors":3879,"ension":3880,"ĠLeague":3881,"Possible":3882,"ĠPat":3883,"Ġ26":3884,"Ġscen":3885,"Ġcharge":3886,"Ġsongs":3887,"ĠAngel":3888,"ĠPer":3889,"umb":3890,"ander":3891,"ĠNet":3892,"well":3893,"ĠKore":3894,"ermany":3895,"Ġmetal":3896,"Ġcarefully":3897,"Ġcurrently":3898,"Ġpieces":3899,"Ġcouple":3900,"Ġmachine":3901,"quisite":3902,"Ġdio":3903,"Ġdoor":3904,"Ġ[+]":3905,"Explanation":3906,"Ġsegment":3907,"Ġlake":3908,"Ġreferring":3909,"gent":3910,"Ġdie":3911,"Ġplans":3912,"Ġclothes":3913,"ĠStream":3914,"ĠAsian":3915,"Ġcenter":3916,"Ġexpensive":3917,"Ġhistor":3918,"got":3919,"reg":3920,"outhern":3921,"ria":3922,"Ġacid":3923,"Ġenjoyed":3924,"ĠIndiana":3925,"Ġpatrons":3926,"Ġindividuals":3927,"ĠMichael":3928,"Ġinflu":3929,"Ġhospital":3930,"ĠMark":3931,"Ġnames":3932,"Ġserving":3933,"Ġphotos":3934,"Ġcamera":3935,"rin":3936,"Ġexquisite":3937,"Ġdeb":3938,"Ġsoon":3939,"lectable":3940,"Ġstudy":3941,"ĠDavid":3942,"Ġfat":3943,"ĠPark":3944,"Part":3945,"Ġcast":3946,"Ġbur":3947,"cell":3948,"Ġlov":3949,"ĠFrom":3950,"enny":3951,"Ġhumans":3952,"Ġple":3953,"Ġdouble":3954,"ĠSm":3955,"Ġdelectable":3956,"anger":3957,"Ġconsum":3958,"Ġattract":3959,"Ġextra":3960,"na":3961,"Ġcard":3962,"Ġdrop":3963,"Ġevents":3964,"Ġmedic":3965,"Ġmarried":3966,"ray":3967,"Ġgrad":3968,"Ġdioxide":3969,"Ġprime":3970,"Ġsatisf":3971,"Ġnet":3972,"Ġnut":3973,"ĠNovember":3974,"Ġspeed":3975,"Ġsugar":3976,"Ġseeking":3977,"Ġintegers":3978,"ken":3979,"roph":3980,"ĠBig":3981,"Ġsex":3982,"Ġ2009":3983,"ĠZizzi":3984,"tract":3985,"Ġfac":3986,"Ġmind":3987,"Ġisn":3988,"ĠRes":3989,"Ġleading":3990,"Ġserved":3991,"atory":3992,"Ġpet":3993,"Ġseem":3994,"ĠLa":3995,"ruary":3996,"Ġguess":3997,"Ġhalf":3998,"ban":3999,"Ġdire":4000,"Ġjack":4001,"33":4002,"Ġtast":4003,"Ġsen":4004,"Ġexpected":4005,"ĠbirthPlace":4006,"ĠAustralia":4007,"ĠRobert":4008,"Ġcreat":4009,"edic":4010,"pty":4011,"ĠJim":4012,"Ġhimself":4013,"ij":4014,"Ġtaste":4015,"alt":4016,"edd":4017,"choice":4018,"Ġperceived":4019,"Problem":4020,"As":4021,"rie":4022,"Ġstuff":4023,"elf":4024,"bert":4025,"Ġprefer":4026,"ĠChar":4027,"Ġculinary":4028,"ĠSumm":4029,"ĠSee":4030,"ĠSaturday":4031,"Ġsell":4032,"Ġexerc":4033,"though":4034,"Ġassist":4035,"fortun":4036,"Ġnumeric":4037,"Do":4038,"ube":4039,"Ġmanager":4040,"Ġstring":4041,"III":4042,"Le":4043,"serv":4044,"omin":4045,"unt":4046,"ounds":4047,"duced":4048,"aker":4049,"Ġcontact":4050,"ibility":4051,"Ġpaint":4052,"val":4053,"Ġcommunity":4054,"load":4055,"Ġtaken":4056,"Ġwest":4057,"itect":4058,"Ġbud":4059,"ety":4060,"ĠInc":4061,"Ġapplic":4062,"Ġsummer":4063,"Ġknowing":4064,"Ġissues":4065,"Ġcirc":4066,"Ġcompanies":4067,"Ġmillion":4068,"Ġspot":4069,"Ġsurv":4070,"Ġbustling":4071,"ky":4072,"Ġcart":4073,"iring":4074,"Ġshall":4075,"ĠEd":4076,"Ġcompos":4077,"Ġenjoyable":4078,"Ġbirthday":4079,"Ġsalt":4080,"Ġlungs":4081,"Al":4082,"Ġwaves":4083,"asc":4084,"ĠGood":4085,"reng":4086,"Ġthroughout":4087,"iii":4088,"ournal":4089,"Ġbathroom":4090,"Ġforeign":4091,"Ġdirected":4092,"'d":4093,"Cl":4094,"bur":4095,"ero":4096,"Ġrepro":4097,"Ġareas":4098,"ulf":4099,"Ġunited":4100,"Ġnote":4101,"Ġfeels":4102,"Ġrequire":4103,"Ġemotion":4104,"90":4105,"IT":4106,"Ġcake":4107,"itch":4108,"Ġbright":4109,"ĠCanada":4110,"Ġteams":4111,"Ġfinish":4112,"Ġstarts":4113,"Ġincreases":4114,"IS":4115,"ux":4116,"oting":4117,"ĠJune":4118,"Ġrecogn":4119,"Ġdirector":4120,"Ġeconomic":4121,"Ġcaptiv":4122,"Com":4123,"Solution":4124,"isions":4125,"igious":4126,"ĠDr":4127,"Ġpost":4128,"Ġpool":4129,"Ġinstr":4130,"Ġimply":4131,"ĠKingdom":4132,"ĊĠĠ":4133,"cel":4134,"Ġrecent":4135,"posed":4136,"Ġvariety":4137,"ĠJanuary":4138,"field":4139,"ato":4140,"Ġnorth":4141,"Ġcouldn":4142,"Ġboard":4143,"ĠDecember":4144,"ĠLeo":4145,"Ġviol":4146,"Ġdevelopment":4147,"ĠCocum":4148,"Capitalize":4149,"Ġride":4150,"imate":4151,"Ġforward":4152,"Ġyellow":4153,"ĠMexico":4154,"mas":4155,"Ġq":4156,"Ġpizza":4157,"icles":4158,"Ġrather":4159,"ĠPaul":4160,"ĠIns":4161,"ĠOb":4162,"othing":4163,"ĠArt":4164,"ĠSunday":4165,"Ġprimarily":4166,"ĠPhilipp":4167,"Ġactually":4168,"Person":4169,"Ġcry":4170,"Ġder":4171,"ĠTur":4172,"Ġdoc":4173,"Ġwaiting":4174,"oken":4175,"45":4176,"Ġfarm":4177,"Ġhyd":4178,"Ġvirus":4179,"Ġchurch":4180,"unctuation":4181,"ĠOlive":4182,"writ":4183,"Ġameric":4184,"ĠHoliday":4185,"Ġkitchen":4186,"Ġdespite":4187,"Ġfeet":4188,"Ġmedia":4189,"Ġinvolved":4190,"reme":4191,"Ġones":4192,"Ġresults":4193,"Ġindustry":4194,"Ġaccompl":4195,"cial":4196,"Ġtar":4197,"erve":4198,"Ġfollows":4199,"ips":4200,"ĠStudent":4201,"Ġresearch":4202,"ĠBlack":4203,"Ġtranslated":4204,"Ġconvenient":4205,"iance":4206,"akers":4207,"Ġshowc":4208,"Ġentertain":4209,"ancial":4210,"Ġfreez":4211,"88":4212,"Sh":4213,"aq":4214,"order":4215,"Ġcaused":4216,"Ġterr":4217,"anding":4218,"Ġexpect":4219,"Ġattack":4220,"Ġ60":4221,"Ġensure":4222,"PartOf":4223,"mar":4224,"Ġdinner":4225,"Ġlunch":4226,"ĠAk":4227,"ĠGrove":4228,"Ġ(-":4229,"Ġpriv":4230,"epend":4231,"oodle":4232,"Ġpublished":4233,"aughter":4234,"ida":4235,"iraffe":4236,"orthern":4237,"ĠSpice":4238,"aught":4239,"Ġindicate":4240,"Eng":4241,"you":4242,"Ġboss":4243,"Ġstick":4244,"ĠHigh":4245,"Ġbrown":4246,"Ġemploy":4247,"ĠExpress":4248,"Ġarchitect":4249,"Ġhappens":4250,"Ġconsist":4251,"Ġsunlight":4252,"Ġbegin":4253,"aks":4254,"sec":4255,"Ġaltern":4256,"Ġspo":4257,"Ġspent":4258,"ĠQuestions":4259,"Ġenjoying":4260,"ĠAtlant":4261,"Ġpurch":4262,"Ġsource":4263,"Ġwebsite":4264,"ker":4265,"Ġgarden":4266,"Ġsho":4267,"Ġempty":4268,"Pe":4269,"Who":4270,"Ġdrug":4271,"Ġstands":4272,"antly":4273,"ĠJuly":4274,"Ġworkers":4275,"Ġsetting":4276,"Ġcontinue":4277,"Ġjumping":4278,"Punctuation":4279,"rated":4280,"was":4281,"inite":4282,"oms":4283,"Ġchina":4284,"Ġleague":4285,"Ġattention":4286,"ĠDivide":4287,"AL":4288,"When":4289,"ris":4290,"reet":4291,"Ġdeliver":4292,"Ġrenowned":4293,"Did":4294,"Ġstreng":4295,"ĠMad":4296,"Ġwear":4297,"Ġexperiences":4298,"Ġpurpose":4299,"bol":4300,"lla":4301,"ĠInn":4302,"Ġproud":4303,"Ġmoved":4304,"Ġscore":4305,"Ġshowing":4306,"32":4307,"ME":4308,"Ġge":4309,"Ġconstruction":4310,"ĠMr":4311,"ained":4312,"Ġgrand":4313,"abit":4314,"Ġpromin":4315,"Ġmultiple":4316,"bl":4317,"Ġter":4318,"Ġsyn":4319,"Ġdoctor":4320,"Ġsett":4321,"olec":4322,"Ġemotions":4323,"ĠAfrican":4324,"Ġingredient":4325,"80":4326,"Ġinf":4327,"ĠWell":4328,"ippe":4329,"Ġdivision":4330,"pril":4331,"Ġobjects":4332,"ĠRussian":4333,"Ġafford":4334,"met":4335,"aling":4336,"Ġwhose":4337,"Ġprevent":4338,"icken":4339,"Ġskills":4340,"Ġservices":4341,"oles":4342,"Ġshared":4343,"iament":4344,"ATION":4345,"Ġult":4346,"Ġhope":4347,"amin":4348,"ĠDis":4349,"onds":4350,"redict":4351,"ĠWildwood":4352,"Ġfigure":4353,"Ġtouch":4354,"band":4355,"house":4356,"uk":4357,"Ġsil":4358,"itude":4359,"ederal":4360,"ĠSar":4361,"ĠFin":4362,"abb":4363,"Ġmilk":4364,"Ġswimming":4365,"Based":4366,"ĠWhile":4367,"Ġcommit":4368,"Ġamazing":4369,"Ġlanguages":4370,"ĠTrans":4371,"Ġdisappoint":4372,"ĠRepublic":4373,"eal":4374,"iot":4375,"ios":4376,"Ġtax":4377,"Ġgives":4378,"Ġwasn":4379,"ĠIndones":4380,"Ġdisease":4381,"66":4382,"97":4383,"isis":4384,"Ġfaster":4385,"Ġforces":4386,"ĠMed":4387,"ĠMag":4388,"Ġcomple":4389,"Ġflu":4390,"Ġremains":4391,"Ġbelieve":4392,"athered":4393,"fortunately":4394,"Ġtiny":4395,"Ġpull":4396,"Ġthreat":4397,"ĠRich":4398,"Ġspoken":4399,"Ġsaf":4400,"Ġunderstanding":4401,"Ġveget":4402,"Ġnationality":4403,"],":4404,"fast":4405,"Ġfair":4406,"ceed":4407,"ĠEast":4408,"agement":4409,"Ġfeed":4410,"Ġhelping":4411,"gypt":4412,"Ġ2006":4413,"Ġpowerful":4414,"Ġkilomet":4415,"ĠAfrica":4416,"ĠApril":4417,"unter":4418,"odes":4419,"ĠRiver":4420,"Ġspread":4421,"Ġdriving":4422,"Ġturned":4423,"friend":4424,"paper":4425,"Ġemer":4426,"see":4427,"Ġdecl":4428,"Ġaffect":4429,"Ġtelling":4430,"Ġfounded":4431,"Ġmoment":4432,"ebruary":4433,"cient":4434,"Ġaim":4435,"Ġsens":4436,"ĠRed":4437,"ĠRationale":4438,"ords":4439,"Ġdisplay":4440,"Ġmusical":4441,"Ġsmooth":4442,"Ġreaction":4443,"Ġliquid":4444,"ened":4445,"oper":4446,"sem":4447,"Ġstudent":4448,"ĠPrime":4449,"English":4450,"anced":4451,"ĠGive":4452,"ĠMus":4453,"ĠNoodle":4454,"ights":4455,"Ġideas":4456,"husi":4457,"Ġlack":4458,"ĠSan":4459,"Ġtruck":4460,"ĠDetermine":4461,"Ġ2011":4462,"Ġexperienced":4463,"pric":4464,"uge":4465,"Ġmat":4466,"Ġstyle":4467,"istration":4468,"Ġsem":4469,"ockey":4470,"Ġimage":4471,"Ġsauce":4472,"Ġexpressing":4473,"Ġmagn":4474,"Ġjoin":4475,"ĠMartin":4476,");":4477,"[+]":4478,"Ġsorry":4479,"Ġpath":4480,"Ġda":4481,"ĠTop":4482,"Ġgar":4483,"ĠDay":4484,"istry":4485,"ĠUse":4486,"Ġlarger":4487,"Ġsleeping":4488,"estinian":4489,"priced":4490,"Ġtennis":4491,"Ġran":4492,"Ġforest":4493,"ĠMat":4494,"Ġcompared":4495,"Ġ2015":4496,"Ġproduction":4497,"Ġhappening":4498,"ĠAdam":4499,"Ġreturned":4500,"Ġanaly":4501,"Ġingredients":4502,"ĠMalays":4503,"eed":4504,"gl":4505,"Ġhur":4506,"osion":4507,"ĠGermany":4508,"Ġtray":4509,"Ġmale":4510,"Ġenthusi":4511,"Gr":4512,"Ġcru":4513,"osing":4514,"ĠSpain":4515,"ĠShort":4516,"Ġphysical":4517,"Ġexceptional":4518,"oma":4519,"Ġalle":4520,"duction":4521,"Ġhowever":4522,"Ġmodern":4523,"Ġconfirm":4524,"Mei":4525,"Ġprobably":4526,"ippee":4527,"Just":4528,"Ġaward":4529,"Ġsaturday":4530,"ĠSchool":4531,"Ġshoes":4532,"Ġ[-]":4533,"ĠPlay":4534,"Ġoccup":4535,"Ġtraditional":4536,"Ġnuclear":4537,"ville":4538,"Ġlab":4539,"ĠBir":4540,"Ġbehav":4541,"Ġradio":4542,"Ġessential":4543,"reed":4544,"Ġhang":4545,"ĠBel":4546,"agon":4547,"Ġexec":4548,"ĠYippee":4549,"Ġadding":4550,"Ġcollect":4551,"Ġ2012":4552,"Ġcommunic":4553,"esterday":4554,"zy":4555,"aint":4556,"place":4557,"Ġbutter":4558,"Ġcontract":4559,"Ġshopping":4560,"Ġ2016":4561,"Ġwriter":4562,"Ġmotor":4563,"Ġneighbor":4564,"Ġsafety":4565,"47":4566,"bu":4567,"gia":4568,"Ġsite":4569,"ura":4570,"Ġscr":4571,"Ġdecor":4572,"22":4573,"cause":4574,"happy":4575,"Ġut":4576,"Ġfill":4577,"ĠJack":4578,"oyal":4579,"Ġsolutions":4580,"Ġlogically":4581,"ĠSch":4582,"Ġquite":4583,"Ġstock":4584,"ĠEric":4585,"Ġalone":4586,"Ġhelpful":4587,"ĠVict":4588,"Ġdeterm":4589,"ait":4590,"ona":4591,"aries":4592,"Ġnest":4593,"Ġattem":4594,"Ġund":4595,"orms":4596,"Ġclimb":4597,"Ġbrought":4598,"Ġfund":4599,"Ġcoast":4600,"Ġkept":4601,"Ġcausing":4602,"ĠDenmark":4603,"IV":4604,"Ġ?\"":4605,"Ġbattle":4606,"Ġhear":4607,"ĠFebruary":4608,"Ġchanged":4609,"Ġprimary":4610,"Ġestablish":4611,"pen":4612,"ĠisPartOf":4613,"igan":4614,"ĠMiss":4615,"Ġtrade":4616,"ints":4617,"Ġsunday":4618,"Ġinstance":4619,"Ġlooked":4620,"base":4621,"Ġmolec":4622,"Ġhous":4623,"Ġasks":4624,"ormal":4625,"Ġfiles":4626,"ĠFrank":4627,"RE":4628,"ror":4629,"sp":4630,"Ġinternet":4631,"Ġgathered":4632,"illed":4633,"ultane":4634,"Ġelection":4635,"hood":4636,"Ġ_":4637,"rees":4638,"Ġban":4639,"change":4640,"ĠHel":4641,"ghan":4642,"ĠStreet":4643,"ĠAnt":4644,"Ġangry":4645,"hest":4646,"Ġalmost":4647,"Ġplanet":4648,"Ġhealthy":4649,"Ġgrammatically":4650,"People":4651,"ultaneously":4652,"31":4653,"LL":4654,"yan":4655,"lected":4656,"ĠPakistan":4657,"ĠGo":4658,"ĠFirst":4659,"Ġaccident":4660,"Ġdevice":4661,"[-]":4662,"iled":4663,"la":4664,"isted":4665,"ctions":4666,"Ġeurope":4667,"ĠCle":4668,"Ġanswered":4669,"Ġtrouble":4670,"Ġfilled":4671,"Ġgenerally":4672,"ĠCOU":4673,"ersey":4674,"Ġexh":4675,"aven":4676,"Ġrespect":4677,"Ġsimultaneously":4678,"ournament":4679,"Predict":4680,"Would":4681,"Ġten":4682,"Ġcooking":4683,"Ġast":4684,"iel":4685,"Ġprem":4686,"Ġaccount":4687,"Ġcentral":4688,"Ġgrowing":4689,"Ġlevels":4690,"ĠPortland":4691,"ĠOthers":4692,"ointed":4693,"ster":4694,"atives":4695,"oria":4696,"Ġmid":4697,"arian":4698,"adium":4699,"odd":4700,"Ġairpl":4701,"Ġmeters":4702,"Ġstarting":4703,"Ġweeks":4704,"lim":4705,"Ġlit":4706,"ĠBio":4707,"Ġfruit":4708,"Ġseven":4709,"Ġresistance":4710,"ĠUnion":4711,"Ġsche":4712,"Ġdifference":4713,"Ġsoldiers":4714,"70":4715,"Ġdedic":4716,"ican":4717,"Ġgym":4718,"ĠGener":4719,"Ġleaving":4720,"Ġcounty":4721,"Ġactive":4722,"Ġfinally":4723,"ĠOnce":4724,"Ġmoderately":4725,"Ġdistance":4726,"Ġmovement":4727,"Ġpolitician":4728,"Ġavoid":4729,"Ġorganisms":4730,"Ġdemonstr":4731,"Ġhon":4732,"ĠLou":4733,"Ġspend":4734,"Ġmusician":4735,"ĠBefore":4736,"Ġincreased":4737,"Ġallows":4738,"Ġexactly":4739,"ĠTest":4740,"Ġeye":4741,"ĠDuring":4742,"Ġreflect":4743,"Ġfighting":4744,"Ġimpressive":4745,"initely":4746,"She":4747,"Ġdaughter":4748,"icit":4749,"ĠBet":4750,"Ġwaste":4751,"ishing":4752,"Ġtalked":4753,"Ġguy":4754,"Ġopened":4755,"ĠCrown":4756,"ĠRussia":4757,"acteria":4758,"ĠSuper":4759,"Ġchalleng":4760,"Ġsouthern":4761,"Ġbill":4762,"Ġloss":4763,"ĠJeff":4764,"Ġclue":4765,"Ġinterest":4766,"Ġprominent":4767,"200":4768,"fo":4769,"gin":4770,"ka":4771,"Ġsend":4772,"umber":4773,"ĠOff":4774,"Ġgrown":4775,"Ġsolid":4776,"Ġskate":4777,")?":4778,"TH":4779,"isa":4780,"icago":4781,"Ġlif":4782,"Ġstru":4783,"Ġshot":4784,"Ġsharing":4785,"Ġentire":4786,"Ġpoor":4787,"Ġ2004":4788,"Ġdecide":4789,"Ġclosed":4790,"Ġlinguistically":4791,"Ġalternative":4792,"inter":4793,"ivity":4794,"ĠArms":4795,"Ġ2018":4796,"Ġfinancial":4797,"ĠPlaza":4798,"Ġensuring":4799,"oom":4800,"Ġsed":4801,"Ġroll":4802,"Ġcommonly":4803,"Ġbroken":4804,"Ġsymbol":4805,"ĠWindows":4806,"RY":4807,"iber":4808,"ini":4809,"anes":4810,"entially":4811,"Ġec":4812,"aches":4813,"possible":4814,"Ġstudied":4815,"Ġtechnology":4816,"Ġcarrying":4817,"which":4818,"85":4819,"Ġcas":4820,"Ġbomb":4821,"Ġyesterday":4822,"Ġorange":4823,"ĠAlf":4824,"Ġsmart":4825,"ĠIsolate":4826,"nergy":4827,"Ġcosts":4828,"Ġsimplifies":4829,"Ġcomfortable":4830,"Ġregarding":4831,"uzz":4832,"itor":4833,"inger":4834,"apes":4835,"sect":4836,"ighter":4837,"aine":4838,"Ġbuying":4839,"Ġbackground":4840,"ession":4841,"Ġsinging":4842,"Ġsquare":4843,"Ar":4844,"ĠTweet":4845,"utch":4846,"abin":4847,"Ġshel":4848,"Ġadm":4849,"Ġextracted":4850,"Ġvehicle":4851,"89":4852,"col":4853,"from":4854,"wan":4855,"ĠMa":4856,"ĠJones":4857,"Ġfell":4858,"Ġmoves":4859,"Ġadditional":4860,"Ġinteger":4861,"Ġmixed":4862,"Ġcounter":4863,"65":4864,"On":4865,"Ġitem":4866,"avors":4867,"Ġblank":4868,"Ġamid":4869,"Ġcontaining":4870,"AD":4871,"amily":4872,"rogen":4873,"eting":4874,"ades":4875,"Ġplane":4876,"Ġ2013":4877,"Ġ2005":4878,"Ġstrateg":4879,"Ġfinished":4880,"Ġrunway":4881,"ĠClowns":4882,"Ġiraq":4883,"Ġtasty":4884,"Ġerr":4885,"Ġtit":4886,"Ġholiday":4887,"Ġgift":4888,"ĠSl":4889,"iff":4890,"acon":4891,"These":4892,"Ġprec":4893,"Ġ2007":4894,"Ġslight":4895,"Ġsandw":4896,"44":4897,"75":4898,"AC":4899,"Ġ\\":4900,"Ġfancy":4901,"ĠLaur":4902,"Ġsummar":4903,"ĠHey":4904,"Ġthank":4905,"Ġdecisions":4906,"Ġrights":4907,"Ġpainting":4908,"Ġarmy":4909,"ĠCOUNT":4910,"ffer":4911,"that":4912,"Ġbowl":4913,"owers":4914,"ĠSen":4915,"Ġaspect":4916,"Ġplate":4917,"Ġscience":4918,"Ġremoved":4919,"rosoft":4920,"Ġstarred":4921,"Ġissue":4922,"walk":4923,"idents":4924,"ĠMil":4925,"Ġchampionship":4926,"Ġflat":4927,"ĠGroup":4928,"ipped":4929,"Ġeconomy":4930,"Ġgreater":4931,"Ġmel":4932,"llo":4933,"Ġreb":4934,"ĠHer":4935,"ĠFlor":4936,"Ġjoy":4937,"Ġelectron":4938,"Ġlearning":4939,"Ġaccurately":4940,"Ġstronger":4941,"Ġtraining":4942,"Ġwinter":4943,"ĠPalace":4944,"pecially":4945,"Ġdestination":4946,"Ġadventure":4947,"ĠStrada":4948,"Are":4949,"Subject":4950,"pre":4951,"Ġpers":4952,"Ġhus":4953,"ava":4954,"Ġscene":4955,"hentic":4956,"Ġcharming":4957,"Ġrecover":4958,"Ġfilms":4959,"Ġ2014":4960,"ĠCollege":4961,"Ġidentify":4962,"known":4963,"razil":4964,"Ġepisode":4965,"Ġjacket":4966,"ofthe":4967,"Ġmist":4968,"uters":4969,"utive":4970,"ĠRanch":4971,"ĠEnergy":4972,"Ġdesk":4973,"ribe":4974,"Ġskill":4975,"ĠTeacher":4976,"Ġagreement":4977,"ĠCOUNTRY":4978,"Ġwinning":4979,"Ġgun":4980,"Ġet":4981,"Ġability":4982,"Ġresour":4983,"Ġholds":4984,"Ġdividing":4985,"Ġwild":4986,"Ġisrael":4987,"icing":4988,"ĠPri":4989,"illa":4990,"Ġchicken":4991,"asting":4992,"iana":4993,"Ġformat":4994,"Ġweekend":4995,"Ġconveniently":4996,"isk":4997,"Ġwarn":4998,"Ġbicy":4999,"Ġneut":5000,"ĠDel":5001,"Ġunit":5002,"Ġapart":5003,"Ġrob":5004,"ĠVe":5005,"Ġ2017":5006,"Ġapply":5007,"Ġkeeping":5008,"Ġconcert":5009,"gal":5010,"Ġtur":5011,"Ġself":5012,"Ġcivil":5013,"ĠTim":5014,"oster":5015,"ĠBy":5016,"ĠDes":5017,"Ġforms":5018,"Ġended":5019,"Ġmission":5020,"Ġmagaz":5021,"Ġbenef":5022,"Ġbudget":5023,"Ġattempt":5024,"AP":5025,"uous":5026,"west":5027,"Ġcode":5028,"Ġonto":5029,"ĠDem":5030,"Ġsale":5031,"ysis":5032,"Ġpercent":5033,"Ġregular":5034,"Ġobserv":5035,"Ġrequired":5036,"Ġsuccessful":5037,"lled":5038,"Ġtournament":5039,"inct":5040,"icking":5041,"ils":5042,"Ġcomedy":5043,"Ġuniversity":5044,"apped":5045,"Ġcontr":5046,"Ġmostly":5047,"onsense":5048,"Ġpresence":5049,"Ġbuildings":5050,"Ġbroke":5051,"Ġfrequ":5052,"ador":5053,"Ġpred":5054,"Ġauthentic":5055,"Ġsatisfaction":5056,"ĠCrowne":5057,"ees":5058,"van":5059,"Ġinn":5060,"ĠBre":5061,"ĠGiraffe":5062,"sey":5063,"ĠJersey":5064,"Ġusers":5065,"Ġexpressed":5066,"ĠAID":5067,"ĠAcc":5068,"ĠAttributes":5069,"Ġnouns":5070,"writer":5071,"AG":5072,"body":5073,"wor":5074,"lder":5075,"Ġque":5076,"ĠBell":5077,"herlands":5078,"ĠMulti":5079,"Ġselect":5080,"Ġexist":5081,"Ġindepend":5082,"phone":5083,"Ġ2001":5084,"Ġmedicine":5085,"craft":5086,"erb":5087,"Ġrap":5088,"ĠJenn":5089,"Student":5090,"ĠCompany":5091,"Ġcaptivating":5092,"ĠPhilippines":5093,"77":5094,"No":5095,"when":5096,"ench":5097,"Ġworth":5098,"amic":5099,"ĠCapitalize":5100,"Ġteach":5101,"ĠAnn":5102,"Ġmeasure":5103,"ĠParty":5104,"55":5105,"Im":5106,"Ġwave":5107,"Ġancient":5108,"ola":5109,"Ġbusy":5110,"Ġsimilarity":5111,"Ġelectricity":5112,"Ġmanufactur":5113,"Ġconvey":5114,"Af":5115,"hold":5116,"oul":5117,"Ġlatest":5118,"ĠJose":5119,"Ġspir":5120,"obile":5121,"ological":5122,"Ġseparated":5123,"ĠChristmas":5124,"Ġnewspaper":5125,"Ġflying":5126,"Ġsummarizes":5127,"38":5128,"ST":5129,"book":5130,"cher":5131,"Ġhints":5132,"roy":5133,"agen":5134,"ĠMath":5135,"tery":5136,"ĠElect":5137,"Ġimpossible":5138,"ashion":5139,"ĠSec":5140,"Un":5141,"uan":5142,"Ġsave":5143,"Ġcred":5144,"Ġmo":5145,"Ġje":5146,"Ġremark":5147,"Ġowner":5148,"Ġclearly":5149,"Ġresponsible":5150,"Ġpractice":5151,"rical":5152,"Ġspl":5153,"Ġcere":5154,"ĠTech":5155,"Ġeight":5156,"chan":5157,"Ġdeg":5158,"aked":5159,"Ġbrain":5160,"Ġguests":5161,"comp":5162,"Ġgluc":5163,"Ġbeauty":5164,"Ġjudge":5165,"LE":5166,"reland":5167,"Ġpus":5168,"estic":5169,"ĠIS":5170,"ountain":5171,"Ġhappiness":5172,"ĠVal":5173,"Ġincluded":5174,"Ġsister":5175,"Ġbatter":5176,"Ġlived":5177,"Ġeast":5178,"Ġearl":5179,"imately":5180,"Ġquarter":5181,"ĠName":5182,"aults":5183,"ĠKorea":5184,"ned":5185,"Ġtro":5186,"rected":5187,"Ġruss":5188,"Ġquiz":5189,"odies":5190,"ĠLaw":5191,"Ġarg":5192,"Ġ2008":5193,"ĠAustralian":5194,"Group":5195,"Ġschedu":5196,"aa":5197,"gi":5198,"Ġmur":5199,"Ġhockey":5200,"ĠIreland":5201,"agn":5202,"ĠOP":5203,"ourney":5204,"raf":5205,"Ġcommonsense":5206,"Ġcoal":5207,"Ġputting":5208,"Ġelev":5209,"Ġcurren":5210,"ĠScott":5211,"Ġthinks":5212,"Ġconnection":5213,"evin":5214,"Ġlandscape":5215,"IC":5216,"Ġtired":5217,"Ġlo":5218,"Ġorb":5219,"ĠMor":5220,"Ġselection":5221,"Ġknew":5222,"Ġshowed":5223,"Ġboys":5224,"Ġexcite":5225,"Ġstopped":5226,"Ġdecrease":5227,"Ġefforts":5228,"Ġappearance":5229,"Ġapplication":5230,"01":5231,"69":5232,"ixt":5233,"Ġpil":5234,"Ġdancing":5235,"asm":5236,"Ġlines":5237,"ĠAy":5238,"Ġindeed":5239,"ibly":5240,"Ġestablished":5241,"irty":5242,"ĠFel":5243,"ĠUK":5244,"Ġrecently":5245,"ĠAndrew":5246,"Ġpattern":5247,"itzer":5248,"Ġbroad":5249,"Ġphoto":5250,"Ġcovered":5251,"Ġaudience":5252,"Ġachieve":5253,"hy":5254,"ners":5255,"wise":5256,"atal":5257,"ĠAct":5258,"Ġstocks":5259,"Ġuns":5260,"Ġhighlight":5261,"Ġcentury":5262,"ported":5263,"Ġvictory":5264,"part":5265,"ening":5266,"Ġmer":5267,"Ġmamm":5268,"Ġselling":5269,"iano":5270,"Ġclar":5271,"azz":5272,"Ġsystems":5273,"Ġappeared":5274,"Ġoccurs":5275,"Ġespecially":5276,"Tweet":5277,"ĠBro":5278,"ifer":5279,"Ġclothing":5280,"Ġenh":5281,"ĠPlace":5282,"Ġbeginning":5283,"Ġconditions":5284,"Ġdecreases":5285,"Ġopposite":5286,"Ġdanger":5287,"ado":5288,"adian":5289,"ĠBob":5290,"ĠRome":5291,"ubb":5292,"Ġunable":5293,"portun":5294,"ĠChicago":5295,"Ġadmin":5296,"Ġinsp":5297,"Ġnutri":5298,"Ġinstrument":5299,"dam":5300,"Ġcities":5301,"Ġplayground":5302,"Ġages":5303,"Ġflavors":5304,"Ġreceive":5305,"Ġinvestig":5306,"Ġreplace":5307,"Ġmethods":5308,"ius":5309,"rent":5310,"Ġ!":5311,"opher":5312,"ĠBush":5313,"ĠQue":5314,"Ġcorrected":5315,"Ġ35":5316,"Ġconsidering":5317,"gency":5318,"ĠBritain":5319,"Ġcultural":5320,"Ġabsorb":5321,"Ġaffordable":5322,"Ġbehavior":5323,"Ġbacteria":5324,"uth":5325,"odied":5326,"Ġcozy":5327,"Ġbread":5328,"Why":5329,"Ġvalidate":5330,"ĠGeorgia":5331,"Ġdamage":5332,"top":5333,"ĠEr":5334,"ĠEgypt":5335,"Ġperformed":5336,"Ġprepared":5337,"edding":5338,"Ġexcitement":5339,"ja":5340,"rap":5341,"thes":5342,"your":5343,"Ġiron":5344,"hero":5345,"Ġfashion":5346,"Ġpink":5347,"Ġdirt":5348,"iration":5349,"ĠCre":5350,"imal":5351,"ĠRock":5352,"Ġmechan":5353,"Ġgoals":5354,"ĠThom":5355,"ĠProv":5356,"Ġ2000":5357,"Ġsigned":5358,"ommy":5359,"Ġdissatis":5360,"Ġdrinking":5361,"ĠIndonesia":5362,"48":5363,"BC":5364,"Let":5365,"atin":5366,"Ġwinner":5367,"alled":5368,"Ġthous":5369,"Ġprogress":5370,"cont":5371,"ĠClare":5372,"Ġslowly":5373,"99":5374,"just":5375,"med":5376,"alu":5377,"Ġhill":5378,"otes":5379,"ĠServ":5380,"ĠNor":5381,"ĠLike":5382,"Ġ...":5383,"Ġacadem":5384,"Ġapartment":5385,"ĠProblem":5386,"Ġbench":5387,"Ġultimately":5388,"Ġastron":5389,"NG":5390,"oly":5391,"isl":5392,"Ġfine":5393,"Ġpup":5394,"Ġinsect":5395,"icia":5396,"ĠSystem":5397,"unic":5398,"ĠHen":5399,"plied":5400,"Ġunfortunately":5401,"Ġbridge":5402,"inton":5403,"ĠLouis":5404,"Ġbrit":5405,"Ġnons":5406,"umn":5407,"umin":5408,"ĠOver":5409,"ensical":5410,"ĠVaults":5411,"ĠBecause":5412,"Ġpotentially":5413,"Ġmaterials":5414,"Ġdaily":5415,"dll":5416,"iqu":5417,"Ġcow":5418,"ĠSpe":5419,"ĠBay":5420,"ĠMore":5421,"Ġplaced":5422,"ĠLake":5423,"Ġlegal":5424,"Ġembodied":5425,"Ġbreath":5426,"Ġsatisfied":5427,"Ġtarget":5428,"Ġterror":5429,"Some":5430,"uing":5431,"va":5432,"Ġinfer":5433,"Ġgiant":5434,"uting":5435,"ĠGames":5436,"sequ":5437,"Ġshape":5438,"ĠThink":5439,"Ġsuffer":5440,"aiwan":5441,"thew":5442,"Ġsuperhero":5443,"ĠFootball":5444,"Ġskateboard":5445,"Ġnonsensical":5446,"iest":5447,"Ġcancer":5448,"berg":5449,"Ġrespond":5450,"Ġcleaning":5451,"Ġcondition":5452,"Ġwet":5453,"ĠLoc":5454,"ĠInternet":5455,"Ġkm":5456,"Ġserious":5457,"Ġsmile":5458,"Ġenter":5459,"ucky":5460,"Ġconcerns":5461,"46":5462,"Don":5463,"Ġum":5464,"Ġcater":5465,"itation":5466,"amil":5467,"Ġweb":5468,"Ġunhappy":5469,"Ġspending":5470,"asses":5471,"airs":5472,"Ġproducer":5473,"Ġproperly":5474,"Ġtriples":5475,"comm":5476,"Ġruns":5477,"Ġevening":5478,"Ġparticles":5479,"Ġculture":5480,"Ġbottom":5481,"Or":5482,"Ġfoot":5483,"ĠMike":5484,"Ġchief":5485,"clus":5486,"Ġflight":5487,"Ġanymore":5488,"Ġthrow":5489,"amster":5490,"Ġorganization":5491,"ĠMichigan":5492,"Ġtomorrow":5493,"hi":5494,"rem":5495,"ĠSub":5496,"Ġtrivia":5497,"ĠOut":5498,"Ġjourney":5499,"Ġcalc":5500,"Ġflag":5501,"ĠAlb":5502,"Ġtransfer":5503,"Ġefficient":5504,"Ġsuggest":5505,"Ġallowing":5506,"Ġsediment":5507,"ga":5508,"will":5509,"Ġbored":5510,"Ġcompe":5511,"ĠLong":5512,"nected":5513,"Ġagreed":5514,"anches":5515,"Ġdistrict":5516,"Ġlegs":5517,"Ġbreakfast":5518,"Ġoutdoor":5519,"Ġexercise":5520,"itzerland":5521,"OC":5522,"itness":5523,"itute":5524,"alle":5525,"Ġnormal":5526,"Ġhar":5527,"Ġqual":5528,"apore":5529,"ĠHi":5530,"ĠDenny":5531,"Ġalph":5532,"Ġgrav":5533,"Ġdressed":5534,"Ġshowcasing":5535,"car":5536,"yr":5537,"Ġcaught":5538,"ario":5539,"using":5540,"rial":5541,"ĠMost":5542,"ache":5543,"Ġseeds":5544,"anged":5545,"ĠSecret":5546,"Ġgrammatical":5547,"Ġoutdoors":5548,"ealand":5549,"ji":5550,"ya":5551,"Ġlose":5552,"ĠDi":5553,"Ġexcell":5554,"ĠJul":5555,"ĠUN":5556,"Ġtextual":5557,"Ġagency":5558,"Ġmedical":5559,"Ġturns":5560,"ĠCalc":5561,"ĠethnicGroup":5562,"ĠSarah":5563,"Ġhusband":5564,"Ġearlier":5565,"aver":5566,"Ġton":5567,"Ġring":5568,"ĠMel":5569,"ummer":5570,"flict":5571,"ĠApple":5572,"ĠBurger":5573,"ĠTopic":5574,"BA":5575,"Desc":5576,"based":5577,"mat":5578,"Ġbul":5579,"Ġbeer":5580,"ĠMars":5581,"Ġshown":5582,"Ġlibr":5583,"Ġcolon":5584,"Ġassistance":5585,"Ġowned":5586,"Ġmiles":5587,"Ġsalient":5588,"Ġhighest":5589,"Ġearthqu":5590,"ING":5591,"ĠRichard":5592,"Ġstrugg":5593,"ĠTechn":5594,"ĠAj":5595,"eturn":5596,"Ġshar":5597,"ĠDep":5598,"illy":5599,"Ġopportun":5600,"Ġ31":5601,"Ġlistener":5602,"Ġautomatic":5603,"Ġloves":5604,"Ġpleas":5605,"ĠMalaysia":5606,"Ġslightly":5607,"\")":5608,"95":5609,"bell":5610,"enz":5611,"esus":5612,"Ġmill":5613,"oming":5614,"Ġgro":5615,"ette":5616,"Ġjournal":5617,"Ġspeech":5618,"ĠAlbert":5619,"Ġevapor":5620,"Ġsituations":5621,"Ġdocument":5622,"ĠVictoria":5623,"Ġalphab":5624,"isher":5625,"Ġhung":5626,"Ġeager":5627,"open":5628,"ĠLind":5629,"ipment":5630,"ĠCharl":5631,"ogan":5632,"Ġsubtract":5633,"Ġii":5634,"ĠForce":5635,"ĠExpl":5636,"Ġarrived":5637,"ĠChristian":5638,"Ġclouds":5639,"ĠGreece":5640,"Ġsandwich":5641,"Ġborder":5642,"Ġnose":5643,"Ġgender":5644,"Ġ\"\"":5645,"ĠDutch":5646,"ĠEU":5647,"Ġexpresses":5648,"Ġallowed":5649,"Ġwonder":5650,"isco":5651,"ĠJoe":5652,"Ġru":5653,"unning":5654,"Ġstaff":5655,"oli":5656,"Ġshares":5657,"ĠKevin":5658,"Ġdisp":5659,"Ġacting":5660,"Ġfactual":5661,"Ġdipl":5662,"fected":5663,"undred":5664,"Ġarms":5665,"Ġsources":5666,"Ġambiance":5667,"Ġamerican":5668,"Ġresources":5669,"ta":5670,"Ġperm":5671,"aly":5672,"icul":5673,"ĠTony":5674,"estival":5675,"ĠSol":5676,"irgin":5677,"Ġvapor":5678,"udi":5679,"uba":5680,"apping":5681,"ensity":5682,"Ġmuscles":5683,"Ġsunny":5684,"Ġsignificantly":5685,"ghanistan":5686,"Ġremarkable":5687,"ki":5688,"Ġaust":5689,"Ġpul":5690,"Ġnations":5691,"ĠTime":5692,"Ġgod":5693,"ĠSpec":5694,"oses":5695,"andy":5696,"ĠRam":5697,"Ġcho":5698,"Ġcompl":5699,"Ġmeat":5700,"Ġanyone":5701,"Ġsolar":5702,"Ġrelation":5703,"Ġdollar":5704,"ocratic":5705,"Ġintroduced":5706,"Ġmolecules":5707,"Ġmaster":5708,"othe":5709,"Ġyard":5710,"Ġstra":5711,"ĠPos":5712,"ĠGovern":5713,"ĠMany":5714,"Ġfollowed":5715,"istics":5716,"ĠLE":5717,"ĠInst":5718,"Ġfunction":5719,"Ġboasts":5720,"Ġobtain":5721,"Ġfootballer":5722,"Ġcycle":5723,"Ġvacation":5724,"Ġfeatured":5725,"ĠNetherlands":5726,"Ġprivate":5727,"All":5728,"My":5729,"aign":5730,"Ġtas":5731,"Ġfederal":5732,"amed":5733,"Ġstone":5734,"Ġstress":5735,"olic":5736,"essert":5737,"overs":5738,"Ġ(\"":5739,"ĠUs":5740,"ĠKenn":5741,"ipes":5742,"Ġsmell":5743,"Ġauthorities":5744,"Ġfishing":5745,"Ġscientific":5746,"Ġcryst":5747,"Ġglucose":5748,"mal":5749,"otter":5750,"osis":5751,"urance":5752,"Ġconduct":5753,"Ġvan":5754,"ensions":5755,"Ġ45":5756,"Ġ80":5757,"Ġextract":5758,"Ġbegins":5759,"Ġreplaced":5760,"ĠDisney":5761,"Ġmagazine":5762,"py":5763,"Ġahead":5764,"Ġmir":5765,"ĠIce":5766,"quare":5767,"Ġreve":5768,"Ġju":5769,"Ġprovince":5770,"Ġparl":5771,"ategory":5772,"Ġsales":5773,"Ġpresidential":5774,"Ġvolcan":5775,"down":5776,"ford":5777,"Ġwedding":5778,"Ġfurn":5779,"Ġbat":5780,"ali":5781,"Ġhabit":5782,"Ġquiet":5783,"Ġconver":5784,"ĠTrivia":5785,"Ġstatements":5786,"ĠSpace":5787,"box":5788,"ĠMonica":5789,"ĠSwitzerland":5790,"useum":5791,"ĠMicrosoft":5792,"Justification":5793,"ĠJoseph":5794,"68":5795,"Ġbes":5796,"tee":5797,"Ġnerv":5798,"Ġreached":5799,"ĠDialogue":5800,"anda":5801,"Ġunion":5802,"Ġcompon":5803,"Ġserene":5804,"Ġemph":5805,"Ġmemor":5806,"Ġemotional":5807,"Ġrepresents":5808,"Ġsimpler":5809,"ĠOlympics":5810,"Ġhouses":5811,"Ġnutrients":5812,"57":5813,"ek":5814,"Ġign":5815,"tel":5816,"ĠIran":5817,"Ġafric":5818,"Ġexplicit":5819,"ĠShould":5820,"Ġdollars":5821,"Ġencour":5822,"ĠAkita":5823,"noon":5824,"ĠĊĊ":5825,"ĠTurn":5826,"Ġgently":5827,"olute":5828,"Ġvess":5829,"Ġmeals":5830,"itionally":5831,"orses":5832,"Ġnearby":5833,"Ġcheese":5834,"Ġfinding":5835,"ĠArab":5836,"Ġinstall":5837,"Ġdistinct":5838,"Ġadventures":5839,"ĠSingapore":5840,"burg":5841,"Ġstrength":5842,"Ġestablishment":5843,"wide":5844,"ĠSugg":5845,"ĠBer":5846,"ĠFil":5847,"ĠLos":5848,"Ġtraff":5849,"ĠOpen":5850,"aved":5851,"Ġcalm":5852,"Ġscored":5853,"Ġguys":5854,"Ġelections":5855,"ynth":5856,"idden":5857,"Ġinvolves":5858,"ĠFlorida":5859,"Ġneutral":5860,"Man":5861,"bet":5862,"bour":5863,"hire":5864,"iams":5865,"Ġfans":5866,"Ġfert":5867,"Ġpig":5868,"tect":5869,"Ġmut":5870,"ĠCoun":5871,"Ġfeat":5872,"ĠStar":5873,"Ġmaybe":5874,"ĠMaria":5875,"Ġoffered":5876,"Ġcloser":5877,"Ġcutting":5878,"Ġmountains":5879,"Ġimmed":5880,"After":5881,"bly":5882,"fr":5883,"hand":5884,"rd":5885,"then":5886,"Ġpage":5887,"Ġbodies":5888,"ĠAv":5889,"ĠSoc":5890,"una":5891,"ĠBrazil":5892,"ĠFort":5893,"They":5894,"Ġunlike":5895,"avig":5896,"ĠAnders":5897,"Ġenters":5898,"ĠAthens":5899,"Ġoriginally":5900,"Ġideal":5901,"Ġtreatment":5902,"Ġepisodes":5903,"enced":5904,"Ġpun":5905,"ĠAC":5906,"ĠGame":5907,"Ġconcept":5908,"ĠMass":5909,"ription":5910,"Ġresulting":5911,"ĠCricket":5912,"Ġlogical":5913,"Ġcompletely":5914,"Ġcelebrate":5915,"dr":5916,"oted":5917,"pon":5918,"uits":5919,"Ġfuel":5920,"ĠAh":5921,"Ġrise":5922,"Ġconv":5923,"acking":5924,"Ġchose":5925,"ĠLight":5926,"Ġratings":5927,"Ġevalu":5928,"Ġapproach":5929,"Three":5930,"Ġextension":5931,"Ġeleg":5932,"ĠJohnson":5933,"Ġoperating":5934,"Ġdiscovered":5935,"Ġmurder":5936,"Ġstraight":5937,"Ne":5938,"OF":5939,"Ġate":5940,"Ġpudd":5941,"icon":5942,"Ġna":5943,"Ġhole":5944,"ĠAri":5945,"ĠSri":5946,"Ġcomment":5947,"formation":5948,"Ġreviews":5949,"Ġafternoon":5950,"ĠFranc":5951,"ĠClub":5952,"Ġmotion":5953,"Ġbicycle":5954,"49":5955,"afe":5956,"fly":5957,"atform":5958,"atoes":5959,"Ġwire":5960,"Ġpuzz":5961,"ĠIll":5962,"ads":5963,"ums":5964,"ĠMet":5965,"Ġleads":5966,"Ġmainly":5967,"Ġswing":5968,"ĠTeam":5969,"annel":5970,"Ġprograms":5971,"know":5972,"Ġopposition":5973,"ĠObama":5974,"Ġoccupation":5975,"ĠLaura":5976,"Describe":5977,"CO":5978,"Where":5979,"vis":5980,"Ġtank":5981,"Ġwish":5982,"iture":5983,"Ġmoon":5984,"ĠPeter":5985,"anges":5986,"Ġeventually":5987,"Ġbedroom":5988,"Ġtrading":5989,"Ġmaintaining":5990,"Ġcurrency":5991,"nd":5992,"night":5993,"pet":5994,"Ġnorthern":5995,"ĠCarl":5996,"Ġvote":5997,"ĠOk":5998,"aceae":5999,"ĠKong":6000,"Ġbiggest":6001,"Ġreasons":6002,"Ġcooper":6003,"inthe":6004,"Ġmedium":6005,"Ġlearned":6006,"Ġglasses":6007,"Ġstatus":6008,"person":6009,"Ġdin":6010,"ĠIr":6011,"osed":6012,"Ġquot":6013,"Ġconnected":6014,"ĠMo":6015,"ĠFC":6016,"ĠFe":6017,"ĠFind":6018,"ĠClass":6019,"Ġrooms":6020,"Ġindicating":6021,"Ġdeveloped":6022,"Ġcookies":6023,"Ġfully":6024,"llig":6025,"osen":6026,"Ġrub":6027,"Ġweap":6028,"Ġupd":6029,"Ġupdate":6030,"Ġcontro":6031,"Ġexpert":6032,"Ġattend":6033,"ĠProduct":6034,"venue":6035,"Ġpatient":6036,"Reuters":6037,"ĠAcadem":6038,"Ġmulti":6039,"Ġwelcoming":6040,"Ġsusp":6041,"Ġemphas":6042,"Ġfeaturing":6043,"now":6044,"Ġhomes":6045,"ĠAle":6046,"Ġgolf":6047,"osystem":6048,"Ġteeth":6049,"ĠEll":6050,"Ġspeaking":6051,"Ġbrave":6052,"ĠNote":6053,"anka":6054,"Ġ70":6055,"ĠProf":6056,"ollo":6057,"Ġsurprise":6058,"Ġfreezer":6059,"Ġspirit":6060,"Ġparliament":6061,"Date":6062,"Ġtiss":6063,"inate":6064,"Ġmap":6065,"Ġhall":6066,"Ġreports":6067,"ĠCour":6068,"aped":6069,"ĠMuseum":6070,"ĠHong":6071,"raham":6072,"ĠAsia":6073,"Ġdetail":6074,"Ġdefe":6075,"ĠMaybe":6076,"mmm":6077,"ĠAssoc":6078,"Ġanti":6079,"Ġcampaign":6080,"ĠOlympic":6081,"Ġbalance":6082,"Ġcompleted":6083,"Ġdedicated":6084,"Be":6085,"hu":6086,"pted":6087,"Ġcabin":6088,"Ġpaid":6089,"Ġmis":6090,"ĠIan":6091,"urb":6092,"Ġstom":6093,"ĠBrian":6094,"Ġconference":6095,"Ġconflict":6096,"Ġplaus":6097,"ĠFree":6098,"Ġtrave":6099,"ĠJe":6100,"ĠJason":6101,"Ġpra":6102,"pling":6103,"ickets":6104,"raig":6105,"Ġequival":6106,"Ġequipment":6107,"ucks":6108,"Ġwalks":6109,"Ġsidewalk":6110,"Ġcalls":6111,"Ġfalling":6112,"Ġgrammar":6113,"boy":6114,"Ġlink":6115,"osa":6116,"Ġrid":6117,"ĠLord":6118,"ocolate":6119,"ears":6120,"ilding":6121,"Ġcrisis":6122,"Ġinvolve":6123,"Ġgirlfriend":6124,"ĠSea":6125,"Ġcareful":6126,"Ġdirection":6127,"ticip":6128,"Ġprior":6129,"ĠCentral":6130,"related":6131,"Ġterrit":6132,"ĠGeneral":6133,"Ġetc":6134,"Ġacademic":6135,"41":6136,"cast":6137,"Ġsan":6138,"Ġthick":6139,"Ġbear":6140,"osc":6141,"ĠPC":6142,"ĠDist":6143,"action":6144,"Ġdear":6145,"Ġ36":6146,"Ġinviting":6147,"Ġextreme":6148,"Ġcontinues":6149,"Ġpollution":6150,"ĠGreek":6151,"Ġdisappointing":6152,"Ġeuropean":6153,"Ġsings":6154,"answer":6155,"ashing":6156,"Ġhuge":6157,"Ġhundred":6158,"Ġliver":6159,"irts":6160,"Ġmanaged":6161,"Ġactors":6162,"Ġspecializing":6163,"Ġdriver":6164,"Ġrocket":6165,"Ġplanning":6166,"Ġtranslates":6167,"Ġlawy":6168,"Ġpreparing":6169,"Ġwatched":6170,"EN":6171,"FL":6172,"iations":6173,"jamin":6174,"oe":6175,"rence":6176,"Ġcats":6177,"Ġpages":6178,"Ġbow":6179,"oub":6180,"Ġdirty":6181,"Ġinh":6182,"omen":6183,"ota":6184,"ĠPress":6185,"ĠDown":6186,"clusion":6187,"oston":6188,"onda":6189,"Ġevidence":6190,"Ġmeanings":6191,"resent":6192,"ĠBean":6193,"Ġopening":6194,"going":6195,"Ġprepare":6196,"ĠBirth":6197,"Ġdetermined":6198,"irginia":6199,"Ġsang":6200,"Ġnick":6201,"uman":6202,"Ġfear":6203,"azon":6204,"Ġgrows":6205,"ĠShep":6206,"Ġstandard":6207,"Ġarray":6208,"Ġsuccessfully":6209,"Ġlayers":6210,"ĠAngeles":6211,"Ġhistorical":6212,"Ġcrucial":6213,"Ġmammals":6214,"ses":6215,"enc":6216,"Ġwitness":6217,"Ġped":6218,"tebr":6219,"ari":6220,"Ġconvert":6221,"Ġvast":6222,"Ġfrust":6223,"Ġchance":6224,"Ġparent":6225,"Ġseeing":6226,"Ġdefense":6227,"Ġ90":6228,"ĠGrand":6229,"Ġwooden":6230,"ĠOhio":6231,"ĠHenry":6232,"83":6233,"orage":6234,"itiz":6235,"Ġpiano":6236,"roat":6237,"Ġrot":6238,"ĠGal":6239,"ĠHome":6240,"Ġplatform":6241,"Ġpron":6242,"ĠOs":6243,"Ġacqu":6244,"Ġ32":6245,"Ġlocations":6246,"Ġphil":6247,"Ġsmiling":6248,"Ġproduces":6249,"Ġguid":6250,"Ġpolicy":6251,"ĠAustria":6252,"olly":6253,"Ġfalls":6254,"Ġlaunch":6255,"Ġvolume":6256,"Context":6257,"Ġlibrary":6258,"Ġequivalent":6259,"56":6260,"aled":6261,"have":6262,"lie":6263,"ox":6264,"Ġcases":6265,"Ġcards":6266,"astern":6267,"ĠSur":6268,"ĠBattle":6269,"Ġtherefore":6270,"Ġblond":6271,"ricia":6272,"Ġspecializes":6273,"Ġuseful":6274,"ĠSeason":6275,"Ġstudio":6276,"Ġengaging":6277,"ĠApollo":6278,"Ġdigit":6279,"ĠAtlantic":6280,"Ġmatches":6281,"Ġtroops":6282,"Ġgrocer":6283,"100":6284,"John":6285,"li":6286,"look":6287,"Ġmall":6288,"Ġgain":6289,"Ġrom":6290,"Ġrul":6291,"ĠWay":6292,"ĠFood":6293,"oung":6294,"Ġprest":6295,"Ġalthough":6296,"Ġworry":6297,"Ġapple":6298,"Ġherself":6299,"rupt":6300,"nell":6301,"....":6302,"Ġrequest":6303,"Ġrespons":6304,"ĠParis":6305,"Ġadults":6306,"Ġsubstance":6307,"Ġlimited":6308,"Ġbasic":6309,"Ġecosystem":6310,"Ġdangerous":6311,"\"\"":6312,"Mar":6313,"Sp":6314,"Ġaid":6315,"Ġmys":6316,"arf":6317,"ĠAke":6318,"Ġracing":6319,"rier":6320,"ĠMake":6321,"Ġexchange":6322,"Ġprison":6323,"ĠKay":6324,"Ġroof":6325,"Ġupper":6326,"Ġupcoming":6327,"Ġverifying":6328,"Ġflo":6329,"Ġcollection":6330,"Ġends":6331,"ampion":6332,"Ġslower":6333,"Ġ1634":6334,"ĠChristopher":6335,"Ġwalls":6336,"OT":6337,"Ġtone":6338,"Ġfro":6339,"Ġanticip":6340,"asion":6341,"Ġhun":6342,"Ġhorses":6343,"Ġteen":6344,"ĠEv":6345,"Ġcorner":6346,"ĠĠĠĠ":6347,"aba":6348,"Ġspect":6349,"ĠCons":6350,"ĠAnderson":6351,"NAME":6352,"lessly":6353,"Ġlaun":6354,"ĠSwed":6355,"Ġdisappointed":6356,"Ġlistening":6357,"Ġvegetables":6358,"Ġtraffic":6359,"ENT":6360,"Name":6361,"rig":6362,"rich":6363,"itter":6364,"Ġbillion":6365,"utt":6366,"rible":6367,"ĠJon":6368,"ocking":6369,"Ġmanagement":6370,"ĠChampionship":6371,"Ġ38":6372,"neys":6373,"ĠHello":6374,"Ġknows":6375,"Ġ[-":6376,"Ġfactors":6377,"Ġcreates":6378,"comfort":6379,"Ġdistrib":6380,"Ġannoy":6381,"Ġinjury":6382,"Ġinnov":6383,"Ġinsects":6384,"ĠAkeem":6385,"73":6386,"MA":6387,"je":6388,"Ġfoss":6389,"ouston":6390,"Ġrates":6391,"ĠBest":6392,"ĠBib":6393,"ĠMac":6394,"ĠEvery":6395,"Ġatom":6396,"Ġkore":6397,"Ġcommand":6398,"Ġ48":6399,"Ġcricket":6400,"????":6401,"Ġintegr":6402,"Ġlaws":6403,"ĠCorp":6404,"ĠRegional":6405,"ography":6406,"ĠCharles":6407,"Ġmotorcy":6408,"Ġneighborhood":6409,"eper":6410,"leg":6411,"ĠTree":6412,"olis":6413,"ĠHill":6414,"Ġheight":6415,"ulated":6416,"Ġpriced":6417,"Ġvisited":6418,"Ġkeeps":6419,"Ġdrawing":6420,"Ġpossibly":6421,"Ġkilling":6422,"76":6423,"good":6424,"Ġtight":6425,"Ġfence":6426,"Ġfail":6427,"asy":6428,"lls":6429,"Ġlas":6430,"ĠAut":6431,"Ġrail":6432,"oday":6433,"ĠMah":6434,"Ġshiny":6435,"Ġnotable":6436,"Ġcommer":6437,"Ġseat":6438,"Ġunf":6439,"ours":6440,"Ġ39":6441,"gett":6442,"Ġaircraft":6443,"Ġrepublic":6444,"Ġphrases":6445,"inois":6446,"Ġstrip":6447,"Ġnestled":6448,"ĠSuggested":6449,"FC":6450,"born":6451,"oons":6452,"ship":6453,"rilling":6454,"ĠRyan":6455,"Ġwouldn":6456,"Ġdescribing":6457,"Ġcommas":6458,"Ġmuse":6459,"Ġreligious":6460,"Ġcrime":6461,"Ġpairs":6462,"Ġmenu":6463,"Ġchanging":6464,"ophy":6465,"Ġfurniture":6466,"Ġprestigious":6467,"gium":6468,"Ġ__":6469,"inals":6470,"itan":6471,"itted":6472,"Ġloud":6473,"otion":6474,"Ġeater":6475,"Ġorg":6476,"ĠOur":6477,"ĠYe":6478,"Ġflavor":6479,"eep":6480,"Ġpreserv":6481,"Ġguard":6482,"Ġdownload":6483,"ĠZealand":6484,"ĠUSA":6485,"ĠIsraeli":6486,"43":6487,"hagen":6488,"Ġcm":6489,"Ġfirm":6490,"Ġpush":6491,"Ġmal":6492,"ĠCivil":6493,"Ġnegot":6494,"stream":6495,"ĠRel":6496,"ĠLove":6497,"rity":6498,"Ġclimate":6499,"Ġroots":6500,"Ġ2003":6501,"idsummer":6502,"Ġintric":6503,"Ġmagma":6504,"Ġeducation":6505,"Ġtools":6506,"ĠDonald":6507,"Ġaspects":6508,"Ġexcellent":6509,"Ġpronoun":6510,"Ġfan":6511,"ĠWal":6512,"ĠRad":6513,"ĠNAS":6514,"Ġseed":6515,"Ġbecoming":6516,"Ġworried":6517,"ildren":6518,"Ġscary":6519,"Ġconsists":6520,"poses":6521,"Ġoperation":6522,"Ġtravels":6523,"ĠSteven":6524,"Ġprize":6525,"UM":6526,"gn":6527,"iar":6528,"sm":6529,"Ġwine":6530,"Ġfab":6531,"Ġlux":6532,"aying":6533,"ĠCD":6534,"rip":6535,"Ġconc":6536,"ĠDate":6537,"abeth":6538,"puter":6539,"Ġcarried":6540,"ĠVol":6541,"Ġcharges":6542,"Ġ2002":6543,"ĠCanadian":6544,"ĠNews":6545,"ĠScot":6546,"Ġofficer":6547,"Ġincreasing":6548,"Ġclassified":6549,"ĠWilliams":6550,"Ġbottle":6551,"Ġwestern":6552,"cons":6553,"fall":6554,"rant":6555,"uke":6556,"ateur":6557,"adow":6558,"standing":6559,"ĠJesus":6560,"Ġacce":6561,"Ġflood":6562,"igned":6563,"Ġelectrical":6564,"Ġprotection":6565,"Ġlawn":6566,"Ġabsolute":6567,"Ġbags":6568,"Ġstatue":6569,"Ġpurchase":6570,"ĠJennifer":6571,"hyth":6572,"ĠAcademy":6573,"03":6574,"Was":6575,"bian":6576,"gas":6577,"kr":6578,"kins":6579,"lad":6580,"uf":6581,"ret":6582,"aming":6583,"uries":6584,"ading":6585,"ĠLes":6586,"Ġtrail":6587,"Ġunif":6588,"Ġclick":6589,"assoc":6590,"aska":6591,"Ġscared":6592,"Ġaccused":6593,"Ġindul":6594,"Ġfactually":6595,"Ġinterested":6596,"Ġengaged":6597,"Ġeffective":6598,"Ġidentified":6599,"imbap":6600,"Ġdrinks":6601,"sembly":6602,"ĠThomas":6603,"han":6604,"pool":6605,"Ġfle":6606,"Ġnine":6607,"ĠAL":6608,"ĠSal":6609,"ĠPo":6610,"olved":6611,"Ġsequ":6612,"Ġkiss":6613,"Ġspores":6614,"Ġdatabase":6615,"Ġshower":6616,"Ġcoat":6617,"ĠIsland":6618,"Ġattacks":6619,"ĠiP":6620,"Ġproperty":6621,"Ġsigns":6622,"Ġbush":6623,"Ġexpression":6624,"Ġbelieved":6625,"Ġsteel":6626,"ĠCenter":6627,"Ġsurrounding":6628,"Ġinitial":6629,"ĠService":6630,"ynthia":6631,"ĠShepard":6632,"59":6633,"coh":6634,"ww":6635,"Ġcub":6636,"uster":6637,"ĠSus":6638,"Ġreduce":6639,"Ġstorm":6640,"ĠPower":6641,"Ġneck":6642,"iffer":6643,"antha":6644,"Ġplastic":6645,"eless":6646,"Ġtea":6647,"ĠEven":6648,"izabeth":6649,"Ġyourself":6650,"Ġ37":6651,"Ġresist":6652,"Ġparking":6653,"ĠAlthough":6654,"Ġaddition":6655,"Ġworker":6656,"Ġcheer":6657,"elson":6658,"Ġproteins":6659,"Ġreferred":6660,"Ġsoldier":6661,"Ġmeasures":6662,"Ġremaining":6663,"ĠRecords":6664,"ĠMatthew":6665,"Ġclimbing":6666,"Ġindependent":6667,"Ġpilot":6668,"AY":6669,"En":6670,"US":6671,"how":6672,"Ġfant":6673,"arge":6674,"Ġdom":6675,"ĠSil":6676,"Ġrule":6677,"ĠPan":6678,"ila":6679,"anting":6680,"ĠHunter":6681,"ĠFre":6682,"ĠExt":6683,"Ġcomic":6684,"ĠNations":6685,"Ġrod":6686,"Ġthanks":6687,"Ġmuscle":6688,"Ġdrama":6689,"Ġseek":6690,"Ġmagical":6691,"Ġnetwork":6692,"Short":6693,"Ġspokes":6694,"Ġmanufacturer":6695,"ĠSecretary":6696,"Ġeatery":6697,"Em":6698,"New":6699,"vest":6700,"erals":6701,"Ġdil":6702,"lly":6703,"ĠAward":6704,"ĠCraig":6705,"Ġforgot":6706,"Ġstores":6707,"ĠBank":6708,"ĠMod":6709,"achel":6710,"ĠFire":6711,"ilet":6712,"ĠRequ":6713,"Ġcarries":6714,"Ġexplore":6715,"Ġanimated":6716,"Ġclasses":6717,"Ġorganic":6718,"ackson":6719,"ĠTurk":6720,"Ġexhib":6721,"OCATION":6722,"Ġnervous":6723,"ĠCricketers":6724,"ĠIllinois":6725,"06":6726,"Br":6727,"but":6728,"rough":6729,"Ġtub":6730,"Ġsum":6731,"Ġmad":6732,"Ġhug":6733,"Ġrout":6734,"urd":6735,"select":6736,"ĠDum":6737,"Ġchinese":6738,"Ġchocolate":6739,"ĠLi":6740,"Ġfilter":6741,"Ġfourth":6742,"Ġeste":6743,"Ġadvice":6744,"Ġanalysis":6745,"ĠSteve":6746,"ĠPersonY":6747,"ĠSmith":6748,"Ġceremon":6749,"Ġastronaut":6750,"07":6751,"At":6752,"One":6753,"bar":6754,"ĠAld":6755,"ĠAvailable":6756,"Ġrow":6757,"ĠHmmm":6758,"ĠDNA":6759,"ande":6760,"Ġtrust":6761,"Ġdesert":6762,"inder":6763,"Ġfactory":6764,"phant":6765,"Ġassume":6766,"Ġsits":6767,"Ġmeticul":6768,"Ġintellig":6769,"Ġdestroy":6770,"Ġcandy":6771,"ĠAtlanta":6772,"ĠQueen":6773,"ishes":6774,"ora":6775,"Ġcute":6776,"Ġbound":6777,"Ġbond":6778,"Ġnor":6779,"uses":6780,"antically":6781,"ĠMidsummer":6782,"Ġfrench":6783,"bled":6784,"oves":6785,"Ġprint":6786,"ĠKat":6787,"Ġreserv":6788,"ictures":6789,"Ġadapt":6790,"Ġdiam":6791,"Ġmemory":6792,"Ġseasons":6793,"Ġassociation":6794,"ĠPalestinian":6795,"apsis":6796,"Ġconstant":6797,"rophy":6798,"ĠCouncil":6799,"Ġstomach":6800,"Both":6801,"hd":6802,"hol":6803,"mond":6804,"she":6805,"Ġpurs":6806,"Ġanger":6807,"Ġhorm":6808,"ĠCong":6809,"Ġvoc":6810,"isters":6811,"ĠOcean":6812,"Ġspring":6813,"Ġgrace":6814,"Ġfewer":6815,"ĠKl":6816,"Ġlongest":6817,"ricult":6818,"ĠRemember":6819,"Ġoperations":6820,"Ġsynt":6821,"Ġthousands":6822,"Ġaustral":6823,"Ġtasks":6824,"ĠAssociation":6825,"ĠBibimbap":6826,"gu":6827,"nam":6828,"heart":6829,"erg":6830,"Ġcitiz":6831,"aren":6832,"eder":6833,"Ġnavig":6834,"ctors":6835,"Ġrent":6836,"atell":6837,"ĠHy":6838,"ĠDanish":6839,"Ġcombine":6840,"udden":6841,"Ġmarkets":6842,"Ġportray":6843,"cca":6844,"ĠPatricia":6845,"Ġairplane":6846,"atalie":6847,"VD":6848,"sen":6849,"inst":6850,"Ġcore":6851,"Ġnarr":6852,"Ġbeat":6853,"ĠSir":6854,"ĠPet":6855,"ĠPut":6856,"ulations":6857,"ĠJr":6858,"Ġoutf":6859,"emed":6860,"Ġrose":6861,"Ġequal":6862,"they":6863,"Ġstreets":6864,"ĠCarol":6865,"Ġtwice":6866,"Ġviews":6867,"Ġparticularly":6868,"Ġsecretary":6869,"ĠSenate":6870,"Ġpuzzle":6871,"42":6872,"By":6873,"pan":6874,"taking":6875,"Ġodd":6876,"Ġfaces":6877,"Ġtoward":6878,"Ġinfect":6879,"Ġhide":6880,"Ġhaven":6881,"ĠWall":6882,"ader":6883,"ĠBoston":6884,"ĠGet":6885,"apers":6886,"acle":6887,"ĠLatin":6888,"ĠInter":6889,"ups":6890,"ĠChurch":6891,"alem":6892,"Ġmush":6893,"Ġski":6894,"Ġvalues":6895,"Ġglad":6896,"ĠAmazon":6897,"Ġpretend":6898,"Ġinvolving":6899,"Ġprotest":6900,"Ġwaters":6901,"Ġearned":6902,"Ġliter":6903,"ADER":6904,"Ġcredit":6905,"Ġhungry":6906,"Ġmemorable":6907,"EC":6908,"hal":6909,"Ġintern":6910,"ĠSor":6911,"ĠSant":6912,"Ġstorage":6913,"ĠBakers":6914,"ĠLOCATION":6915,"Ġuncle":6916,"Ġalike":6917,"ĠRev":6918,"Ġfunctions":6919,"Ġpassion":6920,"Reason":6921,"factory":6922,"porary":6923,"Ġalphabet":6924,"openhagen":6925,"ĠLEADER":6926,"Ġlaunched":6927,"Ġmeticulously":6928,"08":6929,"78":6930,"Pr":6931,"made":6932,"Ġsail":6933,"Ġsink":6934,"Ġsty":6935,"Ġvia":6936,"ĠMount":6937,"ĠHonda":6938,"ĠNBA":6939,"ĠLanka":6940,"ĠJew":6941,"ĠVirginia":6942,"Ġsecure":6943,"Ġbreaking":6944,"Ġfixed":6945,"Ġdepending":6946,"Ġmessages":6947,"Ġlogic":6948,"Ġcandid":6949,"Ġsenior":6950,"Ġcreator":6951,"Art":6952,"Ġdiplom":6953,"hythm":6954,"bel":6955,"iately":6956,"jan":6957,"rid":6958,"enge":6959,"rehens":6960,"alse":6961,"Ġdad":6962,"ĠTowns":6963,"Ġgases":6964,"amet":6965,"ĠBake":6966,"ilty":6967,"ifiable":6968,"illar":6969,"Ġtrick":6970,"Ġdetect":6971,"Ġok":6972,"appro":6973,"Ġexpand":6974,"Ġstarring":6975,"Ġschools":6976,"Ġlovely":6977,"Ġ1999":6978,"Ġwindows":6979,"Ġconfident":6980,"Ġtelephone":6981,"ĠElena":6982,"Ġsweat":6983,"Ġentertainment":6984,"Ġkilometers":6985,"Ġpremier":6986,"Ġerrors":6987,"ĠFelicia":6988,"Ġgravity":6989,"ĠCourt":6990,"Mus":6991,"den":6992,"Ġsle":6993,"Ġdessert":6994,"otos":6995,"ĠSom":6996,"ĠParl":6997,"reement":6998,"Ġbrack":6999,"rested":7000,"crete":7001,"Ġ65":7002,"Ġengage":7003,"Ġgenetic":7004,"ATE":7005,"ĠJoel":7006,"Ġvehicles":7007,"Ġsurvive":7008,"ĠInstead":7009,"Ġbritish":7010,"associated":7011,"face":7012,"oke":7013,"het":7014,"heim":7015,"Ġhy":7016,"Ġhom":7017,"ĠAM":7018,"ĠIII":7019,"Ġstadium":7020,"ags":7021,"ĠFall":7022,"ĠOil":7023,"Ġmail":7024,"ĠAdditionally":7025,"Ġwalked":7026,"Ġedge":7027,"Ġ1998":7028,"ĠJustin":7029,"ĠChristine":7030,"ĠJessica":7031,"Ġchemicals":7032,"Ġsurrounded":7033,"fish":7034,"ram":7035,"vo":7036,"Ġcel":7037,"Ġthus":7038,"otal":7039,"ĠWil":7040,"outhe":7041,"Ġ110":7042,"Ġfruits":7043,"star":7044,"ĠEuro":7045,"ĠJane":7046,"udan":7047,"ribute":7048,"Ġ33":7049,"Ġ34":7050,"ĠAlso":7051,"Ġadvert":7052,"aze":7053,"Ġseconds":7054,"Ġjobs":7055,"ĠAbd":7056,"Ġlegisl":7057,"Ġcomputers":7058,"Ġeffects":7059,"ĠRomania":7060,"Ġpreferred":7061,"ĠInstitute":7062,"ras":7063,"Ġtim":7064,"Ġtickets":7065,"inated":7066,"Ġsof":7067,"Ġpants":7068,"Ġmor":7069,"aran":7070,"Ġtower":7071,"entle":7072,"Ġdu":7073,"Ġload":7074,"Ġrib":7075,"ĠRom":7076,"ela":7077,"Ġcorpor":7078,"Ġacids":7079,"Ġblock":7080,"Ġbrand":7081,"Ġlists":7082,"Ġfinds":7083,"Ġformation":7084,"Ġregional":7085,"becca":7086,"ĠPlan":7087,"Ġprofession":7088,"ĠElizabeth":7089,"ĠAngela":7090,"Ġgradu":7091,"Ġviruses":7092,"thesis":7093,"Ġweapons":7094,"Ġfabric":7095,"ID":7096,"OS":7097,"lt":7098,"isp":7099,"Ġfiction":7100,"Ġfoster":7101,"ĠToday":7102,"Ġlabor":7103,"etration":7104,"Ġrisk":7105,"ĠBacon":7106,"umes":7107,"Ġwash":7108,"antic":7109,"ĠNick":7110,"ĠLast":7111,"pth":7112,"ĠJac":7113,"Ġkick":7114,"Ġotherwise":7115,"Ġnearly":7116,"ĠAsk":7117,"ĠConf":7118,"Ġexperiment":7119,"Ġtopics":7120,"Ġinterview":7121,"Ġstudying":7122,"Ġheadqu":7123,"shire":7124,"Ġathlet":7125,"ĠHarry":7126,"Ġraised":7127,"Ġinjured":7128,"Ġscenic":7129,"Ġbutterfly":7130,"Ġchallenges":7131,"Ġdissatisfaction":7132,"Ġtonight":7133,"Ġpulled":7134,"67":7135,"Yes":7136,"draw":7137,"yet":7138,"Ġsat":7139,"Ġsort":7140,"esome":7141,"Ġnic":7142,"Ġham":7143,"Ġgarn":7144,"ĠSomet":7145,"ilation":7146,"Ġconcent":7147,"ĠMont":7148,"ĠHouston":7149,"Ġframe":7150,"Ġheated":7151,"Ġshore":7152,"Ġplates":7153,"arts":7154,"iped":7155,"Ġrope":7156,"icts":7157,"enses":7158,"anco":7159,"Ġvisiting":7160,"verse":7161,"Ġarrive":7162,"Ġ1989":7163,"Ġpencil":7164,"Ġpicked":7165,"Ġurban":7166,"ĠBenjamin":7167,"Complete":7168,"Ġaccomplish":7169,"Ġearthquake":7170,"ĠBakewell":7171,"First":7172,"cking":7173,"cover":7174,"fire":7175,"sy":7176,"zen":7177,"Ġfought":7178,"Ġmature":7179,"Ġdomin":7180,"Ġho":7181,"Ġlacks":7182,"roll":7183,"ĠPenn":7184,"Ġchosen":7185,"Ġunw":7186,"Ġalcoh":7187,"Ġimages":7188,"Ġacts":7189,"Ġsheep":7190,"Ġindia":7191,"Ġguide":7192,"Ġslide":7193,"engers":7194,"Ġprotein":7195,"Ġopera":7196,"Ġjoined":7197,"iscons":7198,"Ġcontributing":7199,"Ġmultiply":7200,"Ġlabel":7201,"ĠBetty":7202,"ĠAlfred":7203,"ĠCreate":7204,"Ġvessels":7205,"ĠAleks":7206,"Ġboring":7207,"arry":7208,"asp":7209,"Ġlapt":7210,"ethe":7211,"Ġrug":7212,"ĠFour":7213,"abel":7214,"Ġprepar":7215,"anya":7216,"Ġrepair":7217,"Ġtrial":7218,"Ġstret":7219,"athemat":7220,"ĠEmily":7221,"Ġcollabor":7222,"Ġsurvival":7223,"Ġcasual":7224,"Ġdegree":7225,"Ġmushroom":7226,"ĠTownship":7227,"isconsin":7228,".'":7229,"EG":7230,"cr":7231,"Ġmood":7232,"Ġdyn":7233,"Ġhate":7234,"ĠTal":7235,"Ġgone":7236,"ĠSand":7237,"ĠBowl":7238,"Ġasleep":7239,"Ġatoms":7240,"ĠNorthern":7241,"ĠOld":7242,"Ġjohn":7243,"Ġsoap":7244,"Ġeats":7245,"awn":7246,"apanese":7247,"Ġdiscussing":7248,"ĠSeries":7249,"ĠTurkey":7250,"Ġimmediately":7251,"ĠDumpling":7252,"(-":7253,"52":7254,"aith":7255,"ca":7256,"gian":7257,"lisher":7258,"erus":7259,"Ġsam":7260,"Ġsudden":7261,"Ġdies":7262,"ĠTor":7263,"Ġlad":7264,"otic":7265,"veland":7266,"ĠBan":7267,"ĠMiddle":7268,"Ġfriction":7269,"andon":7270,"ĠRog":7271,"ĠEth":7272,"Ġmeant":7273,"actically":7274,"ĠThank":7275,"ducing":7276,"Ġapples":7277,"Ġflour":7278,"Ġ42":7279,"Ġtalent":7280,"Ġattended":7281,"ĠArmy":7282,"Ġlowercase":7283,"Ġ1994":7284,"Ġgenus":7285,"domin":7286,"ĠKorean":7287,"Ġcomposer":7288,"washer":7289,"Ġgarage":7290,"Ġrecovery":7291,"Ġpredict":7292,"ĠTechnology":7293,"Ġfertil":7294,"Ġorgans":7295,"ba":7296,"yard":7297,"Ġfict":7298,"Ġdream":7299,"Ġrepe":7300,"opt":7301,"ĠPublic":7302,"ĠGrey":7303,"Ġhero":7304,"Ġnoticed":7305,"Ġunits":7306,"Ġbutton":7307,"Ġhappily":7308,"Ġoverl":7309,"Ġattached":7310,"ocket":7311,"ĠAmy":7312,"Ġsuggested":7313,"Ġwarmth":7314,"Ġepoch":7315,"ĠPortug":7316,"Ġerosion":7317,"Ġpalestinian":7318,"Ġwidely":7319,"Ġoccurred":7320,"Ġappreciate":7321,"ĠMedia":7322,"Ġsemantically":7323,"Ġanalyze":7324,"Ġcommunication":7325,"rafted":7326,"ĠDepartment":7327,"Ġcomponents":7328,"Ġcooperation":7329,"ĠScotland":7330,"--":7331,"63":7332,"98":7333,"Band":7334,"For":7335,"OL":7336,"That":7337,"Ġille":7338,"Ġicon":7339,"Ġinstructions":7340,"icide":7341,"cement":7342,"Ġlosing":7343,"estive":7344,"ĠCynthia":7345,"Ġrou":7346,"igr":7347,"acific":7348,"Ġproposed":7349,"ĠRaj":7350,"ĠFore":7351,"istr":7352,"Ġsomewhere":7353,"ĠStadium":7354,"Ġentities":7355,"Chain":7356,"Ġpassing":7357,"being":7358,"Ġextensive":7359,"Ġmarch":7360,"ĠPrince":7361,"Ġvisitors":7362,"Ġeffectively":7363,"Ġdemand":7364,"Ġdebut":7365,"ĠMuslim":7366,"ĠBelgium":7367,"Ġscheduled":7368,"Ġmuseum":7369,"Ġceremony":7370,"Ġsyntactically":7371,"rehensive":7372,"ĠParliament":7373,"BER":7374,"kin":7375,"rick":7376,"Ġchat":7377,"Ġinqu":7378,"Ġnative":7379,"ĠTheir":7380,"ims":7381,"ĠBase":7382,"ĠRest":7383,"ĠRachel":7384,"Ġkidd":7385,"Ġarrested":7386,"rena":7387,"Ġrelig":7388,"Ġskilled":7389,"Ġguilty":7390,"Ġzone":7391,"Ġreceiving":7392,"Ġadvant":7393,"Ġnumerous":7394,"Ġincorpor":7395,"Ġ1955":7396,"ĠParagraph":7397,"Ġsubstances":7398,"Ġviolence":7399,".)":7400,"71":7401,"lo":7402,"spe":7403,"organ":7404,"Ġcoc":7405,"Ġfailed":7406,"ĠTaste":7407,"ĠSu":7408,"ĠCamp":7409,"ĠCopenhagen":7410,"imet":7411,"aded":7412,"ĠEach":7413,"portant":7414,"Ġpartner":7415,"Ġkeys":7416,"phr":7417,"Ġsupply":7418,"ĠShow":7419,"ĠAbout":7420,"Ġsadness":7421,"ipping":7422,"Ġsucceed":7423,"attering":7424,"ĠDaniel":7425,"Ġoven":7426,"Ġseemed":7427,"Ġcircuit":7428,"Ġairplanes":7429,"Ġumbre":7430,"ĠKenneth":7431,"tebrates":7432,"Ġcommercial":7433,"ifferent":7434,"79":7435,"==":7436,"IR":7437,"Pre":7438,"town":7439,"vi":7440,"Ġcash":7441,"real":7442,"Ġmobile":7443,"ĠTH":7444,"Ġrack":7445,"erse":7446,"Ġstated":7447,"ĠGe":7448,"Ġven":7449,"Ġwashing":7450,"oving":7451,"ĠConnect":7452,"Ġboats":7453,"Ġdiet":7454,"ĠSever":7455,"ĠBrown":7456,"Ġ1960":7457,"Ġwoods":7458,"Ġurged":7459,"Ġphysics":7460,"Ġreactions":7461,"Ġlaughing":7462,"iques":7463,"clusive":7464,"53":7465,"gs":7466,"illow":7467,"power":7468,"tan":7469,"wa":7470,"Ġticket":7471,"enger":7472,"Ġther":7473,"Ġsch":7474,"Ġsac":7475,"ĠType":7476,"ĠAP":7477,"ĠBin":7478,"ĠPen":7479,"odge":7480,"ĠMer":7481,"ieved":7482,"acity":7483,"ĠJackson":7484,"Ġwheel":7485,"Ġaffected":7486,"raid":7487,"Ġhelper":7488,"Ġimportance":7489,"Ġstrings":7490,"Ġcrim":7491,"Ġputs":7492,"ĠLeg":7493,"Ġmemories":7494,"Ġcontainer":7495,"Ġstructures":7496,"Ġtemperatures":7497,"Ġfreed":7498,"Ġmirror":7499,"Americ":7500,"aud":7501,"nel":7502,"pack":7503,"wing":7504,"Ġaqu":7505,"Ġpond":7506,"Ġlie":7507,"Ġreform":7508,"Ġretain":7509,"ĠCast":7510,"Ġstood":7511,"ĠHo":7512,"ĠRoyal":7513,"ĠNelson":7514,"ĠLuc":7515,"ĠInt":7516,"Ġunto":7517,"weight":7518,"Ġclock":7519,"Ġcompounds":7520,"Ġtransform":7521,"Ġrecipe":7522,"Ġsupports":7523,"ĠAbraham":7524,"Ġcontinued":7525,"Ġprogramm":7526,"Ġlayer":7527,"Ġraise":7528,"Ġillust":7529,"Ġdrugs":7530,"Ġ\\$":7531,"Ġhighlights":7532,"Ġbrackets":7533,"Bl":7534,"De":7535,"life":7536,"mail":7537,"oz":7538,"rim":7539,"Ġtv":7540,"Ġcased":7541,"Ġfacing":7542,"arrow":7543,"ĠBav":7544,"Ġnotice":7545,"Ġcomments":7546,"Ġunfor":7547,"Ġaccept":7548,"Ġcompare":7549,"ogs":7550,"ogen":7551,"Ġentail":7552,"atholic":7553,"ĠIsl":7554,"ĠNeil":7555,"Ġsimplify":7556,"Ġinteract":7557,"ĠBlood":7558,"ietnam":7559,"Ġordered":7560,"Ġ1993":7561,"Ġpurple":7562,"ĠDefinitely":7563,"Ġsympt":7564,"Ġdropped":7565,"Implicit":7566,"ĠLawrence":7567,"Ġcabinet":7568,"Ġgrocery":7569,"Ġmotorcycle":7570,"09":7571,"pillar":7572,"uable":7573,"Ġid":7574,"ati":7575,"Ġcock":7576,"Ġpor":7577,"Ġlaz":7578,"aman":7579,"Ġwhom":7580,"ĠPop":7581,"ods":7582,"ilene":7583,"ova":7584,"ĠNiger":7585,"Ġtheme":7586,"Ġblocks":7587,"Ġconserv":7588,"ĠArch":7589,"Ġsupposed":7590,"ĠAfghanistan":7591,"Ġplanned":7592,"Ġ1990":7593,"Ġ1995":7594,"ĠText":7595,"Ġrevolution":7596,"Ġsatisfactory":7597,"Ġjumps":7598,"Ġsafely":7599,"Ġrecorded":7600,"Ġsteam":7601,"watering":7602,"ĠCommission":7603,"Clue":7604,"ĠCleveland":7605,"Ġcrystals":7606,"ĠNASA":7607,"ĠAldrin":7608,"Ġcitizens":7609,"cal":7610,"des":7611,"Ġstem":7612,"Ġwound":7613,"Ġfestival":7614,"Ġthrew":7615,"ĠTenn":7616,"estone":7617,"Ġgal":7618,"oto":7619,"Ġrice":7620,"ĠWisconsin":7621,"ĠDid":7622,"ĠRay":7623,"ĠNatalie":7624,"ĠInf":7625,"Ġdepos":7626,"Ġimple":7627,"ĠStan":7628,"ĠStock":7629,"Ġblend":7630,"ignit":7631,"Ġ44":7632,"Ġbrush":7633,"Ġcreative":7634,"Ġfriendship":7635,"ĠAbilene":7636,"domain":7637,"ĠEnron":7638,"Ġfocused":7639,"EDI":7640,"Ġkidneys":7641,"Ġhistoric":7642,"ĠSummer":7643,"ĠArticle":7644,"Ġemployees":7645,"Ġdisappointment":7646,"Ġhanging":7647,"Ġrapid":7648,"ĠAyam":7649,"ĠLindsey":7650,"Ġwonderful":7651,"ĠPositive":7652,"Ġesteemed":7653,"05":7654,"62":7655,"Rem":7656,"VI":7657,"hr":7658,"jo":7659,"pa":7660,"onym":7661,"itage":7662,"Ġnap":7663,"Ġgentle":7664,"ĠWood":7665,"ĠBee":7666,"appe":7667,"Ġ===":7668,"Ġchampion":7669,"anging":7670,"abama":7671,"ĠKen":7672,"ailand":7673,"ĠReal":7674,"ĠRebecca":7675,"ĠEngine":7676,"Ġeastern":7677,"Ġcalling":7678,"Ġwrest":7679,"Ġdepartment":7680,"ĠOrgan":7681,"Ġcombination":7682,"Ġsurprised":7683,"Ġcopy":7684,"Ġutil":7685,"Ġrussian":7686,"Ġenhance":7687,"Ġcompete":7688,"oscow":7689,"Ġlawyer":7690,"Ġfossil":7691,"hdad":7692,"ĠAbdul":7693,"72":7694,"EO":7695,"\\*":7696,"him":7697,"iary":7698,"pie":7699,"uum":7700,"Ġbid":7701,"Ġbands":7702,"ĠTake":7703,"ĠSix":7704,"Ġfoods":7705,"hess":7706,"reek":7707,"Ġresidents":7708,"obl":7709,"Ġcrew":7710,"ĠDeath":7711,"ommod":7712,"Ġharder":7713,"Ġprofit":7714,"Ġdishwasher":7715,"Ġsmoke":7716,"Ġcombined":7717,"ĠMegan":7718,"ĠPoland":7719,"Ġparticipate":7720,"Ġparticipating":7721,"ĠUpdate":7722,"Ġ\\*":7723,"Ġadministration":7724,"Ġmillions":7725,"ĠIrish":7726,"Ġcontrovers":7727,"atellite":7728,"Ġfictional":7729,"onia":7730,"Ġfing":7731,"Ġmit":7732,"alog":7733,"omy":7734,"under":7735,"agers":7736,"ĠHal":7737,"Ġchlor":7738,"ĠNFL":7739,"Ġench":7740,"jective":7741,"Ġaccommod":7742,"Ġrelief":7743,"Ġ75":7744,"Ġappoint":7745,"ĠPrem":7746,"Ġhandle":7747,"ĠBarack":7748,"Ġpasta":7749,"ĠAcura":7750,"ĠPolish":7751,"Ġcouncil":7752,"Ġreproduction":7753,"Ġsettle":7754,"Ġtitles":7755,"Ġisraeli":7756,"works":7757,"ĠCharlie":7758,"ĠDistrict":7759,"Ġnickname":7760,"Hamster":7761,"bra":7762,"Ġtheater":7763,"Ġcovers":7764,"Ġpump":7765,"aracter":7766,"Ġlin":7767,"ĠCall":7768,"ĠWhe":7769,"ĠBBC":7770,"oline":7771,"Ġheating":7772,"ĠFull":7773,"ĠEs":7774,"Ġalive":7775,"Ġcomplet":7776,"iously":7777,"Ġpublisher":7778,"Ġexpans":7779,"Ġpotato":7780,"Ġballs":7781,"Ġ1980":7782,"Ġescape":7783,"Ġadvance":7784,"Ġtreats":7785,"Ġleadership":7786,"ĠassociatedBand":7787,"Ġcontribute":7788,"Ġharmful":7789,"Ġpackage":7790,"Ġhydrogen":7791,"Ġconsistently":7792,"Ġaimed":7793,"Ġopportunity":7794,"Artist":7795,"Ġlaptop":7796,"Ġkiddo":7797,"bow":7798,"sure":7799,"Ġ;":7800,"Ġsoup":7801,"iter":7802,"eded":7803,"Ġlift":7804,"Ġlisted":7805,"igare":7806,"ĠBoy":7807,"Ġvary":7808,"ĠHave":7809,"ĠHard":7810,"eling":7811,"oven":7812,"Ġcorn":7813,"Ġgrade":7814,"Ġ54":7815,"Ġcompar":7816,"Ġapolog":7817,"icalArtist":7818,"issipp":7819,"ĠArgent":7820,"Ġstrict":7821,"ĠDec":7822,"ylvan":7823,"Ġorganized":7824,"Ġannual":7825,"ĠCrisis":7826,"Ġsmoking":7827,"celona":7828,"sterdam":7829,"Ġamidst":7830,"MusicalArtist":7831,"associatedMusicalArtist":7832,"ĠBinignit":7833,"issippi":7834,"04":7835,"91":7836,"mented":7837,"Ġsust":7838,"oris":7839,"orough":7840,"Ġpa":7841,"Ġanx":7842,"Ġgeor":7843,"osm":7844,"riage":7845,"Ġstyl":7846,"Ġasian":7847,"ĠHam":7848,"Ġprop":7849,"Ġhearing":7850,"ĠDick":7851,"Ġchrom":7852,"Ġchannel":7853,"Ġjan":7854,"aval":7855,"ĠKim":7856,"Ġroles":7857,"ruption":7858,"Ġagent":7859,"Ġsuff":7860,"ensus":7861,"urname":7862,"Ġexplor":7863,"Ġinputs":7864,"Ġministry":7865,"Ġdivided":7866,"ynthesis":7867,"Ġ1963":7868,"Ġrecommendation":7869,"Ġenvironmental":7870,"Ġiran":7871,"ĠChemical":7872,"Ġinfluence":7873,"Ġcomposed":7874,"Ġaccomplished":7875,"Ġsilver":7876,"Ġshelter":7877,"ĠTurner":7878,"Ġtissue":7879,"ION":7880,"cat":7881,"fied":7882,"rup":7883,"Ġwore":7884,"Ġfu":7885,"Ġfart":7886,"Ġislands":7887,"ĠAston":7888,"Ġgrew":7889,"Ġfort":7890,"urse":7891,"vey":7892,"ĠBag":7893,"Ġshirts":7894,"ĠDie":7895,"ĠFar":7896,"Ġchances":7897,"Ġpredomin":7898,"Ġ300":7899,"Ġdisag":7900,"Ġblues":7901,"ception":7902,"ĠAddis":7903,"Ġending":7904,"ĠWeb":7905,"Ġenglish":7906,"enew":7907,"Ġcouch":7908,"Ġindustrial":7909,"Ġstrengthen":7910,"Ġkilometres":7911,"Ġemergency":7912,"Ġalleged":7913,"Ġelectronic":7914,"Ġreligion":7915,"Per":7916,"burn":7917,"lines":7918,"vin":7919,"Ġtun":7920,"atre":7921,"oured":7922,"Ġdense":7923,"Ġhyp":7924,"ĠCard":7925,"Ġwithdraw":7926,"ifts":7927,"Ġvent":7928,"Ġvow":7929,"ĠHol":7930,"Ġheav":7931,"ĠDVD":7932,"ĠLogan":7933,"Ġjew":7934,"ĠStat":7935,"Ġwhereas":7936,"Ġbrows":7937,"ĠArg":7938,"Ġboasting":7939,"Ġcrust":7940,"Ġkinds":7941,"ĠAbaba":7942,"Ġbusinesses":7943,"Ġperfectly":7944,"ĠFlint":7945,"ART":7946,"Ġcycl":7947,"ĠRepresent":7948,"Ġreaching":7949,"Ġpreferences":7950,"Ġassistant":7951,"Ġmoist":7952,"rento":7953,"ĠSorrento":7954,"Ab":7955,"Cor":7956,"UN":7957,"some":7958,"win":7959,"Ġowl":7960,"Ġtits":7961,"Ġble":7962,"Ġbooking":7963,"Ġtodd":7964,"icial":7965,"Ġhidden":7966,"Ġgall":7967,"osted":7968,"Ġforth":7969,"asters":7970,"Ġmaxim":7971,"embers":7972,"Ġverifiable":7973,"them":7974,"Ġregions":7975,"Ġlights":7976,"Ġmedal":7977,"Ġretail":7978,"Ġyounger":7979,"Ġcostume":7980,"Ġcooked":7981,"Ġlaying":7982,"ĠCheck":7983,"Ġharmon":7984,"addy":7985,"ĠBuzz":7986,"Ġloving":7987,"Ġgradually":7988,"Ġrecognize":7989,"Ġinstruments":7990,"Ġenthusiasts":7991,"Ġgymn":7992,"Ġbattery":7993,"gettable":7994,"ylvania":7995,"SE":7996,"Sc":7997,"iac":7998,"rate":7999,"Ġwake":8000,"Ġcher":8001,"Ġfaced":8002,"Ġdan":8003,"Ġinner":8004,"icop":8005,"Ġnurs":8006,"Ġhub":8007,"ĠTem":8008,"ctional":8009,"ĠSquare":8010,"ĠCategory":8011,"ĠWin":8012,"Ġconsequ":8013,"ĠRib":8014,"elines":8015,"ĠLife":8016,"Ġliber":8017,"arters":8018,"Ġaren":8019,"Ġeaten":8020,"Ġcommander":8021,"ĠAlaska":8022,"Ġshoulder":8023,"Ġ64":8024,"Ġassess":8025,"tonym":8026,"Ġclassify":8027,"Ġinches":8028,"Ġpromote":8029,"Ġfields":8030,"Ġpenyet":8031,"ĠMeeting":8032,"Ġprojects":8033,"Ġpossess":8034,"ĠPersonX":8035,"Ġteaching":8036,"hyd":8037,"long":8038,"miss":8039,"zing":8040,"Ġflex":8041,"omer":8042,"Ġhoney":8043,"ĠTimes":8044,"ĠTaiwan":8045,"Ġeu":8046,"Ġrare":8047,"ĠBal":8048,"ĠBible":8049,"ĠBook":8050,"choices":8051,"Ġvit":8052,"ĠMend":8053,"Ġpropos":8054,"ĠRo":8055,"ocked":8056,"ĠYear":8057,"ĠThus":8058,"abs":8059,"Ġworse":8060,"Ġ46":8061,"creen":8062,"Ġexperts":8063,"Ġpoet":8064,"Ġvaluable":8065,"rosc":8066,"Ġelim":8067,"Ġmagic":8068,"ĠEnter":8069,"Ġstaying":8070,"Ġpreviously":8071,"Ġpaying":8072,"Ġcircle":8073,"ĠSamuel":8074,"ĠRomanian":8075,"Ġconveys":8076,"Ġhopes":8077,"Ġevaluate":8078,"Ġterritory":8079,"Ġinnovative":8080,":\"":8081,"IF":8082,"rina":8083,"sid":8084,"Ġtough":8085,"Ġsilly":8086,"Ġmart":8087,"estial":8088,"Ġbees":8089,"ĠDennis":8090,"ulin":8091,"Ġweak":8092,"Ġ..":8093,"Ġenem":8094,"claim":8095,"Ġsole":8096,"Ġrode":8097,"Ġsolo":8098,"elly":8099,"Ġdrag":8100,"Ġboost":8101,"Ġminerals":8102,"Ġintended":8103,"Ġlively":8104,"Ġexamples":8105,"ĠEnd":8106,"Ġ1970":8107,"Ġspeaker":8108,"ĠWestern":8109,"ĠMexican":8110,"Ġaccidentally":8111,"Ġhonor":8112,"Ġskillfully":8113,"Ġjeans":8114,"ĠBavarian":8115,"cut":8116,"kil":8117,"Ġ|":8118,"Ġtap":8119,"Ġtables":8120,"Ġfalse":8121,"Ġmouse":8122,"Ġtoilet":8123,"Ġholes":8124,"ĠSy":8125,"Ġreduced":8126,"ĠCould":8127,"Ġtricks":8128,"Ġpray":8129,"Ġclim":8130,"Ġ500":8131,"berry":8132,"ĠStation":8133,"ĠStud":8134,"Ġagricult":8135,"Ġsadly":8136,"ernal":8137,"Ġ250":8138,"Ġcompetitive":8139,"Ġmassive":8140,"Ġbreathe":8141,"Ġimprovement":8142,"ĠMusic":8143,"ĠMississippi":8144,"Ġqueen":8145,"ĠSubtract":8146,"ĠGovernment":8147,"Ġpudding":8148,"ĠKayla":8149,"Ġintelligence":8150,"ipl":8151,"rus":8152,"uh":8153,"Ġwid":8154,"itis":8155,"Ġdraft":8156,"icate":8157,"lying":8158,"ĠCO":8159,"Ġconsec":8160,"ĠMot":8161,"Ġproceed":8162,"ĠRandy":8163,"oviet":8164,"active":8165,"this":8166,"ĠThree":8167,"Ġcarpet":8168,"ĠAlabama":8169,"ĠVer":8170,"Ġamateur":8171,"ĠNegative":8172,"Ġprocesses":8173,"Ġinsurance":8174,"Ġsupported":8175,"Ġsurger":8176,"Ġrefr":8177,"Ġdepend":8178,"Ġboxes":8179,"Ġpracticing":8180,"ĠAarhus":8181,"ĠSamantha":8182,"ĠNationality":8183,"Ġillness":8184,"Ġconsumption":8185,"Ġfeedback":8186,"ĠLeslie":8187,"IL":8188,"ROU":8189,"pop":8190,"worms":8191,"Ġsession":8192,"Ġmold":8193,"Ġdensity":8194,"owe":8195,"ĠSC":8196,"Ġyork":8197,"quality":8198,"Ġreality":8199,"ĠCap":8200,"umph":8201,"ĠHaw":8202,"acc":8203,"ĠDun":8204,"ĠLas":8205,"Ġtruth":8206,"Ġprinc":8207,"Ġsperm":8208,"Ġmakeup":8209,"ĠRebell":8210,"Ġgoods":8211,"Ġblow":8212,"Ġevolution":8213,"Ġdifferently":8214,"Ġenjoys":8215,"Ġstandards":8216,"Ġretired":8217,"Ġpotatoes":8218,"ĠAmsterdam":8219,"Ġpainted":8220,"errick":8221,"mingham":8222,"Trans":8223,"Ġdiscussion":8224,"Ġfocusing":8225,"Ġ):":8226,"Ġinvestment":8227,"Ġgolden":8228,"Ġpancre":8229,"ĠWithout":8230,"Ġexpectations":8231,"Ġcommitment":8232,"ĠDemocratic":8233,"Ġrussia":8234,"Ġbreathtaking":8235,"Origin":8236,"Ġrubber":8237,"ĠElliot":8238,"Ġintricate":8239,"ĠKlink":8240,"Ġcelestial":8241,"Ġalcohol":8242,"51":8243,"87":8244,"Return":8245,"family":8246,"hai":8247,"iop":8248,"rance":8249,"Ġcigare":8250,"Ġdut":8251,"ĠTry":8252,"Ġrival":8253,"Ġstunning":8254,"keep":8255,"ĠBab":8256,"ĠBird":8257,"ĠMen":8258,"ĠMid":8259,"ĠErin":8260,"ĠNative":8261,"Ġcontest":8262,"ression":8263,"Ġactively":8264,"Ġarticles":8265,"ĠConference":8266,"Ġadjust":8267,"Ġjoint":8268,"Ġdigital":8269,"Ġwelcome":8270,"Ġappreciation":8271,"ITY":8272,"ĠJeffrey":8273,"Ġtitled":8274,"anchester":8275,"Ġ____":8276,"Ġindulge":8277,"93":8278,"BS":8279,"gie":8280,"has":8281,"rome":8282,"sylvania":8283,"Ġsod":8284,"Ġborrow":8285,"ione":8286,"Ġdent":8287,"ĠCow":8288,"Ġstored":8289,"aping":8290,"ĠDave":8291,"ĠRon":8292,"ĠRoad":8293,"ĠFamily":8294,"Ġselected":8295,"Ġlies":8296,"class":8297,"Ġpersonality":8298,"Ġbull":8299,"Ġcapacity":8300,"Ġfungi":8301,"ĠAsam":8302,"Ġcollected":8303,"ĠComputer":8304,"ampshire":8305,"Ġpassengers":8306,"Ġrequests":8307,"Ġperformances":8308,"ungle":8309,"Ġsociety":8310,"Ġ1997":8311,"Ġconfidence":8312,"Ġ1984":8313,"Ġ1987":8314,"Ġcontinent":8315,"Ġuh":8316,"Ġsearching":8317,"scale":8318,"ijing":8319,"ĠCharacter":8320,"Ġchallenging":8321,"Ġelevation":8322,"Ġpatterns":8323,"Ġchoosing":8324,"Ġhabitat":8325,"ĠAleksand":8326,"Ġlazy":8327,"oblanco":8328,"ĠRebellion":8329,"61":8330,"Big":8331,"IP":8332,"bee":8333,"ko":8334,"Ġax":8335,"Ġwings":8336,"Ġmine":8337,"Ġinfl":8338,"icted":8339,"ĠTre":8340,"ĠAvenue":8341,"Ġrides":8342,"Ġforget":8343,"ril":8344,"ĠPictures":8345,"antry":8346,"Ġdesire":8347,"Ġpep":8348,"Ġmanner":8349,"Ġoutcome":8350,"Ġopens":8351,"ressed":8352,"Ġcaptain":8353,"Ġbranch":8354,"Ġentered":8355,"Ġchef":8356,"there":8357,"Ġtries":8358,"Ġelephant":8359,"Ġcurious":8360,"oftware":8361,"Ġsupporting":8362,"Ġclubs":8363,"ĠIraqi":8364,"Ġinvestors":8365,"Ġfigures":8366,"ĠDancer":8367,"kyo":8368,"ĠFrancisco":8369,"Ġuniform":8370,"ĠRoger":8371,")\"":8372,"Not":8373,"bal":8374,"pers":8375,"sur":8376,"two":8377,"Ġtail":8378,"incess":8379,"Ġbin":8380,"Ġboo":8381,"Ġmud":8382,"Ġtooth":8383,"Ġnarrow":8384,"ĠAT":8385,"roid":8386,"osh":8387,"Ġrising":8388,"uts":8389,"herent":8390,"Ġconclusion":8391,"teries":8392,"hattan":8393,"ĠLook":8394,"Ġplayful":8395,"ĠAna":8396,"athan":8397,"ricane":8398,"Ġchecking":8399,"Ġdefin":8400,"Ġminor":8401,"Ġmissed":8402,"ĠClinton":8403,"Ġbreaks":8404,"plicity":8405,"Ġpurposes":8406,"Ġtreas":8407,"ĠdeathPlace":8408,"Ġyeah":8409,"Ġavo":8410,"Ġtourists":8411,"Ġscenario":8412,"regon":8413,"Ġsexual":8414,"Ġapplying":8415,"Ġelegant":8416,"Ġillegal":8417,"Ġunforgettable":8418,"02":8419,"Prop":8420,"lah":8421,"whel":8422,"yond":8423,"Ġtheory":8424,"Ġsoph":8425,"Ġmes":8426,"Ġmommy":8427,"ĠTer":8428,"Ġears":8429,"quer":8430,"ĠWor":8431,"ĠWork":8432,"ĠManchester":8433,"Ġplot":8434,"ĠDisc":8435,"Ġnotes":8436,"ĠOregon":8437,"Ġjail":8438,"Ġpregn":8439,"Ġhelmet":8440,"Ġthrowing":8441,"Ġpole":8442,"aug":8443,"Ġvisual":8444,"Ġzoo":8445,"Ġorganiz":8446,"Ġ1996":8447,"Ġsuggesting":8448,"uffy":8449,"Ġbelief":8450,"Ġurine":8451,"Ġmachines":8452,"ĠSerie":8453,"Ġphotosynthesis":8454,"glasses":8455,"Ġprecise":8456,"ĠAjoblanco":8457,"Ġpleasant":8458,"Ġeagerly":8459,"jected":8460,"Ġkorea":8461,"Ġdilig":8462,"Ġfreedom":8463,"Ġsurgery":8464,"Ad":8465,"bro":8466,"ele":8467,"las":8468,"matic":8469,"rad":8470,"Ġ%":8471,"Ġtie":8472,"Ġtrib":8473,"Ġaer":8474,"onic":8475,"Ġfusion":8476,"tell":8477,"ĠIT":8478,"ĠSum":8479,"ateful":8480,"unte":8481,"Ġfold":8482,"Ġsticks":8483,"ĠPunter":8484,"ĠGi":8485,"ĠDub":8486,"illing":8487,"about":8488,"Ġacknow":8489,"Ġoffensive":8490,"Ġparties":8491,"Ġemp":8492,"ells":8493,"Ġcolumn":8494,"Ġsimplicity":8495,"aha":8496,"expected":8497,"Ġsites":8498,"Ġworldwide":8499,"Ġ1986":8500,"Ġtreated":8501,"Ġrepresented":8502,"Ġmoments":8503,"Ġsevere":8504,"ORD":8505,"ĠDavis":8506,"Ġdiseases":8507,"Ġdocuments":8508,"Ġproudly":8509,"Ġconfirmed":8510,"ĠSecurity":8511,"Ġschedule":8512,"Ġafrican":8513,"Ġoutfit":8514,"ĠCarolina":8515,"Ġcompletion":8516,"Ġconsecutive":8517,"bury":8518,"worth":8519,"Ġions":8520,"hem":8521,"Ġfired":8522,"Ġbone":8523,"arks":8524,"Ġdur":8525,"ashed":8526,"ĠTag":8527,"ami":8528,"ĠBat":8529,"ĠFederal":8530,"abwe":8531,"abilities":8532,"Ġcomprehensive":8533,"0000":8534,"ĠIsn":8535,"Ġsongwriter":8536,"ĠSky":8537,"Ġclosest":8538,"imbabwe":8539,"Ġradiation":8540,"Ġcontributed":8541,"Ġmicroph":8542,"Ġcartoon":8543,"Ġrecognized":8544,"Ġamerica":8545,"Ġsettings":8546,"ĠMajor":8547,"Ġsuffering":8548,"American":8549,"Ġtoddler":8550,"Since":8551,"gt":8552,"hop":8553,"maker":8554,"aters":8555,"Ġwax":8556,"Ġca":8557,"Ġchess":8558,"ĠAz":8559,"iders":8560,"ĠSaint":8561,"ira":8562,"Ġrenew":8563,"Ġongoing":8564,"Ġstability":8565,"ĠGirl":8566,"umpt":8567,"ĠHampshire":8568,"Ġprosec":8569,"ĠFun":8570,"Ġseam":8571,"Ġpositions":8572,"Ġkin":8573,"ĠOw":8574,"Ġalma":8575,"Ġafraid":8576,"Ġresear":8577,"aturally":8578,"aws":8579,"Ġobs":8580,"Ġwallet":8581,"ĠBeach":8582,"Ġowns":8583,"Ġsnack":8584,"Ġdeveloping":8585,"Ġrecords":8586,"Ġrelationships":8587,"Ġwatches":8588,"ĠBilly":8589,"Ġvacuum":8590,"Ġreproduce":8591,"Ġshoot":8592,"ĠBirmingham":8593,"ACE":8594,"ĠAccording":8595,"ĠCongress":8596,"appropriate":8597,"Ġsophistic":8598,":-":8599,"Ap":8600,"BQ":8601,"EW":8602,"REDI":8603,"run":8604,"reams":8605,"Ġpakistan":8606,"ĠTL":8607,"estine":8608,"Ġgest":8609,"roc":8610,"osl":8611,"osn":8612,"iratory":8613,"ĠGen":8614,"ĠMoon":8615,"acles":8616,"Ġfrance":8617,"ĠDLL":8618,"ĠLoyal":8619,"ocation":8620,"ansas":8621,"ĠOxygen":8622,"Ġspray":8623,"ĠUkr":8624,"Ġimag":8625,"ĠChin":8626,"ĠChief":8627,"Ġoh":8628,"Ġsummit":8629,"Ġcountryside":8630,"Ġsets":8631,"Ġdefinitely":8632,"ĠExplanation":8633,"Ġfixing":8634,"Ġpretends":8635,"Ġwarming":8636,"Ġlinguistic":8637,"ocracy":8638,"Ġawesome":8639,"Ġbenefit":8640,"chers":8641,"Ġjuice":8642,"Ġpunish":8643,"ĠSusan":8644,"ĠRequest":8645,"Ġfingers":8646,"IG":8647,"away":8648,"free":8649,"grity":8650,"aning":8651,"leton":8652,"Ġmixt":8653,"Ġinference":8654,"owder":8655,"aya":8656,"ĠPM":8657,"ĠHung":8658,"andom":8659,"aining":8660,"Ġseats":8661,"Ġtruly":8662,"allas":8663,"Ġgray":8664,"Ġworst":8665,"Ġresting":8666,"tood":8667,"new":8668,"Ġchest":8669,"Ġattending":8670,"Ġmyself":8671,"Ġexplains":8672,"Ġstrange":8673,"Character":8674,"Ġhomework":8675,"Ġsung":8676,"Ġelectrons":8677,"vailability":8678,"ropical":8679,"Ġcolored":8680,"Ġoperated":8681,"ĠColomb":8682,"Ġdiscussed":8683,"Ġtechniques":8684,"abbit":8685,"AGE":8686,"ollywood":8687,"ĠSweden":8688,"Ġadvantage":8689,"Ġumbrella":8690,"Premise":8691,"Ġenchanting":8692,"Ġrefriger":8693,"Propose":8694,"REDIENT":8695,"86":8696,"Event":8697,"UB":8698,"Year":8699,"bed":8700,"point":8701,"rum":8702,"sol":8703,"tes":8704,"Ġaired":8705,"Ġfaith":8706,"tein":8707,"Ġmich":8708,"Ġdoub":8709,"icoff":8710,"icien":8711,"otton":8712,"ĠWee":8713,"ĠBul":8714,"ĠMatt":8715,"ĠKe":8716,"Ġhelicop":8717,"Ġ41":8718,"Ġembr":8719,"Ġsupplies":8720,"Ġfoundation":8721,"aware":8722,"comics":8723,"vention":8724,"enez":8725,"Ġarrange":8726,"ductive":8727,"borne":8728,"!!!":8729,"ĠBuilding":8730,"Ġscientist":8731,"ĠSingle":8732,"ĠPerform":8733,"burgh":8734,"ĠMadison":8735,"Ġexecutive":8736,"Ġscrumpt":8737,"ĠOffice":8738,"Ġfrequency":8739,"ĠScottish":8740,"Ġmechanical":8741,"ĠProvide":8742,"ĠAjax":8743,"comfortable":8744,"ĠEngineering":8745,"ĠArgument":8746,"Ġscrumptious":8747,"//":8748,"74":8749,"82":8750,"92":8751,"96":8752,"big":8753,"do":8754,"sal":8755,"xic":8756,"Ġsurname":8757,"itu":8758,"Ġbass":8759,"Ġbubb":8760,"Ġdim":8761,"Ġthy":8762,"ĠWars":8763,"Ġstays":8764,"ĠBas":8765,"ĠBath":8766,"uming":8767,"ounter":8768,"Ġchrist":8769,"Ġspr":8770,"Ġgrat":8771,"inding":8772,"ĠKate":8773,"oga":8774,"obby":8775,"Ġshed":8776,"Ġcapable":8777,"Ġtransm":8778,"derstood":8779,"gram":8780,"Ġassass":8781,"Ġhumor":8782,"ĠBlues":8783,"ĠPlants":8784,"Ġowners":8785,"Ġintegrity":8786,"Ġstayed":8787,"Ġbelieves":8788,"Ġpenetration":8789,"Ġpeaceful":8790,"ĠAgnes":8791,"Ġpollen":8792,"Ġrelaxing":8793,"Ġburned":8794,"Ġinjuries":8795,"Ġgathering":8796,"Ġshoe":8797,"Ġpushing":8798,"Ġpushed":8799,"Ġgracefully":8800,"Ġportrayed":8801,"erusalem":8802,"ĠRibicoff":8803,"54":8804,"81":8805,"://":8806,"ais":8807,"dis":8808,"file":8809,"makers":8810,"ui":8811,"ashes":8812,"ĠAff":8813,"ĠAwards":8814,"imals":8815,"Ġcontem":8816,"Ġvital":8817,"Ġpros":8818,"stra":8819,"ĠFred":8820,"Ġmex":8821,"Ġsection":8822,"ĠLittle":8823,"Ġrelieved":8824,"Ġmarks":8825,"Ġclassic":8826,"Ġballoon":8827,"Ġartists":8828,"Ġ1981":8829,"Ġalongside":8830,"ĠAccess":8831,"Ġsuccessor":8832,"Ġadvanced":8833,"ttp":8834,"escription":8835,"Ġclaims":8836,"Ġburning":8837,"Ġprobability":8838,"PersonX":8839,"Ġperspect":8840,"Ġcontrad":8841,"ĠDirect":8842,"Ġextremely":8843,"Ġspokesman":8844,"ĠTurkish":8845,"Ġpancreas":8846,"\").":8847,"high":8848,"iating":8849,"multi":8850,"rates":8851,"vy":8852,"war":8853,"Ġtor":8854,"inity":8855,"Ġsending":8856,"atically":8857,"oral":8858,"Ġcrop":8859,"Ġbanks":8860,"ionico":8861,"aron":8862,"ANG":8863,"Ġgerm":8864,"ĠSa":8865,"ĠSudan":8866,"ĠCost":8867,"ĠBang":8868,"olk":8869,"essee":8870,"ando":8871,"ovie":8872,"ĠEp":8873,"Ġdepth":8874,"Ġ51":8875,"Ġox":8876,"ĠUnder":8877,"ĠAny":8878,"Ġcommission":8879,"Ġbuck":8880,"Ġfunctional":8881,"Ġintact":8882,"Ġengines":8883,"Ġtesting":8884,"Ġ1967":8885,"Ġauthority":8886,"Ġmotiv":8887,"Ġvideos":8888,"Ġscientists":8889,"ĠRepublican":8890,"Ġbenefits":8891,"Ġorbital":8892,"Ġexplicitly":8893,"Ġunlikely":8894,"Ġplausible":8895,"Ġannoyed":8896,"Ġheadquarters":8897,"ĠPennsylvania":8898,"Ġstylistic":8899,"lahoma":8900,"):":8901,"Has":8902,"XX":8903,"aire":8904,"drop":8905,"jji":8906,"zym":8907,"Ġsaved":8908,"Ġsatellite":8909,"Ġpic":8910,"Ġbra":8911,"Ġlos":8912,"usted":8913,"iden":8914,"osomes":8915,"Ġrac":8916,"ĠWiz":8917,"ĠWinter":8918,"Ġstain":8919,"ĠBad":8920,"ĠPacific":8921,"Ġcongress":8922,"Ġfrag":8923,"Ġcomed":8924,"ĠInformation":8925,"angers":8926,"Ġoppon":8927,"ĠVi":8928,"Ġbrings":8929,"Ġfilmed":8930,"Ġguest":8931,"Ġconcluded":8932,"Ġ103":8933,"Ġcharacteristics":8934,"Ġ1991":8935,"shot":8936,"ushi":8937,"ĠTele":8938,"Ġhoriz":8939,"Ġcombining":8940,"Ġstrike":8941,"Ġbrothers":8942,"Ġsuspected":8943,"ĠAIDS":8944,"ĠAlbany":8945,"ĠSpecial":8946,"Ġvolcano":8947,"ĠSocial":8948,"outheast":8949,"Ġfostering":8950,"Ġcomparison":8951,"Ġmicrophone":8952,"PS":8953,"nie":8954,"tage":8955,"uy":8956,"eren":8957,"Ġsin":8958,"Ġbonds":8959,"Ġnomin":8960,"Ġein":8961,"ĠSouthern":8962,"ĠCL":8963,"Ġforever":8964,"ĠBack":8965,"ĠBande":8966,"ĠDerrick":8967,"ĠFill":8968,"eline":8969,"icht":8970,"Ġuniverse":8971,"Ġworn":8972,"Ġcompound":8973,"Ġheritage":8974,"Ġspecify":8975,"Ġnewly":8976,"Ġflash":8977,"Ġcaring":8978,"ĠAlp":8979,"Ġcharged":8980,"Ġdifferences":8981,"Ġreliable":8982,"Ġcrash":8983,"position":8984,"Ġinvent":8985,"Ġinvited":8986,"Ġunderwater":8987,"Ġintense":8988,"Ġfamiliar":8989,"Ġcontained":8990,"Ġreturning":8991,"Ġhearts":8992,"Therefore":8993,"Ġfocuses":8994,"Ġabsor":8995,"Ġdevices":8996,"Ġbasis":8997,"Ġchallenge":8998,"Ġfacilities":8999,"Ġentertaining":9000,"Ġfreezing":9001,"Ġarchitecture":9002,"iciency":9003,"comicsCharacter":9004,"64":9005,"CC":9006,"DA":9007,"Number":9008,"cas":9009,"lation":9010,"mill":9011,"ua":9012,"uj":9013,"uz":9014,"Ġtent":9015,"Ġties":9016,"Ġwins":9017,"Ġfinger":9018,"Ġpocket":9019,"Ġlens":9020,"Ġgast":9021,"ĠCuisine":9022,"Ġstable":9023,"ĠGer":9024,"sters":9025,"Ġdoctors":9026,"ĠReturn":9027,"ĠOcc":9028,"Ġnoise":9029,"asser":9030,"Ġadds":9031,"ificent":9032,"ĠConcept":9033,"Ġrecording":9034,"Ġpoker":9035,"ĠTrane":9036,"Ġpasses":9037,"Ġgovernor":9038,"Ġswitch":9039,"Ġclosely":9040,"Ġtowel":9041,"Ġopinions":9042,"Ġtemple":9043,"ĠFormer":9044,"ĠCarrie":9045,"Ġimproved":9046,"Ġdamaged":9047,"Ġflowering":9048,"Ġachieved":9049,"ĠFinally":9050,"Ġroller":9051,"Ġrebel":9052,"Ġobserved":9053,"ĠBella":9054,"Ġdegrees":9055,"Ġinspired":9056,"Ġinvestigation":9057,"Ġsharp":9058,"Ġbeside":9059,"front":9060,"Ġvocal":9061,"ĠBandeja":9062,"Your":9063,"his":9064,"Ġsons":9065,"Ġcave":9066,"Ġthrilling":9067,"icut":9068,"Ġnit":9069,"Ġgear":9070,"lyn":9071,"Ġquit":9072,"ĠBionico":9073,"ĠPotter":9074,"ĠHor":9075,"ĠDou":9076,"ĠFountain":9077,"ĠEmp":9078,"ĠNone":9079,"ĠNear":9080,"auses":9081,"Ġunexpected":9082,"ĠKyle":9083,"ĠStand":9084,"Ġ1918":9085,"rait":9086,"Ġoptim":9087,"Ġsuicide":9088,"Ġparas":9089,"Ġsmiles":9090,"Ġarts":9091,"Ġcoord":9092,"Ġcoeff":9093,"Ġcoherent":9094,"Ġsubsid":9095,"Ġmusicians":9096,"ibilities":9097,"complete":9098,"Ġsunglasses":9099,"Ġelected":9100,"Ġmembr":9101,"erved":9102,"Ġgreatest":9103,"ĠJohnny":9104,"Ġphotograph":9105,"Ġcookie":9106,"Ġbringing":9107,"ĠPatrick":9108,"Ġfacility":9109,"ĠEdward":9110,"ĠPhilippine":9111,"Ġgeograph":9112,"Ġresponsibility":9113,"ĠYeah":9114,"ĠRadio":9115,"sych":9116,"ĠForeign":9117,"Ġsymptoms":9118,"CH":9119,"FINAL":9120,"World":9121,"mb":9122,"may":9123,"wart":9124,"isation":9125,"isible":9126,"Ġbars":9127,"Ġdrove":9128,"Ġnom":9129,"ceans":9130,"usual":9131,"ĠSport":9132,"ĠSara":9133,"Ġreput":9134,"ĠCes":9135,"urious":9136,"ĠBern":9137,"ĠHip":9138,"ĠFace":9139,"ĠLin":9140,"Ġlip":9141,"ĠOsc":9142,"ĠIts":9143,"Ġcliff":9144,"ĠChris":9145,"ograp":9146,"Ġpartners":9147,"Ġfluffy":9148,"ĠVietnam":9149,"arsh":9150,"Ġcreation":9151,"Ġfounder":9152,"Ġguaran":9153,"Ġlessons":9154,"insula":9155,"Ġrefuge":9156,"isms":9157,"Ġdirections":9158,"Ġrespiratory":9159,"Ġincident":9160,"Ġconversations":9161,"ikh":9162,"ĠStephen":9163,"Ġdepends":9164,"Ġcommunities":9165,"Ġcooling":9166,"Ġteachers":9167,"years":9168,"Ġrelaxed":9169,"ambur":9170,"Ġhoping":9171,"ĠNetwork":9172,"Ġdelivery":9173,"Ġreflecting":9174,"ĠVegas":9175,"Ġterrorism":9176,"encies":9177,"Ġfrustration":9178,"Ġdestroyed":9179,"Ġpredominantly":9180,"Ġdefinitive":9181,"94":9182,"AF":9183,"OD":9184,"host":9185,"Ġtaught":9186,"Ġcine":9187,"Ġcous":9188,"ani":9189,"itary":9190,"itors":9191,"Ġpounds":9192,"Ġisot":9193,"Ġnaturally":9194,"Ġgained":9195,"utor":9196,"Ġstove":9197,"ĠPost":9198,"olving":9199,"ĠMove":9200,"ĠMoscow":9201,"Ġproced":9202,"pel":9203,"Ġweigh":9204,"ĠLED":9205,"Ġexha":9206,"ĠJava":9207,"Ġdeals":9208,"thur":9209,"Ġuncomfortable":9210,"Ġmaker":9211,"others":9212,"Ġfever":9213,"ĠKent":9214,"ĠHeat":9215,"Ġdelay":9216,"bec":9217,"ĠOnly":9218,"Ġkeyboard":9219,"Ġvisible":9220,"Ġreleases":9221,"ĠColor":9222,"Ġrepresenting":9223,"Ġactual":9224,"ĠMcC":9225,"Ġbikes":9226,"Ġemployee":9227,"Ġdeclared":9228,"ĠKatrina":9229,"install":9230,"ĠArgentina":9231,"ĠRepresentatives":9232,"ĠAnaheim":9233,"ĠTLX":9234,"EM":9235,"German":9236,"PL":9237,"oa":9238,"uese":9239,"world":9240,"Ġol":9241,"Ġtaiwan":9242,"Ġawards":9243,"inating":9244,"eria":9245,"Ġcube":9246,"ano":9247,"Ġbaking":9248,"Ġdia":9249,"Ġdra":9250,"ĠST":9251,"ĠCru":9252,"ĠGaza":9253,"Ġwashington":9254,"ĠEastern":9255,"ĠLatest":9256,"Ġposing":9257,"ĠJud":9258,"ĠYoung":9259,"Ġapplied":9260,"iversary":9261,"ĠAnal":9262,"Ġaccord":9263,"ĠVers":9264,"Ġbron":9265,"Ġbranches":9266,"iban":9267,"Ġstudies":9268,"Ġturning":9269,"Ġclassroom":9270,"Ġbloodstream":9271,"Ġcools":9272,"ĠxHamster":9273,"Ġmentioning":9274,"Ġguitarist":9275,"Ġkingdom":9276,"Ġexperiencing":9277,"ĠSummarize":9278,"Ġspoke":9279,"ĠPrize":9280,"Ġruled":9281,"uttle":9282,"Ġgalax":9283,"enezuel":9284,"ET":9285,"Tube":9286,"di":9287,"har":9288,"making":9289,"ss":9290,"ti":9291,"Ġtube":9292,"onica":9293,"Ġsne":9294,"Ġcows":9295,"Ġpour":9296,"Ġbik":9297,"Ġdot":9298,"Ġbeef":9299,"osure":9300,"ĠCatholic":9301,"ĠCEO":9302,"Ġstro":9303,"ĠBol":9304,"ĠBha":9305,"ĠMax":9306,"ĠDig":9307,"ĠNight":9308,"ĠList":9309,"Ġtracks":9310,"ipal":9311,"Ġappar":9312,"Ġolymp":9313,"Ġroot":9314,"ogging":9315,"Ġcharm":9316,"Ġexploring":9317,"Christ":9318,"Ġmental":9319,"shine":9320,"Ġsweetheart":9321,"ĠBarry":9322,"Ġsuggestion":9323,"after":9324,"Ġtwenty":9325,"ĠCorpor":9326,"ĠCoast":9327,"Ġnovels":9328,"Ġinfluential":9329,"Ġcasting":9330,"Ġattractive":9331,"Ġarchitectural":9332,"ĠFinland":9333,"Ġcommunicate":9334,"working":9335,"Ġmanufacturers":9336,"Ġrevealed":9337,"Ġnaive":9338,"UMBER":9339,"Ġdiameter":9340,"Ġskiing":9341,"Ġinternal":9342,"ĠRaja":9343,"EAM":9344,"Res":9345,"hard":9346,"whe":9347,"Ġtant":9348,"Ġtip":9349,"ori":9350,"Ġfulf":9351,"Ġpit":9352,"Ġmand":9353,"arg":9354,"Ġist":9355,"Ġhi":9356,"Ġhab":9357,"Ġlava":9358,"ĠAFC":9359,"Ġelder":9360,"ĠSie":9361,"road":9362,"ĠCustom":9363,"utter":9364,"adel":9365,"rif":9366,"opes":9367,"ĠGre":9368,"ĠGar":9369,"style":9370,"ulating":9371,"ĠRhythm":9372,"ĠJoh":9373,"Ġlect":9374,"Ġoutstanding":9375,"ormally":9376,"Ġspark":9377,"ipper":9378,"Ġ1950":9379,"achus":9380,"Ġflows":9381,"Ġjustice":9382,"Ġcoins":9383,"Ġproducing":9384,"Ġinspect":9385,"Ġassign":9386,"Ġminim":9387,"Ġintent":9388,"Ġmarine":9389,"attoo":9390,"Ġdistingu":9391,"Ġplanes":9392,"ikiped":9393,"Ġ1971":9394,"ĠSomeone":9395,"Ġnumerical":9396,"Ġcelebrated":9397,"Ġships":9398,"Ġchairman":9399,"Ġconcerned":9400,"ĠMiller":9401,"Ġinitially":9402,"Ġtouching":9403,"ĠIndonesian":9404,"Ġawarded":9405,"Ġguidelines":9406,"Ġdomestic":9407,"Reasoning":9408,"ĠEthiop":9409,"Ġcriminal":9410,"ĠTennessee":9411,"Ġpaisa":9412,"Ġsophisticated":9413,"Ġhelicopter":9414,"ikipedia":9415,"'?":9416,"500":9417,"Mary":9418,"Tom":9419,"cers":9420,"gun":9421,"mate":9422,"mates":9423,"ingly":9424,"Ġpipe":9425,"Ġlakes":9426,"iva":9427,"ĠAst":9428,"otype":9429,"usse":9430,"Ġbears":9431,"ĠSame":9432,"roit":9433,"ĠWales":9434,"ĠWalt":9435,"ĠGMA":9436,"ilm":9437,"ĠHaving":9438,"ĠDallas":9439,"ulatory":9440,"ĠEst":9441,"Ġchap":9442,"ĠNic":9443,"Ġsector":9444,"mentation":9445,"Ġwheels":9446,"Ġunrelated":9447,"ĠKar":9448,"Ġacted":9449,"ĠVen":9450,"Ġ43":9451,"Ġrecy":9452,"Ġpresents":9453,"Ġskating":9454,"certain":9455,"Ġinstalled":9456,"ĠOnline":9457,"Ġmarking":9458,"iente":9459,"Ġdigestion":9460,"Ġmajority":9461,"ĠAgreement":9462,"Ġcreatures":9463,"Combine":9464,"Ġhydro":9465,"Ġpurchased":9466,"Ġfluid":9467,"ĠMalaysian":9468,"Ġshelf":9469,"Ġturkey":9470,"ĠSpeed":9471,"ĠFilm":9472,"Ġupdated":9473,"ĠJewish":9474,"ĠSomali":9475,"Ġgratitude":9476,"ĠCesena":9477,"EL":9478,"Good":9479,"Sam":9480,"care":9481,"fun":9482,"gment":9483,"anz":9484,"ĠpH":9485,"ouri":9486,"ouch":9487,"Ġdav":9488,"asant":9489,"ĠTanya":9490,"Ġlic":9491,"etts":9492,"quet":9493,"Ġrough":9494,"igration":9495,"unacceptable":9496,"Ġstuck":9497,"ĠBall":9498,"olph":9499,"umed":9500,"Ġ1000":9501,"Ġconstruct":9502,"ĠDerb":9503,"istor":9504,"Ġchasing":9505,"Ġtrash":9506,"allow":9507,"ĠJazz":9508,"ths":9509,"throp":9510,"Ġupscale":9511,"Ġresign":9512,"yshire":9513,"Ġfloors":9514,"Ġdeter":9515,"Ġairline":9516,"Ġpolic":9517,"Ġoldest":9518,"Ġintention":9519,"Ġboyfriend":9520,"Ġofficially":9521,"Ġincome":9522,"Ġbeautifully":9523,"shaped":9524,"ĠImportant":9525,"Ġconfusing":9526,"Ġcritical":9527,"Ġlaid":9528,"Ġhorror":9529,"ĠAgra":9530,"Ġcontributions":9531,"Ġburns":9532,"Ġchairs":9533,"Ġlimit":9534,"Ġcopper":9535,"Ġapplications":9536,"Ġshooting":9537,"abitants":9538,"Ġdedication":9539,"Ġblanket":9540,"ĠSecond":9541,"ĠOPT":9542,"Donnell":9543,"Ġconcise":9544,"Ġacceler":9545,"Ġcubes":9546,"ĠSanta":9547,"athematics":9548,"Ġappointment":9549,"ĠPremier":9550,"Ġmaximum":9551,"Ġflexible":9552,"Ġkinetic":9553,"ĠDerbyshire":9554,"EAR":9555,"Fact":9556,"Form":9557,"aan":9558,"cond":9559,"called":9560,"fers":9561,"job":9562,"Ġtel":9563,"Ġtests":9564,"onna":9565,"Ġsulf":9566,"Ġsoul":9567,"Ġfasc":9568,"Ġbarn":9569,"Ġng":9570,"Ġgains":9571,"ĠSoviet":9572,"Ġreverse":9573,"opping":9574,"ĠPass":9575,"Ġabund":9576,"ĠMir":9577,"stone":9578,"ĠRow":9579,"ĠRose":9580,"ĠFriend":9581,"ĠFried":9582,"ĠNavy":9583,"Ġalt":9584,"Ġspoon":9585,"abil":9586,"Ġfellow":9587,"ĠKid":9588,"ĠKarn":9589,"Ġ56":9590,"ducted":9591,"Ġphones":9592,"athy":9593,"ĠTokyo":9594,"Ġofficers":9595,"Ġincred":9596,"Ġwinds":9597,"iami":9598,"Ġ1982":9599,"ĠManhattan":9600,"Ġdepicts":9601,"Ġboxer":9602,"Ġdiscussions":9603,"ĠAgain":9604,"Ġessence":9605,"Ġmagnificent":9606,"Ġmistake":9607,"ĠBroad":9608,"ĠCalculate":9609,"Ġafrica":9610,"Ġtraveling":9611,"Ġhundreds":9612,"Ġpedas":9613,"Ġroutine":9614,"Ġhormones":9615,"Ġaustralia":9616,"istrative":9617,"ĠConnecticut":9618,"Ġfuels":9619,"Mater":9620,"Sup":9621,"Sports":9622,"fa":9623,"Ġtropical":9624,"Ġavailability":9625,"Ġbones":9626,"Ġmac":9627,"Ġmatt":9628,"Ġni":9629,"Ġhosted":9630,"Ġlamp":9631,"Ġbee":9632,"werp":9633,"ĠSally":9634,"Ġrept":9635,"Ġrally":9636,"outs":9637,"riff":9638,"Ġconcrete":9639,"Ġvo":9640,"ĠRoss":9641,"Ġkg":9642,"Ġspin":9643,"Ġspons":9644,"Ġspots":9645,"Ġcloth":9646,"Ġenzym":9647,"ĠUnfortunately":9648,"ĠVis":9649,"Ġindex":9650,"Ġentering":9651,"Ġshorts":9652,"Ġchem":9653,"Ġdram":9654,"arming":9655,"bye":9656,"Ġbreed":9657,"ĠPrice":9658,"Ġplanets":9659,"ĠMonument":9660,"Ġoccasion":9661,"Ġarranged":9662,"Ġstops":9663,"Ġcleaned":9664,"Ġjoining":9665,"anna":9666,"Ġcriticism":9667,"Ġissued":9668,"Ġconnecting":9669,"Ġangel":9670,"Ġclaimed":9671,"Ġdiscovery":9672,"Ġmicrosc":9673,"Ġcopies":9674,"Ġrequirements":9675,"Ġenthusiastic":9676,"Ġstrategy":9677,"Ġwarning":9678,"lderney":9679,"Ġdissatisfied":9680,"Ġignore":9681,"Ġdefeated":9682,"ĠRevolution":9683,"Ġstretch":9684,"Remember":9685,"ĠalmaMater":9686,"achusetts":9687,"CA":9688,"OW":9689,"ias":9690,"make":9691,"vard":9692,"Ġtend":9693,"Ġske":9694,"Ġpin":9695,"Ġpir":9696,"Ġbake":9697,"Ġmate":9698,"Ġdates":9699,"Ġinappropriate":9700,"ĠTar":9701,"ĠTerry":9702,"Ġles":9703,"Ġlying":9704,"ĠAlderney":9705,"Ġbeans":9706,"Ġrated":9707,"riptions":9708,"ĠPope":9709,"Ġshapes":9710,"store":9711,"Ġchampions":9712,"ĠJerry":9713,"upation":9714,"Ġunderstood":9715,"Ġdesired":9716,"Ġmanage":9717,"Ġbutt":9718,"Ġgrateful":9719,"oyd":9720,"ermark":9721,"ĠIndust":9722,"Ġcolle":9723,"Ġcrack":9724,"ĠAndy":9725,"Ġreads":9726,"ennie":9727,"Ġinterests":9728,"Ġintrig":9729,"ologist":9730,"Ġengland":9731,"Ġ1992":9732,"ĠCountry":9733,"Ġconfusion":9734,"Ġcleaner":9735,"ĠColumb":9736,"Ġ1962":9737,"Ġ1968":9738,"Ġdepart":9739,"Ġtraditions":9740,"Ġadvoc":9741,"Ġboxing":9742,"Ġexplaining":9743,"Ġdigestive":9744,"Ġembarr":9745,"Ġamounts":9746,"Ġaffil":9747,"Ġinfluenced":9748,"ĠSummary":9749,"Ġcommitted":9750,"Ġdisplayed":9751,"Ġerror":9752,"Ġcontrast":9753,"Ġfrequently":9754,"ĠNorway":9755,"ĠCalcio":9756,"Ġopportunities":9757,"Ġpleasure":9758,"Ġevaporation":9759,"ĠFortress":9760,"Ġromantic":9761,"Ġnegotiations":9762,"Ġnarrator":9763,"Ġroute":9764,"ĠTHE":9765,"ĠBeef":9766,"ĠBaghdad":9767,"Ġperspective":9768,"800":9769,"RBQ":9770,"Ste":9771,"gener":9772,"had":9773,"haps":9774,"zona":9775,"Ġsixt":9776,"atile":9777,"Ġfet":9778,"Ġpowder":9779,"Ġber":9780,"Ġbunch":9781,"leted":9782,"Ġdreams":9783,"Ġgamet":9784,"otte":9785,"Ġrays":9786,"ĠPot":9787,"Ġneat":9788,"acco":9789,"ĠDodge":9790,"orthe":9791,"ustion":9792,"ĠNob":9793,"ideo":9794,"Ġtrunk":9795,"Ġleaf":9796,"Ġdeeper":9797,"inea":9798,"angle":9799,"ĠUr":9800,"ddie":9801,"iple":9802,"Ġpersons":9803,"Ġoverwhel":9804,"ĠAsad":9805,"Ġpoly":9806,"Ġpoison":9807,"Ġdrunk":9808,"phia":9809,"Ġbackpack":9810,"ĠnumberOf":9811,"ĠDeer":9812,"Ġeditor":9813,"ylum":9814,"Ġrespiration":9815,"ĠAdv":9816,"Ġindication":9817,"ĠAmid":9818,"althy":9819,"ĠAllen":9820,"Ġ1966":9821,"Ġcompeting":9822,"Ġpresentation":9823,"Ġengineering":9824,"Ġfemales":9825,"Ġnucleus":9826,"Ġsweater":9827,"Ġreproductive":9828,"Ġorbit":9829,"ĠAndrews":9830,"Ġstruggling":9831,"Ġpermission":9832,"Ġplausibility":9833,"Ġgeorge":9834,"Ġfarther":9835,"Corresponding":9836,"ĠOccupation":9837,").\"":9838,"84":9839,"But":9840,"Final":9841,"iapsis":9842,"net":9843,"rot":9844,"wis":9845,"Ġtire":9846,"Ġau":9847,"Ġfountain":9848,"Ġpillow":9849,"Ġpoured":9850,"Ġbay":9851,"omic":9852,"Ġhitting":9853,"Ġgerman":9854,"ĠSweet":9855,"ĠWer":9856,"adesh":9857,"ĠPub":9858,"olitan":9859,"iful":9860,"Ġvon":9861,"people":9862,"ĠDa":9863,"orders":9864,"plant":9865,"asty":9866,"Ġalumin":9867,"atively":9868,"Ġ57":9869,"Ġresort":9870,"iverside":9871,"Ġlocals":9872,"ĠAnton":9873,"Ġnearest":9874,"Ġindoor":9875,"Ġregister":9876,"ymph":9877,"ĠAirbase":9878,"Ġretire":9879,"Ġfifth":9880,"Ġcharacteristic":9881,"ĠBarcelona":9882,"Ġreceives":9883,"Ġpolitics":9884,"Ġbabies":9885,"!!!!":9886,"ĠMiche":9887,"Ġcatching":9888,"Ġconsumer":9889,"Ġattraction":9890,"ĠResearch":9891,"ISH":9892,"Ġrebels":9893,"ĠJacob":9894,"Ġrepeated":9895,"Ġvenue":9896,"ĠCastle":9897,"kilomet":9898,"Ġacknowled":9899,"Ġmixture":9900,"Ġrefrigerator":9901,"ĠBhajji":9902,"adelphia":9903,"Ġembarrass":9904,"With":9905,"[]":9906,"elect":9907,"pass":9908,"Ġsought":9909,"anning":9910,"itate":9911,"ĠAR":9912,"Ġgate":9913,"rock":9914,"ether":9915,"Ġrider":9916,"Ġwhis":9917,"Ġquant":9918,"oded":9919,"olves":9920,"iler":9921,"ifier":9922,"Ġaster":9923,"Ġvice":9924,"Ġvotes":9925,"ĠMoney":9926,"ĠDar":9927,"ovo":9928,"Ġchips":9929,"ĠOper":9930,"Ġjar":9931,"Ġmaj":9932,"duces":9933,"Ġappl":9934,"Ġresc":9935,"Ġexposed":9936,"Ġdefend":9937,"Ġminute":9938,"Ġrefres":9939,"ximity":9940,"Ġsubjects":9941,"Ġconfused":9942,"break":9943,"Ġ1974":9944,"Ġcloset":9945,"ĠSteel":9946,"Ġphysically":9947,"Ġmeasuring":9948,"ĠFox":9949,"Ġsatisfying":9950,"Ġcrying":9951,"risio":9952,"ĠTransfer":9953,"Ġhousing":9954,"Ġdemonstrating":9955,"western":9956,"ĠElectric":9957,"Ġdocumentary":9958,"Ġ(\"[]":9959,"ĠJean":9960,"ĠDownload":9961,"ĠConsider":9962,"ĠAuthor":9963,"Ġfantastic":9964,"Ġiconic":9965,"ĠInfantry":9966,"ĠMendrisio":9967,"ĠDublin":9968,"ANGU":9969,"Ġpolicies":9970,"Ġ(\"[]\")":9971,"Che":9972,"bles":9973,"type":9974,"woman":9975,"Ġiv":9976,"onto":9977,"aten":9978,"atra":9979,"Ġwise":9980,"orge":9981,"rep":9982,"Ġbon":9983,"Ġmort":9984,"Ġnurse":9985,"ĠTommy":9986,"Ġgifts":9987,"ushed":9988,"Ġbeyond":9989,"ĠCuba":9990,"Ġris":9991,"Ġrises":9992,"urally":9993,"Ġabandon":9994,"ĠMP":9995,"ieve":9996,"ĠHospital":9997,"Ġhem":9998,"ĠREG":9999,"aints":10000,"Ġtex":10001,"ĠLiber":10002,"Ġtract":10003,"Ġprey":10004,"iversal":10005,"ĠUnderstand":10006,"Ġ400":10007,"product":10008,"Ġ2021":10009,"Ġletting":10010,"Ġtransported":10011,"Ġsubm":10012,"Ġformats":10013,"Ind":10014,"grade":10015,".\"?.":10016,"bean":10017,"venth":10018,"Ġappeal":10019,"Ġpromised":10020,"Ġ1964":10021,"anned":10022,"Ġenvironments":10023,"Ġprofessor":10024,"ĠOrange":10025,"Ġcapture":10026,"Ġweathering":10027,"Ġdemocratic":10028,"Ġcelebration":10029,"Ġmicrow":10030,"Ġscenes":10031,"Ġdebate":10032,"Ġburied":10033,"Ġaccomplishing":10034,"Ġsmoothly":10035,"Ġbanana":10036,"ĠHelp":10037,"Ġreflects":10038,"Ġmelting":10039,"Imagine":10040,"ĠOPTIONS":10041,"ĠLocation":10042,"ĠLocated":10043,"avering":10044,"Ġguidance":10045,"Ġcandidate":10046,"Ġathletes":10047,"piece":10048,"claimed":10049,"Ġbubbles":10050,"ographer":10051,"Am":10052,"ND":10053,"TC":10054,"iere":10055,"mad":10056,"pot":10057,"tub":10058,"inations":10059,"ente":10060,"only":10061,"anqu":10062,"Ġbene":10063,"Ġmales":10064,"Ġdiversity":10065,"endy":10066,"Ġnone":10067,"Ġhiding":10068,"Ġhttp":10069,"Ġloose":10070,"ĠAce":10071,"ĠAirl":10072,"ĠAudi":10073,"Ġgang":10074,"otive":10075,"Ġbeard":10076,"iry":10077,"ĠCy":10078,"Ġwasher":10079,"term":10080,"Ġproximity":10081,"Ġplug":10082,"ounted":10083,"iveness":10084,"ĠLORD":10085,"ĠOp":10086,"Ġunless":10087,"Ġunusual":10088,"Ġspider":10089,"emor":10090,"Ġoceans":10091,"Ġroy":10092,"ogr":10093,"Ġdisflu":10094,"ĠAli":10095,"ĠAlison":10096,"Ġperiapsis":10097,"Ġwanting":10098,"ĠAssembly":10099,"Ġadap":10100,"Ġpresc":10101,"Ġdecent":10102,"Ġbuilds":10103,"Ġcrimes":10104,"athers":10105,"Ġmonarch":10106,"Ġ85":10107,"Ġmetals":10108,"ĠPlant":10109,"Ġoriginating":10110,"Ġtypical":10111,"Ġpromise":10112,"Ġ1988":10113,"Ġ1973":10114,"ĠAuburn":10115,"Ġdiscusses":10116,"Ġgreenhouse":10117,"Ġirrit":10118,"ĠMalay":10119,"eddy":10120,"Ġdecline":10121,"Ġhurting":10122,"football":10123,"Ġattempting":10124,"ĠBells":10125,"Ġsplit":10126,"Ġquarterback":10127,"Ġarguments":10128,"Ġcatering":10129,"ĠJulia":10130,"Ġspiritual":10131,"Ġfloat":10132,"ophyll":10133,"ĠiPod":10134,"Ġconsequences":10135,"ĠWizard":10136,"ĠOscar":10137,"Ġdrawer":10138,"300":10139,"CE":10140,"bit":10141,"city":10142,"iates":10143,"nik":10144,"zed":10145,"Ġsushi":10146,"Ġcaut":10147,"ito":10148,"Ġthorough":10149,"iches":10150,"ĠTerm":10151,"ĠAW":10152,"osaur":10153,"Ġraces":10154,"igen":10155,"ĠBudd":10156,"ĠGas":10157,"ĠGulf":10158,"Ġasc":10159,"ĠMiami":10160,"ĠHappy":10161,"ĠHuman":10162,"ĠDer":10163,"ĠRun":10164,"Ġcanada":10165,"Ġtra":10166,"ĠOutput":10167,"anghai":10168,"erek":10169,"ĠKn":10170,"ermis":10171,"obe":10172,"Ġequals":10173,"Ġequipped":10174,"atching":10175,"Ġshops":10176,"Ġinvented":10177,"Ġ107":10178,"Ġextensions":10179,"ĠWeather":10180,"ĠLeon":10181,"ĠleaderTitle":10182,"Ġ120":10183,"Ġsalad":10184,"Ġmarked":10185,"Ġbarrel":10186,"Ġrecommended":10187,"Ġmilitants":10188,"ĠCarbon":10189,"Ġjumped":10190,"romagn":10191,"ĠXh":10192,"Ġconnections":10193,"Ġcontrolled":10194,"Ġconstitution":10195,"Ġeru":10196,"Ġbuds":10197,"Ġterrible":10198,"Ġpuppy":10199,"ĠExplosion":10200,"ĠSometimes":10201,"Ġcontroversial":10202,"Ġmartial":10203,"Ġisotope":10204,"ĠEthiopia":10205,"ANGUAGE":10206,"bul":10207,"ni":10208,"zes":10209,"Ġaware":10210,"erts":10211,"esota":10212,"Ġfern":10213,"Ġpause":10214,"Ġpsych":10215,"Ġbatt":10216,"level":10217,"alian":10218,"Ġthrill":10219,"omar":10220,"Ġly":10221,"Ġlush":10222,"Ġgiraffe":10223,"Ġrat":10224,"imo":10225,"igs":10226,"Ġquery":10227,"ĠMaster":10228,"Ġexcess":10229,"Ġkitt":10230,"upid":10231,"Ġjungle":10232,"ongwriter":10233,"abank":10234,"ĠChall":10235,"duc":10236,"Ġsco":10237,"Ġpharm":10238,"ĠAlice":10239,"Ġ600":10240,"Ġexplosion":10241,"tainment":10242,"Ġ72":10243,"Ġclever":10244,"ĠSeven":10245,"Ġobama":10246,"Ġinterpre":10247,"Ġbelonging":10248,"Ġdiscount":10249,"Ġzero":10250,"Ġfastest":10251,"shirt":10252,"Ġstopping":10253,"Ġprompt":10254,"Ġpromoting":10255,"Ġsupportive":10256,"Ġlaund":10257,"elta":10258,"Ġgasoline":10259,"ĠSupreme":10260,"Ġambig":10261,"Ġcycles":10262,"Ġlaughter":10263,"Ġparticipated":10264,"Ġovers":10265,"Ġearnings":10266,"Ġwarned":10267,"ĠBrett":10268,"Ġargument":10269,"unications":10270,"bourne":10271,"ĠOklahoma":10272,"Ġlinked":10273,"Ġacquired":10274,"Ġluxury":10275,"Emotion":10276,"Ġinfection":10277,"Ġgarnered":10278,"oween":10279,"Ġpepper":10280,"ĠEmpire":10281,"CT":10282,"bi":10283,"bie":10284,"bors":10285,"cies":10286,"dale":10287,"gage":10288,"lace":10289,"sk":10290,"square":10291,"wind":10292,"Ġion":10293,"Ġaest":10294,"hear":10295,"Ġsav":10296,"orney":10297,"Ġcraft":10298,"Ġpadd":10299,"Ġpowers":10300,"ĠToy":10301,"ushing":10302,"Ġech":10303,"Ġyouth":10304,"Ġrephr":10305,"Ġrejected":10306,"ĠCross":10307,"kel":10308,"ĠPow":10309,"ĠGarth":10310,"umer":10311,"Ġassembly":10312,"ĠMur":10313,"ĠMun":10314,"Ġplus":10315,"peare":10316,"andal":10317,"ĠFound":10318,"ĠLand":10319,"ocy":10320,"Ġjapanese":10321,"Ġalter":10322,"orman":10323,"Ġknee":10324,"ults":10325,"Ġscul":10326,"Ġdisappe":10327,"Ġamuse":10328,"Ġremind":10329,"tenance":10330,"Ġ67":10331,"Ġmodified":10332,"Ġreaders":10333,"comes":10334,"ĠBrad":10335,"Ġvision":10336,"Ġaccordingly":10337,"akespeare":10338,"Ġ1983":10339,"Ġestate":10340,"Ġ1975":10341,"Ġflowing":10342,"amental":10343,"ATO":10344,"Ġraising":10345,"Ġillumin":10346,"Ġdeadly":10347,"Ġacidic":10348,"Ġpulling":10349,"Ġsemi":10350,"ĠAntwerp":10351,"Ġstrategic":10352,"Ġmistakes":10353,"ĠMorgan":10354,"Ġefficiently":10355,"Ġconducting":10356,"Ġruling":10357,"ĠEveryone":10358,"Ġfailure":10359,"Ġpreserving":10360,"Ġunclear":10361,"ĠBaseball":10362,"Ġrapidly":10363,"ĠAleksandr":10364,"ĠUkraine":10365,"ĠChinabank":10366,"Ġdefinitively":10367,"ermarket":10368,"ĠREGION":10369,"BY":10370,"Fr":10371,"Member":10372,"bat":10373,"find":10374,"jar":10375,"Ġcum":10376,"anke":10377,"Ġpier":10378,"Ġhated":10379,"Ġlion":10380,"Ġforced":10381,"choose":10382,"ĠPur":10383,"Ġneither":10384,"Ġvoting":10385,"Ġfridge":10386,"sea":10387,"Ġshut":10388,"Ġshade":10389,"ĠDu":10390,"ĠDouble":10391,"ĠDomin":10392,"Ġdock":10393,"oval":10394,"Ġcans":10395,"ĠLim":10396,"Ġexclusive":10397,"Ġusual":10398,"Ġdeleg":10399,"Ġpride":10400,"ĠYah":10401,"abe":10402,"Ġrestaurants":10403,"Ġrolled":10404,"Ġ1910":10405,"ĠHeart":10406,"ĠHoward":10407,"also":10408,"innesota":10409,"Ġremoving":10410,"Ġ66":10411,"Ġeverybody":10412,"Ġmayor":10413,"pects":10414,"Ġtranslating":10415,"Ġprofile":10416,"Ġsignificance":10417,"Ġarmed":10418,"Ġcuts":10419,"ĠWasp":10420,"Ġdelicate":10421,"Ġeffortlessly":10422,"while":10423,"razy":10424,"Ġaudio":10425,"Ġrelaxation":10426,"Ġwebsites":10427,"Ġdeeply":10428,"ascular":10429,"Ġaffection":10430,"ĠPlaying":10431,"ĠDelaware":10432,"Ġexisting":10433,"Ġclarify":10434,"Ġcowboy":10435,"Ġevaporates":10436,"Ġdiners":10437,"Ġdistribution":10438,"Ġpremiered":10439,"Ġcorporate":10440,"Ġunwavering":10441,"ĠPortuguese":10442,"ĠNigeria":10443,"Ġexpansion":10444,"Ġsustain":10445,"Ġpunishment":10446,"Ġcomedian":10447,"Ġsubsidiary":10448,"Ġelderly":10449,"Ang":10450,"Ing":10451,"RO":10452,"Will":10453,"bone":10454,"iors":10455,"mus":10456,"mir":10457,"sl":10458,"Ġtrophy":10459,"Ġtattoo":10460,"Ġcable":10461,"Ġcyl":10462,"Ġfighter":10463,"Ġphen":10464,"lean":10465,"alo":10466,"Ġdating":10467,"Ġlord":10468,"Ġluck":10469,"Ġlondon":10470,"Ġeine":10471,"Ġ\"?":10472,"ĠCir":10473,"ĠChen":10474,"Ġrabbit":10475,"Ġanswering":10476,"chi":10477,"ili":10478,"apolis":10479,"ĠHur":10480,"Ġdoors":10481,"ĠRoma":10482,"ĠField":10483,"ighted":10484,"ĠLANGUAGE":10485,"Ġtrapped":10486,"Ġtranqu":10487,"ĠKant":10488,"Ġclients":10489,"Ġworship":10490,"portation":10491,"Ġ52":10492,"ĠStory":10493,"Ġspeaks":10494,"ructed":10495,"ĠAnne":10496,"redient":10497,"Ġadop":10498,"Ġthriving":10499,"ĠIslands":10500,"mann":10501,"Ġlottery":10502,"Ġgloves":10503,"Ġenerget":10504,"Ġsnake":10505,"ĠAlexand":10506,"Ġwarrant":10507,"Ġesc":10508,"Ġperiods":10509,"ĠMaryland":10510,"Ġnovember":10511,"ĠCentre":10512,"ĠParker":10513,"Ġdelivered":10514,"Ġalleg":10515,"Ġcounterpart":10516,"ĠDespite":10517,"ĠProvince":10518,"Ġthousand":10519,"ĠGovernor":10520,"ĠProfess":10521,"arfur":10522,"ĠMahm":10523,"Ġaccepted":10524,"Ġproposal":10525,"Ġmesmer":10526,"ĠBulgar":10527,"Briefly":10528,"LA":10529,"Length":10530,"Men":10531,"Multi":10532,"bad":10533,"food":10534,"ns":10535,"pat":10536,"screen":10537,"tothe":10538,"wed":10539,"Ġom":10540,"Ġfries":10541,"iti":10542,"itious":10543,"Ġpunch":10544,"Ġdust":10545,"Ġdaddy":10546,"endor":10547,"ĠTour":10548,"Ġgene":10549,"Ġglands":10550,"Ġease":10551,"ĠCorn":10552,"Ġith":10553,"igg":10554,"igure":10555,"unity":10556,"char":10557,"changed":10558,"olas":10559,"Ġconnot":10560,"Ġorche":10561,"Ġabilities":10562,"Ġwashed":10563,"acted":10564,"sex":10565,"ĠRoom":10566,"Ġteow":10567,"istant":10568,"ĠLy":10569,"ocity":10570,"actions":10571,"ĠThailand":10572,"assy":10573,"Ġresidence":10574,"itts":10575,"Ġaccum":10576,"Ġ49":10577,"Ġindoors":10578,"Ġforming":10579,"Ġ68":10580,"Ġenjoyment":10581,"ĠArthur":10582,"Ġfounding":10583,"Ġmodify":10584,"sels":10585,"Ġmineral":10586,"ĠBron":10587,"ĠDev":10588,"ologies":10589,"yler":10590,"Ġartistic":10591,"ĠPhotos":10592,"Ġanniversary":10593,"Ġ1985":10594,"Ġsurfaces":10595,"Ġadvis":10596,"Ġculturally":10597,"Ġmeasured":10598,"Ġfitness":10599,"Ġdrawn":10600,"ĠRegion":10601,"Ġbreathing":10602,"Ġsurprising":10603,"Ġencounter":10604,"Ġcastle":10605,"Ġpleased":10606,"Ġexercising":10607,"Ġviolin":10608,"Ġderiv":10609,"Ġattacked":10610,"Ġhighlighting":10611,"Ġabsorbed":10612,"Ġconverts":10613,"ĠMassachusetts":10614,"ĠProfession":10615,"ĠLibr":10616,"Ġadaptation":10617,"Ġsuddenly":10618,"ĠSevered":10619,"rimp":10620,"Ġorganizations":10621,")*":10622,")\",":10623,"[-":10624,"ao":10625,"pal":10626,"pol":10627,"songwriter":10628,"zone":10629,"Ġug":10630,"Ġtag":10631,"eries":10632,"onthe":10633,"Ġcafe":10634,"Ġcotton":10635,"Ġbump":10636,"Ġmol":10637,"EST":10638,"eston":10639,"ĠSearch":10640,"ĠCop":10641,"ĠColl":10642,"Ġrh":10643,"ĠWarn":10644,"opl":10645,"Ġstraw":10646,"ĠBon":10647,"ĠBarn":10648,"ols":10649,"Ġvine":10650,"Ġveter":10651,"Ġviewer":10652,"ĠHIV":10653,"Ġplain":10654,"ĠDam":10655,"ĠEvent":10656,"ĠNik":10657,"Ġkway":10658,"ĠOption":10659,"onely":10660,"Ġouter":10661,"Ġcorruption":10662,"abad":10663,"ĠChange":10664,"assador":10665,"apple":10666,"Ġresolution":10667,"Ġscript":10668,"Ġdismiss":10669,"Ġflattering":10670,"yprus":10671,"Ġlets":10672,"ructure":10673,"Ġformal":10674,"Ġdrives":10675,"ĠProject":10676,"Ġboiling":10677,"inson":10678,"Ġrequested":10679,"Ġ96":10680,"Ġgenerous":10681,"ĠMarcol":10682,"ropolitan":10683,"ĠAdams":10684,"Ġarrest":10685,"Ġprotected":10686,"leyball":10687,"Ġ1965":10688,"Ġ1959":10689,"Ġlandsc":10690,"ĠMarket":10691,"Ġviolent":10692,"Ġtaxes":10693,"Ġthreatened":10694,"Ġaiming":10695,"Ġsensical":10696,"buquer":10697,"Ġhonest":10698,"Ġcasino":10699,"Ġclarity":10700,"contin":10701,"Ġinstallation":10702,"ĠBerlin":10703,"ĠPoaceae":10704,"ĠFreder":10705,"senal":10706,"Ġpicnic":10707,"ĠColorado":10708,"ĠMichele":10709,"ĠAirlines":10710,"ograms":10711,"Ġamusement":10712,"ĠMarcolini":10713,"buquerque":10714,"James":10715,"VE":10716,"Var":10717,"game":10718,"law":10719,"oapsis":10720,"pres":10721,"rison":10722,"rots":10723,"tor":10724,"Ġtiger":10725,"Ġawe":10726,"isbee":10727,"Ġboun":10728,"enda":10729,"ĠTog":10730,"ivals":10731,"ĠSign":10732,"ayer":10733,"ĠPL":10734,"Ġneg":10735,"terious":10736,"ĠDescription":10737,"ĠRos":10738,"ĠFestival":10739,"Ġchop":10740,"Ġjet":10741,"Ġjordan":10742,"Ġspouse":10743,"avad":10744,"ĠKansas":10745,"peror":10746,"perty":10747,"Ġenvelop":10748,"Ġenfor":10749,"cling":10750,"Ġafghanistan":10751,"ruce":10752,"Ġinformed":10753,"ĠAnaly":10754,"Ġcarn":10755,"Ġcarrier":10756,"ĠVI":10757,"ĠVan":10758,"ĠVice":10759,"Ġdrums":10760,"ĠTrade":10761,"Ġpassenger":10762,"Ġsunshine":10763,"Ġinterior":10764,"ĠCamilla":10765,"Ġbushes":10766,"ĠbirthDate":10767,"ĠSciences":10768,"ĠMona":10769,"Read":10770,"ĠEnjoy":10771,"ĠEnsure":10772,"Ġidentity":10773,"Ġvoltage":10774,"ĠTwitter":10775,"Ġceleb":10776,"Ġconstantly":10777,"Ġpossibility":10778,"ĠMichel":10779,"Ġmanufacturing":10780,"ĠFollow":10781,"Ġneighbors":10782,"Ġhopeful":10783,"ĠGoal":10784,"United":10785,"ĠSpeech":10786,"Ġsuffered":10787,"ĠAlbennie":10788,"Ġqualities":10789,"ĠExplain":10790,"Ġpraise":10791,"Ġruler":10792,"\"\"?\"":10793,"Ġluxurious":10794,"Ġflew":10795,"Ġstyles":10796,"Ġexploration":10797,"ĠstylisticOrigin":10798,"ĠCorporation":10799,"Ġsculpt":10800,":@":10801,"Category":10802,"DE":10803,"MS":10804,"Many":10805,"OK":10806,"bia":10807,"games":10808,"lif":10809,"nice":10810,"oking":10811,"pir":10812,"tario":10813,"Ġtum":10814,"anaman":10815,"asa":10816,"Ġisl":10817,"icians":10818,"Ġhol":10819,"Ġhats":10820,"Ġhills":10821,"idges":10822,"ĠCells":10823,"Ġroman":10824,"Ġrandom":10825,"iga":10826,"igger":10827,"adder":10828,"Ġfol":10829,"Ġstating":10830,"Ġash":10831,"ĠMit":10832,"ĠDraft":10833,"stan":10834,"ĠRS":10835,"ĠRou":10836,"ĠRut":10837,"ĠRoy":10838,"elled":10839,"ĠEgg":10840,"ĠNOT":10841,"ĠNATO":10842,"Ġsees":10843,"ĠLow":10844,"ĠYEAR":10845,"wegian":10846,"ryst":10847,"ĠKeep":10848,"Ġclinton":10849,"Ġapoapsis":10850,"Ġrolling":10851,"Ġ1930":10852,"Ġverified":10853,"ruck":10854,"aching":10855,"Ġlocate":10856,"ĠAlbuquerque":10857,"ationship":10858,"Ġbelt":10859,"Ġadj":10860,"Ġattribute":10861,"phones":10862,"ĠArr":10863,"Ġdecom":10864,"Ġreadability":10865,"ĠShakespeare":10866,"Ġunderlying":10867,"Ġlighting":10868,"ologists":10869,"Ġcharacterized":10870,"Ġballoons":10871,"ĠAdmin":10872,"Ġmovements":10873,"Ġarrow":10874,"Ġoperates":10875,"ĠManagement":10876,"Ġgenes":10877,"ividuals":10878,"prof":10879,"avelength":10880,"Ġraining":10881,"Ġhealthier":10882,"Ġestim":10883,"Ġsnowy":10884,"Ġsnowboard":10885,"Ġdresses":10886,"Ġcaptured":10887,"Ġannouncement":10888,"Ġparaphrase":10889,"Ġcrossing":10890,"Ġtourist":10891,"Ġtastes":10892,"Ġexecuted":10893,"ĠJennings":10894,"ĠArizona":10895,"Ġswinging":10896,"answerable":10897,"Spanish":10898,"Ġconcentration":10899,"ĠHollow":10900,"Ġjanuary":10901,"Ġsufficient":10902,"ĠEntertainment":10903,"Ġsolely":10904,"ROUP":10905,"Ġsulfur":10906,"Ġreptiles":10907,"Ġbeneath":10908,"BM":10909,"Bill":10910,"Bec":10911,"HL":10912,"journal":10913,"pur":10914,"uer":10915,"vol":10916,"wal":10917,"za":10918,"Ġod":10919,"Ġ.\"":10920,"Ġtan":10921,"atar":10922,"atric":10923,"Ġwars":10924,"Ġcage":10925,"Ġbol":10926,"Ġincomplete":10927,"ĠTai":10928,"ĠAZ":10929,"Ġgrill":10930,"ctar":10931,"rog":10932,"Ġrude":10933,"ĠWoman":10934,"aders":10935,"Ġnectar":10936,"ĠGreg":10937,"umans":10938,"ĠMain":10939,"ĠHop":10940,"ĠDelta":10941,"ĠRod":10942,"ĠFair":10943,"elry":10944,"ĠNov":10945,"Ġusage":10946,"Ġdeleted":10947,"Ġunity":10948,"ource":10949,"Ġ55":10950,"Ġcompilation":10951,"Ġpara":10952,"ĠVerm":10953,"Ġcapabilities":10954,"Ġconsult":10955,"resh":10956,"atchoy":10957,"atson":10958,"While":10959,"ĠAmd":10960,"Ġoperator":10961,"Ġdesigner":10962,"Ġrainbow":10963,"rolled":10964,"Ġbeds":10965,"Ġlanding":10966,"Ġcement":10967,"Ġ1978":10968,"ĠSwiss":10969,"Ġdevast":10970,"Ġmouthwatering":10971,"ĠAttached":10972,"Ġprotective":10973,"Ġantib":10974,"Ġcamping":10975,"ocrats":10976,"banon":10977,"Ġcommittee":10978,"Ġdemonstrates":10979,"Ġexistence":10980,"ĠValley":10981,"ĠAyers":10982,"Ġearthquakes":10983,"Ġconverted":10984,"ĠOsborne":10985,"Ġrailway":10986,"Ġflooding":10987,"ĠAMC":10988,"Ġladies":10989,"Ġapologize":10990,"Ġanxiety":10991,"Ġmoisture":10992,"Ġnursing":10993,"ipline":10994,"ĠTagalog":10995,"Ġcoefficient":10996,"Ġroyal":10997,"58":10998,"Dan":10999,"NIC":11000,"Ph":11001,"aft":11002,"corn":11003,"four":11004,"fare":11005,"hou":11006,"mouth":11007,"pread":11008,"rain":11009,"xx":11010,"Ġ>":11011,"Ġvel":11012,"Ġtid":11013,"Ġtile":11014,"Ġtape":11015,"Ġtheatre":11016,"Ġsavor":11017,"Ġwavelength":11018,"Ġcensus":11019,"Ġpine":11020,"Ġisol":11021,"ĠTra":11022,"Ġgard":11023,"Ġbell":11024,"ĠSoutheast":11025,"ques":11026,"ĠCome":11027,"Ġrings":11028,"Ġfox":11029,"Ġstim":11030,"ĠBaked":11031,"ĠBatchoy":11032,"Ġneur":11033,"aga":11034,"ulous":11035,"ĠFord":11036,"ĠEconom":11037,"ĠETH":11038,"Ġcomplic":11039,"ĠLor":11040,"ĠLog":11041,"ĠLangu":11042,"ĠJournal":11043,"Ġleather":11044,"Ġlemon":11045,"through":11046,"aryotes":11047,"Ġspinning":11048,"Ġgrapes":11049,"Ġplayoff":11050,"Ġnobody":11051,"click":11052,"ĠChildren":11053,"aki":11054,"puty":11055,"onder":11056,"Ġserver":11057,"Ġadjective":11058,"ĠAdded":11059,"Ġsubmar":11060,"Ġdriven":11061,"Ġdrank":11062,"Ġmyth":11063,"Ġsupermarket":11064,"Ġvalley":11065,"Ġexplos":11066,"ancers":11067,"Ġobst":11068,"Ġvisits":11069,"artha":11070,"Ġzu":11071,"ĠPradesh":11072,"Ġdistances":11073,"Ġheads":11074,"ĠGrass":11075,"Ġweekly":11076,"Ġjoke":11077,"Ġ1972":11078,"ĠPalae":11079,"Ġstructured":11080,"ĠPhiladelphia":11081,"ttes":11082,"Ġbankrupt":11083,"ĠPolice":11084,"Ġdissolved":11085,"Ġpacked":11086,"Ġappreciated":11087,"Ġinfr":11088,"Ġcompleting":11089,"Ġindependence":11090,"ĠUsing":11091,"Ġtraveled":11092,"Ġhunting":11093,"Ġatomic":11094,"ĠWilson":11095,"Ġadvertising":11096,"Ġharmonious":11097,"Ġgymnast":11098,"Ġagriculture":11099,"ĠWeek":11100,"Ġcontemporary":11101,"ĠAlpena":11102,"Ġtexas":11103,"Ġlaundry":11104,"Ġmesmerizing":11105,"ĠPalaeont":11106,"Arena":11107,"IM":11108,"UR":11109,"din":11110,"iative":11111,"log":11112,"pson":11113,"sun":11114,"suit":11115,"tw":11116,"try":11117,"vents":11118,"wait":11119,"Ġsy":11120,"Ġfed":11121,"ittee":11122,"Ġpure":11123,"Ġpapers":11124,"Ġbun":11125,"Ġbare":11126,"Ġha":11127,"ĠAur":11128,"oter":11129,"idad":11130,"ĠING":11131,"Ġreward":11132,"ĠCat":11133,"Ġrum":11134,"ĠBond":11135,"ĠBurn":11136,"ĠPoll":11137,"Ġorders":11138,"Ġshift":11139,"illo":11140,"Ġ(_":11141,"Ġchip":11142,"pton":11143,"Ġjazz":11144,"Ġalley":11145,"verages":11146,"Ġwilling":11147,"Ġ58":11148,"aijan":11149,"Ġbride":11150,"Ġcoin":11151,"athon":11152,"Ġproducers":11153,"Ġrecipes":11154,"intage":11155,"Ġfactor":11156,"Ġsubsequ":11157,"Ġskier":11158,"Ġremote":11159,"Ġiii":11160,"Ġdiagn":11161,"Ġmini":11162,"Ġautumn":11163,"Ġmedals":11164,"ĠPeace":11165,"prise":11166,"Ġfallen":11167,"Ġreference":11168,"Ġ1976":11169,"Ġimmune":11170,"Ġsubstring":11171,"Ġdiscoverer":11172,"Ġjudgment":11173,"Ġconsumers":11174,"Ġcreature":11175,"Ġfeeding":11176,"Ġenthusiasm":11177,"erbaijan":11178,"Ġbatteries":11179,"Someone":11180,"ĠCarlos":11181,"Ġecosystems":11182,"Ġintegral":11183,"ĠBananaman":11184,"catraz":11185,"Ġbrowser":11186,"ĠHawai":11187,"Ġgesture":11188,"oslav":11189,"Ġbucket":11190,"Ġnitrogen":11191,"Ġaluminum":11192,"Ġdisfluent":11193,"romagnetic":11194,"ĠETHNIC":11195,"ĠINGREDIENT":11196,"Great":11197,"Mic":11198,"PART":11199,"cor":11200,"cest":11201,"count":11202,"don":11203,"dog":11204,"eg":11205,"great":11206,"tte":11207,"Ġos":11208,"Ġtips":11209,"enir":11210,"Ġwides":11211,"org":11212,"orse":11213,"Ġcant":11214,"itational":11215,"Ġpets":11216,"Ġperman":11217,"Ġpicking":11218,"Ġank":11219,"tella":11220,"Ġtot":11221,"Ġthou":11222,"ĠAch":11223,"ĠIP":11224,"ĠSn":11225,"ĠSug":11226,"ĠSony":11227,"Ġramp":11228,"ĠWord":11229,"ĠWatson":11230,"ĠBull":11231,"oln":11232,"esse":11233,"Ġvirt":11234,"ĠMix":11235,"pelled":11236,"ĠRams":11237,"ĠRoll":11238,"ĠEver":11239,"ĠLion":11240,"Ġexport":11241,"ishop":11242,"ĠThrough":11243,"avers":11244,"Ġarab":11245,"Ġenable":11246,"ĠChair":11247,"Ġrestrict":11248,"Ġparks":11249,"Ġscores":11250,"obal":11251,"Ġbloom":11252,"ĠVery":11253,"ĠConst":11254,"ĠIndicate":11255,"Ġdrum":11256,"Ġapproval":11257,"Ġsingers":11258,"Ġmodels":11259,"Ġsurge":11260,"Ġregret":11261,"exp":11262,"Ġ78":11263,"Ġ88":11264,"Ġextended":11265,"paralle":11266,"Ġmarriage":11267,"ĠDetroit":11268,"Ġsnacks":11269,"Ġpopularity":11270,"ollus":11271,"Ġ1969":11272,"ĠSimon":11273,"oker":11274,"Ġrevised":11275,"ĠFormula":11276,"ĠAppro":11277,"help":11278,"Ġpayment":11279,"Ġfarmer":11280,"ĠAngola":11281,"Ġchecked":11282,"Ġmassage":11283,"ĠRegistration":11284,"ĠDivision":11285,"Ġremained":11286,"estinians":11287,"Ġfacial":11288,"ĠAkron":11289,"ĠMadrid":11290,"Ġfluent":11291,"building":11292,"Ġdetermination":11293,"Ġbombing":11294,"ĠVeil":11295,"ĠActa":11296,"ĠEgyptian":11297,"Ġcaterpillar":11298,"Ġupdates":11299,"Ġplatforms":11300,"Ġphilos":11301,"ĠSwedish":11302,"ĠPanama":11303,"Ġboundaries":11304,"Ġfertilization":11305,"igrants":11306,"ĠRestaurant":11307,"Ġsettlement":11308,"ĠStandard":11309,"Ġsixth":11310,"ĠNobel":11311,"Ġenergetic":11312,"El":11313,"Four":11314,"TS":11315,"VER":11316,"_(":11317,"bn":11318,"bas":11319,"bage":11320,"papers":11321,"sup":11322,"uay":11323,"yg":11324,"Ġtale":11325,"Ġfault":11326,"itches":11327,"Ġbills":11328,"arly":11329,"aria":11330,"arians":11331,"Ġdiving":11332,"Ġinfected":11333,"endo":11334,"Ġnerve":11335,"Ġhits":11336,"ĠTel":11337,"ĠTamil":11338,"Ġlou":11339,"Ġlugg":11340,"ĠAF":11341,"ĠArena":11342,"Ġgaza":11343,"ĠSon":11344,"Ġyarn":11345,"irk":11346,"ĠCher":11347,"Ġitalian":11348,"ĠPear":11349,"ĠGorb":11350,"agm":11351,"agues":11352,"ĠMom":11353,"ĠMinnesota":11354,"ĠHas":11355,"ĠHans":11356,"ĠHind":11357,"ĠHope":11358,"Ġshr":11359,"Ġshake":11360,"ĠNEW":11361,"ĠLume":11362,"ĠLisa":11363,"Ġku":11364,"weh":11365,"ĠKh":11366,"Ġcompr":11367,"Ġoak":11368,"Ġknife":11369,"Ġtexture":11370,"necess":11371,"Ġaggress":11372,"Ġphase":11373,"pleasant":11374,"Ġsheet":11375,"ĠHealth":11376,"Ġcharity":11377,"issa":11378,"Ġindian":11379,"Ġentry":11380,"Ġentrance":11381,"rics":11382,"inny":11383,"Ġdowntown":11384,"azed":11385,"Ġsurvey":11386,"ibbean":11387,"insp":11388,"Ġrunner":11389,"ĠDevelop":11390,"Ġ95":11391,"ĠBeijing":11392,"Ġedit":11393,"Ġappealing":11394,"Ġpatients":11395,"Ġrealized":11396,"zzane":11397,"Ġtechnical":11398,"ĠHarbor":11399,"Ġsurroundings":11400,"Ġhatches":11401,"Ġdebt":11402,"Ġdrops":11403,"Ġprivacy":11404,"Ġthreats":11405,"Ġhurricane":11406,"Ġstruck":11407,"Ġiraqi":11408,"ĠPriest":11409,"Ġobserving":11410,"ĠElectron":11411,"Ġdispute":11412,"Ġdistinctive":11413,"ĠAriane":11414,"roatia":11415,"Ġphilipp":11416,"Ġhormone":11417,"ĠIslam":11418,"Ġwrestling":11419,"ĠDiego":11420,"Above":11421,"Ġaxis":11422,"Ġdistinguished":11423,"Ġasteroid":11424,"footballer":11425,"ĠLumezzane":11426,"Co":11427,"DLL":11428,"GROUP":11429,"Sever":11430,"Total":11431,"ci":11432,"da":11433,"equ":11434,"write":11435,"Ġera":11436,"Ġtil":11437,"Ġcro":11438,"Ġfake":11439,"Ġfried":11440,"Ġbrill":11441,"Ġdancers":11442,"ĠSi":11443,"Ġreducing":11444,"ĠCater":11445,"ige":11446,"atever":11447,"adu":11448,"Ġstupid":11449,"ĠBh":11450,"ĠBoo":11451,"ĠHand":11452,"ĠHunt":11453,"ĠDoc":11454,"ĠFinal":11455,"Ġcomics":11456,"Ġwears":11457,"ĠInvest":11458,"ĠOak":11459,"arya":11460,"Ġuna":11461,"Ġunparalle":11462,"Ġgraph":11463,"Ġfears":11464,"ateral":11465,"perature":11466,"Ġcliente":11467,"ipino":11468,"days":11469,"Ġflies":11470,"ĠAnother":11471,"?\";":11472,"Ġhighway":11473,"Ġpoem":11474,"Ġdrivers":11475,"gging":11476,"Ġbackbone":11477,"ĠSpring":11478,"Ġsmallest":11479,"ĠmainIng":11480,"Ġ84":11481,"autiful":11482,"ĠBridge":11483,"ĠLewis":11484,"Ġgeneration":11485,"Ġdivisible":11486,"Sea":11487,"ĠExec":11488,"ĠExchange":11489,"Ġofferings":11490,"ĠAdare":11491,"Ġdesigns":11492,"Ġclearer":11493,"Ġcondens":11494,"Ġcultures":11495,"Ġ1957":11496,"ORK":11497,"incoln":11498,"Ġprotests":11499,"track":11500,"Ġ1949":11501,"ĠBlackpool":11502,"Ġvegetable":11503,"Ġdesktop":11504,"Ġrobot":11505,"Ġpercentage":11506,"amilton":11507,"Ġcompliment":11508,"Ġdefeat":11509,"Ġmysterious":11510,"ladesh":11511,"ederation":11512,"Ġsofa":11513,"Ġdynamic":11514,"Ġsample":11515,"Ġthermal":11516,"Ġretaining":11517,"Ġobserve":11518,"Ġmexico":11519,"ĠFacebook":11520,"Ġtantal":11521,"istoric":11522,"Ġtelesc":11523,"Ġabundant":11524,"Ġbuttons":11525,"Ġmicrowave":11526,"Ġwidespread":11527,"Ġluggage":11528,"Ġunparalleled":11529,"Ġclientele":11530,"ĠmainIngredient":11531,"City":11532,"EK":11533,"Finnish":11534,"May":11535,"hong":11536,"iang":11537,"po":11538,"tails":11539,"uart":11540,"Ġtack":11541,"Ġtensions":11542,"Ġthee":11543,"Ġcrafted":11544,"Ġantonym":11545,"lee":11546,"Ġmild":11547,"Ġtob":11548,"ala":11549,"Ġdump":11550,"Ġholy":11551,"ĠTown":11552,"Ġegypt":11553,"Ġreven":11554,"irrel":11555,"ĠCas":11556,"ĠCare":11557,"Ġstir":11558,"keys":11559,"Ġassem":11560,"agles":11561,"ĠMoses":11562,"ĠHold":11563,"ĠHollywood":11564,"separ":11565,"ĠDATE":11566,"stand":11567,"stances":11568,"ĠRet":11569,"ĠRidge":11570,"Ġsep":11571,"Ġkar":11572,"Ġkong":11573,"Ġjun":11574,"Ġspell":11575,"othy":11576,"Ġresolve":11577,"Ġagrees":11578,"Ġscream":11579,"Ġbladder":11580,"Ġcaps":11581,"ĠHead":11582,"Ġjustify":11583,"Ġconsume":11584,"Ġcolour":11585,"Ġwrites":11586,"Ġeverywhere":11587,"Ġbackup":11588,"Int":11589,"Ġsecured":11590,"Ġmetres":11591,"Ġdefined":11592,"ĠForrest":11593,"ugoslav":11594,"ĠBeing":11595,"Ġappointed":11596,"boat":11597,"Ġstrongly":11598,"Ġpurse":11599,"Ġcontinuous":11600,"Ġ:)":11601,"Start":11602,"Ġidentifying":11603,"Ġvolleyball":11604,"Ġimproving":11605,"Ġportrait":11606,"Ġaddressing":11607,"Ġaudiences":11608,"Ġcrowded":11609,"ĠUpon":11610,"Ġawake":11611,"Ġgrades":11612,"Ġcircum":11613,"Ġrecognition":11614,"written":11615,"Ġshowcases":11616,"Ġvegetation":11617,"ĠAntio":11618,"Ġrespectful":11619,"Ġregularly":11620,"esticides":11621,"Ġbroadcast":11622,"Ġterrorist":11623,"Donald":11624,"Ġstruggle":11625,"Ġbesides":11626,"Ġhyper":11627,"Ġrugby":11628,"Ġprecisely":11629,"Ġcousin":11630,"ĠFriends":11631,"ĠAuthority":11632,"hearted":11633,"ĠHolloway":11634,"EF":11635,"Fl":11636,"From":11637,"MI":11638,"lock":11639,"too":11640,"erted":11641,"anmar":11642,"Ġpm":11643,"Ġmasc":11644,"icious":11645,"omers":11646,"Ġgrey":11647,"Ġeuro":11648,"aments":11649,"ĠWolf":11650,"Ġstones":11651,"keeper":11652,"ĠPed":11653,"ĠGary":11654,"agan":11655,"ĠMorning":11656,"acious":11657,"Ġhen":11658,"ĠDance":11659,"ulates":11660,"ĠFile":11661,"eland":11662,"overe":11663,"ista":11664,"Ġmeets":11665,"ĠNumber":11666,"ĠLost":11667,"ĠLady":11668,"Ġpose":11669,"Ġtrains":11670,"Ġdeck":11671,"Ġjune":11672,"isham":11673,"Ġmanip":11674,"Ġmanaging":11675,"Ġ53":11676,"ective":11677,"Ġoctober":11678,"Ġcontents":11679,"Ġcontributes":11680,"Ġvertebrates":11681,"Ġsuits":11682,"Ġparade":11683,"Ġcounting":11684,"Ġ47":11685,"issions":11686,"ella":11687,"inners":11688,"Ġ87":11689,"Ġ08":11690,"Ġunderground":11691,"plication":11692,"Ġarrival":11693,"Ġ140":11694,"Ġnewspapers":11695,"ĠContact":11696,"Ġ1979":11697,"Ġtreaty":11698,"Ġabsence":11699,"Ġethical":11700,"Ġ1956":11701,"Ġcombat":11702,"Ġcombines":11703,"ĠHalloween":11704,"Ġmembership":11705,"Ġstriking":11706,"ademia":11707,"Ġsickness":11708,"ĠPeru":11709,"Ġfacil":11710,"Ġshowcased":11711,"Ġcruise":11712,"ĠMissouri":11713,"Ġholidays":11714,"Ġchampionships":11715,"ĠDelhi":11716,"ĠAccademia":11717,"Ġinferred":11718,"Ġtransferred":11719,"Ġcomponent":11720,"Ġencourage":11721,"between":11722,"ĠMoore":11723,"Ġtissues":11724,"Ġmystery":11725,"holm":11726,"speed":11727,"imetres":11728,"Ġsucceeded":11729,"Ġgallery":11730,"unteer":11731,"Ġresearchers":11732,"enezuela":11733,"Formulate":11734,"Ġadopted":11735,"ĠWarner":11736,"CD":11737,"Czech":11738,"Jan":11739,"PE":11740,"SA":11741,"ben":11742,"eu":11743,"mel":11744,"nut":11745,"watch":11746,"Ġteddy":11747,"Ġsight":11748,"Ġsaving":11749,"Ġwool":11750,"Ġcattle":11751,"itett":11752,"lets":11753,"ĠTrees":11754,"Ġlighter":11755,"oters":11756,"amer":11757,"amins":11758,"ĠCond":11759,"Ġforg":11760,"uten":11761,"Ġstages":11762,"Ġvul":11763,"ĠMother":11764,"ĠHa":11765,"ĠHot":11766,"Ġfrisbee":11767,"Ġshuttle":11768,"ĠFro":11769,"ĠEc":11770,"ĠLo":11771,"ĠJuan":11772,"ĠJerusalem":11773,"than":11774,"thony":11775,"izer":11776,"Ġspins":11777,"Ġ59":11778,"Ġcomparing":11779,"geted":11780,"Ġherd":11781,"aky":11782,"Ġhelpers":11783,"Ġevil":11784,"ifically":11785,"Ġversions":11786,"Ġapproved":11787,"awa":11788,"Ġcrude":11789,"ĠAndra":11790,"cony":11791,"anean":11792,"Ġvariation":11793,"ĠBlock":11794,"ĠMarie":11795,"ĠAbove":11796,"Reg":11797,"Ġjokes":11798,"Ġconcerning":11799,"Ġ1977":11800,"Ġcondem":11801,"ĠGufa":11802,"ĠGujar":11803,"Ġcapturing":11804,"Ġpractices":11805,"Ġstriker":11806,"Ġcelebrating":11807,"racial":11808,"Ġparticipants":11809,"Ġlimestone":11810,"Ġautomatically":11811,"Ġexercises":11812,"Ġpaintings":11813,"Ġlifting":11814,"Ġentirely":11815,"Ġbritain":11816,"ĠAppleton":11817,"Next":11818,"Ġpuddle":11819,"Ġsuspended":11820,"Ġinhabitants":11821,"Ġfrustrated":11822,"Ġblonde":11823,"Ġsequel":11824,"Ġaustralian":11825,"IRTH":11826,"ĠArchitett":11827,"Ġduty":11828,"ĠBirds":11829,"ĠCosta":11830,"mbrie":11831,"Ġgametes":11832,"Ġallegations":11833,"ĠAmdavad":11834,"ĠPriestley":11835,"ĠArchitettura":11836,"&#":11837,"BN":11838,"bons":11839,"gre":11840,"ju":11841,"nor":11842,"nation":11843,"park":11844,"rating":11845,"encing":11846,"Ġwis":11847,"Ġcord":11848,"Ġcosm":11849,"rett":11850,"iterr":11851,"Ġbil":11852,"Ġbacon":11853,"leans":11854,"Ġmos":11855,"aration":11856,"alph":11857,"eda":11858,"ĠAmer":11859,"ĠAgency":11860,"Ġbeings":11861,"ĠIV":11862,"ĠSnow":11863,"etime":11864,"Ġreaches":11865,"Ġrevenue":11866,"rilled":11867,"ĠBorn":11868,"ĠBoris":11869,"Ġshaving":11870,"ĠDue":11871,"sts":11872,"ulted":11873,"ĠEff":11874,"three":11875,"Ġuncertain":11876,"Ġunpleasant":11877,"Ġalg":11878,"Ġalarm":11879,"Ġ.;":11880,"abat":11881,"Ġdescriptions":11882,"ipitation":11883,"Ġblind":11884,"Ġblog":11885,"ĠAlcatraz":11886,"Ġbrick":11887,"orns":11888,"Ġrecall":11889,"Ġmuslim":11890,"Ġformula":11891,"Ġskirt":11892,"Ġattitude":11893,"Ġbackyard":11894,"Ġbuilder":11895,"Ġexpanding":11896,"ierce":11897,"Ġmonitor":11898,"Ġsliding":11899,"bey":11900,"Ġmissile":11901,"Ġ98":11902,"ĠZimbabwe":11903,"Ġheaded":11904,"Ġalbums":11905,"Ġdesignated":11906,"Ġwarmer":11907,"Ġformerly":11908,"Ġsandy":11909,"ĠGuinea":11910,"Ġpeacekeep":11911,"Ġ1953":11912,"Ġspeakers":11913,"asketball":11914,"Ġbathtub":11915,"Ġbottles":11916,"ĠUpd":11917,"Ġvacc":11918,"ĠSmall":11919,"Ġimplying":11920,"Ġconsisting":11921,"Ġpreventing":11922,"ĠMagn":11923,"Ġpulls":11924,"Ġmagnetic":11925,"Ġhurry":11926,"Ġcereal":11927,"ĠLouisiana":11928,"ĠMelbourne":11929,"Ġtubes":11930,"Ġpreparation":11931,"option":11932,"ĠIslamic":11933,"Ġvowels":11934,"Ġjewelry":11935,"Ġdiligently":11936,"Ġnominated":11937,"Ġgastron":11938,"Ġreputation":11939,"Ġdotted":11940,"Ġfascinating":11941,"Ġenzymes":11942,"Ġambiguous":11943,"ittsburgh":11944,".).":11945,"Jim":11946,"Japanese":11947,"LT":11948,"Mark":11949,"Paul":11950,"bank":11951,"buster":11952,"cm":11953,"found":11954,"hib":11955,"kers":11956,"normal":11957,"xical":11958,"inch":11959,"Ġsi":11960,"Ġfib":11961,"Ġmelt":11962,"Ġmunic":11963,"Ġtoxic":11964,"enter":11965,"Ġduck":11966,"Ġdrew":11967,"endar":11968,"Ġhip":11969,"Ġhath":11970,"ĠTy":11971,"llar":11972,"ivate":11973,"idency":11974,"ĠIl":11975,"ĠSV":11976,"Ġyield":11977,"ĠCab":11978,"Ġforests":11979,"ĠWords":11980,"ĠWikipedia":11981,"veoli":11982,"Ġstairs":11983,"ĠBus":11984,"herd":11985,"umbers":11986,"Ġasia":11987,"agor":11988,"Ġvoices":11989,"ĠMas":11990,"ĠHu":11991,"andthe":11992,"ĠFA":11993,"Ġcancel":11994,"Ġweaker":11995,"Ġjam":11996,"Ġunknown":11997,"Ġspy":11998,"ĠKelly":11999,"Ġencomp":12000,"closed":12001,"ĠStart":12002,"aka":12003,"cluding":12004,"ĠReplace":12005,"Ġshouldn":12006,"Ġfuneral":12007,"Ġsubway":12008,"Ġ61":12009,"Ġ63":12010,"Ġdecades":12011,"Ġ71":12012,"Ġmaintenance":12013,"Ġ81":12014,"Ġexternal":12015,"ĠDece":12016,"yme":12017,"ammed":12018,"Ġefficiency":12019,"Ġnicely":12020,"ĠAmar":12021,"Ġcourage":12022,"Ġcontinents":12023,"lights":12024,"Ġlegend":12025,"ĠAlexander":12026,"Ġphotographer":12027,"Ġbarack":12028,"Ġtemporary":12029,"Ġdelights":12030,"ĠStewart":12031,"ĠOrder":12032,"minute":12033,"Ġsimplified":12034,"Ġparaphrasing":12035,"Ġprotecting":12036,"Ġrepresentative":12037,"Ġimpressed":12038,"Ġsweating":12039,"ĠRecall":12040,"Ġearning":12041,"Astella":12042,"fielder":12043,"Ġtargeted":12044,"Ġspreading":12045,"ĠMatador":12046,"ĠAIDAstella":12047,"ĠRomeo":12048,"Ġalphabets":12049,"ĠKennedy":12050,"Ġfantasy":12051,"Ġcandidates":12052,"Ġpencils":12053,"ĠStanley":12054,"Ġchromosomes":12055,"kilometres":12056,"Ġlandscapes":12057,"necessary":12058,"Several":12059,"Ġtobacco":12060,"Use":12061,"human":12062,"ih":12063,"mic":12064,"mart":12065,"pes":12066,"take":12067,"Ġturt":12068,"Ġsends":12069,"orph":12070,"Ġcrazy":12071,"Ġfats":12072,"Ġbou":12073,"Ġmm":12074,"arios":12075,"Ġdough":12076,"Ġdrill":12077,"asis":12078,"Ġnail":12079,"Ġnormally":12080,"Ġhong":12081,"ĠTerr":12082,"Ġlonely":12083,"estation":12084,"ĠAval":12085,"ussels":12086,"rov":12087,"ĠCook":12088,"urther":12089,"Ġstere":12090,"apse":12091,"ĠMaine":12092,"Ġfranch":12093,"Ġfraud":12094,"Ġshield":12095,"Ġplenty":12096,"Ġplacing":12097,"ĠRh":12098,"ĠRiverside":12099,"Ġsear":12100,"ĠLl":12101,"ĠJenny":12102,"Ġdeer":12103,"Ġdecember":12104,"Ġwheat":12105,"plants":12106,"Ġalign":12107,"Ġspicy":12108,"rys":12109,"Ġclient":12110,"Ġacclaimed":12111,"ĠChannel":12112,"ĠStone":12113,"rah":12114,"Ġresil":12115,"ĠReport":12116,"Ġscoring":12117,"Ġdiscomfort":12118,"Ġovercome":12119,"Ġboots":12120,"azor":12121,"Ġmode":12122,"Ġcrashing":12123,"amps":12124,"ĠAndre":12125,"Ġsignal":12126,"ĠDead":12127,"Ġrefract":12128,"iginal":12129,"ĠBeck":12130,"ĠBlair":12131,"Ġsecondary":12132,"ammad":12133,"Ġbadly":12134,"Ġsocks":12135,"Ġlowest":12136,"Ġcellular":12137,"Ġheadache":12138,"ĠGrant":12139,"Ġ164":12140,"Ġ150":12141,"ika":12142,"ĠManor":12143,"ĠManila":12144,"Ġtowns":12145,"Ġrainfall":12146,"Ġbusinessman":12147,"Ġpenal":12148,"Ġcovering":12149,"Ġhotter":12150,"itcher":12151,"ĠCooper":12152,"Ġdissolve":12153,"Ġcertainly":12154,"lantic":12155,"Ġtomatoes":12156,"ĠIncor":12157,"Ġcaptivated":12158,"Ġconsistency":12159,"Ġsettled":12160,"Ġtaxi":12161,"Ġemerged":12162,"Ġmagnet":12163,"Ġdecorate":12164,"Ġfundamental":12165,"Ġmolecule":12166,"Ġlifted":12167,"Ġrolls":12168,"Ġrapper":12169,"Ġmerch":12170,"remes":12171,"Ġdinosaur":12172,"hua":12173,"Ġanticipation":12174,"Ġrodent":12175,"Ġcollaboration":12176,"ĠWheel":12177,"Science":12178,"hydration":12179,"Ġwidth":12180,"Ġopponent":12181,"ĠAnalysis":12182,"Ġdetergent":12183,"Ġintriguing":12184,"Ġwarranty":12185,"Ġderivative":12186,"ĠTogether":12187,"Because":12188,"Ġsubmarine":12189,"ĠCaterpillar":12190,"iterranean":12191,"600":12192,"BI":12193,"God":12194,"Give":12195,"IA":12196,"RA":12197,"WAY":12198,"even":12199,"father":12200,"mother":12201,"oir":12202,"oil":12203,"si":12204,"sentence":12205,"zo":12206,"Ġtong":12207,"Ġtied":12208,"Ġah":12209,"hetic":12210,"ativity":12211,"Ġbrazil":12212,"Ġancest":12213,"ental":12214,"Ġnicht":12215,"Ġhike":12216,"ĠTit":12217,"Ġlucky":12218,"owess":12219,"Ġgroom":12220,"Ġyards":12221,"Ġyoga":12222,"ĠCH":12223,"Ġraw":12224,"Ġitaly":12225,"urities":12226,"Ġwhatever":12227,"unes":12228,"Ġstol":12229,"ĠBand":12230,"ĠBry":12231,"ĠGun":12232,"Ġfright":12233,"Ġshots":12234,"ĠDales":12235,"ĠDisco":12236,"uli":12237,"ĠRail":12238,"ordinary":12239,"Ġchains":12240,"ĠNar":12241,"Ġexem":12242,"ĠIncre":12243,"ĠJama":12244,"ocal":12245,"Ġlexical":12246,"Then":12247,"Ġjuly":12248,"Ġunve":12249,"ureau":12250,"avail":12251,"Ġclown":12252,"Ġcalories":12253,"formed":12254,"ickens":12255,"Ġspelling":12256,"Ġresigned":12257,"ĠAnimals":12258,"Ġcargo":12259,"Ġperhaps":12260,"?\".":12261,"issors":12262,"redit":12263,"Ġrecip":12264,"ĠNeeded":12265,"onsider":12266,"Ġsubt":12267,"Ġversatile":12268,"Ġinsur":12269,"ĠArm":12270,"Ġpublish":12271,"Ġcracks":12272,"Ġintestine":12273,"Ġgreatly":12274,"flower":12275,"flowers":12276,"Ġmarvel":12277,"short":12278,"ĠJustice":12279,"Ġsporting":12280,"Ġjoins":12281,"Ġwaited":12282,"Ġlandmark":12283,"Ġxname":12284,"Ġcolder":12285,"Ġroads":12286,"Ġmaintains":12287,"Ġmaintained":12288,"ATOR":12289,"strong":12290,"Ġcandle":12291,"Ġawa":12292,"ĠCommittee":12293,"Ġsenate":12294,"ĠJimmy":12295,"Ġfarming":12296,"Ġpurchasing":12297,"Ġfairy":12298,"Ġgarlic":12299,"Ġaccounts":12300,"Ġprecipitation":12301,"aaaa":12302,"Ġloan":12303,"Ġenhancing":12304,"Ġhunger":12305,"Ġkorean":12306,"Ġdiplomatic":12307,"ĠConfirm":12308,"Ġhoop":12309,"Ġallegedly":12310,"Ġcherished":12311,"Ġcigarettes":12312,"ĠCLUB":12313,"ĠVersus":12314,"Ġmatters":12315,"Ġmajestic":12316,"ĠXhosa":12317,"ĠAcharya":12318,"ĠDecembrie":12319,"ĠAvalon":12320,";...":12321,"Members":12322,"Off":12323,"Pol":12324,"TV":12325,"cos":12326,"cup":12327,"del":12328,"ext":12329,"eur":12330,"fy":12331,"fight":12332,"lar":12333,"singer":12334,"tail":12335,"turn":12336,"vas":12337,"Ġure":12338,"Ġtherap":12339,"rell":12340,"reason":12341,"Ġbend":12342,"Ġthroat":12343,"edge":12344,"ĠTen":12345,"llah":12346,"estyle":12347,"ĠSorry":12348,"Ġforec":12349,"ĠWait":12350,"ĠWomen":12351,"riers":12352,"ĠGur":12353,"ĠGolf":12354,"Ġorch":12355,"Ġvintage":12356,"ĠMA":12357,"Ġhes":12358,"Ġshy":12359,"ĠRight":12360,"ĠFive":12361,"istent":12362,"Ġcha":12363,"ĠLar":12364,"Ġposted":12365,"Ġprowess":12366,"ubble":12367,"Ġspong":12368,"Ġspanish":12369,"eremy":12370,"ovel":12371,"Ġnood":12372,"Ġclause":12373,"Ġclauses":12374,"Ġcalifornia":12375,"ection":12376,"Ġagents":12377,"ĠSox":12378,"obin":12379,"Ġflor":12380,"icture":12381,"Ġcarrots":12382,"ĠAltern":12383,"ĠVeron":12384,"Ġentails":12385,"hedral":12386,"ĠIndepend":12387,"ĠNeed":12388,"Ġprocessing":12389,"Ġeveryday":12390,"ĠTravel":12391,"Ġcrush":12392,"Ġassault":12393,"ibal":12394,"Ġsecuring":12395,"Ġmonkey":12396,"ĠSeattle":12397,"Ġ108":12398,"Ġ109":12399,"parents":12400,"ĠAustrian":12401,"ĠBeat":12402,"Ġbreast":12403,"ammy":12404,"Ġ126":12405,"Ġclassical":12406,"boards":12407,"Ġ116":12408,"Ġpromises":12409,"Ġlawmakers":12410,"Ġsupporters":12411,"Ġtradition":12412,"ĠdishVar":12413,"ictionary":12414,"Ġreplacing":12415,"ĠOtherwise":12416,"Ġdemocracy":12417,"ĠWilder":12418,"Ġpanel":12419,"Ġpalace":12420,"Ġachieving":12421,"Ġdarkness":12422,"Ġmedication":12423,"Ġsells":12424,"ĠObject":12425,"Ġanalyzing":12426,"Ġcontracts":12427,"spring":12428,"Ġstrategies":12429,"Ġsandwiches":12430,"Ġmeasurement":12431,"clusively":12432,"Ġboredom":12433,"enza":12434,"Ġvessel":12435,"ĠArabic":12436,"Ġsanctions":12437,"ladim":12438,"Ġsequence":12439,"ĠHyper":12440,"Ġliterary":12441,"Ġdetective":12442,"Ġkicked":12443,"Ġnicer":12444,"ĠSomething":12445,"Ġstrictest":12446,"Ġeliminate":12447,"Ġenemies":12448,"Ġhorizon":12449,"Ġabsorbs":12450,"Ġmembrane":12451,"PLACE":12452,"thropods":12453,"Ġinfrast":12454,"ĠdishVariation":12455,"Acc":12456,"DP":12457,"Gu":12458,"Gas":12459,"Get":12460,"Jo":12461,"Run":12462,"Sim":12463,"Us":12464,"best":12465,"bag":12466,"did":12467,"fighter":12468,"hn":12469,"hors":12470,"ioc":12471,"sw":12472,"viron":12473,"Ġauf":12474,"inery":12475,"isure":12476,"Ġcoup":12477,"Ġpipes":12478,"Ġbite":12479,"lem":12480,"Ġdro":12481,"Ġdup":12482,"Ġdull":12483,"Ġinver":12484,"Ġinstruct":12485,"edict":12486,"AND":12487,"Ġgermany":12488,"ctic":12489,"Ġeuk":12490,"Ġbeaches":12491,"ĠSE":12492,"ĠCITY":12493,"ĠWAS":12494,"erst":12495,"uture":12496,"utors":12497,"unette":12498,"ĠPoint":12499,"ilomar":12500,"Ġ130":12501,"agus":12502,"aco":12503,"Ġshadow":12504,"Ġshrimp":12505,"state":12506,"ĠRO":12507,"ĠRa":12508,"ĠFrew":12509,"ĠNY":12510,"ĠNix":12511,"ĠNUMBER":12512,"Ġweird":12513,"Ġlips":12514,"Ġexit":12515,"Ġtrucks":12516,"ĠYORK":12517,"Ġallerg":12518,"Ġgranted":12519,"ĠUt":12520,"Ġfeb":12521,"ĠStuart":12522,"Ġroses":12523,"akh":12524,"Ġverd":12525,"Ġresem":12526,"Ġreserve":12527,"Ġoffices":12528,"Ġdisaster":12529,"Ġbless":12530,"Ġcarb":12531,"ĠVic":12532,"orned":12533,"Ġanywhere":12534,"Ġindones":12535,"Ġrecre":12536,"Ġseeks":12537,"ĠProgram":12538,"phib":12539,"Ġdecade":12540,"Ġgotten":12541,"Ġmeaningful":12542,"Ġoriginated":12543,"Ġswings":12544,"ĠPrices":12545,"Ġthoughtful":12546,"ĠAmatric":12547,"Ġcheaper":12548,"Ġuk":12549,"Ġceiling":12550,"165":12551,"ĠCurrent":12552,"Ġpracticed":12553,"Ġimmense":12554,"Property":12555,"Ġstatistics":12556,"Ġsubstant":12557,"ployment":12558,"Ġlaughs":12559,"Ġtaller":12560,"Ġattracting":12561,"Ġnutrit":12562,"ĠSummit":12563,"Aluna":12564,"Ġfinishing":12565,"Ġfreezes":12566,"Ġgarbage":12567,"aiti":12568,"Ġlosses":12569,"ĠalternativeName":12570,"Ġobservation":12571,"ĠAIDAluna":12572,"Ġadministrative":12573,"allel":12574,"Ġjournalist":12575,"Ġwireless":12576,"Ġemphasizing":12577,"Ġinvolvement":12578,"ĠWayne":12579,"Ġanticipated":12580,"ĠChampionships":12581,"Ġlasted":12582,"Ġabsolutely":12583,"Ġcheerful":12584,"Ġadvertise":12585,"OSI":12586,"ĠToronto":12587,"Ġaquatic":12588,"Ġenemy":12589,"Ġbeliefs":12590,"Ġdoubt":12591,"Ġgeographical":12592,"Ġcinema":12593,"Ġretirement":12594,"nikov":12595,"Ġferns":12596,"ankees":12597,"ĠVermont":12598,"Ġbrilliant":12599,"Ġtantalizing":12600,"ĠAmatriciana":12601,",'":12602,"110":12603,"400":12604,"Car":12605,"LC":12606,"Net":12607,"SP":12608,"Soft":12609,"aust":12610,"bod":12611,"cour":12612,"lit":12613,"mod":12614,"pm":12615,"sand":12616,"would":12617,"Ġtang":12618,"Ġtender":12619,"inction":12620,"Ġfits":12621,"Ġpores":12622,"Ġbark":12623,"Ġants":12624,"arium":12625,"Ġthread":12626,"eding":12627,"ĠTirst":12628,"ller":12629,"llor":12630,"ĠAD":12631,"idel":12632,"amo":12633,"amber":12634,"quot":12635,"Ġrein":12636,"ĠCa":12637,"ĠCreek":12638,"ĠGro":12639,"Ġorig":12640,"Ġvs":12641,"ĠRub":12642,"ĠRUN":12643,"elve":12644,"illage":12645,"ĠEle":12646,"ĠEqu":12647,"ĠLiv":12648,"ĠLie":12649,"ĠLincoln":12650,"Ġgrab":12651,"Ġarteries":12652,"iphol":12653,"Ġimplied":12654,"ĠChild":12655,"Ġpersonnel":12656,"Ġpartial":12657,"obic":12658,"airy":12659,"ifications":12660,"Ġtransc":12661,"idential":12662,"ohyd":12663,"Ġcray":12664,"Ġregistration":12665,"Ġpoles":12666,"Ġdont":12667,"Ġrunners":12668,"because":12669,"Ġglue":12670,"Ġlasting":12671,"Ġvisually":12672,"Ġgenerations":12673,"ĠPlus":12674,"Ġbirthplace":12675,"Ġrocky":12676,"fecture":12677,"ĠGrace":12678,"Ġmeetings":12679,"Ġprofits":12680,"ĠDoctor":12681,"Ġ1961":12682,"Ġsuitcase":12683,"Ġfights":12684,"ĠMayor":12685,"Ġexplained":12686,"Team":12687,"Ġmarketing":12688,"Ġpublication":12689,"ĠArea":12690,"Ġembark":12691,"Ġannounce":12692,"Ġdestruct":12693,"Ġremembered":12694,"Ġbalanced":12695,"Ġburgers":12696,"ĠLaunch":12697,"ĠInsulin":12698,"Ġsensitive":12699,"ĠSchiphol":12700,"Ġmistaken":12701,"Ġguns":12702,"Ġabsorbing":12703,"Ġseriously":12704,"Ġfertile":12705,"Ġimmediate":12706,"Ġparliamentary":12707,"ĠEvil":12708,"ĠRelationship":12709,"ĠLucy":12710,"rupted":12711,"Ġvitamins":12712,"Ġdentist":12713,"Ġinflation":12714,"Ġhydrocar":12715,"ĠBuddh":12716,"Ġlyrics":12717,"Ġviewers":12718,"separated":12719,"ĠTirstrup":12720,"410":12721,"Col":12722,"Mike":12723,"Served":12724,"TA":12725,"Up":12726,"hall":12727,"page":12728,"rise":12729,"sys":12730,"wanted":12731,"yo":12732,"Ġtill":12733,"Ġtires":12734,"Ġaugust":12735,"anut":12736,"anne":12737,"Ġpace":12738,"Ġbaked":12739,"Ġmask":12740,"aro":12741,"Ġdorm":12742,"Ġducks":12743,"ĠTI":12744,"lli":12745,"owse":12746,"ĠID":12747,"ĠSP":12748,"ĠSet":12749,"ĠSong":12750,"ĠSem":12751,"ĠSoftware":12752,"ĠCAP":12753,"Ġfork":12754,"riel":12755,"ĠBi":12756,"ĠBasketball":12757,"odium":12758,"Ġcongr":12759,"Ġoranges":12760,"Ġvest":12761,"ĠHit":12762,"ĠHoly":12763,"acob":12764,"ĠDim":12765,"ĠRick":12766,"ĠFight":12767,"ĠFarm":12768,"Ġcomfy":12769,"ĠNep":12770,"Ġseventh":12771,"ĠLab":12772,"Ġposter":12773,".\".":12774,"Ġprincess":12775,"Ġarena":12776,"ataka":12777,"Ġfeathers":12778,"ĠWhit":12779,"obil":12780,"ĠAnthony":12781,"Ġartific":12782,"orno":12783,"ĠConserv":12784,"Ġinsight":12785,"Ġdeciding":12786,"uccess":12787,"Ġmodest":12788,"Ġexposure":12789,"velt":12790,"Ġ83":12791,"Ġslides":12792,"However":12793,"auty":12794,"ĠClick":12795,"Ġelectromagnetic":12796,"ĠScient":12797,"ĠPrincess":12798,"ĠExp":12799,"ĠPhill":12800,"Ġcostumes":12801,"Ġmessy":12802,"Ġcommunist":12803,"Ġsteal":12804,"Ġconnects":12805,"Ġtechnique":12806,"playing":12807,"ĠSupport":12808,"Ġadventur":12809,"ĠAssuming":12810,"Ġpreceded":12811,"Ġtouched":12812,"Ġmanufactured":12813,"Ġdenied":12814,"ĠRecogn":12815,"Ġscenarios":12816,"ĠReserve":12817,"Ġsenator":12818,"Level":12819,"Ġcirculatory":12820,"ĠMrs":12821,"iosity":12822,"Ġaims":12823,"Ġneighboring":12824,"build":12825,"Ġclimbed":12826,"Ġfunding":12827,"Ġcoastal":12828,"Ġpremium":12829,"ĠAlfons":12830,"ĠrunwayLength":12831,"Ġmagazines":12832,"company":12833,"asmus":12834,"Ġcompeted":12835,"Ġgravitational":12836,"Ġelegantly":12837,"ĠClassify":12838,"Ġpraised":12839,"Ġlawyers":12840,"Ġfloating":12841,"Ġfrozen":12842,"ockings":12843,"Ġdistributed":12844,"Ġresistors":12845,"ĠHygie":12846,"Ġgraduated":12847,"Ġmushrooms":12848,"Ġinquiring":12849,"ĠPeninsula":12850,"Ġcigarette":12851,"ĠDiscuss":12852,"Ġpregnancy":12853,"osnia":12854,"ĠColombian":12855,"Ġparasites":12856,"Ġguarante":12857,"Ġoverwhelming":12858,"Ġrescue":12859,"Ġadapted":12860,"Ġorchestra":12861,"rystal":12862,"ĠPearl":12863,"ĠGorbach":12864,"Ġcircumstances":12865,"ĠBlockbuster":12866,"ĠGujarat":12867,"ladimir":12868,"Ġinfrastructure":12869,"Ġfebruary":12870,"ĠHygiea":12871,"Bob":12872,"Business":12873,"Every":12874,"Go":12875,"Gener":12876,"Sk":12877,"Syn":12878,"Years":12879,"fin":12880,"first":12881,"large":12882,"main":12883,"vation":12884,"wright":12885,"inte":12886,"eras":12887,"orious":12888,"anse":12889,"Ġfer":12890,"itivity":12891,"Ġpile":12892,"Ġpaul":12893,"Ġbases":12894,"alia":12895,"ERS":12896,"Ġlays":12897,"ĠAire":12898,"ĠAraf":12899,"Ġbeverages":12900,"ĠSad":12901,"ĠSue":12902,"role":12903,"oske":12904,"osovo":12905,"ĠCapital":12906,"Ġrhythm":12907,"lde":12908,"Ġquaint":12909,"adis":12910,"adise":12911,"ĠBah":12912,"children":12913,"ĠPun":12914,"ĠPap":12915,"oding":12916,"ĠGot":12917,"olfer":12918,"ilight":12919,"agic":12920,"ĠHyd":12921,"ĠHamilton":12922,"acu":12923,"ĠDust":12924,"ĠFD":12925,"Ġmeadow":12926,"Ġseas":12927,"Ġseated":12928,"ĠJam":12929,"Ġlean":12930,"Ġprinted":12931,"Ġunfl":12932,"week":12933,"Ġcorrespond":12934,"Ġgrabb":12935,"ĠQuarter":12936,"ouses":12937,"Ġcompact":12938,"assion":12939,"Ġreviewed":12940,"ruit":12941,"Ġthereby":12942,"achine":12943,"Ġresume":12944,"Ġoffspring":12945,"ĠReuters":12946,"Ġscandal":12947,"Ġlock":12948,"Ġflights":12949,"Ġsheets":12950,"Ġshells":12951,"ometer":12952,"ĠAsher":12953,"ĠIndividuals":12954,"Ġsuburb":12955,"Ġ69":12956,"ĠArn":12957,"Ġbooth":12958,"ĠIndianapolis":12959,"Ġ180":12960,"ĠOntario":12961,"Ġswift":12962,"Ġzyg":12963,"Ġheading":12964,"attered":12965,"150":12966,"Ġcatches":12967,"Ġsurfing":12968,"Ġclosing":12969,"ĠCaribbean":12970,"haired":12971,"Ġhorrible":12972,"urchase":12973,"Ġembassy":12974,"Ġsquirrel":12975,"Ġtwist":12976,"ĠFlowers":12977,"Ġconstructed":12978,"Ġdealers":12979,"Ġrenal":12980,"trans":12981,"Ġ1947":12982,"ĠDenver":12983,"Ġhostage":12984,"ĠBuy":12985,"Ġcartoons":12986,"Ġbehaviors":12987,"agonal":12988,"Ġdecoration":12989,"Ġfunds":12990,"ĠHelena":12991,"foot":12992,"ĠAlfa":12993,"Ġpersu":12994,"Ġresource":12995,"Ġachievements":12996,"ĠBrook":12997,"ĠSystems":12998,"Ġcalculate":12999,"ĠFilipino":13000,"Ġexpertise":13001,"Ġdisappointingly":13002,"Ġuppercase":13003,"Ġtrailer":13004,"ĠTurkmen":13005,"Ġlegislation":13006,"Ġhammer":13007,"ĠMuslims":13008,"ĠCampbell":13009,"ĠRayel":13010,"Period":13011,"Ġdancer":13012,"Ġ_____":13013,"ĠRonald":13014,"Ġseamlessly":13015,"Ġtransmission":13016,"amburger":13017,"ĠKentucky":13018,"Ġincredible":13019,"ĠMahmud":13020,"ĠTaib":13021,"ĠHawaii":13022,"Ġseptember":13023,"overeign":13024,"Ġtongue":13025,"EA":13026,"EP":13027,"Wind":13028,"bes":13029,"bus":13030,"card":13031,"kt":13032,"aton":13033,"atus":13034,"often":13035,"Ġfills":13036,"Ġbom":13037,"Ġmc":13038,"enta":13039,"Ġdas":13040,"Ġdial":13041,"Ġnurt":13042,"Ġhire":13043,"Ġhook":13044,"ĠTool":13045,"ĠTiger":13046,"estry":13047,"ĠAbr":13048,"ĠAenir":13049,"Ġgrip":13050,"Ġgaming":13051,"Ġeen":13052,"amous":13053,"ĠSams":13054,"Ġrecess":13055,"immer":13056,"igor":13057,"igue":13058,"Ġfog":13059,"Ġstal":13060,"ĠBeth":13061,"ĠPiet":13062,"ĠGene":13063,"ĠGarden":13064,"olia":13065,"anta":13066,"ĠMountain":13067,"season":13068,"ĠDessert":13069,"ĠDerek":13070,"ĠRalph":13071,"ĠFigure":13072,"Ġsecre":13073,"ĠLive":13074,"udnikov":13075,"acelet":13076,"Ġmanual":13077,"verb":13078,"ĠThai":13079,"ributed":13080,"Ġacron":13081,"aret":13082,"iversities":13083,"Ġparallel":13084,"olds":13085,"Ġgoodbye":13086,"Ġblowing":13087,"Ġjustification":13088,"Ġanyway":13089,"ĠAsilomar":13090,"Ġtransition":13091,"Ġpreserve":13092,"Ġrelate":13093,"Ġattach":13094,"Ġdrought":13095,"Ġ62":13096,"exper":13097,"Ġpolish":13098,"Ġsunset":13099,"Ġglac":13100,"ĠShanghai":13101,"Ġeasiest":13102,"Ġevenly":13103,"Ġperforms":13104,"flies":13105,"ĠProt":13106,"ĠPrudnikov":13107,"ĠExc":13108,"Ġdistant":13109,"Ġmonthly":13110,"Ġbarrier":13111,"Ġcease":13112,"1634":13113,"Ġpayments":13114,"Ġ1952":13115,"Ġaviation":13116,"tti":13117,"ttar":13118,"ĠGreenland":13119,"Ġsegmented":13120,"Ġhotels":13121,"Ġaccessible":13122,"Ġcandles":13123,"Ġ1945":13124,"Ġpalind":13125,"Ġmicro":13126,"Ġvictims":13127,"Ġintroduce":13128,"unta":13129,"Ġderived":13130,"ĠFinancial":13131,"Ġutens":13132,"Ġcurrencies":13133,"party":13134,"ĠNorwegian":13135,"Organ":13136,"Ġsubtraction":13137,"Ġmutual":13138,"ĠSociety":13139,"Ġconvicted":13140,"Ġbowling":13141,"Ġrotating":13142,"Ġflavorful":13143,"Ġliterature":13144,"Ġstylish":13145,"imeters":13146,"Ġporch":13147,"Ġconservation":13148,"Ġtunnel":13149,"ĠMotor":13150,"Ġsoda":13151,"Ġsodium":13152,"ĠGiants":13153,"Ġvocalist":13154,"Ġrisks":13155,"Ġconnotation":13156,"ĠLibrarians":13157,"vironment":13158,"ĠArafat":13159,"Ġunflattering":13160,"Ġzygote":13161,"Ġacronym":13162,"Bet":13163,"Dr":13164,"Europe":13165,"Fin":13166,"Option":13167,"PC":13168,"Salle":13169,"UP":13170,"cock":13171,"casting":13172,"eled":13173,"fol":13174,"film":13175,"hot":13176,"iples":13177,"love":13178,"nx":13179,"nan":13180,"rav":13181,"vens":13182,"vada":13183,"wall":13184,"yer":13185,"yll":13186,"Ġtab":13187,"oni":13188,"Ġsie":13189,"Ġsib":13190,"Ġstead":13191,"Ġwishes":13192,"oust":13193,"Ġnin":13194,"ĠTed":13195,"ĠTower":13196,"Ġlymph":13197,"owed":13198,"Ġgamb":13199,"Ġbeam":13200,"amas":13201,"ĠIBM":13202,"irates":13203,"ĠCertain":13204,"Ġrank":13205,"Ġrains":13206,"uration":13207,"ersburg":13208,"unks":13209,"adio":13210,"Ġstoring":13211,"ĠPant":13212,"oderm":13213,"Ġconducted":13214,"Ġvet":13215,"Ġprove":13216,"ĠDuke":13217,"ĠDarfur":13218,"ĠRace":13219,"ĠFL":13220,"ĠFish":13221,"Ġcany":13222,"Ġseep":13223,"ĠLater":13224,"Ġexpelled":13225,"ĠInv":13226,"arta":13227,"Ġjth":13228,"Ġjets":13229,"wear":13230,"Ġmaneu":13231,"kso":13232,"ribed":13233,"ĠUttar":13234,"ĠKnight":13235,"Ġclin":13236,"Ġcler":13237,"ĠChile":13238,"ĠChampions":13239,"Ġresulted":13240,"Ġscissors":13241,"Ġcarp":13242,"airo":13243,"Ġadorned":13244,"elling":13245,"Ġspecialized":13246,"Ġattracted":13247,"ĠCommon":13248,"Ġdecides":13249,"Ġfinance":13250,"Ġcrashed":13251,"Ġassumed":13252,"ampa":13253,"Ġ73":13254,"comed":13255,"been":13256,"beat":13257,"Ġsignals":13258,"overnment":13259,"Ġauthors":13260,"Ġperformer":13261,"Ġrefused":13262,"Ġretrie":13263,"flakes":13264,"Ġdisturb":13265,"rophe":13266,"ĠAdvent":13267,"ĠAdisham":13268,"Ġcontinuing":13269,"Ġbehave":13270,"Ġrealm":13271,"Ġrealize":13272,"Ġcaters":13273,"ĠBakso":13274,"ĠCarter":13275,"Ġsnowflakes":13276,"agedy":13277,"ĠOrleans":13278,"Ġdecreased":13279,"Ġdemands":13280,"Ġkidney":13281,"ugging":13282,"Ġpossibilities":13283,"Ġ1946":13284,"ccoli":13285,"Ġdemonym":13286,"Ġextraordinary":13287,"Ġfarmers":13288,"abbi":13289,"Ġranking":13290,"Ġexhilar":13291,"ĠPrix":13292,"777":13293,"ĠPosition":13294,"Ġcrystal":13295,"otterdam":13296,"ĠBrazilian":13297,"ĠJonathan":13298,"Ġrepublican":13299,"Ġimplement":13300,"Ġvitamin":13301,"Ġavoiding":13302,"solo":13303,"ĠKarnataka":13304,"Ġvoiced":13305,"Ġwhisper":13306,"ducation":13307,"Ġvelocity":13308,"Ġcomplicated":13309,"Ġankle":13310,"ĠChairman":13311,"expensive":13312,"ollusks":13313,"Ġtelescope":13314,"Ġfranchise":13315,"Aust":13316,"Cont":13317,"Def":13318,"Fi":13319,"MP":13320,"Most":13321,"Russ":13322,"TR":13323,"cul":13324,"dem":13325,"giving":13326,"hov":13327,"jp":13328,"kind":13329,"lan":13330,"monds":13331,"pub":13332,"rings":13333,"sad":13334,"such":13335,"spec":13336,"tical":13337,"iner":13338,"inator":13339,"Ġsovereign":13340,"atist":13341,"Ġcert":13342,"Ġpant":13343,"Ġpist":13344,"Ġbent":13345,"Ġbanned":13346,"techn":13347,"Ġmang":13348,"Ġharsh":13349,"ĠAgo":13350,"etary":13351,"Ġyucky":13352,"Ġwhale":13353,"Ġquote":13354,"adi":13355,"oping":13356,"ĠBert":13357,"ĠBuff":13358,"ithuan":13359,"charge":13360,"ĠPO":13361,"ĠPay":13362,"ĠPack":13363,"odore":13364,"ĠGh":13365,"agne":13366,"ĠMovie":13367,"Ġheaven":13368,"ĠDifferent":13369,"ĠFund":13370,"Ġchickens":13371,"ĠLabor":13372,"Ġkicking":13373,"Ġprince":13374,"plays":13375,"Ġalveoli":13376,"avan":13377,"Ġsomewhat":13378,"abol":13379,"Ġworries":13380,"Ġcalendar":13381,"Ġapost":13382,"Ġherb":13383,"ctually":13384,"Ġneedle":13385,"ĠUniverse":13386,"ĠcityServed":13387,"Ġbuff":13388,"ĠVideo":13389,"Ġdiff":13390,"Ġthanked":13391,"Ġthrown":13392,"Ġthrows":13393,"ĠNeave":13394,"Ġrelatively":13395,"aturated":13396,"azi":13397,"Ġfinals":13398,"tains":13399,"Ġmonument":13400,"Ġ101":13401,"ockets":13402,"Ġextend":13403,"Ġhumid":13404,"Ġauto":13405,"lington":13406,"Ġappet":13407,"ĠAbner":13408,"eyer":13409,"Ġexamine":13410,"ĠPhys":13411,"ĠIdol":13412,"Ġhaircut":13413,"Ġdepression":13414,"Ġtraded":13415,"Ġtablet":13416,"ĠDefense":13417,"Star":13418,"Ġensures":13419,"Ġcontrols":13420,"Ġagreements":13421,"ĠPolit":13422,"Ġcomfortably":13423,"Ġambassador":13424,"uggling":13425,"Ġaddressed":13426,"Ġpossession":13427,"Ġ1948":13428,"Ġbiological":13429,"ĠGlobal":13430,"ĠLaSalle":13431,"marcas":13432,"ĠMadin":13433,"ealous":13434,"ĠPlayers":13435,"Ġlifetime":13436,"Ġlifestyle":13437,"Ġskateboarder":13438,"Ġsharks":13439,"Ġhabitats":13440,"Ġuniforms":13441,"ĠALCO":13442,"ĠMountains":13443,"Ġslee":13444,"Ġduo":13445,"isphere":13446,"ĠKenya":13447,"Ġdisagreement":13448,"Ġmichael":13449,"Ġcontradicts":13450,"Ġdavid":13451,"Ġlicense":13452,"olphins":13453,"ĠUrgent":13454,"ĠDaily":13455,"Ġabandoned":13456,"ĠAWH":13457,"Ġthriller":13458,"Ġsustainable":13459,"Ġbankruptcy":13460,"Ġ(_).":13461,"Ġvulner":13462,"Ġcarbohyd":13463,"ĠAirey":13464,"Ġpalindrome":13465,"ATI":13466,"Gen":13467,"His":13468,"Mr":13469,"NRBQ":13470,"Oh":13471,"Pat":13472,"Sm":13473,"UC":13474,"UK":13475,"disc":13476,"girl":13477,"gins":13478,"hill":13479,"male":13480,"natural":13481,"qbal":13482,"soc":13483,"size":13484,"xe":13485,"Ġ.\"?":13486,"atomy":13487,"iser":13488,"Ġcact":13489,"anas":13490,"ania":13491,"itable":13492,"itating":13493,"itoring":13494,"Ġpled":13495,"Ġpound":13496,"Ġpale":13497,"Ġbinary":13498,"Ġmas":13499,"Ġmeron":13500,"Ġinher":13501,"omas":13502,"omotive":13503,"Ġhind":13504,"ĠAEK":13505,"Ġgi":13506,"Ġgulf":13507,"idae":13508,"ĠIqbal":13509,"ĠSher":13510,"Ġrect":13511,"ĠCyprus":13512,"opic":13513,"opard":13514,"Ġstroll":13515,"ithm":13516,"chair":13517,"umption":13518,"ĠMult":13519,"ĠHug":13520,"Ġshipping":13521,"ĠDC":13522,"ĠDame":13523,"ĠRights":13524,"Ġnotably":13525,"Ġchart":13526,"ĠNO":13527,"ĠNatural":13528,"Ġwealth":13529,"ĠLarry":13530,"Ġtrim":13531,"ĠJay":13532,"udes":13533,"TheSea":13534,"ĠYankees":13535,"plain":13536,"Ġcorp":13537,"Ġspan":13538,"Ġgrape":13539,"ĠKerry":13540,"Ġclip":13541,"ipality":13542,"Ġprevents":13543,"akles":13544,"Ġverify":13545,"ĠAlham":13546,"Ġwaterfront":13547,"Ġ2020":13548,"Ġovernight":13549,"ĠConcer":13550,"Ġsuperv":13551,"Ġteammates":13552,"Ġregulations":13553,"Ġinvasion":13554,"Ġpolar":13555,"Ġinteraction":13556,"Ġmining":13557,"Ġsigning":13558,"Ġsignature":13559,"ĠDeb":13560,"ĠLegal":13561,"Ġbookstore":13562,"ĠbirthYear":13563,"ĠSche":13564,"Ġmarry":13565,"ĠExper":13566,"Ġhardware":13567,"ĠPrefecture":13568,"Ġpretending":13569,"Ġoperate":13570,"Ġcontinu":13571,"ĠManager":13572,"Ġ170":13573,"Ġreturns":13574,"ĠAllama":13575,"Ġrainy":13576,"ĠColin":13577,"forest":13578,"Ġsuperior":13579,"Ġbasement":13580,"ORE":13581,"Ġaffairs":13582,"Ġpriest":13583,"Ġcounsel":13584,"ĠCorrect":13585,"Ġimpression":13586,"Ġcloudy":13587,"ĠRoberts":13588,"Ġexception":13589,"Ġhosting":13590,"Ġregarded":13591,"Ġminds":13592,"Ġconsistent":13593,"Ġsilent":13594,"iotic":13595,"Ġaffecting":13596,"glas":13597,"Ġpremiere":13598,"Ġdemonstrate":13599,"ĠJefferson":13600,"Ġpoorly":13601,"Ġapartments":13602,"ĠISBN":13603,"Ġclarifies":13604,"Ġinspiring":13605,"ĠServices":13606,"gaard":13607,"Ġdispers":13608,"ĠSpecifically":13609,"Ġencouraging":13610,"Ġexpertly":13611,"Ġacquire":13612,"Ġannoying":13613,"Ġkissing":13614,"urdish":13615,"Ġribbon":13616,"ĠRomance":13617,"athematical":13618,"Ġdiesel":13619,"Ġoverlap":13620,"Ġwounded":13621,"ĠelevationAbove":13622,"tellation":13623,"Ġcrops":13624,"Ġfunctionality":13625,"Ġolive":13626,"arguments":13627,"ĠCustomer":13628,"Ġassignment":13629,"Ġchemistry":13630,"Ġoccasionally":13631,"Ġmicroscope":13632,"Ġcautious":13633,"ĠAnalyze":13634,"uerto":13635,"Ġwisdom":13636,"Ġstolen":13637,"ĠHypermarcas":13638,"TheSeaLevel":13639,"ĠAlhambra":13640,"ĠelevationAboveTheSeaLevel":13641,"Cal":13642,"HD":13643,"La":13644,"SN":13645,"iu":13646,"iGas":13647,"render":13648,"su":13649,"went":13650,"Ġty":13651,"Ġtummy":13652,"Ġtested":13653,"Ġtension":13654,"Ġaz":13655,"Ġais":13656,"Ġalex":13657,"into":13658,"onut":13659,"Ġsom":13660,"Ġwishing":13661,"orks":13662,"Ġfiled":13663,"Ġpizz":13664,"Ġpitch":13665,"Ġpitcher":13666,"tech":13667,"tection":13668,"Ġdried":13669,"Ġthirst":13670,"Ġnu":13671,"Ġnorthe":13672,"Ġhula":13673,"Ġhunt":13674,"ĠTon":13675,"ĠTitan":13676,"ĠTyler":13677,"Ġloses":13678,"ivores":13679,"ĠSex":13680,"rod":13681,"Ġreass":13682,"iral":13683,"ĠCape":13684,"igers":13685,"ĠBIRTH":13686,"ĠPR":13687,"oda":13688,"ĠGubb":13689,"Ġabnormal":13690,"aghe":13691,"ĠMak":13692,"ĠHay":13693,"ĠHart":13694,"stop":13695,"ĠRol":13696,"ĠRating":13697,"ĠRotterdam":13698,"ĠFal":13699,"ĠNa":13700,"ĠNap":13701,"ĠNem":13702,"Ġseaf":13703,"Ġexceed":13704,"Ġkay":13705,"ĠOd":13706,"ĠYears":13707,"enery":13708,"Ġali":13709,"Ġhasn":13710,"Ġfee":13711,"Ġacquis":13712,"ĠChap":13713,"arem":13714,"icked":13715,"Ġ1934":13716,"...\"":13717,"ĠArd":13718,"Ġboot":13719,"Ġexpanse":13720,"atherine":13721,"anche":13722,"Ġ82":13723,"Ġslices":13724,"Ġpassive":13725,"Ġsunrise":13726,"Ġdefensive":13727,"para":13728,"ĠAfghan":13729,"ĠBox":13730,"ologica":13731,"ĠAbel":13732,"ĠFactory":13733,"forthe":13734,"Ġpainter":13735,"shan":13736,"ĠImp":13737,"Ġtrained":13738,"ĠAllan":13739,"Ġdeaths":13740,"ĠMinistry":13741,"ĠGuang":13742,"Ġcultiv":13743,"Ġengineer":13744,"ĠPolonica":13745,"Ġstrikes":13746,"Ġprotons":13747,"ĠDanny":13748,"Ġtouches":13749,"Concept":13750,"Ġwelcomed":13751,"Ġfreshwater":13752,"Ġsatisfy":13753,"Ġdelivering":13754,"Ġcollects":13755,"Ġcollective":13756,"ĠFranklin":13757,"Ġrobust":13758,"ĠDesign":13759,"ĠErasmus":13760,"communications":13761,"Ġdistricts":13762,"Ġbulb":13763,"Ġcolonies":13764,"Ġsubtracting":13765,"ĠClassic":13766,"small":13767,"Ġschol":13768,"Ġprogrammed":13769,"Ġlinks":13770,"Ġheavier":13771,"ĠAzerbaijan":13772,"ĠColombia":13773,"ĠfoundationPlace":13774,"oriented":13775,"ĠAmidst":13776,"Ġrefreshing":13777,"Ġfolk":13778,"ĠPalaeontologica":13779,"Ġtotally":13780,"Ġtilted":13781,"Ġmascot":13782,"ĠAmeriGas":13783,"Ġcongrat":13784,"Ġartificial":13785,"Ġmeronym":13786,"ĠGubbio":13787,"\"),":13788,"900":13789,"Act":13790,"Bar":13791,"Hey":13792,"Mart":13793,"Other":13794,"Spe":13795,"Sub":13796,"UE":13797,"cs":13798,"hm":13799,"ht":13800,"living":13801,"max":13802,"pies":13803,"want":13804,"xins":13805,"zens":13806,"Ġay":13807,"inos":13808,"inse":13809,"Ġwagon":13810,"Ġworms":13811,"requ":13812,"enders":13813,"llers":13814,"owth":13815,"ĠAqu":13816,"Ġbeams":13817,"lyde":13818,"ĠIg":13819,"ĠShip":13820,"ĠSalt":13821,"osome":13822,"irable":13823,"ĠCA":13824,"ĠCub":13825,"Ġrazor":13826,"ima":13827,"utives":13828,"ĠBos":13829,"cht":13830,"ĠPittsburgh":13831,"ĠGord":13832,"Ġcone":13833,"Ġabuse":13834,"apl":13835,"ĠMold":13836,"ĠMathematics":13837,"acular":13838,"Ġheels":13839,"ĠDog":13840,"ĠRen":13841,"ighte":13842,"Ġseism":13843,"Ġweld":13844,"ĠLiving":13845,"Ġtrigger":13846,"oche":13847,"ĠOx":13848,"thank":13849,"Ġjapan":13850,"Ġdesper":13851,"ardo":13852,"Ġspar":13853,"atern":13854,"ĠKind":13855,"clock":13856,"berto":13857,"Ġpreference":13858,"Ġcompressed":13859,"ĠChlor":13860,"Ġscrew":13861,"plex":13862,"adeOf":13863,"jection":13864,"Ġevacu":13865,"Ġaccidents":13866,"ĠConstruct":13867,"intendo":13868,"Ġshortest":13869,"Ġcheering":13870,"ello":13871,"Ġcenters":13872,"Ġattorney":13873,"Ġinsulin":13874,"phants":13875,"Ġexpands":13876,"Ġinvention":13877,"Ġinstit":13878,"Ġrefined":13879,"Ġgenerating":13880,"Ġcuriosity":13881,"ylon":13882,"ungi":13883,"Ġzealand":13884,"Ġbehold":13885,"Ġwrapped":13886,"withthe":13887,"Ġescal":13888,"Ġsteep":13889,"ĠGuy":13890,"ĠGuard":13891,"Ġembry":13892,"ebra":13893,"Ġpractical":13894,"ĠAgent":13895,"Ġconstants":13896,"Ġkidn":13897,"ĠCheap":13898,"Ġharmony":13899,"Ġambitious":13900,"Ġglobe":13901,"Ġsoils":13902,"ĠGlen":13903,"Ġtourism":13904,"Ġhosts":13905,"Ġfatal":13906,"cellent":13907,"Ġconsumed":13908,"Ġnuts":13909,"ITAL":13910,"ĠDrago":13911,"ĠmediaType":13912,"Ġsilence":13913,"ĠMediterranean":13914,"Ġdeclined":13915,"Ġfilling":13916,"fromthe":13917,"ĠMilitary":13918,"Ġselecting":13919,"holders":13920,"topl":13921,"Ġmechanism":13922,"Ġdiploid":13923,"betes":13924,"Ġwitnessed":13925,"Ġspectrum":13926,"Ġ___":13927,"Ġforgotten":13928,"ĠPortugal":13929,"Ġstems":13930,"Ġaccommodation":13931,"Ġanxious":13932,"Ġtapestry":13933,"ĠDuncan":13934,"Ġpartnership":13935,"Ġgalaxy":13936,"Ġembarrassed":13937,"Ġestimated":13938,"Ġrevenge":13939,"Ġgastronomic":13940,"ĠLloyd":13941,")/":13942,"Geor":13943,"HA":13944,"Hi":13945,"Jack":13946,"LISH":13947,"Site":13948,"full":13949,"kar":13950,"last":13951,"liness":13952,"looking":13953,"ws":13954,"Ġip":13955,"Ġtart":13956,"enity":13957,"errill":13958,"onis":13959,"Ġwrist":13960,"orer":13961,"Ġcure":13962,"reck":13963,"itra":13964,"Ġpanc":13965,"tet":13966,"Ġtoss":13967,"Ġdart":13968,"omon":13969,"ĠTEAM":13970,"Ġlid":13971,"Ġlob":13972,"Ġluc":13973,"ĠIN":13974,"Ġreign":13975,"Ġ\"(":13976,"ĠCult":13977,"ĠChel":13978,"Ġrust":13979,"Ġrural":13980,"ĠWi":13981,"ĠWatch":13982,"Ġwhist":13983,"ĠPog":13984,"ĠGab":13985,"ĠGib":13986,"ilage":13987,"Ġord":13988,"Ġvoted":13989,"Ġvendor":13990,"antle":13991,"ĠMoh":13992,"ĠMillion":13993,"ĠDag":13994,"Ġdogging":13995,"ĠRoose":13996,"ĠFIF":13997,"ĠLot":13998,"ĠLakes":13999,"Ġexcret":14000,"ĠJu":14001,"ĠOct":14002,"Ġjogging":14003,"austed":14004,"Ġunnecessary":14005,"aston":14006,"Ġcorners":14007,"Ġspain":14008,"ĠThings":14009,"ĠKu":14010,"ĠKal":14011,"perform":14012,"Ġcompassion":14013,"Ġrestore":14014,"ĠStore":14015,"Ġprovider":14016,"Ġ1920":14017,"Ġ1913":14018,"Ġ1936":14019,"ailing":14020,"ogens":14021,"Ġthemes":14022,"Ġsafer":14023,"Ġreson":14024,"Ġaged":14025,"Ġsug":14026,"Ġparticle":14027,"Ġparked":14028,"olding":14029,"Ġsentiments":14030,"ĠAlv":14031,"prov":14032,"Ġartwork":14033,"Ġsolving":14034,"anye":14035,"Ġbeloved":14036,"ĠNevada":14037,"Ġrelates":14038,"Ġcheating":14039,"Ġpointed":14040,"Ġattent":14041,"ĠArsenal":14042,"Ġguards":14043,"ĠTrump":14044,"Ġpolite":14045,"Ġ700":14046,"Ġreader":14047,"Ġpassword":14048,"rosse":14049,"Ġminimal":14050,"ĠShare":14051,"ĠBrothers":14052,"ĠDebian":14053,"parent":14054,"ĠClose":14055,"ĠCloud":14056,"ĠBoard":14057,"Ġintensity":14058,"Ġedition":14059,"Ġgoverning":14060,"ĠZero":14061,"ronic":14062,"Ġresponds":14063,"Ġfreeze":14064,"Ġobjective":14065,"bsite":14066,"force":14067,"Ġcooler":14068,"ĠGeorgi":14069,"Ġstealing":14070,"Quaid":14071,"ercury":14072,"ĠAttica":14073,"psons":14074,"Ġdealing":14075,"Ġnationwide":14076,"ĠMcQuaid":14077,"ĠTomorrow":14078,"Ġballet":14079,"Ġbalcony":14080,"Ġscreenwriter":14081,"ĠWinds":14082,"Ġtomato":14083,"Ġfatty":14084,"Ġseemingly":14085,"Ġshallow":14086,"Ġcomposition":14087,"ĠObjective":14088,"ĠTranslation":14089,"ĠMedal":14090,"Ġaffects":14091,"Ġsenses":14092,"Ġdisplaying":14093,"Ġpaths":14094,"ĠPlayer":14095,"Ġrespective":14096,"Ġadmiration":14097,"Ġthankful":14098,"Ġwildlife":14099,"Ġcivilian":14100,"Ġattempts":14101,"ĠDemocrats":14102,"ĠElectrical":14103,"Ġconditioning":14104,"Ġexcellence":14105,"Ġmasterfully":14106,"Ġencouraged":14107,"Ġpigs":14108,"ĠMassimo":14109,"Ġconflicts":14110,"Ġgroceries":14111,"Ġlawsuit":14112,"ĠWalter":14113,"consider":14114,"Ġresistor":14115,"Ġsailing":14116,"Ġhomeless":14117,"Ġaccomplishment":14118,"Ġladder":14119,"ĠSuite":14120,"ĠSeveral":14121,"Ġdisagree":14122,"Ġheavily":14123,"ĠSyria":14124,"Ġagricultural":14125,"ĠMotors":14126,"worthy":14127,"Ġassassination":14128,"ĠorbitalPeriod":14129,"Ġintentions":14130,"Ġauction":14131,"Ġinterpret":14132,"Ġcumshot":14133,"ĠDevelopment":14134,"ĠBoogaard":14135,"ĠVerona":14136,"According":14137,"phibians":14138,"Ġsubstantial":14139,"ĠRUNWAY":14140,"ĠCAPITAL":14141,"ĠPietro":14142,"ĠPogson":14143,"ĠRoosevelt":14144,"=\"":14145,"Ben":14146,"King":14147,"Label":14148,"MadeOf":14149,"eing":14150,"hone":14151,"jun":14152,"mes":14153,"mia":14154,"piration":14155,"sa":14156,"ste":14157,"ĊĠ":14158,"Ġll":14159,"Ġtort":14160,"Ġtense":14161,"Ġaunt":14162,"eros":14163,"Ġsisters":14164,"Ġwer":14165,"Ġcav":14166,"Ġcab":14167,"anium":14168,"Ġinstruction":14169,"educ":14170,"Ġhired":14171,"Ġhobby":14172,"ĠTable":14173,"ERV":14174,"Ġloyal":14175,"ĠAU":14176,"Ġgolfer":14177,"usc":14178,"amation":14179,"ĠIron":14180,"ĠSwe":14181,"Ġrecept":14182,"Ġreception":14183,"imore":14184,"ĠWim":14185,"utants":14186,"rix":14187,"ĠBou":14188,"ĠBed":14189,"ĠPa":14190,"ĠPers":14191,"umble":14192,"Ġconvention":14193,"agger":14194,"ĠMem":14195,"ĠMartha":14196,"Ġhealing":14197,
[...]
