#version: 0.2
Ø §
Ù Ħ
Ù Ĭ
Ġ Ø§
Ù ħ
Ġ Ø
ĠØ§ ÙĦ
Ù Ī
Ø§ Ø
Ù Ĩ
Ø ±
Ø ©
Ø ª
Ù ģ
Ø ¯
Ù ĥ
Ø ¹
Ġ Ùħ
Ø ¨
Ù Ĥ
Ø ³
Ù ĩ
Ġ ÙĪ
Ø Ń
Ø§ ÙĦ
Ø ¬
ĠØ ¨
Ø§Ø ª
ÙĬ Ø©
Ġ ÙĦ
ĠØ ª
Ġ Ùģ
ĠØ§ÙĦ Ùħ
ĠØ ¹
Ø µ
Ø ·
Ø§Ø ±
Ø§ ÙĨ
Ù ī
Ø ´
Ø§ Ùħ
ĠÙģ ÙĬ
Ø ®
ÙĬ ÙĨ
ĠÙħ ÙĨ
Ø ²
Ġ Ùĥ
Ġ ÙĬ
Ø ¶
ÙĬ Ø±
Ġ 1
ĠØ ³
Ġ 2
ĠØ§ÙĦ Øª
Ø§Ø ³
ÙĪ ÙĨ
Ø± ÙĬ
ÙĪ ÙĦ
Ø «
Ġ 0
Ø °
ĠØ Ń
ĠÙĪ Ø§ÙĦ
Ø§Ø ¨
ĠØ¹ ÙĦ
Ø§Ø ¯
Ġ ÙĨ
ĠØ§ÙĦ Ø¹
ÙĪ Ø±
ĠÙĦ ÙĦ
Ø º
Ø§Ø ¡
ĠØ ¬
Ġ Ùĩ
Ġ ÙĤ
Ø§Ø ¹
ĠØ ±
ĠØ§ ÙĨ
ÙĬ ÙĦ
Ùĩ Ø§
Ø§Ø ¦
ÙĬ Ø¯
ĠØ§ÙĦ ØŃ
ĠØ ´
ĠØ¹ÙĦ Ùī
ĠØ§ÙĦ Ø³
Ø³ Øª
ĠØ ¯
Ø¨ ÙĬ
ÙĪ Ùħ
Ø§ Ùģ
Ġ2 0
Ø§Ø Ń
ĠØ ®
Ø ¸
Ø§Ø ¬
ÙĬ Ùħ
Ø§ ÙĤ
ĠØ µ
Ġ 3
ĠØ¨ Ø§ÙĦ
Øª Ø±
ĠØ§ÙĦ Ø¬
Ùħ ÙĦ
ĠÙħ Ø¹
ĠØ§ÙĦ Ùģ
Ø§Ø± Ø©
Ø¨ Ø±
ĠØ§ÙĦ Ùĥ
ÙĪ ÙĤ
Ø± Ùĥ
ĠØ§ÙĦ Ø´
ÙĪ Ø¯
ĠØ ·
ĠØ§ÙĦ ÙĤ
ĠØ§ÙĦ ÙĨ
ĠØ§ÙĦ Øµ
ĠØ§ÙĦ Ø¯
Ø¹ ÙĦ
Ø± Ø©
ĠØ¹ ÙĨ
ÙĬ Ø§
ĠØ§ÙĦ Ø±
ĠØ§ÙĦ Ø¨
ĠÙħ ØŃ
Ø¯ Ùħ
ÙĬ Ùģ
Ø± Ø¨
Ø§ Ùĥ
Ø± ÙĪ
Ġ 4
Ø¹ Ø¯
Ø§Ø µ
ĠØ§ÙĦ Ø®
Øª Ùħ
Ø ¦
Ġ 5
Ø¹ Ø©
ĠØ§ÙĦ Ø§Ø³
Ùĩ Ùħ
ÙĬ Ø³
ĠØ§ÙĦ Ùī
ÙĨ Ø§
ÙĤ Ø©
ĠØ§ÙĦ ÙĦ
ÙĦ Ø©
ÙĬ Ø¹
Ø§Ø ·
Ø§ Ùĩ
ÙĬ Øª
ĠØ§ ÙĪ
Ø§Ø ¶
Ø§Ø ®
Ø¯ Ø©
ÙĬ Ø§Øª
ÙĬ ÙĪ
ĠÙĥ Ø³
Ùħ ÙĨ
ÙĬ Ùĥ
ĠØ§ Ø³
Ø¹ Ø±
Ùĥ ÙĨ
Ø§Ø ²
Ø¬ Ø±
Ø¨ Ø©
ĠØ º
Ø¯ ÙĬØ¯
ØŃ ÙĨ
Ùħ Ø§
Ùħ Ø©
Ġ20 2
Ġ 6
Ø° Ø§
Ø§Ø± Ø§Øª
ĠØ§ÙĦ Ø§ÙĨ
ĠØ§ÙĦ ÙĪ
Øª ÙĪ
ĠÙħ Øµ
Øª ØŃ
ĠØ§ÙĦ Ø·
Ø§Ø ´
ĠØ§ÙĦÙħ ÙĨ
ĠØª ØŃ
ĠØ§ Ø®
Ø ¤
ĠØ§ÙĦ Ø§
Ø³ ÙĦ
ĠÙĥØ³ Ø§Ø±Ø©
ÙĦ Ùĥ
ÙĦ ÙĬ
ĠØ§ ØŃ
Ġ20 1
ĠØ§ÙĦ Ø§Ùħ
Ġ 7
ĠØ§ Ø³Øª
ĠØ§ Ùĥ
Ø¬ Ùħ
ĠØ§ÙĦ Ø°
ĠØ¨ ÙĨ
ĠØ§ Ùħ
ĠÙĦ Ø§
Ø´ Ø±
ĠÙĦ Ùħ
Ø¯ ÙĬ
ĠÙħ Ø§
Ø³ Ùħ
ÙĪ Ø¨
ØŃ Ø©
Ġ 8
Ø§ÙĨ ÙĬ
ĠØ ²
ĠØ§ÙĦ Ø«
Ø§Ø ©
ĠØ§ Ø¨
Øª Ø¨
ÙĬ Ø²
Ùħ Ø¯
ĠØ§ ÙĬ
ÙĦ Ø§Ùħ
ÙĦ Ùģ
ĠØ§ Ùģ
Ø§Ø «
ÙĤ ÙĬ
ĠØ§ÙĦÙħ ÙĪ
Ø§ÙĦ Ùħ
ÙĤ Ø¯
ĠÙħ Ø·
ĠØ °
Ġ1 0
ĠÙħ ÙĪ
ĠØ§ÙĦØª ÙĬ
ĠÙĥ ÙĦ
ĠÙĪ Øª
Ø±Ùĥ Ø©
ĠÙĪ ÙĦ
Ø¨ÙĬ Ø¹
Ø· Ø©
Ø¨ ÙĦ
ÙĬ Ùĩ
ĠÙħ Ø´
ĠÙĪ Ùħ
ÙĪ Ø¹
ĠØ§ÙĦ Ùĩ
ĠØ§ÙĦÙħ ØŃ
Ø¯ Ø§
Øµ ÙĦ
Øª ÙĬ
Ġ202 1
ÙĬØ± Ø©
Ø³ ÙĬ
ĠØ¬ Ùħ
ÙĪ Ùģ
ÙĤ ÙĦ
ĠØ «
Ø¬ ÙĦ
Ġ 9
Øª Ø¯
ĠØ§ Ø±
ÙĨ ÙĬ
Øª Ø¬
Ø§Ø¯ Ø©
ÙĪÙĤ Ø¹
ÙĪ ÙĬ
ĠØ§ÙĦ Ø§ÙĦ
Ø¯ Ø±
Ùĥ Ø±
ĠØ¨ Ø±
ÙĦ Ø§ÙĦ
Ùĩ Ø±
ÙĪ Ø¬
ĠØ§ÙĦ ÙĬ
ĠÙħ Øª
Ùħ Ø§ÙĦ
Ø° Ùĩ
Ø± Ùģ
Ø§ÙĨ ÙĬØ©
Ùĥ ÙĦ
Ø¨ Ø§Ø±
ĠÙĪØ§ÙĦ Ùħ
ĠÙĩ Ø°Ø§
Ø® Øµ
ÙĨ Ø¯
ÙĪØ± Ø©
ĠÙħ Ø³
ÙĪ Ø³
ĠØª ÙĨ
Ø§Ø± ÙĬ
ĠØª Øµ
ÙĦ Ùħ
Ø§ÙĦ Ø©
Ø¨ Ø¯
ĠØª Ø¹
ÙĨ Ø¹
ĠØ ¶
Ùĥ Ø©
Øª Ùĩ
ÙĨ Ø©
ÙĬ Ø¨
Ùĥ Ø³
Ùģ Ø±
Øª Øµ
ÙĪ Ø§Øª
ĠÙħ Ø±
Ùħ Ø±
ÙĪ Ø§
Ø±Ø¨ ÙĬØ©
ĠØ§ÙĦ Ø§Ø¹
Ø¶ ÙĦ
Ø§Ø¹ Ø©
ÙĦ Ø¨
ÙĤ Ø±
ÙĪÙĦ Ø©
ÙĪ Øª
Ùģ ÙĬ
ĠØ§ÙĦÙĦ Ùĩ
ĠØ§ÙĦ Øº
Ø® Ø¯Ùħ
ØŃÙĨ Ø©
ĠØ¨ ÙĬÙĨ
ĠØ§ÙĦ Ø§Ø±
Ø¦ ÙĬØ³
Ø³ Ø¨
ÙĨ ÙĬØ©
ĠØ¨ Ø¹Ø¯
Ø« Ø±
Ø§Ùģ Ø©
ĠØ§ÙĦ Ø§Ø®
ĠØ§ Ø¯
ĠÙĥ Ø§ÙĨ
Ø±ÙĬ ÙĤ
Ùĥ Ùħ
ĠØ§ÙĦ Ø²
ĠÙħ Ø¬
ĠÙĬ Ùħ
Øª Ùģ
Øª Ø®
Ø§ ÙĬ
ĠÙħ Ø¯
ĠØª Ùħ
ĠØ¹ ÙħÙĦ
Ø± ÙĤ
ĠÙĩ ÙĪ
ĠØ§ Ø¹
ØªØ± ÙĪÙĨ
ĠÙħØ· ØŃÙĨØ©
ÙĪ Ø±ÙĬ
ĠØ³ ÙĬ
ĠØ§ÙĦØŃ Ø¬Ø±
Ø§ÙĦ ÙĬØ©
Ø¹ ÙĪØ¯
ĠØ´ Ø±ÙĥØ©
ÙĬ Ø§ÙĨ
ÙĪ Ùĥ
0 0
ĠÙħ Ø®
Ġ1 4
ĠÙħ ÙĤ
ĠÙĩ Ø°Ùĩ
Ø· Ùħ
ĠØ§ÙĦÙħ Øµ
ĠÙĦÙĦ Ùħ
ĠÙĦÙĦ Ø¨ÙĬØ¹
ĠÙħ Ø³Øª
Ø§Ùħ ÙĦ
Ùĥ ÙĪÙĨ
ÙĪ Ø§ÙĨ
ĠØ§ÙĦÙħ Ø³Øª
Ġ1 9
Ø± Ø¬
Ø¯ Ø§Øª
ÙĬÙĨ Ø©
ÙĪ ÙĬØ©
ĠØ¬Ùħ ÙĬØ¹
ĠØ§ÙĦ Ø§ØŃ
Ø ¡
ÙĨ Øª
ØŃ ÙĤ
Ø¯ Ø§Ùħ
Ø§Ø °
ĠØ§ÙĦ Ø©
Ø± Ø§Ø¡
ÙĤ Ùħ
ĠÙĪ Ùĩ
Ø§ÙĦ ÙĬ
Ø±ÙĬ Ø¯
ÙĪ Ø²
Ø§Ùħ Ø©
ĠØ¹ÙĦ ÙĬ
ÙĦ Ø³
Ø§Ùħ Ø¬
ĠØ§ÙĦÙħ Ø±
ĠØ§ÙĦÙħ Øª
ĠÙħØŃ Ø·Ùħ
ĠØ§ÙĦØ§ ÙĪÙĦ
ĠØ¬ Ø¯ÙĬØ¯
ĠØ§Ø® Ø±
Ø¯ Ø¯
Ø· ÙĦ
ĠÙħ Ùĥ
ĠØª ÙĤ
ĠØª Ø³
ĠØ§ Ø¬
ĠØ§ÙĦÙħ Ø´
ĠØ§ÙĦ Ø§Ø¬
ĠÙĩ ÙĬ
Ø· Ø±
ĠØ¨ ÙĦ
ĠÙĬÙħ ÙĥÙĨ
ĠØ§ÙĦÙĬ ÙĪÙħ
ĠØ® ÙĦØ§ÙĦ
ĠØ¹ Ø¨Ø¯
ĠØ§ÙĦ Ø§Øª
Ø§Ø¨ Ø©
ĠØ¨ Ø¹
ĠØª Ø±
ÙĨ Ø³
Ùģ Ø³
Ġ ÙĬÙĨ
ĠØ¨ Ùħ
ĠØ§ÙĦØ¹ Ø§ÙĦÙħ
Ġ1 2
Ùĥ ØªØ±ÙĪÙĨ
Ø§Ø¦ ÙĬØ©
ĠØ§ÙĦÙħ Ø¹
Ùħ ÙĬÙĦ
ĠÙĪ ÙĤ
ĠØ§ÙĦØ¨ ØŃ
ĠØ§ÙĦØ§ÙĦ ÙĥØªØ±ÙĪÙĨ
ĠÙģ Ùī
ĠÙĦ Øª
ĠØª Ø¬
ĠÙĪ Ø¨
Ø³ Ø©
Ùĩ Ø¯
ĠØ§ÙĦØ° ÙĬ
ĠØ§ÙĦØ³ ÙĬ
ÙĪ Ùī
ĠÙĪ Ø²
ĠÙħ ÙĦ
ĠÙħØŃ ÙħØ¯
Ø± ÙĬØ©
ĠØ ©
Ø±Ùĥ Ø²
Ø¦ Ø©
ĠØ§ Øµ
ĠÙĪ ØŃ
Ø§Ø¯ ÙĬ
Ø¹ Ø¨
Ġ1 5
ĠØ§ÙĦØ¹ Ø±
ĠØ§ Ø´
ĠØ¨ Ø´
ĠØŃ ÙĬ
ĠÙħØµ Ø±
ĠÙĬ Ø¹
ĠØ§Ùģ Ø¶ÙĦ
Ùĥ Øª
Ø¹ Ø§Ø±
Ùĩ Ø¨
Ø´ Ùģ
ĠØ§ÙĦØ¹ ÙħÙĦ
ÙĪÙħ Ø§Øª
Ġ1 1
Ø¸ ÙĬÙģ
ĠØ§ÙĦØ³ Ø¹ÙĪØ¯
ĠØª Ø·
Ø« ÙĦ
Ø¬ Ø©
ĠÙĪ Ùĥ
Ø¸ Ø©
ĠÙĬ ØŃ
ĠÙħØµ ÙĨØ¹
ĠØ¨ ØŃ
ÙĦ ÙĬØ©
ĠÙĪ Ø³
Øª Ø§Ø¬
Ø¹ Ùħ
ĠØŃ Ø³
Ġ202 0
ÙĪ Ø©
ĠØ§ÙĦ Ø§ÙĤ
Ø§ÙĦ Ø§Øª
ĠØ³ Ø¨
ÙĪ Øµ
Øª ÙĤ
Ø¨ Ø§Øª
ÙĪ Ø¹Ø©
ĠÙħ ÙĪÙĤØ¹
ĠÙĪ Ø¬
ĠØ§ÙĦÙħ Ø³
ĠØ· ØŃÙĨ
ĠØª Ø´
ĠÙĤ Ø¯
ÙĤ ÙĪÙĤ
Ø¹Ø¯ ÙĬÙĨ
ĠÙĪ Ùģ
ØªØ¯ Ùī
ÙĬ ÙĤ
ĠØ¨ Ø¯
Ø§Ø±ÙĬ Ø®
ĠÙĪ Ø§ØŃ
Ø±Ùĥ Ø§Øª
Ø§ÙĨ Ø§Øª
Øª Ùĥ
Ø¨ ÙĨ
ĠØ§ÙĦØ¹ Ø±Ø¨ÙĬØ©
ĠØ§ÙĦÙħ ÙĤ
Ø§Ø¦ ÙĦ
Ø§Ø± ÙĬØ©
ĠØ§ Ø¶
ĠØº ÙĬØ±
Ø§ÙĤ Ø©
ÙĪÙĨ Ø©
Ø§Ø º
ĠØ° ÙĦÙĥ
Øª ÙĩØ§
Ġ2 5
Ø±ÙĬ Ùĥ
Ø¹ÙĦ ÙĬÙħ
Ø±ÙĬ Ø§Ø¶
ĠØ¹ Ø§Ùħ
ĠØ¨ Ø§Ø³
ĠØ¨ ÙĪ
ĠØ§ ÙĤ
ĠÙĪ ÙĨ
ĠØ§ÙĦ Ø§Ø¯
ĠØ§ÙĦ Ø§Ø¨
Ġ3 0
Ø§Øµ Ø©
Ø§Ø¦ ÙĬ
ĠØª Ùģ
Øª ÙĦ
ØªÙħ Ø§Ø¹
ĠÙĬ ÙĤ
ĠÙĤ Ø¨ÙĦ
ĠØ± ÙĤÙħ
Øª Ùī
ÙĪØ¯ Ø©
Øµ Ø©
ĠØ§ÙĦ Ø¨Ø±
ÙĪ Ø§Ø±
ĠÙĥ ÙĬÙģ
Ùģ Ø©
Ø¨ ØŃ
ĠØ§ÙĦÙħ Ø¯
Ø² Ø©
Ø§Ø³ Ø©
ĠØ§ÙĦÙģ Ùĥ
ĠØ§ÙĦØ¯ ÙĪÙĦ
Û Į
ÙĬÙĦ Ø©
ĠØ§ÙĦ Ø¨ÙĬ
ĠÙģ Ø±
Ø§Ø± Ùĥ
ĠÙħ Ø¨
Ø¨ÙĬ ÙĤ
ĠØ§ÙĦØ° ÙĩØ¨
ÙĬ Ø¬
ĠØ¨ Øª
ÙĨ Ø§ÙħØ¬
ĠØª Ø³Øª
Ø§Øµ ÙĦ
ĠØ§ØŃ Ø¯
ĠØ§ Ø¹ÙĦ
ĠØ® Ø¯Ùħ
Ùģ ÙĪ
ĠØ§Ùĥ Ø«Ø±
ĠØ§ÙĦØ§ÙĦÙĥØªØ±ÙĪÙĨ ÙĬ
ĠÙĬ ÙĪÙħ
ØªØ¬ Ø§Øª
Ø§ ÙĬØ©
Øµ ÙĪÙĦ
ĠØ¬ ÙĨ
Øª Ø§Ø¨
ĠÙĪ Ø§ÙĨ
ĠØ® Ø·
ĠØ§ÙĦØ³Ø¹ÙĪØ¯ ÙĬØ©
ĠØ§ÙĦØª ØŃ
ĠÙħØ¹ Ø¯Ø§Øª
ĠÙĬ ØªÙħ
Ø® ÙĦ
ĠØ§ÙĦØ¬ Ùħ
ÙĤ Ø·
Ø° ÙĦÙĥ
Ø¨ ÙĬØ©
ØŃ ÙĬ
Ø¹ ÙħÙĦ
ĠÙĥ ÙħØ§
Ġ20 0
ĠØ§ÙĦØ¹ ÙĦ
ÙĬ Ø´
Ø¶ Ø¹
Ùħ ÙĬÙħ
Ø§Ø¹ Ø¯
ØŃ Ùħ
ĠØ§ÙĦØµ ÙĬÙĨ
Ø±ÙĪ Ø·
Ø± ÙĬÙĨ
ĠØ® Ø§Ùħ
ĠÙĪØ§ÙĦ Øª
ÙĪÙħ Ø©
ĠØ§ ÙĪÙĦ
ĠÙĬ Ø¬
Øº Ø©
ĠØ§ÙĦÙħ ØªØŃ
ÙĪÙĨ Ø§
Ġ1 6
ĠØ§ Ø°Ø§
ĠÙĦ Ø¯
Øµ Ùģ
ĠØ§ÙĦØ± Ø¦ÙĬØ³
Ġ1 3
Ø¨ Ø¹
ĠØ§ÙĦÙĥ Ø±Ø©
ĠØ§ÙĦØ¬ Ø¯ÙĬØ¯
ĠÙĦ Ùĩ
ÙĦ Ø§
ĠØª Ø¯
Ø± Ø¶
ĠÙĦ Ø§ÙĨ
ĠØª Ùĥ
Ø± Ø§Øª
Ø¸ Ø§Ùħ
ÙĦ ÙĤØ©
Øº ÙĬØ±
Ø± Ø¯
Øµ Ø±
ĠØ¨ Ø·
ĠÙħ Ø¤
ĠØ³ Ø¹Ø±
Ø±ÙĪ Ø¹
ÙĦ Ø§Øª
ĠØ§Ø³Øª Ø®
Ø§Ø³ ÙĬØ©
ĠÙĦ Ùĥ
ĠØŃÙĬ Ø«
ĠÙħ Ùħ
Ø§ØŃ Ø©
Ø¶ Ø§Ø¡
Ġ10 0
Ø§Ø± Ø³
Ø§ÙĨ ÙĪÙĨ
ĠØ§ÙĦÙħ Ø¬
ÙĦ ÙĬÙĦ
Ø¬ÙĦ Ø³
Ø±ÙĪ Ø¶
ĠØ§ÙĦ Ø§Ùģ
Ø± ØŃ
ĠØŃ ÙĪÙĦ
ĠØ§ÙĨ Ùĩ
ĠØ³ ÙĨ
ĠØª ÙĪ
ĠÙĪ Ø¹
ĠÙĥ Ø¨
Ø§Øª Ùģ
Ø¯ÙĬ Ø«
Ø³ÙĦ Ø³ÙĦ
ĠØªØŃ ÙħÙĬÙĦ
Ø§Ø¨ Ø§Øª
ĠØ± Ø¦ÙĬØ³
ĠÙĪ Ø§Ø³
Ø³ Ø§ÙĨ
Ø± Ø§Ø¦
ĠÙĪ ÙħÙĨ
ÙĨ Ø§Ø¡
Ġ0 0
Ø¶ Ø§
ĠØ¹ Ø¨Ø±
Ø² ÙĦ
ĠÙĬ Øª
Ø§ÙĤ Ø¹
ĠÙĦ ÙĬ
ÙĪ ÙĬØ±
ĠØ§ÙĦÙħ Ø®
ĠØ§ Øº
ĠØ§ÙĦÙĩ ÙĨØ¯
ĠØ§ÙĦØ§Ø³ Øª
ĠØ§ÙĦÙĪ Ø·
ĠØ¬Ø¯ÙĬØ¯ Ø©
Ġ1 7
ĠØŃ ØªÙī
Ùĩ Ø©
ĠØ§Ø¨ ÙĪ
Ø§Ø³ ÙĬ
Ġ1 8
ĠØ§ÙĦØª ÙĨ
Ø² ÙĬØ¯
Ùħ Ø§ÙĨ
Ùħ ÙĪ
ĠØ§ÙĦØª Ø¬
ÙĪØ± ÙĬØ©
Ø¨ Ø§Ø¨
ĠØ¨ Ùĥ
ĠØ¨ Ùĩ
Ø¹Ø± Ùģ
ĠØ§ÙĦØ¹ Ø§Ùħ
Ùģ Ø¹
Ùħ ÙĬ
Ġ2 4
Ø¬ ÙĬÙĦ
ĠØ¨ Ø§ÙĨ
Ø§Ùħ Ø¹Ø©
ĠÙĤ Ø·
Ø§ÙĦ Ø¨
ĠØ§ÙĦÙħØªØŃ Ø¯Ø©
ĠØ¹ÙĦ ÙĬÙĩ
ĠØ§ÙĦ Ø±ÙĬØ§Ø¶
ØªÙĪ Ø¨Ø±
Ùģ Ø§ÙĦ
Ø« ÙĬØ±
ĠØ³ ØŃÙĤ
ĠØ¹ÙĨ Ø¯
ĠØª Ø±Ùĥ
ÙĤÙĬ ÙĤ
ĠÙħ Ø±ÙĥØ²
ÙĦ ÙĤ
ÙĬØ§ÙĨ Ø©
ĠØ§ÙĦÙħ Øº
ĠÙĦ ÙĨ
Ø² ÙĬ
ÙĬÙħ Ø©
ĠÙĤ Ø³Ùħ
ÙĦÙģ Ø©
ĠÙĩ ÙĦ
ĠØ§ÙĦ Ø¶
ĠØ§Ùĥ ØªÙĪØ¨Ø±
ĠØ§ÙĦ Ø§Ø·
ĠØ§ÙĦÙĤ Ø±
ĠØª Ø¹ÙĦ
ÙĪ ÙĬØª
ÙĬØ± ÙĬ
ĠØ¨Ø§ÙĦ Ùħ
Ø§Ø¨ Ø¹
ĠØ± Ø³
Ġ4 1
Ø±ÙĬ ÙĤØ©
ĠØ§ÙĦØ¬ Ø²
ĠÙĥ ÙĪØ±
ĠØ§Ø³ØªØ® Ø¯Ø§Ùħ
Ùģ ÙĦ
ĠÙħ Ø¬Ùħ
ĠÙĪ ÙĬ
ĠØ¨Ø± ÙĨØ§ÙħØ¬
ĠØ§ Øª
ĠØ§ Ø«
ÙĪ Ø§ÙĦ
Ø§Ø± ÙĥØ©
ĠØ³ Øª
ĠØ¨Ø¹ Ø¶
ĠØ§ÙĦØŃ ÙĤÙĪÙĤ
ĠØ§ Ø·
ÙĬÙĨ Ø§
Ø§ ÙĬØ±
ĠÙħÙĨ ØªØ¯Ùī
ÙĬ Ø®
ĠØ¯ Ø±
Ø§Ø± Ø¬
ĠÙĦÙĦ Øª
Ø¯ Ø«
ÙĪØ± Ø¯
ÙĨ Ø§Ø¹
Ø§Ø® ÙĦ
ĠØ§ÙĦØª Øµ
ĠØ§ÙĦÙħ ÙĪÙĤØ¹
ĠØ§ÙĦØª Ø¹Ø¯ÙĬÙĨ
ĠØ§ÙĦ Ø§Ø´
ĠØ ¸
ÙĬÙĨ ÙĬ
ĠÙĪÙĦ Ø§
ĠØ§ÙĦØµ Ùģ
Ø¨ Øª
ĠÙħØŃ ÙģÙĪ
Ø¶ ÙĪØ¹
ĠØ¯ ÙĪÙĦ
ĠØ§ÙĦÙħ Ø¹ÙĦ
ĠÙĦ ÙĪ
ĠÙħ Ø«ÙĦ
ĠÙħ ØªØ±
ĠÙħ Ø³ÙĦØ³ÙĦ
Ø§ ÙĪ
Ø±ÙĬ Ùģ
Ġ2 3
Ø§Ø¦ Ø±
Øº Ø·
Ø¶ Ø©
ĠØ§ÙĦØ§Ø³ ÙĦØ§Ùħ
ĠØ§ÙĦØµ ØŃ
ĠÙĨ Ø³
ĠÙĦ Ø¹
Øª Ø²
ĠÙĬ Ø³Øª
Ø±ÙĬ Ùħ
ĠÙĨ ÙĤ
Ġ2 2
ĠØ§ÙĦÙħ Ø¤
ĠØ¨Ø´ ÙĥÙĦ
ØªØ® Ø¯Ø§Ùħ
ĠØª Øª
Ø±ÙĬ Ø¹
Ġ3 2
ĠØ¹ÙħÙĦ ÙĬØ©
ĠØ§ÙĦ Ø§Øµ
ĠÙģ Ø§ÙĨ
Ø· ÙĤØ©
ĠØ§Ø® Ø¨Ø§Ø±
ĠØ§ÙĦØ¨ ÙĦ
Ø§Ø¦ ÙħØ©
ĠÙħØŃÙģÙĪ Ø¸Ø©
Ġ201 9
ĠØ§ÙĦØª Ø¹ÙĦÙĬÙħ
Ġ2 1
ÙĦ Ùī
Ùħ ÙĬØ©
Ø¹Ø± Ø¶
ĠØ§ÙĦØ§Ø¬ ØªÙħØ§Ø¹
ĠØŃ Ø¬Ø±
ĠØ± ÙĬ
ĠØ¨ ÙĬ
ĠØªØ· Ø¨ÙĬÙĤ
ĠÙĦ ØŃ
ĠØ§ÙĦØª ÙĪ
ĠØ§ÙĦ Ø§Ùĥ
ÙĦ Ø§Ø«
Ø³ Ø·
ĠÙĦÙĦ ØŃ
ĠØ§Ø³ Ùħ
ĠØµ ÙĪØ±
Ø§ÙĦ Ø«
Ø§ÙĨ ÙĬØ§
Ùģ Ø§Øª
ĠÙĬ Ø¯
ĠØ§ÙĦØ® Ø§ØµØ©
ĠØª Ø®
Ø± Ùī
Ùħ Ø³
ĠØ§ÙĦØª Ø¹
Ø± Ø§Ø±
ĠØ¹ Ø¯Ø¯
ÙĨ ÙĬÙĨ
Øº ÙĬØ±Ø©
ĠØ§ÙĦÙħ Ø·
Ø±ÙĬ Ø¨
ÙĨ Ùī
ØªØ± ÙĨØª
ĠØ§ÙĦØ¨ØŃ Ø«
Ø¹ ÙĬØ©
ĠÙĪ Ø±
Ø§Ùĩ Ø¯
ĠÙĪØ§ÙĦ Ø¹
ĠÙĥÙĪØ± ÙĪÙĨØ§
Ø§Ø¦ Ùģ
ÙĪ Ø§Ø¡
ÙĬØ¯ Ø©
Ø´ Ø©
ĠØ§ÙĦØ¹Ø± Ø§ÙĤ
ÙĬØ± Ø§ÙĨ
ĠØ³ ÙĦ
ÙĪÙĦ Ø§
Ø§Ø¯ ÙĬØ©
ĠÙĬ ÙĥÙĪÙĨ
ĠÙħ Ùģ
ĠØ« Ùħ
Ø¸ Ø±
ĠÙĪØ§ÙĦ ØŃ
ÙĨ ÙĤ
ĠØ§ÙĦØŃ Ùĥ
Ø³Ø¨ Ø¨
Ø§ÙĨ Ø§
ĠØ§ÙĦØª Ø³
Ø¬ Ø§Ø±
ÙĦ Ùĩ
ĠØ§ÙĦØŃ ÙĦÙĤØ©
ÙĪ Ø§Ø¹
ĠØ§ÙĦÙģ Ø±
ÙĪ ÙĬÙĦ
Ø§ ÙĪÙĦ
ĠØ§ØŃ ÙħØ¯
ÙħÙĦ ÙĥØ©
ÙĨ Ø§Ùĥ
Ø§Ø¦ Ø¯
Ùģ ØŃ
Ø§Ø° Ø§
ĠØ¨ Ø³
ĠÙĥØ³ Ø§Ø±Ø§Øª
ĠØµ ÙĬØ§ÙĨØ©
ÙĪ Ø·
ĠÙĩ Ø§ØªÙģ
ØªØ± Ùĥ
ÙħÙĨ Øª
Ø¹ ÙĬ
Ø® ÙĪÙĦ
ĠØ¹ Ùħ
ĠØ§ÙĦØ« Ø§ÙĨÙĬ
ĠØ§ÙĦÙħ Ùĩ
ĠÙħ Ø§Ùĥ
ÙĬ Ø§Ø±
Ġ4 7
Ġ201 8
ĠØªØµ ÙħÙĬÙħ
Ø³ÙĦ Ùħ
ĠÙĤ Ø§ÙĦ
ÙĬÙģ Ø©
ÙĨ Ø§ÙĨ
Ø§Ø³ Øª
ĠØ§Ø³ Ø¹Ø§Ø±
ĠØ§ÙĦØ¯ Ø±
ĠØ§ÙĦØ§Ùħ Ø§Ø±Ø§Øª
Ø§Ø¯ Ø±
Ø±ÙĪ Ø³
ĠÙģ ÙĤØ·
Ø± Ø¨ÙĬ
ĠØ§ÙĦØ¹ Ø§ÙħØ©
Ø¯ ÙĬÙĪ
ĠØ§ÙĦÙħ ÙĦ
ĠØ§ÙĦØ¹ ÙĦÙħ
ĠÙħ ÙĦÙĬ
ĠÙĥ ØªØ¨
ĠØ§ÙĦÙħ Ø¹Ø¯
ĠØ¨ÙĪ Ø§Ø³
ĠØ³ Ùħ
ĠØ§ÙĦÙħØŃ Ùħ
ĠØ§ÙĦÙħ Ùĥ
ĠØ§ Ø²
ÙĪ Ø«
Ùĩ ÙĦ
ĠØ§ÙĦØŃ Ø¯ÙĬØ¯
ĠØ´ Ø®Øµ
ĠØ¨ÙĪØ§Ø³ Ø·Ø©
ĠÙĥØ§ÙĨ Øª
ĠÙĦ ÙĤ
Ø§Ø¶ ÙĬ
ĠÙħÙĨ ØªØ¬Ø§Øª
ÙĦØ³ Ø·
Ø³ Ø³
ĠØ´ Ø¨
Ùĩ Ø§Ø²
ĠØ¨ ÙĬØ¹
ĠØ¨ ÙĩØ§
ĠØ¯ Ø§Ø®ÙĦ
ĠÙĨ Øª
Ùĩ Ø²Ø©
Ùĩ Ø§Øª
ĠÙħÙĨ Ø°
ĠÙħØ¬Ùħ ÙĪØ¹Ø©
ĠØ´ Ø±ÙĥØ§Øª
ÙĪÙĦ ÙĪØ¬
Ġ0 5
ĠÙħ Ø¬ÙĦØ³
ĠØ§ÙĦØŃ Ø±
Ø§Ø¨ Ø·
Ø¸ Ùħ
ĠÙħØ® Ø±ÙĪØ·
Ø¹ Ø§Øª
ĠØ§ÙĦØ§ÙĨ ØªØ±ÙĨØª
ĠØµ ØŃ
ĠÙĪ Ø´
ÙĬ Ø·
ĠØ§Ø®Ø± Ùī
Ø¯ Ø§Ø¯
Ø§Ø¨ Ø³
Ùĩ Ø±Ø¨
ĠÙģÙĬ Ø¯ÙĬÙĪ
Ø§ÙĦ ØŃ
ĠÙĥ ØªØ§Ø¨
Ø° ÙĬØ©
ĠØ§ÙĨ Øª
Ø´ Ø±Ø©
ĠØ§ÙĦÙħ Ùģ
ÙĨ Ø§Ø¹Ø©
ĠØªØ³Øª Ø®Ø¯Ùħ
Ø§Ùħ ÙĦØ©
ĠØ¹ Ø±ÙĪØ¶
ĠØ§ÙĦØ³ ÙĦ
Ø§Ø´ Ø±
ĠÙĬ Ø´
ÙĥØª ÙĪØ±
ĠØ§ÙĦ ÙĪÙĤ
ÙĪ Ø§Ø¬
ĠØ± Ùħ
Ø§Ø¹ Ø§Øª
ĠØ¹ Ø§ÙĦÙĬØ©
ĠØ· Ø±ÙĬÙĤ
Ø§Ø¦ ÙĤ
ĠÙĬØ¬ Ø¨
Ø§Ø¨ ÙĤ
ĠØ®Ø¯Ùħ Ø©
ĠØ¨ Ø¬
ĠØ§ÙĦÙĪ Ø²
Ø§Ø³ Ø§Øª
ĠØª Ø§Ø±ÙĬØ®
ĠØ§ÙĦØ« Ø§ÙĦØ«
ĠØ§ÙĦØ¬Ø¯ÙĬØ¯ Ø©
Øº ÙĬ
ĠØ¨ ÙĤ
ĠØ§ÙĦØ´ ÙĬØ®
ĠØ§ÙĦØ§Ùħ Ø±ÙĬÙĥ
Ø§Ùģ ÙĬØ©
ĠØ¹ Ø¨
Øª Ø¨Ø±
ĠØ§ÙĦ Ø§Ø«
ÙĬ Ø§Ø¡
ĠØ§ÙĦØ¹Ø± Ø¨ÙĬ
ĠÙĨ ÙģØ³
Ø§ÙĤ Ø§Øª
Ø±Ø§Ø¦ ÙĬÙĦ
Ø§Ùĩ Ø±Ø©
ĠÙĪÙĦ ÙĥÙĨ
ĠÙħ Ùĩ
ĠÙħ Ø²
ĠÙħ ÙĦÙģ
Ø±ÙĬÙĤ ÙĬØ§
Ø§ ÙĪÙĨ
ĠØ§ÙĦØµ ØŃØ©
ĠØ§ÙĦØª Ùģ
Ø¸ Ø§Ø¦Ùģ
ĠØ§ Ø¨Ø±
Ø§Ø¨ ÙĦ
Ø§Ø± Ø¯
ĠØŃØ³ Ø§Ø¨
Ġ201 6
Ġ2 6
ĠØ³ ÙĥØ³
ĠØ§ÙĦÙĥ Ø³
Ø§Ùģ ÙĤ
ĠØ§ÙĦØª ÙĤ
ĠÙĬ Ø³
ÙĬ ÙĬÙĨ
ĠØªÙĨ Ø¸ÙĬÙģ
Ġ201 7
ĠØ§ÙĦØ¨ Ø±ÙĬØ¯
ĠÙĪÙĩ ÙĪ
ĠÙĥ Ùħ
ĠØ¹ Ø±Ø¶
ĠØ§ÙĦÙħØ¹ÙĦ ÙĪÙħØ§Øª
Ø±Ùģ Ø©
Ùħ Ø¨Ø±
ĠØªØµ ÙĨ
ĠØ§Ø¨ ÙĨ
ĠØŃ ÙĦ
ĠØ§ ÙĩÙħ
Ġ3 9
ĠØ¬ÙĨ ÙĪØ¨
ÙĬØ§ Ùĩ
Ø§Ùĩ Ø¯Ø©
Ø¨ ÙĪØ¹
ĠØ§ÙĦØ³ Ø¹Ø±
ĠØ§ÙĦØ§ÙĪÙĦ Ùī
ĠØ§ÙĦÙģ ØŃÙħ
ĠØª Ø¨
ØŃ Ø§Øª
ĠØ§Ùģ Ø±ÙĬÙĤÙĬØ§
ĠØ§ÙĦØ±Ø¦ÙĬØ³ ÙĬØ©
Ø² ÙĬØ²
ÙĩÙħ Ø§
ĠÙĦ ÙĥÙĨ
Ø§Ø¯ Ø§Øª
Ø® ÙĪØ±
Ø§Ø ¸
ĠØ§ÙĬ Ø¶Ø§
ĠØ§ÙĦÙħ ÙħÙĦÙĥØ©
Ġ2 7
ĠÙĪØ² ÙĬØ±
ĠØ§ÙĦÙĤ Ø¯
ĠØ§ÙĦÙĦ ØºØ©
ÙĨ Ø¨
ĠØ§ÙĦØª Ø·
ÙĤØ¯ ÙĬÙħ
ĠÙĬ ÙĪÙĨ
ĠØ§ÙĦØ® Ø¯Ùħ
Ø¶ Ø±
ĠÙĦ ÙĩØ§
ĠÙģÙĬ ÙĩØ§
Ø¯Ùħ Ø§
Ġ5 0
ĠÙĬÙħÙĥÙĨ Ùĥ
Ø¨ Ø·
ĠÙĪ Ø¯
2 0
ĠÙĪ Øµ
ÙĬ ÙĪÙĨ
Ùĥ ÙĬØ©
ĠØ± ÙĪ
ĠÙĦ Ø¨ÙĨ
Ùħ Ø§Ø±
ÙĪØ¨ Ø§
ÙĤÙĬ ÙĤØ©
ĠØ®Ø¯Ùħ Ø§Øª
ÙĬ Ø§Ø¯Ø©
ĠØ¯ ÙĪÙĨ
ĠØ§ÙĦØ® Ø·
ĠÙĨ ÙĪØ¹
ĠØ¬ Ø²
ĠÙĥÙĬÙģ ÙĬØ©
ĠØ§ÙĦØ´ Ø±
ĠÙĪ Ø·
Ø³ Ø§Ø¨
ĠØ§ÙĦØ´ Ø®Øµ
Ùĥ Ø§ÙĨ
ĠØ° Ø§Øª
ĠÙĪØ² Ø§Ø±Ø©
ĠØ· ÙĨ
ĠØ§ÙĦØ´ Ø±ÙĥØ©
Ùĩ Ø§Ø¨
ĠØ§ÙĦØ¯ ÙĬÙĨ
Ø§Ø¹ Ø¯Ø©
Ùĥ ÙĬ
ĠØ· Ø±ÙĬÙĤØ©
Ø¬ ÙĦÙĬ
Ùħ Ø§Ùħ
ĠØ§ÙĦØ¹ ÙĤ
ĠØ§ÙĦØ® Ø§Ùħ
ÙĥØ³ ÙĬØ±
ĠÙĩ ÙĨØ§Ùĥ
Ø³ ÙĬÙĨ
8 7
ĠØ¬ Ø¯
4 1
Ø± Ø§
ÙĨÙĤ ÙĦØ©
ĠÙħØ´ Ø±ÙĪØ¹
ĠØ§ÙĦÙĨ Ùģ
ĠØª Ùĩ
Ġ0 1
ĠÙĪ ÙģÙĬ
ĠÙĩ ÙĨØ§
Øµ ÙĪØµ
ÙĦØ³ ÙĦØ©
ĠØ§Ùħ Ø§Ùħ
ĠØ¨ ÙĬØ§ÙĨ
ØŃ ÙĦØ©
ĠØ§ÙĦÙħ Ø²ÙĬØ¯
ĠØ¹ÙĦÙĬ ÙĩØ§
Ùħ Ø§Øª
ÙĪØ±ÙĬ Ø§
ÙĤ ÙĤ
ĠØ¹Ø¨Ø¯ Ø§ÙĦ
Øº Ø±
ĠÙĤ Øµ
ĠØ§ÙĨ ÙĪØ§Ø¹
ĠÙģ ÙĦ
Ø§Ø¨ Ø¹Ø©
Ùħ Øª
Ø§ØŃ ÙĪÙĨØ©
ĠØ§ÙĦÙħØ³Øª Ø®Ø¯Ùħ
ĠØ§ ÙĪÙĨ
Ø§ØŃ ÙĬØ©
ĠÙħ Ø¨Ø§Ø±
ĠØŃ Ø³Ø¨
Ø§Ø³ Ø¨
ĠØŃ Øµ
Ø§Øµ ÙĬÙĦ
ĠÙĪØ§ÙĦ ÙĨ
ĠØª ÙĥÙĪÙĨ
ĠØŃ Ø²
ĠØ§ÙĦÙħ ÙĦÙĥ
ĠÙħØ® Øª
Ø± Ø§Ø¬
Ø³Øª Ø§ÙĨ
ĠØ§ÙĨ ØªØ§Ø¬
ĠØŃ ÙĤÙĪÙĤ
ĠØ§ÙĦØ§Ø³ ÙħÙĨØª
ĠØ§ÙĨ Ø´
Ġ5 2
Ø§Ùħ ÙĬÙĨ
ĠØ§Ø¯ Ø§Ø±Ø©
ĠØ¬ Ø§ÙħØ¹Ø©
Ø§ÙĨ Ø¹
Øµ Ø§ÙĦ
ÙħÙĦ Ø©
ĠÙĨ Ø¸Ø§Ùħ
ĠÙĨ ÙĤÙĦ
ĠÙĪØ§ÙĦ Ø¯
ĠÙħØ¹ ÙĦ
ĠØ§ÙĦØ® Ø§Øµ
ĠØ§ÙĦÙħÙĪ Ø¶ÙĪØ¹
3 7
ĠØ§ÙĦØ§ÙĤ ØªØµ
Øª ÙĬÙĨ
ĠÙĪ Ø§
ĠØ§ÙĦØ³ Ø±ÙĬØ¹
ĠÙĪ ÙĤØ¯
ÙĬØ¯ ÙĬÙĪ
ĠØ§ÙĦØ¬ ÙĨ
ĠØ§ Ø°
Ø¹ ÙĬØ¯
Ø¨ Ø§ØŃ
ĠÙħØŃ Ø·Ø©
Ø§Ø¦ Ø¬
ĠØ¬ ÙĪ
ĠØ§ÙĦÙĥ ÙĪÙĬØª
Ġ3 5
ĠØµ Ùģ
ÙĨØ§ ÙĬØ©
ĠÙĦ ÙĬØ³
ĠÙģÙĬ Ùĩ
ĠØ¨ Ø§Ø±
Ø§Øª Ø¨
ĠØ§ÙĦØ§Ø® Ø¨Ø§Ø±
Ġ2 8
ĠÙĤ Ø§Ø¦ÙħØ©
ĠØ³ ÙĦØ³ÙĦØ©
ÙĪ ÙĬÙĨ
ĠØ¨ Ø±ÙĬ
Ùĩ ÙĪØ±
Ø¨ ÙĬØ±
Ø§ÙĦ ÙĬØ§
ĠÙħØ¯ ÙĬÙĨØ©
ĠØ§ÙĦØª Ø´
ĠØ¹ÙĦ ÙĬÙĥ
Ø¹ÙĦ Ùħ
Ġ0 8
Øº ÙĦ
ĠØ§ÙĦØ« ÙĤ
ĠÙĦÙĦ Ø´
ĠØ¹ Ø§ÙĦÙħ
ĠÙĦ Ø¬
Ø§ÙĦ Ø¯
ĠÙĪØ§ØŃ Ø¯
ĠÙĨ Ø¬
ĠÙħÙĨ ÙĩØ§
ÙĪÙĤ Ùģ
ĠØ§ÙĨ Ø¯
Ġ6 9
ĠØ§ÙĦÙħ Ø¨
ØŃ ÙĪ
ĠØ§ÙĦ Ø§Ùĩ
ÙĬØ² Ø©
Ø¸ ÙĬÙħ
ĠØ³ Ø§Ø¹Ø©
Ø¹ Ø§ÙĦ
Ø±Ø¨ Ø©
Ø¶ ÙĬ
ÙĤ Ø§Ùħ
ĠÙĨ Øµ
ĠØ· Ø§ØŃÙĪÙĨØ©
ÙĪÙĦØ§ ÙĬØ§Øª
Ø§ÙĦ Ùģ
ĠÙĪ ØªØŃ
Ø±ÙĬ ÙĦ
ĠØ§ ÙĪØ±
ĠØ§ÙĦØµ Ø®ÙĪØ±
ĠØ§ÙĦØŃ ØµÙĪÙĦ
Ġ2 9
Ø² Ø§
Ø§ØŃ ÙĨ
Ø§Ø±Ùĥ Ø§Øª
Ø± Ø§Ø¶
ØªÙħ Ø¹
Ø§ÙĨ Ø¨
ĠØµ ÙĨØ¹
ÙĬØ± Ø§
ĠÙĨ Ø´Ø±
ĠØ® ÙĦ
Ø¸ ÙħØ©
ĠØŃ Ø§ÙĦØ©
Ø§Ø³ Ø¨Ø©
ÙĥÙĨ ÙĪÙĦÙĪØ¬
Ùģ Ø§Ø¡
ĠØ¹ ÙĤ
Ġ3 1
ÙĪ Ø¨Ø©
ÙĪ ØªØ±
ĠØ§ÙĦÙĨ Ø³
ĠØ§ÙĦØ³ ÙĪØ¯
ĠØ§ÙĦØ³ ÙĦØ§Ùħ
8 2
ĠÙĪ Ø®
ĠØ§ÙĦØ¨ØŃ Ø±ÙĬÙĨ
ĠØ¶ Ø¯
ĠØ§ÙĦÙĤ Ø§ÙĨÙĪÙĨ
ĠØ§ÙĦØŃ ÙĬ
ÙĪØ± Ø§Øª
ĠØ´ ÙĬ
Ø§Øµ Ø±
ĠØ¨ Ø³Ø¨Ø¨
ĠØ§ÙĦÙĤ Ø·
ĠØ§ÙĦ ÙĬÙħ
Ø§Ø« ÙĬØ±
ÙĬØ³ ÙĬ
Ø± Ø¹Ø©
ĠØ§ÙĦØª Ø¯
Ġ4 0
ĠØ§ÙĦØ¨ ÙĨ
Ø¨ ÙĤ
Ø§ÙĦ Øª
Ø§Ùģ ÙĬ
ĠØ¬ Ø¯Ø§
Ø§Ø¦ Ø¨
Ø§Ø¶ ÙĬØ¹
ĠÙĪÙĩ ÙĬ
Ùģ Ø¸
Ø¤ ÙĪÙĦ
Ø®Øµ Øµ
Øº ÙĬÙĦ
ĠØª ÙĪÙģ
ØªØ± Ø©
Ġ5 1
Ùģ ÙĬØ±
Ø³ ÙĨ
ĠØª ÙĦ
ÙħØ§ ÙĬØ©
ĠØ§Ùĥ Ø¨Ø±
ĠÙĦ Ø§Ø³
Ø´ ÙĬ
ĠÙĪ Ø¹ÙĦ
ĠÙģ ØªØŃ
ĠÙĥ ÙĨØª
Ø³ Ùĥ
Ø§ÙĨ Ø¯
Ø§Ùħ Ø§
Ø¶ ÙĬØ©
Ø± Ùħ
ĠØ¯ ÙĬ
ĠØ§ÙĦØ´ Ø¹Ø±
ĠÙĪØ§ÙĦ ØªÙĬ
ĠÙħØ¹ÙĦ ÙĪÙħØ§Øª
ĠØ§ÙĦØ§ÙĨ Ø³Ø§ÙĨ
Ø¸ ÙĩØ±
ØŃ ÙĪÙĤ
Ø¨ÙĬ ÙĪØªØ±
Ø¬Ùħ ÙĬØ¹
Ø¬ Ø²
ĠØ§ÙĦØ§Ø¹ ÙĦØ§Ùħ
ĠØ§ÙĦØ¹ÙĦ ÙĪÙħ
ĠÙĦ Ø´
ĠÙĥØ¨ ÙĬØ±Ø©
Ø² ÙĬØ©
ĠØº Ø³
ØŃ Ø¨
ĠØµ ÙĦ
Ø§Ø´ Ø©
ĠØ´ ÙĩØ±
ĠØ§ÙĦØ¹ Ùħ
ĠØªØ³ Ø¬ÙĬÙĦ
ĠØ« ÙĦØ§Ø«
ĠÙħØ´ Ø§ÙĩØ¯Ø©
ĠØ· ÙĦØ¨
9 7
ÙĤ Ø¨ÙĦ
ĠØŃ Ø¯
ĠØ§ÙĦÙħ Ø±ÙĥØ²
Ø·ÙĦ ÙĤ
Ø§Ø¬ Ø§Øª
ĠØ¨ Ø±ÙĬØ¯
ĠÙĪ Ø°ÙĦÙĥ
ĠØ§ÙĦÙĪØ· ÙĨÙĬ
ĠØ§ÙĦÙĥ ÙĦ
ĠØ§ÙĦØ° ÙĬÙĨ
Øµ ÙĪØ±
ØŃ Ø§Ø¯
Ø§Ø· ÙĤ
ĠÙĪ Ø§Øª
Ø§Ø± Ø¨
ĠØ§ÙĦØ¹ ÙĨ
Ø§ÙĨ Ø©
ØªÙħ Ø¨Ø±
ĠØ§ÙĦØ± Ø³Ùħ
ĠØ§ Ùĩ
ĠÙĦØ¨ÙĨ Ø§ÙĨ
ĠØ§ÙĦØ¯ ÙĥØªÙĪØ±
ĠÙħØªØ± Ø¬Ùħ
Ø¨ÙĬ Ø§
ĠØ§ÙĦ ÙĪÙĦØ§ÙĬØ§Øª
ĠØ§ÙĨ ÙĩØ§
ĠÙĥ ÙĨ
ĠØ¨ Ø§Ùĥ
ÙĬ Ø§Ùħ
ĠØªØŃ Øª
ĠØª Ø¹Ø¯ÙĬÙĨ
Ø§Ø¦ Ùħ
Ø° ÙĬ
ĠÙĨ ÙĪÙģ
Ø´Ø± Ø§Øª
ĠØ³Ø¨ ØªÙħØ¨Ø±
ĠØ¹ Ø¯
Ø¬ Ø¯
ĠÙĦÙĦ Ø¹
ĠØ¯ÙĪÙĦ Ø§Ø±
ĠÙĤØ· Ø¹
Ø§Ø¬ Ø±
ĠÙĥ Ø§ÙħÙĦ
ĠØ§ Ø¬ÙĦ
ÙĦØ³Ø· ÙĬÙĨ
ĠØ§ÙĦÙħÙĨ ØªØ¯Ùī
Ġ6 0
ÙĪØ¬ Ø¯
Ø§Ø² ÙĦ
ĠÙħ Ø¶
ĠÙĪ Ø¸Ø§Ø¦Ùģ
ĠØ¨ ÙĬØ±
ĠÙĥØ¨ ÙĬØ±
ÙĦ Ø§ÙĤ
ĠÙģ Ùĩ
Ø± Ø·
ĠØ§Ùħ Ø±ÙĬÙĥ
ĠÙģ ÙĨ
Ġ3 6
ĠØ§ÙĦØ± Ø³
Ø§Ùģ Ø¸
ĠÙĬ Ùģ
ĠÙĪØ§ÙĦ Ø´
ĠØ¨Ø¯ ÙĪÙĨ
ĠØ§ Ø¬Ø±
ĠØ¹ÙĨ Ø¯ÙħØ§
ĠØª Ø¹Ø±Ùģ
Ø¬ Ø§ÙĨ
Ġ5 9
ĠØ§ÙĨ Ø§
ĠØ¹ÙĦ Ùħ
Ø² ÙĬÙĦ
ĠØ§ÙĦØ§Ø¹ ÙħØ§ÙĦ
ĠØ§ÙĦØŃÙĥ ÙĪÙħØ©
ĠØ± Ø¬
ØªÙĬ Ø§Ø±
ĠØ§ÙĦ Ø§Ø²
ĠÙħÙĨ Ùĩ
Ø¨ÙĬ Ø¨
ĠÙĪ ÙģØ±
ĠØ§Ùģ ÙĦØ§Ùħ
ĠÙĬ Ø§
ĠØ§ÙĦØ§ÙħØ±ÙĬÙĥ ÙĬØ©
ĠÙĨ ÙĬÙĪ
Ø¨ØŃ Ø«
ĠØ§ÙĦØµÙģ ØŃØ©
ĠØ§ÙĦØ® Ø§Ø±Ø¬
ĠØµ ØºÙĬØ±Ø©
ĠØ¨ Øµ
ĠØ§ÙĦÙĤØ± Ø§ÙĨ
Ø¬Ùħ Ø¹
Ø® Ùģ
ĠØ³ ÙĪ
ĠØ´ Ùĩ
Ø´ Ø§Ø±
5 0
Ø± ÙĬØ±
ĠØªØµÙĨ ÙĬØ¹
ĠÙħ ØªÙĪ
ĠØ§ÙĦØ´ Ø±ÙĥØ§Øª
ĠÙĪÙĤ Øª
Øª Ø¹
ĠØ³ ÙĨØ©
ĠØ¯ Ø¹
ĠÙĪØ§ÙĦ Ø³
Ø§Ø² Ø§Øª
ĠØ§ÙĦØ¯ ÙĪÙĦØ©
ĠØ§ÙĦØ¹ Ø§Ø¨
ĠØ§ÙĦØ¹ Ø¯ÙĬØ¯
ĠØ§ÙĦØ¯ÙĪÙĦ ÙĬ
ĠÙĪ Ø§Ø¹
ĠØ§ÙĦÙĪÙĤ Øª
ĠÙĦØ¹ Ø¨Ø©
ØªÙģ Ø§Ø¹
ĠØ§ÙĦØ§Ø· ÙģØ§ÙĦ
ĠÙĬ ÙĪÙĦ
ĠØ§ÙĦØ§Ø± Ø¯
Ø³ Ø³Ø©
ĠÙĤ Ø§ÙĨÙĪÙĨ
Ø¶ ÙĪ
Ø§Ùģ ØŃØ©
ĠÙĬ Ùĥ
ÙĬ Øµ
ĠØ§ÙĦÙħØµ ÙĨ
ĠÙħÙĪ Ø§ÙĤØ¹
ĠØŃ Ùħ
ÙĬØ¯ ÙĬ
ĠØ§ÙĦÙħØ¹Ø¯ Ø§Øª
ĠØ§ÙĦØ§ ÙĪØ±
ĠØ§ÙĦÙĥ ØªØ±ÙĪÙĨ
ÙĪ Ø¨ÙĬ
ÙĥÙĨÙĪÙĦÙĪØ¬ ÙĬØ§
Ø§Øª ÙĬ
ĠÙĪØ§ÙĦ ÙĤ
ĠØ§ÙĦÙħÙĨ ØªØ¬Ø§Øª
ĠØ§ÙĦØ§ØŃ Ø¯
ØªÙĪ ÙĬ
ØºÙĬ ÙĬØ±
ĠØ§ÙĦØ± ÙħÙĦ
ĠØ§ÙĦØŃÙĬ Ø§Ø©
Ø§Ø´ Ø±Ø©
ĠÙĦ Ø§Ø¹
ĠØ§ÙĦØ§ÙĦÙĥØªØ±ÙĪÙĨ ÙĬØ©
Ø§Ø¶ Ø§ÙģØ©
Ùģ Ø§Ø¹
Ø±ÙĪ Ùģ
ĠÙĦ ØªØŃ
Ġ0 6
ĠØ§ÙĦØ« Ø§ÙĨÙĬØ©
ĠØ® Øµ
ĠØ¯ ÙĪØ±
Ø¯Ø§ ÙĪÙĦ
ĠØ§ÙĦØ¹Ø§ÙĦÙħ ÙĬØ©
ĠØ§ÙĦØ« Ø§ÙĨ
ĠØ§ÙĦÙħÙĪ Ø§Ø¯
Ø§Ø¯ ÙĤ
ĠÙĪ Ø¶Ø¹
ĠÙħ Ø§ÙĦ
8 0
ĠØ§ÙĦØŃ Ø¬
ĠØ¯ Ø¨ÙĬ
Ø§Ø¦ Ø¹
ĠÙħØ¬ Ø§ÙĨØ§
ĠÙħÙĦÙĬ ÙĪÙĨ
Ġ201 5
Ø¨ Ø³
Ġ201 4
ĠØ§ÙĦÙĤ Ø§ÙĩØ±Ø©
ĠØ¹ ÙħØ±
ÙĤ Ùĩ
Ø² Ø§Ùħ
ĠØ§ÙĦÙħ ÙĪØ±Ø¯
ĠØ¨Ø§ÙĦ Ùĥ
ĠØ¯ ÙĬØ³
ĠØªØ³ ÙĪÙĤ
ĠÙĪÙĥ Ø§ÙĨ
Øª ÙĨØ§
Ø¬ Ùĩ
ĠØ§ÙĦØ¯ Ø®ÙĪÙĦ
ĠÙĪØ§ØŃ Ø¯Ø©
Ø· Ø§Øª
ĠØ® Ø§ØµØ©
ĠØ§Ø¶ Ø§ÙģØ©
ÙĨØ³ ÙĬØ©
Ø§Ø¬ Ø©
ĠØ§ÙĦØµ ÙĨØ§Ø¹
Ø¯ Ø§Ø±
ĠÙĪØ§ÙĦ Ùģ
Ø§Ø± Ø¹
ĠØ¹ Ø¯Ùħ
ĠÙħØ³ ØŃÙĪÙĤ
Ø° Ø©
ĠØ§ÙĦØ¯ Ø§Ø®
ĠÙħÙĨ Ø·ÙĤØ©
ĠØ± ØŃ
ĠØ§ÙĦØ³ÙĬ Ø§Ø±Ø§Øª
ØªØ® Ø§Ø¨Ø§Øª
Ø³ÙĬ ÙĤ
Ø¨ Ùĩ
Ġ0 9
ĠØµ ÙĨØ§Ø¹Ø©
ĠØŃ Ùĥ
ĠØ§ÙĦØ´ Ø±ÙĤ
ĠÙĪØ§ÙĦ Øµ
ĠØ§ÙĦÙħ ØªÙĪ
ĠØ§ÙĦØªØµ ÙĨ
Ø§ÙĤ ÙĦ
ĠÙĤ ÙĨ
Ø§Ùĩ ÙĬÙħ
Ġ3 3
Ø§ÙĦ Ø¬Ø©
Ø§Ø¯ ÙĦ
ĠÙħØ¬ Ø§ÙĦ
ĠÙĬ Øµ
ĠØª ÙĦÙĥ
Ø§Ø¯ Ø«
Ø§Ø¦ Ø±Ø©
ĠØ§ Ø¨ÙĬ
ĠØ§ÙĦÙĥ Ø«ÙĬØ±
ÙĪÙĨ Ø³
ĠÙħ Øº
ĠÙĬ Ø®
ĠØ¨ Ø§Ø¨
ÙĨ Ø·
Øµ Ùī
ØªØ¨ Ø§Ø±
ĠÙħ Ø±Ø©
ĠÙĤ Ø·Ø±
ĠØ§ÙĦØ¬ ÙĬØ±ÙĬ
Ġ3 7
ĠÙĦÙĦ Ø§Ø³
ÙĪ Ø§Ø¨
ÙĬÙĪ Ø·
ĠØ§ÙĦØª Ø±Ùĥ
ĠÙĬ Ø¤
Ø¬ ÙĬ
ĠØ§ÙĦÙĪØ· ÙĨÙĬØ©
ĠØ§ÙĦØ³ Ø§Ø¹Ø©
ĠÙĨ ØŃÙĨ
ĠÙĬÙĪÙĨ ÙĬÙĪ
Ø¶ Ø§ÙĨ
Ø§Ùħ ÙĬ
ĠÙģ ÙĪ
ĠØ¹ÙĨ ÙĪØ§ÙĨ
ĠÙĥÙĦ ÙħØ©
Ùĥ Ø§Øª
ÙħØ¯ ÙĬÙĨØ©
ĠØª Ø§Ø«ÙĬØ±
ĠÙĦ ÙĥÙĦ
Ø· ÙĦØ¨
ĠÙĦ Ø³
Ø¶ ØŃ
ĠÙĤ Ùħ
ĠØŃ ÙĤ
Ø® Ø©
ĠØ§ÙĦØªÙĪ Ø§ØµÙĦ
ĠØ§ÙĦÙħÙĨ ØªØ¬
ĠØ§ Ø¹Ø¯
ĠÙĪØ§ÙĦ Ø§Ø³
Ø§Ùĥ ÙĦ
ĠØ¨ ÙĨØ§
6 1
ĠÙĬ Ø±
Ø° ÙĥØ±
Ø·ÙĦ Ø§ÙĤ
Ø¯ ÙĬØ©
ĠØª ÙĥØ³ÙĬØ±
Ø§ ÙĩÙħ
ĠØ§ÙĦÙħ Ùħ
ĠØ§ÙĦÙħØµ Ø±ÙĬ
ĠØª Ø¹Ø¯
ÙĤØ± ÙĬØ±
ĠÙħÙĦÙģ Ø§Øª
ĠØ¨Ø§ÙĦ ÙĤ
ĠØ§ÙĦØ§ÙĨ Ø¬ÙĦÙĬ
ĠØ¬ Ø±
ĠØ³ ÙĬØ±
ĠØ´ Ø±Ø§Ø¡
ĠØ§ÙĦØ§Ø³ÙĦØ§Ùħ ÙĬØ©
ÙĪÙħ ÙĬ
ĠØ§ÙĦØŃ Ø¯ÙĬØ«
Øª Ø§
ĠÙĦ ÙħÙĨ
ĠØ§ÙĦØª Ø§Ø±ÙĬØ®
Ø¨ Ø®
ĠØ¨ ÙĬØª
ĠÙģÙĬ ÙĦÙħ
ĠØ§ÙĦØ¹ Ø¯
Ø§Ø¯ Ø±Ø©
Ġ0 2
ĠØ§ÙĦØªØ¬ Ø§Ø±ÙĬØ©
ĠØ§ÙĦØ§Ø¬ØªÙħØ§Ø¹ ÙĬØ©
ĠØ¯ ÙĦÙĬÙĦ
ØªÙĪ Ùī
Ø§Ø¡ Ø§Øª
ØªØ± Ø§Ùĥ
ĠØ§Ø¬ ØªÙħØ§Ø¹
Ú ©
ĠØ´ Ø±
ĠØ§ÙĦØ¹ Ø±Ø¨
Ø§Ùħ Ø§Øª
ÙģØ³ ÙĬØ±
ĠÙħ Ø§Ø±Ø³
ĠØ§ÙĦÙĨÙģ Ø·
ĠÙĪ Ø§Ø¬
ĠÙģ ÙĤØ¯
ĠØ§ÙĦÙħ Ø§ÙĦ
Ġ0 4
ĠØ¨ ÙħØ§
ĠØ§ÙĦÙĨ Ø§Ø³
ĠÙĨ Ø´
ĠÙĦ Øµ
ĠÙĥ Ø±
ĠØ§ÙĦØ« ÙĦØ§Ø«
ĠØ§ÙĦØ§Øª ØµØ§ÙĦ
ĠÙĥ Ø§Ø±
ĠØ§ÙĦÙĥ ÙĩØ±Ø¨
ÙĬÙĨ Ø§Øª
ĠÙĦÙĦ ÙĨ
ĠØ§ØŃØ¯ Ø«
ÙĪ Ùĩ
Ø¯ Ùĩ
Ø§Ø¶ ÙĬØ©
Ø¨ Ø§Ø¡
Ø§Ø¦ ØŃ
Ġ0 7
ÙĬÙħ ÙĬ
Ø§ÙĨ Ø³
ĠØ§ÙĦØ¨ Ø·
Øº Ùħ
ĠØ§ÙĦØ³ Ø¨Øª
ĠØ¨Ø§ÙĦ Ùģ
ØŃ Ø§Ø¨
Ùħ ÙĬØ³
ĠÙĪ ØºÙĬØ±
ĠØ§Ùħ Ø±
ĠÙĦØ§ ÙĬÙĨ
ĠØ¬ ÙĩØ§Ø²
ÙĬÙĪ Ø¨
ĠÙħ Ø§Ø±
ĠØŃØ³ ÙĨ
ĠØ§Ø± ÙĤØ§Ùħ
ĠØ§ÙĦÙħØº Ø±Ø¨
ĠÙĤ Ø±
Ø´Ø± ÙĬÙĨ
ĠÙħØŃ Ùħ
ĠÙĪ ÙħØ§
Ø· ÙĬØ¹
ĠØ§ÙĦÙĨ ØŃ
ĠØªÙĤ Ø¯Ùħ
ĠØªØ±Ùĥ ÙĬØ§
ĠØ§ ÙħÙĨ
ĠÙħ Ø«
ĠØ³ÙĨ ÙĪØ§Øª
Ø¸ÙĬÙģ Ø©
ĠØ§ÙĦØ¬Ùħ Ø¹Ø©
ĠØªØ¹ÙĦ ÙĬÙĤ
ØªØ¯ ÙĬØ§Øª
ĠØ§ÙĦØ³ ÙĨØ©
ĠØ§ÙĦØª Ø±
ØªÙħ Ø±
Ø¨ Ø§ÙĦ
Ø§Ø¨ ÙĬ
ĠØ§ ÙĤÙĦ
ĠÙĦ Ùģ
ĠØ§ÙĦÙĨ ÙĤ
ĠÙĦØ¯ Ùī
Ø¶ Ùħ
Ø§Ùģ Ø¸Ø©
ĠÙĬ ÙĦ
Ø³ Ø§Ùħ
ĠÙħØ´ Ø§Ø±ÙĥØ©
ĠØ§ÙĦØ± ÙħØ§ÙĦ
Ø§Ùĥ Ø³
Øª Ø§ØŃ
2 1
Ġ Ùī
ĠÙĨ Ùģ
ĠÙĨØª Ø§Ø¦Ø¬
ĠÙħØ¨ Ø§Ø´Ø±
ĠØ® Ø§Øµ
ĠÙĪ Ø§Ø®
ĠØ¨Ø± Ø§ÙħØ¬
ĠØ§Ø¹ ÙħØ§ÙĦ
2 7
ĠØ§ÙĦØ§Ø³ Ø¹Ø§Ø±
Ġ201 3
ĠØ¨Ø§Ø³ ØªØ®Ø¯Ø§Ùħ
ĠØ¨ ÙħÙĨ
ĠØ§ÙĦØ§Ø® Ø±Ùī
ÙĪ ØŃ
ÙĪ Ø§ÙĤ
ĠØ§ÙĦØ¹ ÙĨØ§ÙĬØ©
ÙĪÙĨ Ø§Øª
Ġ0 3
Ø±Ø¬ Ø©
ĠØ§ÙĦØ¯ÙĪÙĦ ÙĬØ©
Ø§Ùģ Ø±
Ùĥ Ø¯
ĠØ§ÙĦØµ ØºÙĬØ±Ø©
ĠØ§ÙĦØ± ØŃ
ÙĪÙĬ ØªØ±
ĠØ±Ùħ Ø¶Ø§ÙĨ
ĠØ³ÙĬ Ø§Ø±Ø§Øª
ĠÙĥ Ø§ÙģØ©
ĠØ¨ÙĨ Ø§Ø¡
ĠØ§ÙĦØ± Ø¬
Ġ4 5
ĠØ§ÙĬ Ø§Ùħ
ĠÙģ Ø¨Ø±
ĠÙĪÙģ ÙĤ
ĠØªØ¹ Ø±ÙĬÙģ
Ø¹ÙĦ ÙĬÙĤ
ĠÙħÙĦ Ø§Ø¨Ø³
Ġ5 6
Ø³ Ø§ÙĦ
ĠÙħØ¹ Ø§ÙĦØ¬Ø©
Ø· Ùģ
Øµ Ø¯
ĠØ§ÙĦÙħØŃÙħ ÙĪÙĦØ©
ĠÙħ Ø§Ø³
Ø§Ùģ Ø§Øª
ĠØ§ÙĦØ§Ø± Ø¶
ĠØ§ÙĦØ®Ø¯Ùħ Ø§Øª
Ø· ÙĪØ±
ÙĩØ¯ Ùģ
ĠØ§ÙĦØŃ ÙĤ
ĠØ³ÙĬ Ø§Ø³Ø©
ĠØ§ÙĦØ§Ø¹ ÙĦ
Ø§Ø¯ ÙĨ
ĠØ§ÙĦØ¯ Ùħ
Ø§Ø¹ ÙĬ
ĠØ§ÙĦÙħØµÙĨ Ø¹Ø©
Ùĥ Ø±Ø©
ĠØ² ÙĬØª
ĠØ¨Ø§ÙĦ Ø¬
ĠÙħØ§ ÙĬÙĪ
ĠØ¨ Ø¯Ø§
ĠØ· Ø¨
ĠØªÙĥ ÙĦÙģØ©
Ùĥ Ø§
ĠÙĬÙĪÙĦ ÙĬÙĪ
ĠÙħØ¯ ÙĬØ±
Ø· Ø§ÙĦ
ĠØ§ÙĦÙħØŃÙħ ÙĪÙĦ
Ùĩ ÙĪØ±ÙĬØ©
ĠØ§ÙĦØ³ ÙĬØ¯
Øª ÙĨ
ÙĪÙĦ Ø§Øª
Ø® Ø§Øµ
ĠØ´ Ø§ÙĩØ¯
Ġ8 0
Ġ25 3
Ø±ÙĪ ÙĬØ¯
ĠÙĨ Ø¸
ĠØ§Ø¹ÙĦ Ø§ÙĨ
Ø§ ÙĬØ§
ÙĬÙħ Ø§ÙĨ
ĠÙħØª ÙĨ
ĠØ´Ø¨ ÙĥØ©
ÙĪ Ø§Ø±Ø§Øª
ĠÙĥ Øª
ĠØ§ÙĦØ± ÙĤÙħ
ĠÙĦ ÙĥÙħ
ĠÙħ ÙħØ§
ØŃÙĬ ØŃ
ĠØ§ÙĦÙĨ Ùĩ
ĠØ° ÙĥØ±
ĠÙģ ØŃ
Ø§ ÙĬØª
ĠØ§ÙĦØ³ ÙĨ
ĠØ§ÙĦÙħ Ø§ÙĦÙĬØ©
ĠØ±Ø³ Ø§ÙĦØ©
ĠÙĬÙĨ Ø§ÙĬØ±
ĠÙĤ ÙĦ
Ø±Ø¯ Ø´Ø©
ĠØª ØªÙħ
Ùĥ Ø§Ø±
Ø±Ø§Ø¡ Ø©
Ø¯ ÙĪØ¯
ĠÙħØª ÙĨÙĤÙĦØ©
ĠØ³ ÙĪÙģ
Ġ6 5
Ø· Ø¨
Ø§Ø³ Ùħ
ĠÙĪØ§ÙĦ Ø§ÙĨ
ĠØ§ÙĦØµØŃ ÙĬØ©
ÙĩØ§ ÙĬØ©
ĠØ§ ÙĬØ±Ø§ÙĨ
ĠØ§ÙĦØ³ ÙĪ
ĠÙĪ Ø§Ø¶
ÙĨØ§ ÙĪÙĦ
Ùĥ Ø§Ùħ
ÙĬÙħ ÙĪÙĨ
ĠØ§Ø³ Ø±Ø§Ø¦ÙĬÙĦ
ĠØ§ ÙħØ§
ĠÙĪ Ø§Ø´
ĠØ§ÙĦÙħ ÙĬØ§Ùĩ
ĠØ¹ Ø±Ø¨ÙĬ
ĠÙĪØ§ÙĦ Ø¬
ĠÙģ Ø±ÙĬÙĤ
ĠØ± Ø§Ø³
ĠÙĦ Ø¯ÙĬ
ĠØ§ÙĦØ§Øª ØŃØ§Ø¯
ÙĥØ± ÙĬØ©
ĠÙĦÙĦ Ø³
ĠØ§ÙĦØ· Ø§ÙĤØ©
ĠØ§ Ø±Ø¨
Ø§ÙĤ ÙĬØ©
ĠÙħÙĥ Ø§ÙĨ
ĠÙĪØ§ÙĦ Ø®
Ø° Ø±
ÙĪÙħ ÙĬØ©
ĠØ§ÙĦØª Ø±Ø¨ÙĬØ©
ĠØ§Ø¨ Ø±ÙĬÙĦ
ÙĪØ¨ ÙĬØ©
ĠØ§ÙĦØ§Ø¬ØªÙħØ§Ø¹ ÙĬ
ĠØ§ÙĦØµ ÙĪØ±
ĠØ³ ÙĪØ±ÙĬØ§
ĠØª ÙĤØ¯ÙĬÙħ
ĠØ§ ÙĤØ±
Ø±ÙĬ Ø³
ÙĬÙĦ ÙĬ
Ø¯Ùħ Ø©
ĠØ§ÙĦÙħØ± Ø§Ø©
Ø¹ Øª
ÙģÙĬ Ø°
ĠÙĪØ¬ ÙĪØ¯
ĠØ§ÙĦÙħÙĨ Ø²ÙĦ
ĠØ§Ø¬ ÙĩØ²Ø©
ĠÙĪ Ø§Ùĥ
ĠØŃ Ø±
ĠØ§Ø« ÙĨØ§Ø¡
Ø§Ø¦ Ø¯Ø©
ĠØ§ÙĦØŃ ÙĦ
ĠØ§ÙĦØ§Ùħ ÙĨ
ĠØ§Ø¹ Ø§Ø¯Ø©
ĠØ§Ø® ØªØ±
Øª Ø´
ĠØ§ÙĦÙħÙĪ Ø³Ùħ
ĠØ§ÙĦØ§Ø³ Ø¨ÙĪØ¹
ĠØ§ÙĦØ¬ Ø±
ĠÙħØ¨Ø§Ø± Ø§Ø©
Ùĥ ÙĦØ©
ĠØ§ÙĦÙĨ Ø¨Ø§Øª
ĠÙħÙĥ Ø§ÙģØŃØ©
ĠØ¹ Ø´Ø±
Ø¨ÙĦ Øº
Ø¹ Ø§Ùħ
ÙĬÙĦ Ø§Øª
Ø±ÙĬ Ø§Øª
5 1
ÙĦÙħ Ø§ÙĨ
Ġ5 00
ĠØª ÙĪÙĬØªØ±
Ø· ÙĪØ§ÙĨ
ĠØ± Ø¤
ĠØ§ÙĦÙĨ Ø¸Ø§Ùħ
ÙĬÙĥ ÙĪÙĨ
ĠØ§ÙĦØ´ Ùĩ
Ø´ ÙĦ
ĠÙĪ ØµÙĦ
ĠØ¶ ÙħÙĨ
ÙĬÙĥ Ø§
ĠØ§ÙĦØ´ Ø¹
Ø¹ÙħÙĦ Ø©
ĠÙĦÙĦ Ø¯
ĠØ« ÙĤ
ĠØ§ÙĦÙĦ Ø¨ÙĨ
ĠØ¹ ÙĬØ¯
ĠØ§ÙĦÙĥ Ø±ÙĬÙħ
ĠØ§ÙĦØ® ØµÙĪØµ
ĠØ§ÙĦØªØ· Ø¨ÙĬÙĤ
ÙĬÙĥ ÙĬØ©
ĠØ´ Ø±ØŃ
ĠØ§ÙĦÙģ ÙĬØ¯ÙĬÙĪ
ÙĪØ± Øª
ØªÙĤ Ø§ÙĦ
ĠØ§ÙĦØ§Ùħ Ø±
ĠØ¨ ÙĥÙĦ
ĠØ§ÙĦØ³ Ùħ
ĠØ§ÙĦØ§Ø¨ ØªØ¯
ĠØ§ÙĦÙĥ ØªØ§Ø¨
Ø§ ÙĪÙĬ
ĠØ§ÙĦØªØµÙĨ ÙĬÙģ
ĠØ² ÙĬ
ĠÙħØ³ Ø§Ø¡
Ø± Ø¹
Ø§Ø¨ ÙĤØ©
Ø§ÙĦ Ùī
ĠØ§ÙĦØ§Ùħ Ø§Ùħ
ÙħÙĪ Ø°
Ø¯ ÙĤ
ÙĪ Ø¶
Ġ4 9
ĠØŃ Ø¨
ĠØ§ÙĦÙĥ Ø±
Ø§Ø¨ ÙĬØ©
ÙĬØ± Ø§Øª
ĠØ± Ø¨
Ùĥ Ø§ÙĦ
ĠØ¬ Ø±ÙĬ
ĠØ§ÙĦØ¬ Ø§Ùħ
ĠØ¯ ÙĪÙĦØ©
ĠØ§ÙĦØº Ø°
ĠÙĦÙĦ Ùģ
ĠØ§ÙĦÙĨ Ø´Ø±
Ø´Ùģ Ùī
Ø§Ùĥ ÙĨ
Ø® Ø§Ùħ
ĠØª Ø¹ÙĦÙĬÙħ
ĠØ§ØŃ ØµÙĦ
ĠÙĦ Øº
Ø§Ùħ Ø¨
ÙĪÙĨ ÙĬ
ĠØ§ÙĬ Ø¶
ĠÙħØ¨ Ø§Ø´Ø±Ø©
ÙĬØ² Ø§Øª
ĠØ¨Ø§Ø³ ÙĬÙĪØ·
ĠØ§Ø¨Ø± Ø§ÙĩÙĬÙħ
Ġ8 7
ÙĪ Ø¡
Ø³Ø¨ ÙĪÙĥ
ĠØ± Ø³Ùħ
ĠÙĨ ØŃÙĪ
9 3
ĠÙĪÙĩ Ø°Ø§
ĠÙĨÙĪÙģ ÙħØ¨Ø±
Ø®Ø¯Ùħ Ø§Øª
ÙĬØ¯ Ø±
ĠØ§ÙĦØ® ÙħÙĬØ³
ÙĩÙħ Ø©
ĠÙħ Ø¯Ø±
ĠÙģÙĬ Ø³Ø¨ÙĪÙĥ
9 4
Ø³Ø· Ø³
ĠØ§ÙĦØ¬Ø² Ø§Ø¦Ø±
Ġ7 3
ĠØ§ÙĦØ® Ø±
ĠØ§ÙĦÙģ ØµÙĦ
ĠØªØ¹ ÙħÙĦ
ØªÙħ Ø¯
Øº Ø§ÙĨ
Ø§Ùħ ÙĨ
Ø¬ Ø±Ø©
Ø² ÙĬÙĨ
ĠÙĬ Ùĩ
Ġ3 8
ĠØªÙĤ ÙĪÙħ
ĠØ² ÙĪØ¬
ĠÙģ Ø¹ÙĦ
ĠÙĨ Ùĩ
ÙĦ Ø§Ø¡
ÙĪÙĦ ÙĬ
ĠØ§ÙĦØµ ÙĦ
ĠØ§ÙĦØ´Ø®Øµ ÙĬØ©
ĠØ§Øº Ø³Ø·Ø³
ĠØ§Ø± ØªÙģØ§Ø¹
ĠØ¨ Ùģ
Ø¦ ÙĦØ©
ÙħÙĪØ° Ø¬
ĠØ§ÙĦÙħ Ø·Ø±
Ø§ØŃ ÙĦ
ĠÙħØ³Øª ÙĪÙī
Ùģ ÙĬÙĨ
ĠØ§ÙĦØ§Ùħ ÙĬØ±
Ø· Ø§Ø¡
ÙĪ Ø§Ø¯
ĠØ¨Ø§ÙĦ Ø±ÙĬØ§Ø¶
ĠØ¯ÙĬØ³ ÙħØ¨Ø±
ĠØ§ÙĦØ´ Ø¹Ø¨
ĠÙĤ Ø§Ùħ
ĠØªØ±Ùĥ ÙĬØ¨
Ø· Ø§Ø±
ÙĨØ§ Ùĩ
ĠÙĤ Ø¯Ùħ
ĠØ§ÙĦØ¨ ÙĨØ§Ø¡
ĠØŃ Ø¯ÙĬØ«
Øª Ø¨Ø©
ĠØ¹ÙĦ ÙĪÙħ
ĠØ§ÙĦÙħØ³ØªØ®Ø¯Ùħ Ø©
ĠØ® ÙĦÙģ
Ø¬ ÙĨ
ĠÙģØ¨Ø± Ø§ÙĬØ±
Ġ201 2
ĠØ§ÙĦÙĥØ³ Ø§Ø±Ø§Øª
Ø§ ÙĬÙĦ
ĠÙĥ Ø´Ùģ
ĠØ§ÙĦÙħØµ Ø±ÙĬØ©
1 5
ĠØ§ÙĦÙħÙĨ ÙĪØ±Ø©
ĠØ§ÙĦØ¹ Ø¨
ĠØ¯ ÙĬÙĨ
4 0
ĠØ¹ÙĦ Ø§Ø¬
Ø² Ø§Ø¡
ĠØ´ÙĬ Ø¡
ĠØ¨ Ø®
ĠØ§ÙĦØ®Ø§Ø±Ø¬ ÙĬØ©
ĠÙĥÙĦ ÙĬØ©
Ġ8 5
ĠØ§ÙĦÙģ ÙĨ
ĠØ§ ØµÙĦ
ĠÙĤ ÙĬ
ĠØ±ÙĬ Ø§ÙĦ
ĠØ§ÙĦØ· Ø¨ÙĬØ¹
Ø§Ø¹ ÙĬØ©
ĠØ§ÙĦØ®ØµÙĪØµ ÙĬØ©
ĠØ§ Ø«Ø±
ĠØ® Ø§Ø±Ø¬
Ġ3 00
Ø¯ Ùģ
Ø« Ùħ
ĠØ§ÙĦØ§ÙĨ Ø³
ĠØ§ ØªÙģ
ĠØ§ÙĦÙĪ ØŃ
ĠÙĦ Ø§ØŃ
4 3
ĠÙĦÙĦ Øµ
ĠØ§ÙĦØ´ ÙħØ³
ÙĤÙĬ ÙĬÙħ
ĠØ¨Ø´ Ø§ÙĨ
ÙĦ ÙĪØ¨
ĠØ§Ø´ ÙĩØ±
ĠØ§ÙĦØ¹Ø§ÙĦÙħ ÙĬ
Ø§ ÙĪÙĦØ©
ĠØŃ Ùģ
Ø§ÙĨ ÙĬØª
ĠØŃ Ø¬Ùħ
Øª ÙĩÙħ
ĠØ¨Ø±ÙĬØ¯ Ùĥ
ĠØ§ÙĦÙĥ Ùħ
ĠØ§ÙĦ ÙĬÙĩ
ĠØ¨Ø§ÙĦ Øª
ĠÙĥ Ø§ÙħÙĦØ©
Ø´ ÙĬÙģ
Ø¶ ÙħÙĨ
Ø¬ Ø¨
Ø³Ø³ ÙĪØ§Ø±Ø§Øª
ĠØ· Ø±ÙĤ
ĠØ¨ Øº
Ø¬ Ø§Ø¬
ĠØ§ÙĦÙħ Ø²
ĠØªÙģ Ø§ØµÙĬÙĦ
ĠÙĪØ§ÙĦ Ùĥ
Ø¹ Ùī
ĠØªØµ ÙģØŃ
Ø¹ÙĦ ÙĤ
ØªÙĬ Ø¬Ø©
ĠØ§ÙĦØª Ø¹ÙĦÙĬÙĤ
ĠØ§ÙĦØ¯Ø§Ø® ÙĦÙĬØ©
ĠÙĪÙħ Ø¹
Ø« ÙħØ§Ø±
ĠØ§ÙĦÙħØ¯ ÙĬÙĨØ©
Ø· Ø§ÙĤ
ĠØ§ÙĦØ³ Ø§Ø¨ÙĤ
ÙĪØ¯ ÙĬ
ĠØ§ÙĦØ§Ø³ Ùħ
ĠØ§ÙĦØ§Ø±Ø¯ ÙĨ
Øª ÙĦØ§ÙĦ
ĠÙħÙĪ Ø¶ÙĪØ¹
ĠØ¨Øª Ø§Ø±ÙĬØ®
Ø§Ùĩ Ø±
Ø´ ÙĨ
ĠØ§ÙĦÙħÙĨ Ø·ÙĤØ©
ĠØ§ÙĦØ§Ø± Ø¨Ø¹
ÙĬØ¯ ÙĬØ§
ĠØ§ÙĨØ´ Ø§Ø¡
Ġ6 1
Ø³ÙĬ Ø·
Ø§Ø¦ Ø¹Ø©
ĠÙħØ¬ Ø§ÙĨÙĬØ©
ĠØ± ÙĪØ³
ĠÙħÙĥ ØªØ¨
ĠÙĦ ÙĤØ¯
ĠØ§ÙĦØ¯ ÙĪØ±ÙĬ
Ø¹ Ø¨Ø©
ĠØ³ ÙĪÙĤ
Ø¹ ÙĬÙĨ
Ø§Ø¬ Ø¯
ÙĤ ÙĬØ©
Ø§Ø· Ø±
ĠØª ÙĤØ±ÙĬØ±
ĠØ§ÙĦ ÙĬÙĥ
ĠÙħ ÙĬÙĦ
Ø§Ùħ Ø±
ĠÙĪÙĦ Ø§ÙĬØ©
Ùĥ ÙĬÙĦ
ĠØªØ· ÙĪÙĬØ±
ĠÙĥ ÙĪÙħ
ĠØ§ÙĦØ· Ø¨
ĠØ§ÙĦÙħÙĪ Ø§Ø¶ÙĬØ¹
ĠÙģ Øª
Ø³ Ø§Øª
ĠØµ ÙĪØ±Ø©
ĠÙĬØ¹ ÙħÙĦ
ĠØ§ÙĦØ§Ùĥ Ø«Ø±
Ø¨ÙĬØ¹ Ø§Øª
Ø§ØŃ Ø§Øª
ÙĪ ÙĬØ§Øª
ĠÙĤ Ø¨
ĠØ± Ø¯
Ø§Ø· ÙģØ§ÙĦ
ĠÙĪ ÙĩÙħ
ÙĬØ¯ Ø§
ĠØ§ÙĦÙĤ Ø¯Ùħ
ĠÙħØ´ Ø§Ø±
ĠØŃ ÙĬÙĨ
ĠØ§Ùĥ Ø³
ĠØ§ÙĦÙĨØŃ Ø§Ø³
ĠØ§ÙĦ Ø§Ø¶
Ġ7 6
ĠÙĦÙĦ ÙĤ
8 4
Ġ202 2
ĠØµ ÙĦÙī
ĠØ§ÙĦØ¬ Ø§ÙħØ¹Ø©
ĠØµ ØºÙĬØ±
Ø¨ ÙĬÙĨ
ĠØ§ÙĦØ® Ø¨Ø±
ĠÙĪ ØªÙĪ
ĠØ§ÙĦØ¨ÙĬ Ø§ÙĨØ§Øª
ĠÙģ ÙĦØ³Ø·ÙĬÙĨ
Ø§ÙĬ Ø¬Ø§Ø±
ĠØ§ÙĦÙĤ ÙĬ
ĠØ§ÙĦØ³ÙĪØ¯ Ø§ÙĨ
ĠÙĥ Ø«ÙĬØ±
ĠØ§ÙĦÙĦ ÙĬ
ĠØ§ÙĦÙĬ ÙĩØ§
ĠÙħØ¹ Ø¯
ĠØ¨ÙĬØ§ÙĨ Ø§Øª
ĠØ§ÙĦØªØ³ Ø¬ÙĬÙĦ
ĠØ§ÙĦÙħ Ø«
ĠØ§ÙĦØ§ÙĤ ÙĦ
Ø±ÙĬ Ø¨Ø©
Ø³Ø§ÙĨ Ø©
ØªØ¨ Ø§Ø·
Ø§ ÙĪØ±
ĠØµ Ø¨Ø§ØŃ
ĠÙħØ§Ùĥ ÙĬÙĨØ©
ĠØ¬ Ø¯Ø©
ÙĦÙĬ Ø¬
ĠØ´ Ø¹Ø±
ĠÙĬÙĤ ÙĪÙħ
ĠØ§ÙĦØ§ÙĨØ¬ÙĦÙĬ Ø²ÙĬØ©
ĠØ§ÙĦØ´ ÙħØ§ÙĦ
ĠØ§ÙĦÙħ ÙĦÙģ
ĠØ¯ ÙĪØ±Ø©
ĠØ§Ø¯ ÙĪØ§Øª
ĠØ§ÙĦÙħÙĪ Ø§ÙĤØ¹
ĠØ§ÙĦØ¨ Ø¯
ĠØ¨ ÙĪÙĦ
ĠÙĤ Ø±Ø§Ø±
ĠØ¯ Ùħ
ĠØ§ÙĦ Ø§Øº
ĠØŃ Ø§ÙĦ
ĠÙĬ ÙĪØ¬Ø¯
ĠØªÙĨ Ø²ÙĬÙĦ
ĠØªØ¹ÙĦ ÙĨ
Ġ4 2
Ġ7 2
ĠØ§ÙĦ Ø§ÙĦÙħ
ĠØ¯ Ø¹Ùħ
ĠØ¬ ÙĦ
Ø§ ÙĬØ¯
ĠØ§ÙĦØ³ Ø¨
ÙĪ ÙĬÙħ
ĠÙĪ Ø§Ø±
ĠØ§ÙĦØ³ÙĬ Ø§Ø³ÙĬØ©
Ø§Ùĩ ÙĬØ±
Ø§Ø¬ Ùħ
ÙĩØ± Ø¬Ø§ÙĨ
ÙĪØ¹ Ø§Øª
Ø±ÙĬ Ø·
Ùģ ÙĤ
ÙĪØ¬ Ùĩ
Ø¹Ø± ÙģØ©
ĠÙħØ³ Ø¤ÙĪÙĦ
ĠØ¨Ø§ÙĦ Ø§Ø¶Ø§ÙģØ©
ĠØ§ÙĦØ¬ ÙĪØ¯Ø©
ĠÙĦØ¯ ÙĬÙĨØ§
Ġ41 3
ĠØ¯ Ø§Ø±
ÙĬ Ø¶
97 0
ĠØ¨ÙĬØ± ÙĪØª
ĠØ§ÙĦÙĤ Øµ
ĠØ¨ ÙĪØ±
ÙĨØ³ Ø¨Ø©
ĠØ¨ØŃ Ø«
ĠØ¯Ø± Ø§Ø³Ø©
ĠØ§ÙĦÙħØ® Øª
ĠÙĪ Ø³ÙĦÙħ
Ø§Ùĥ Ø²
Ø¦ Ø§Øª
ĠØª Øº
ĠÙĦÙĦ Ø§ÙĬØ¬Ø§Ø±
Ø³Øª Ø®Ø¯Ùħ
ÙĬÙĪ Øª
Ø· ÙĬ
ĠØ¨ Ø§Ø¹
ĠØ¨Ø§Ø³ Ùħ
ĠØ§ÙĦÙĥØ³ Ø§Ø±Ø©
ĠÙĪÙĦ Ùħ
ĠÙħØ¤ Ø³Ø³Ø©
ÙĨ ÙĪØ§ÙĨ
ÙĬÙħ ÙĬØ©
ĠØ§ÙĦØ³ Ø§Ø¯
ĠØ§ÙĦØ§Ø³ ØªØ±
Ø§Ø± Ø§
ĠØ§ÙĦ Ø¸
Ùģ ÙĬØ©
Ġ6 3
Ùĥ ÙħØ©
ĠØ§Ø³Øª Ø±
Ø§ÙĦ Ùĥ
ĠÙĦ Ø°ÙĦÙĥ
Ø§Ø¡ Ø©
ĠØ³ Ùĥ
Ø¹ Ø§Ø¨
ĠØ¬ ÙĪØ¯Ø©
ĠÙĪÙĤ Ø§ÙĦ
ĠÙĤ ØµØ©
ĠÙĦÙĦ Ø¬
Ø· Ø·
ĠØ§ÙĦØ¨Ø± ÙĨØ§ÙħØ¬
Øº Ø¨
ĠØª ÙģØ³ÙĬØ±
ĠØ§ÙĦØ«Ø§ÙĦØ« Ø©
ĠÙħØ®Øª ÙĦÙģØ©
ÙĬ Ø¦Ø©
Ø¹ ÙĪ
ĠØ¨Ø§ÙĦ ÙħØ¯ÙĬÙĨØ©
ĠØ§Ø® ØªÙĬØ§Ø±
Ø§Ùģ Ø¶ÙĦ
ĠØ§ÙĦØ¬Ø² Ø¡
Ø±ÙĬ ØŃ
ĠØ§ÙĦØ¬ ÙĬØ´
ĠØ§ÙĦØŃ ÙĬÙĪ
ĠÙĬ ÙĪ
ĠÙĬ Ø±Ø¬
ĠØª Ø¤
ÙĨØ¯ ÙĪÙĤ
ĠØ¨Ø§ÙĦ ØŃ
ĠÙģÙĬ ÙħØ§
ĠÙĪØª ÙĨ
Ø§Ø· ÙĨ
Ġ201 1
ĠØ§ÙĦÙħØ·Ø± ÙĤØ©
ÙĪØ§Øª Ùģ
ĠÙħØª Ø¬Ø±
ĠØ§ÙĦØ´ Ø¨Ø§Ø¨
Ġ6 6
Ġ7 970
ĠÙĩÙĬ Ø¦Ø©
ĠÙĦ Ø·
Ġ7970 87
ĠØ§ÙĦØ§ÙĨ ØªØ§Ø¬
ØªÙĬ Ø¨
ĠØ§ÙĦÙħ Ø¯Ø±
ĠÙĪØ§ÙĦ ÙħÙĨ
ĠØ® Ø¨Ø±
ĠØ§ÙĦØ§Ø¯ Ø§Ø±Ø©
ĠØ§ÙĦØ¯ ÙģØ§Ø¹
ĠØ§ÙĦØ¬ ÙĨØ³
2 8
ĠÙĪØŃ Ø¯Ø©
Ø² Ø±
ĠØ§ÙĦÙĤ Ø¨
ĠØ§ÙĦÙħØ³Øª ÙĪÙī
ØªØ® Ø¨
Ġ3 4
ĠÙħØ± Ø§Ø¬
ĠØ¹ÙĨ Ùĩ
ĠØ§ÙĦØª Ø®
Ġ5 4
ĠØ§ÙĦÙħØ¬ ØªÙħØ¹
ĠØ§Ø¶ ØºØ·
ÙĪÙĦ Ùĩ
ĠØ¹ Ø´
Ø±ÙĪ Ø¨
Ø¬ ÙħØ©
ĠÙģ Ø§ÙĦ
Ø¹ Ø§Ø¯Ø©
ĠÙĪ Ø§Ùħ
ĠØ§ÙĦØ§ ÙĪØ³
ĠØ³ Ø¹ÙĪØ¯
Ø§ØŃ Ø¨
Ø§Ø® Ø±
Ġ7 5
Ø·ÙĪØ§ÙĨ Ø©
ĠØ§ÙĦ ÙĬØ¯
Ø¯ÙĬ ÙĤ
Ø³ ÙĬØ©
ĠØ§ÙĦØ³ ÙĪÙĤ
ĠÙģ ÙĪÙĤ
Ø³Ø³ Ø§Øª
ÙĨ Ø¯Ø§
ĠØªØŃ Ø¯ÙĬØ«
Ø· ÙĪÙĬØ±
ĠÙĪØ³ Ø§Ø¦ÙĦ
ĠØ§ÙĦØ¬ Ø³Ùħ
ĠÙĪÙģ Ø§Ø©
ĠØ§ÙĦÙħ Ø§ÙĨÙĬØ§
ĠØª Ø´Ø±ÙĬÙĨ
Ø¤ Ø§ÙĦ
ĠØ§ÙĦØ§Ø³ Ø±Ø§Ø¦ÙĬÙĦ
ĠØªØŃ ÙĤÙĬÙĤ
ÙĦØ³Ø· ÙĬÙĨÙĬ
ĠØ´ ÙĥÙĦ
Ùģ Ø§ÙĤ
ĠØ³ Ùĩ
Ġ7 7
ĠØ§ÙĦØ§Ø® ÙĬØ±Ø©
Ġ4 8
ÙĨØ³ Ø§
ĠØµ Ø§ÙĦØŃ
ÙĪØ¯ ÙĬØ©
ĠØ§ÙĦØ§Ø« ÙĨÙĬÙĨ
ĠÙĪ Ø«
ĠÙģ ÙĪØ±
ĠØŃ ÙĪ
ĠØ§ÙĦØ§Ø¹ ÙĦÙī
Ġ47 37
ĠÙĪ ÙĬÙĨ
ĠØ§ÙĦÙĬÙħ ÙĨ
Ø² Ùħ
ÙĪÙĬ ÙĤ
ĠÙĪØ¬ Ùĩ
Ø¯ Ùī
Ġ5 8
ØªØµ ÙģØŃ
ĠÙĪ Ø§Ø¯
ĠØ¨Ø§ÙĦ Ø¨
ĠØ§ÙĦØ· Ø¨ÙĬØ©
Ø§Ø² Ùħ
ĠØµÙģ ØŃØ©
ĠØ§ÙĦÙħØ¹ Ø§Ø¯ÙĨ
ĠØ§ÙĦØ§ÙĤØªØµ Ø§Ø¯ÙĬØ©
ĠÙĪ Ø§Ø¨
ÙĬ Ø§Ø±Ø§Øª
Øª Ø©
ĠØ§Øµ Ø¨ØŃ
ÙĬ ÙĪÙħ
ĠÙĪØ§ÙĦ Ø±
ĠÙĤÙĨ Ø§Ø©
ĠØ§Øª ØµÙĦ
ĠÙĥ ÙĪÙĨ
ĠØ§ÙĦÙħØª ÙĨÙĤÙĦØ©
Ø§Ø¦ ÙĦØ©
Ø¤ ÙĪÙĨ
Ø§Ø¬ ÙĦ
ĠØ§ÙĦØ¬ ÙĦ
Ġ4 00
ĠØ§ÙĦØ³Ø¹ÙĪØ¯ ÙĬ
ĠØ§ÙĦ ÙĪØ±
ĠØ§ÙĦØ¨ÙĦ Ø¯
Ø¬ ÙĪÙħ
ĠØ§ÙĦØŃ Ø¨
Ø±ÙĬ Ø§
ĠÙģÙĬ Ø±ÙĪØ³
ĠØ§Ø¹ÙĦ Ùī
ĠØ§ÙĦÙħ Ø³ÙĦÙħ
ĠØ§Ø± Ø³Ø§ÙĦ
ĠØ§ÙĦÙħØ´ Ø§Ø±ÙĥØ©
ĠØ§ÙĦØŃ Ø³
Ø¹Ø¯ Ø§Øª
ĠØ¨ Ø§Øª
ÙĬÙģ ÙĪÙĨ
Ø¶ ÙĪØ±
ĠÙĦÙĦ ÙħÙĨ
Ø´ Ø§Ø±ÙĥØ©
ĠØ§ÙĦØ®Ø¯Ùħ Ø©
Ø² ÙĦÙĬØ©
ĠÙħ Ø§ÙĨ
Ø±ÙĬ Øª
ĠØŃ ÙĬØ§Øª
ĠÙĪ Ø§Øµ
ĠØŃØ³ ÙĬÙĨ
ĠÙĦÙĦØŃ ØµÙĪÙĦ
Ø§Ø± Ùĩ
ÙĬÙħ Ø§
ĠØ² ÙĬØ§Ø¯Ø©
Ø¹ Ø§ÙĬØ©
ĠØ¹ Ø±Ø¨ÙĬØ©
ĠÙĪ ØµÙģ
ĠØ§ÙĦÙĨ Øª
ĠÙĨ Ø·Ø§ÙĤ
ĠØ¨Ø§ÙĦ Ø³
Ø°Ùĩ Ø¨
ĠØ§ÙĦÙĪØ² Ø±Ø§Ø¡
ĠÙĦ Ø§Ø¨
ĠØª Ø±ÙĬØ¯
ĠØ§ÙĦØ· ÙĦ
ĠØ§ÙĦÙħÙĪ Ø¬
Ġ6 4
ĠØ§Ø³ Ø§Ø³
ĠÙħÙĤ Ø§Ø¨ÙĦ
Ġ4 4
ĠÙĪ ÙĬÙħ
Ø§Ø¹ Ùħ
ĠØ§ÙĦÙħØµ ÙĨØ¹
Ø±ÙĪ Ø¬
ĠØ§ÙĪØ± ÙĪØ¨Ø§
ÙĬÙĥ ÙĬ
ØŃ ÙĬØ©
ĠØ± Ø¬ÙĦ
ĠØ³ÙĬ Ø§Ø±Ø©
Ø§Øµ ÙģØ§Øª
ĠÙĪØ¹ÙĦ Ùī
ĠØ´ Ø±ÙĪØ·
ĠÙĤ Ùģ
ĠØ§ÙĦÙħØ´ Ø±ÙĪØ¹
Ø¬ Ø¯Ø§Øª
Ø§Ø¯ Ùħ
ĠØ§ÙĦØ§Ø´ ØªØ±Ø§Ùĥ
ÙĬÙĨ ÙĬØ§
Ø§Ø¦ ØŃØ©
ĠØ§ÙĦØµ ØŃÙĬ
Ø§Ø¯ Ùĩ
ĠØ§ÙĦÙĥÙħ Ø¨ÙĬÙĪØªØ±
ĠÙĤ ÙĪ
ĠØ§ÙĦØ§Ø±Ø¨Ø¹ Ø§Ø¡
ĠØ§Ø³ Ø¨ÙĪØ¹
ĠØ¨Ø§ÙĦ ÙĦ
Ø¨ Ø§
ĠØª Ø²
ĠØ§ÙĦØ§ÙĨ ØªØ®Ø§Ø¨Ø§Øª
ĠÙĦÙĦ Ùĩ
ĠØ± ÙģØ¹
Ùĩ ÙĬØ²
ĠØ¹ÙħÙĦ ÙĬØ§Øª
ÙĪÙĦ Ø¯
Ø§Øª Ùĩ
Ùģ Ø´
ĠØª ØºÙĬÙĬØ±
ĠØ¹ ÙĤØ¯
ĠØ§Øµ Ø§Ø¨Ø©
ĠÙĤ Ø±Ø§Ø¡Ø©
ĠØ§ÙĦÙħ Ø¬ÙĦØ³
ĠÙĦØ¯ ÙĬÙĥ
ØªÙħ Ø§Ùħ
ĠØŃ ÙĥÙħ
ĠÙĪ Øº
ĠØ¨ Ø«
ĠØ¹ Ø¯Ø©
Ġ9 0
ĠØª ÙĦÙģ
ĠØ¯ Ø±Ø¬Ø©
Ø¬Ùħ ÙĪØ¹Ø©
ĠØ§ÙĦØ· ÙĦØ¨
ĠÙĩ Ø§
ĠÙħØ®Ø±ÙĪØ· ÙĬØ©
ĠØ§ÙĦØªØ¹ Ø§ÙĪÙĨ
ĠØ§ÙĦØ§Ø³ Ø§Ø³ÙĬØ©
ĠÙĪØ³ Ø·
6 0
ĠØ³ Ø§Ø¹Ø§Øª
ÙĬÙĦ Ø§
Ø§Ø· Ø¹
ĠÙĨÙĬÙĪ Ø²
ÙģØ§Ø¡ Ø©
ĠØ§ ÙĩÙĦ
ĠØªØ´ ØºÙĬÙĦ
ĠÙħØ· Ø§ØŃÙĨ
3 0
Ġ7 0
ĠØ®Øµ Ùħ
ĠØ§ÙĦØ§ØŃ ØªÙĦØ§ÙĦ
ĠØ§ÙĦØ® ÙĦ
ĠÙĦ ÙĨØ§
ĠÙĩ Ùħ
ĠÙĦÙħ Ø§Ø°Ø§
ÙĬØ± ÙĬØ§
ĠÙĨ ÙĩØ§ÙĬØ©
Ø³ ÙĥØ±ÙĬØ©
ĠØ¬ÙĨ ÙĬÙĩ
ĠÙĪ Ø¨Ø±
ĠÙħØµ Ø§ÙĨØ¹
ÙĬØ¬ ÙĬØ©
ĠØ§ÙĦØ§Ø³ ØªØ®Ø¯Ø§Ùħ
ĠÙĥ Ø±ÙĬÙħ
ĠÙĪ Ø§ÙĬ
ĠØ³ Ø±
ĠØª ÙĪÙĨØ³
ĠÙħØ¬ Ø§ÙĨÙĬ
Ġ201 0
Øª Ø§Ø±
ĠØ±ÙĬ Ø§Ø¶
ĠØ§ÙĦØ´ Ø¨
ĠØ§ÙĦØ®Ø§Ùħ Ø³
ĠØ§ÙĦØ· Ø¨ÙĬ
ĠÙĦÙĦ Ø·
Ø±ÙĬ Ø¹Ø©
ĠØ§ÙĦÙĨ Øµ
Ġ5 5
ĠØ¯ ÙĪ
Ø±Ø§Ø¡ Ø§Øª
ĠÙĬÙĤ Ø¯Ùħ
ĠØ§ØŃ Ø°ÙĬØ©
Ø³ ÙĪÙĨ
ĠØ¨ Ø±ÙĪ
ĠØ§ÙĦØª Ùī
ĠØ¨Ø§ÙĦ Ø´
Ø§Øµ ÙħØ©
ĠØ· ÙĪ
ĠØ§ÙĦÙħ Ø§Ø¶ÙĬ
ĠØ¹ Øµ
ĠÙħØ®Øª ÙĦÙģ
ĠÙĪ ÙĥÙĦ
ĠÙĦÙħ Ø¯Ø©
Ø§Ø¹ Ø±
ĠÙĬÙĤ ÙĪÙĦ
ĠÙĥ Ø§Ø³
Ùģ Ø¶
Ø§Ø² ÙĬ
ÙĪ Ø´
ĠÙħÙĪ Ø³
ĠØ¹Ø¨Ø¯Ø§ÙĦ ÙĦÙĩ
ĠÙĪ Ø§ÙĤ
ĠØ§ Ø·ÙĦØ§ÙĤ
Ø§ÙĦ Ø¬
ĠØ§ÙĦØ± Ø§Ø¨Ø¹
ØªØ¯ Ø§Ø¡
ØŃÙĤ ÙĪÙĤ
ĠØ§Ùĥ Øª
ĠØ§ÙĦØ¬ ÙĩØ§Ø²
ĠÙĪØ§ÙĦ Ø«
ĠØ¨Ø§ÙĦ ÙĨØ³Ø¨Ø©
ĠØ§ÙĦØ§ ÙĬØ±
ĠØªØŃ Ø¯ÙĬØ¯
ĠÙħÙĪ Ø¹Ø¯
ĠÙĬ Ø¨
ĠØ³ ÙĬÙĨ
ĠØ§ÙĦÙħ Ø¶
ĠØ§ÙĦÙĥØªØ±ÙĪÙĨ ÙĬ
ĠØ±ÙĪØ³ ÙĬØ§
Ùģ ÙĬÙģ
ÙĪØ³ Ùģ
ÙĦÙĬ Ø¨
9 6
Ø´ Ø§Ø¡
Ø¯ Øª
ĠØ§ÙĦØŃØ¬ Ø§Ø±Ø©
ĠÙĦ ÙħØ§
ĠØ§ÙĦØ¹ Ø¯Ø¯
ĠØ§ÙĦÙħÙĪØ±Ø¯ ÙĬÙĨ
ÙĨ ÙĬØ§
Ø® Ø±
ÙĬÙĪ Ø§ÙĨ
Ġ Ù
Ø® ÙĬØµ
ĠÙħØµ Ø§Ø¯Ø±
ĠÙĬØ³Øª Ø®Ø¯Ùħ
ÙĬ ÙĬÙģ
ĠØ§ÙĦÙħØŃ ÙĦÙĬØ©
ĠÙĨ Ø¯
ĠØ³ Ø¹ÙĬØ¯
ĠÙĨ Ùħ
ĠØ§ÙĦØ² Ø±
Ø¹ÙĦ ÙĨ
Ø§Ùħ ÙĬØ©
ĠØ§ÙĦÙħ Ø¨Ø§Ø±
ĠÙģÙĬ Ø²Ø§
Ø§ ÙĪØ²
ĠØ§ÙĦØª Ùĥ
ĠØ§ÙĦÙĤ ÙĨ
Ġ6 7
ĠÙģ ÙĥÙĬØ©
ÙĨ Ø¯ÙĬ
ĠØ¬ Ø§ÙĨØ¨
Ġ25 0
Ø®Øµ ØµØ©
ĠØ¨Ø§ÙĦ Ø¹
ĠØ§ÙĦØ§Ø³ÙĦØ§Ùħ ÙĬ
ÙĬ ØŃ
ĠÙĥ ÙĩØ±Ø¨
ĠÙĦØ¬ ÙĨØ©
ĠØ§Ø· ÙģØ§ÙĦ
ĠØ§ÙĦØ«ÙĦØ§Ø« Ø§Ø¡
ĠØ§ÙĦØ§Ø± ØªØ¨Ø§Ø·
Ø¶ Ùī
ĠØ· ÙĦ
ĠØ§ÙĦÙģ ÙĨØ§ÙĨ
Ùĩ Ø§Ø±
Ø² Ø¨
Ġ51 0
ĠÙĪØ§ÙĦ Ø·
ĠÙĪ ÙĬØª
Ġ6 8
ĠÙĦ ÙĩÙħ
ĠØ§ÙĦÙħ Ø·ÙĦ
ĠØ´ ÙħØ§ÙĦ
Ø§Ø¬ Ø¹
ØªØ¨ Ø¹
ĠÙģÙĪ Ø§Ø¦Ø¯
Ø´Ø± Ø§Ø¡
ĠÙĬØŃ ØªÙĪÙĬ
ÙĬØ± ÙĬØ©
Ø³Øª Ø±
9 8
ĠØª Ø§Ø¬
ĠØ§ ÙĬØ©
ĠØ§ÙĦØ³ ÙĪØ±ÙĬ
ĠÙĦÙĦ Ø§ÙĨ
ĠØ¬ Ø§Ø¡
ĠØ§ÙĦÙħØ± ØŃÙĦØ©
ĠØ§ÙĦÙħØ± ÙĪØ±
ĠÙħ Ø§Ø¯Ø©
Ùģ Ø§Ùģ
Øª ÙĦÙģ
ĠÙĦÙĦ Ø¹ÙħÙĦ
ĠÙħ ÙĦÙĥ
ĠØ¨ Ø§ØŃ
ĠØº Ø±ÙģØ©
ĠØ§ ÙĬÙĨ
ĠÙĪØ§ÙĦ ÙĦ
ĠØ§Ø³ ÙĦØ§Ùħ
ÙĪØ¬ Ø©
ĠÙĦÙĦ Ùĥ
ĠØ§ÙħØ±ÙĬÙĥ Ø§
ĠØµÙĦ Ø§ØŃ
ĠØ§ÙĦØ± ÙĪ
ĠØ§ÙĦØ§Ø¹ Ø¶Ø§Ø¡
Ø° Ùģ
ĠØ¬ Ø¹ÙĦ
ĠØ· Ø¨ÙĬØ¹
Ø¶ Ø§Øª
ĠØ¨Ø±ÙĬ Ø·
ÙĬØª Ùĩ
ĠÙĪØ§Øª Ø³Ø§Ø¨
ĠÙĬØ¹ ÙĨÙĬ
ĠÙħÙĨ ØªØ¯ÙĬØ§Øª
Ġ5 7
ĠØ§Ø³Ùħ Ø§Ø¡
ĠØ´ Ø±Ùĥ
ÙĪÙĤ Ø§Øª
ÙĥØ³ Ø§Ø±Ø©
ĠÙħØ´ ÙĥÙĦØ©
Ø±Ø¬ ÙħØ©
ĠÙħ Ø§Ø°Ø§
ĠØŃØ² Ø¨
ĠÙĨ Ø¨
ĠÙħÙĪ Ø§Ø¯
ĠÙĬ ØªØŃ
ĠØ§ÙĦÙĥ ØªØ¨
ĠØ§ÙĦØª Ø§ÙĦÙĬ
ĠØ§ÙĦØ¹ÙħÙĦ Ø§Ø¡
Ùģ Ø±Ø©
Ø§Ø¹ ÙĦ
ĠÙĨØ³ Ø¨Ø©
ĠØµ Ø§ÙĦ
ĠØ§ÙĦØ«Ø§ÙĨ ÙĪÙĬØ©
ĠØ§ÙĦØ¹ÙĦÙħ ÙĬ
ĠØ§ÙĦØ¨ Ø´Ø±
ĠØ· Ø§ÙĦØ¨
ĠØ± ÙĪØ§
ĠØ§ÙĦØŃ Ø¬Ùħ
Ø° Ø¨
ÙĬØª ÙĬ
Ø¯Ø± ÙĬØ©
ĠØ§ÙĦØ®Ø± Ø³Ø§ÙĨØ©
ĠÙĪØª ÙĤ
ĠÙĪÙħ ØŃ
ĠØ± Ø§Ø¨Ø·
ĠÙĦÙĩ Ø°Ø§
ĠÙĬØ±Ø¬ Ùī
ĠØ± ÙĪÙħ
Ø§Ø¨ ÙĪÙĨ
ĠÙĪØ§ÙĦ Ø¨
ĠÙĦ Ø±
Ø§Ùĥ Ø¯
Ùĩ ÙĪØ¯
ĠÙĬ ÙĪØ³Ùģ
ĠØ¨Ø¯Ø§ ÙĬØ©
ĠØ® Ø§ÙĦØ¯
Ùģ Ø§Ø¸
Ø§Ø´ Ø§Øª
ÙĨ Ø¬
ĠØ§ÙĦØ¨ÙĦ Ø§Ø¯
Ø« Ø©
ĠØ³ Ø§ÙĨ
ÙĦ Ø²
ĠÙĪ ØªÙħ
ĠÙģ ÙĨÙĬ
ĠÙħØŃÙħ ÙĪØ¯
ĠØ§ÙĦÙħÙĨ Ø´
ÙĦØ§Ùħ Ø©
ÙĬØ² ÙĬØ§
ĠØ±ØŃ ÙĦØ§Øª
Ø³ Ø·Ø©
ĠØ§Ø± Ø¶
ĠØ§ÙĨ Ùĥ
Ø¸ Ø¨ÙĬ
ĠÙħØ¹ ÙĨØ§
ĠÙĥ Ø±Ø©
Ø§ÙĦ Ø³
7 1
ĠØ§ÙĦÙĦ Ø¬
ĠÙĤ ØªÙĦ
ĠØ§ÙĦÙĨ ÙģØ³
ĠØ§ÙĦØ§Ùĩ ÙĦÙĬ
ĠØ³ Ø§Ùħ
ĠÙĪÙģØ± Ø§ÙĥØ³
ĠØ«ÙĦØ§Ø« Ø©
ĠØµ ØŃØ©
ĠÙħ ÙĩØ±Ø¬Ø§ÙĨ
ĠØ§ÙĤ ØªØµ
Ø§ ÙĬØ§Øª
ĠÙĨ ÙħÙĪØ°Ø¬
ĠØ§ÙĦØ§Ø¬ ÙĩØ²Ø©
ĠØ§ÙĦØµÙĨØ§Ø¹ ÙĬØ©
Ø§Ø· ÙĨÙĬÙĨ
Ø¯Ø± Ø§Øª
ĠØŃÙĬ Ø§Ø©
Øª ÙĪÙĨ
Ø§ÙĤ Ø¨Ø©
ÙĤ Ùī
ĠÙĨ Ø§Ùģ
Ġ8 9
Øª ÙĤØ¯
ĠØ³ ÙĪØ§Ø¡
Øº Ø§ÙĦ
ĠØ§ÙĦØ³ ÙĬØ³ÙĬ
ĠØ¯ Ø®ÙĪÙĦ
ØªØŃ Ø§ÙĨØ§Øª
ĠØªØ± Ùħ
ĠÙħØ§Ùĥ ÙĬÙĨØ§Øª
Ø± Ø²
Ø° Ùĥ
ÙĨØ¯ ÙĤ
ĠÙĪ ØªØ±
ĠØ¨Ø· Ø§ÙĤØ©
ĠØ§ÙĦØ§ÙĪØ³ Ø·
ĠÙĦÙĦ Øº
ĠØ¹ÙĨ ÙĩØ§
ĠØªÙĥ ÙĬÙĬÙģ
ĠØ§Ùħ ÙĬØ±
ĠØº Ø±Ø¨
ĠØ§ÙĦÙħ ØªØµÙģØŃ
ĠØ§ÙĦØ§Ø± ÙĩØ§Ø¨
ĠØ§ÙĦÙĪ ØµÙĪÙĦ
Ø§ ÙĪÙħØ©
ĠØµ ÙĪØª
ÙĬÙĨ ÙĬØ©
ĠØ§Ø³ Ø·
ĠØ²ÙĬ Ø§Ø±Ø©
ĠÙģ ØªØ±Ø©
1 0
ĠÙħØ¬ ÙĦØ©
ĠØ§ÙĦÙħØ®Øª ÙĦÙģØ©
Ø±ÙĬ Ø¶
ÙĬ Ø«
Ø¨ Ø§ÙĨÙĬ
ĠÙĬ Ø²
Ø§ÙĦ Øº
ĠÙĪØ§ÙĦ Ø§ØŃ
ĠØª ÙĨØ§ÙĪÙĦ
ĠÙħØ´ Ø§Ø±ÙĥØ§Øª
ĠÙģØ± ÙĨØ³Ø§
ĠØ§ÙĤØ± Ø§
ĠØ¹ ÙħØ§ÙĨ
ĠØ¨Ø± Ø¬
ĠØ§ÙĦØ³ÙĬ Ø§Ø³ÙĬ
ĠÙĪ ÙħÙĦ
ĠØ§ÙĦÙģ ÙĦ
Ø³Ùĥ Ø±ÙĬ
Ø§ÙĤ ÙĬ
ĠØ§ÙĦÙĨ Ø¨
ĠÙĨ ØªÙĬØ¬Ø©
ÙĤØ± Ø§Ø·
Ø§Ø± ÙĨØ©
Ġ4 6
ÙĪØ¨Ø§ ÙĬÙĦ
ĠÙĬ ØµÙĦ
ĠÙĦ ÙĬÙĨ
ĠÙĪØª Ø¹
ĠÙĥ Ø§Ùħ
Ø§Ø· Ø©
Ø¬ ÙĬÙĨ
Ø±Ø¬ Ø§ÙĦ
Ø¹ Ø§
ĠØ´ ÙĤÙĤ
ĠØ§ÙĦØ¯ ÙĪ
ĠÙĪØ§ÙĦ Ø§Ùħ
ĠÙĨÙģØ³ Ùĩ
ÙĪÙĨ ÙĬØ³
Ùĩ ÙĨ
Øª Ø³
ĠØ§ÙĦØ´ Ø§Ø´Ø©
ĠØ§ Ø´Ø±
ĠØ¨ Ø§Ùħ
ĠØ§ÙĦØ³Ø§Ø¯ Ø³
ĠÙĥ ÙĪØ¨
ĠØ¨Ø§ÙĦ ÙĨ
ĠØªÙĪÙģ ÙĬØ±
ĠØ§ÙĦÙħ Ø§Ø¡
ĠÙĪØºÙĬØ± ÙĩØ§
ĠØ¬Ø² Ø¡
Ø§Ø¬ ÙĩØ©
9 0
ĠØ§ÙĦÙħÙĦ Ø§Ø¨Ø³
ĠÙģ ÙĤ
Ġ14 27
ĠÙĦÙĦ Ø§Ø·ÙģØ§ÙĦ
ĠÙħØ³Øª Ø¬Ø¯Ø§Øª
Ġ4 3
ĠØ¯ Ø§Ø¦
Ø¨ÙĬ Øª
ĠÙĪØ§ÙĦ Ø°ÙĬ
ĠØ§Ø¬ ÙħÙĦ
ĠØ§ÙĦØ¨ØŃ Ø±
ĠÙĤØ· Ø§Ø¹
ĠÙĨ Ø¸Ø±
ĠØª ÙĤÙĦ
ĠØ§Øµ Ø¯Ø§Ø±
ÙĪØµ ÙĬÙĦ
ĠØ§ÙĦØªØ¹ÙĦÙĬÙħ ÙĬØ©
ĠØ¯ ÙĤÙĬÙĤØ©
ĠØŃØ³Ø§Ø¨ Ùĥ
ĠÙĥÙĦ ÙħØ§Øª
ÙĪÙģ Ø±
Ø±ÙĬ ÙħØ©
ĠÙĦÙĦ ØµÙģ
Ø³ Ø§Ø¡
ĠØ´ Ø¹Ø¨
ĠØ§ÙĦÙĤ Ø³Ùħ
ĠÙĪØ§ÙĦ Ø§Ø¬
ĠØªÙĨ Ø¸ÙĬÙħ
ĠØ§ÙĦØªØ³ ÙĪÙĤ
ĠØ§ÙĦÙĤ ÙĦØ¨
ĠÙĨ ÙĬÙĥ
ĠØªØ¹ Ø§ÙĦÙī
ĠØ§ÙĦÙħØŃ Ø¬Ø±
ĠØ§ÙĨ Ùģ
ĠØ¨ÙĨ Ø§Øª
ĠØ³ ÙĬØ¯
ĠØ² Ø±
ĠØ¸ ÙĩØ±
ĠØ§ÙĦÙħ ÙĤØ¯
ĠØªØŃ ØªØ§Ø¬
ĠØ¹Ø§Ùħ Ø§
Ø§ÙĦ Ùĩ
ĠØ§ÙĦÙĪØ· ÙĨ
ĠØ§ÙĦØŃ ÙħÙĦ
ĠÙĪÙĩÙħ ÙĬØ©
ĠÙĨ ÙĪØ±
ĠØ§ÙĦØ· Ø±ÙĤ
ĠÙĦØª ÙĨ
ÙĬÙħ ÙĤØ±Ø§Ø·
Ø§Ø² ÙħØ©
ÙĨØ³ Ø§Ø¡
ĠÙĦÙĦ Ø¨ÙĨ
ĠØµØŃ ÙĬÙģØ©
Ø§Ø ¤
ĠØ§ÙĦÙĥ Ø¨ÙĬØ±
Ġ Û
ĠÙĨ Ø§Ø¦Ø¨
ĠØ§ÙĦØ® ÙĦÙĬØ¬
Ø¦ ÙĬÙĨ
ĠØ§ÙĦÙħ Ø³ÙĬ
ĠØ§ÙĦØŃ Ø±Ø¨
ĠÙħ ÙĬÙĥ
ĠÙģ Ø±ÙĬ
ĠØ¨Ø¯ Ø¡
ĠØ§ÙĦØª Ùħ
ĠØŃ ÙħØ§ÙĬØ©
ĠØ§ÙĦØ¹ Ø²ÙĬØ²
ĠØ§ÙĦØ¹ÙħÙĦ Ø§Øª
Ø¯Ø§ ÙĬØ§
ĠÙĤ ÙĪØ§Øª
ĠÙĪ ÙĬØ¹
ĠØ§ÙĦØ§Ø¨ ÙĬØ¶
ĠÙĥØªØ¨ Øª
ÙĬÙĦ ÙĬØ©
ĠØ§ÙĦØ³ÙĬ Ø§Ø±Ø©
ĠØ§ÙĦØ´ ÙĩØ±
ÙĥÙĨ Ø¯Ø±ÙĬØ©
ĠØ§ÙĦØ¹ ÙĬÙĨ
ĠØ§ÙĦØ± Ùħ
ĠØ¹ Ø±
ĠØ¬Ùħ Ø§ÙĦ
Ø¬ Ø§ØŃ
ĠØ§Ø³ Ø¨Ø§Ø¨
ÙĪØ§ÙĨ ÙĬÙĨ
ĠØ§ÙĦØ³ Ø¯
ĠØ§ÙĦØµ ÙĪØ±Ø©
ĠÙĤ ÙĬÙħØ©
ĠØ§Ø¨ÙĪ Ø¸Ø¨ÙĬ
ĠØª Ø¶
ĠØ§ÙĦØ¹ ÙħØ±
ĠØ§ÙĦØ±ÙĬØ§Ø¶ ÙĬØ©
ĠØ§ÙĦÙĩ Ø§ØªÙģ
ĠØ´ ÙĥØ±
Ø¦ Ø§Ø³Ø©
ĠØ§ÙĦÙĪ Ø³
ĠÙħ ÙĪØ¯
Ø±Ø¨ Ø§Øª
ĠØºØ³ ÙĬÙĦ
Ø¨Ø± Ùī
Ø§Ø² Ø©
ĠØ¨Ø· Ø§ÙĤØ§Øª
ĠØ§ÙĦØ§Ø³ Ø·ÙĪØ§ÙĨØ©
Ø´ ØŃ
ĠÙģ ØµÙĦ
ĠØ¨ Ø§ÙĬ
ĠÙħØª Ø¹Ø¯
ĠÙĦÙĬ Ø³Øª
ĠØ§ÙĦÙĨØ³ Ø§Ø¡
ĠØª Ø³Ùħ
Ø´ ÙĤ
ĠØªÙĪÙģ Ø±
ĠÙħØµ Ø±ÙĬ
ĠØ§ÙĦØ¨Ø± Ø§ÙħØ¬
Ø¬ Ø¹
ĠÙĨ Ø§Ø¯ÙĬ
ĠØ±Ø³ Ø§Ø¦ÙĦ
ĠØ¨Ø§ÙĦ Ø®
ĠØ§Ø³Øª Ø´
ĠØ§ÙĦÙĦ ØŃ
ĠØ§ÙĦÙĪ Ø¬Ùĩ
ĠÙĦÙĦ Ø¨
ĠØµ Ø§ØŃØ¨
ĠØ§ÙĦØºØ° Ø§Ø¦ÙĬØ©
Ø¬ ÙĪ
ÙĪÙĦ ÙĬØ©
ĠØ§ÙĦØ¨ Ø¹
Ø· ÙĬØ·
ĠØ± Ø§
ĠØª Ø³ÙĦ
ĠØ¨Ø§ÙĦ Ø¯
ĠØªØ¹Ø¯ ÙĬÙĦ
ĠÙĦ ØªØµ
ÙĬÙĥ ÙĦ
ĠÙĬ Ø¹ÙĦÙĨ
Ø¹ ÙĬÙħ
ĠØª Ø§Ø¨Ø¹
ĠØ§ÙĦØ¹ÙĦ Ø§Ø¬
ÙĤ Ø§Øª
ĠØ§ÙĦØ¹ Ø«
ĠÙĬ ØªÙĪ
Ø§Ùĩ ÙĦ
ĠØ§Ø¹ Ø¶Ø§Ø¡
ĠØ§ÙĦØŃ Ø¯
Ø¶Ø§ ÙĬØ§
Ø¯ Ø§Ø¹
ĠØ¹ Ø§ÙħØ©
ĠÙĥ ÙĪØ¯
ÙĨ Ø¨ÙĬØ©
ĠØ§Ùĥ Ø³Ø³ÙĪØ§Ø±Ø§Øª
Ø¬ Ø§Ø¯
ĠÙħØ§ÙĦ ÙĬØ²ÙĬØ§
ĠÙĦ ØªØ¬
Ø§Ø¹ Ø´
ĠØ§ÙĦÙĨ ÙĤÙĦ
Ø¹ Ø§Ø¯
ĠØ§Ø¹Ø¯ Ø§Ø¯
ĠØ§ÙĨ ØªÙĩ
ĠØ§ÙĦÙģ Ø±ÙĤ
ĠÙĨ ØŃ
ĠØ§ÙĦÙĨ Ø¨ÙĬ
ĠØ§ÙĦØªØ¹ Ø§ÙħÙĦ
ĠØ´ ÙĨØ·
ĠÙħØŃ Ø§ÙģØ¸
ĠØ§ÙĦØ¹ÙĦÙħ ÙĬØ©
ĠØ¹ ÙĬÙĨ
ĠØªØ¬ Ø±Ø¨Ø©
Ġ7 4
ĠØ§ÙĦØªÙģ Ø§ØµÙĬÙĦ
ØŃÙĤ ÙĤ
ĠÙħØ³Øª Ø¹ÙħÙĦØ©
ĠØ¨Ø§ÙĦ ØµÙĪØ±
ĠØªØ¹ÙĦ Ùħ
ĠØ¯ ÙĪØ±ÙĬ
Øº Ø§Øª
ÙĬØª ÙĩØ§
ĠØº Ø±
ĠØ§ÙĦØ¯ Ø¹
5 4
ĠØ§ÙĦØ§ÙĨØ³ Ø§ÙĨÙĬØ©
Ø³ Ø¬ÙĬÙĦ
ĠÙĥ Ø«
ÙĦØ§ÙĦ Ø©
ĠØ§ Ø¹Ø±Ùģ
ĠØªØµÙĨ ÙĬÙģ
Øµ Ø§ÙĦØ§Øª
Ġ9 9
ĠÙħÙħ Ø§Ø±
Ø§Ø¦ Ø²Ø©
ĠØ§ÙĦØ§ÙĤØªØµ Ø§Ø¯
ĠØ± Ø¨ÙĬØ¹
Ø¨ Ø§Ø·
ĠØ§ÙĦÙħÙĨ Ø§Ø·ÙĤ
Ø¹ ÙĪÙĨ
ĠØ§ÙĦØ¬Ø² Ø§Ø¦
ĠÙħ ØªØŃ
Ùĥ ÙĪ
ĠÙĦÙħ ØŃ
Ø§Ø¨ ÙĦØ©
ĠØ§ÙĦØµ ÙĪØª
ĠÙħØ³Øª Ø´ÙģÙī
ØªÙħ Ø§Ø¯
Ø§Ø¦ Ùĩ
ĠØ§ÙĦÙĦ ÙĤ
ĠØº Ø³ÙĦ
Ġ05 0
ĠØ´ Ø¹
ĠÙħÙĤ ØªÙĦ
ĠÙĤÙģ Ø§Ø²Ø§Øª
ĠØ³ÙĬ ØªÙħ
ĠØªØ·Ø¨ÙĬÙĤ Ø§Øª
ĠØ§ÙĦØ¹ÙĦ ÙĬØ§
ĠØ§Ùģ Øª
ĠØ§ØŃØ¯ Ùī
ØªØ± Ùģ
ĠÙĪÙĥ Ø§ÙĦØ©
ĠØ§ÙĦÙħÙĤ Ø¨
ĠÙħÙĨ Ø²ÙĦ
ÙĨØ¯ Ø³
ĠØ§ÙĦÙģ ÙĦØ³Ø·ÙĬÙĨÙĬ
ÙħØ§ÙĦ Ùĥ
Ġ5 3
ĠÙħÙĦÙĬ Ø§Ø±
ĠØŃ Ø±ÙĥØ©
ĠØ§ÙĦØ¯ ÙĪØ±Ø©
ĠÙĪÙĥ Ø°ÙĦÙĥ
ĠÙĪØµÙĦ Øª
ĠØ¨ Ø´Ø±
ĠØ± Ø§ÙĬ
ĠÙħÙĨ ØµØ©
ĠØ§Ø³ØªØ± Ø§ÙĦÙĬØ§
ĠØŃ ÙĤÙĬ
Ø± Ø§Ø¯
ĠÙĦ Ø¬ÙħÙĬØ¹
ĠØ§ÙĦØ· Ø±ÙĬÙĤ
ĠÙħÙĤ Ø§ÙĦØ§Øª
ĠØ§ÙĦÙĨ ÙĪ
Ø§Ø± ÙĤ
ĠØ® Ø²
ĠØ§ÙĦØ§ØŃ ÙħØ±
ĠØ§Ø¶ Ø§ÙģÙĬØ©
ÙĤ Ø§Ø¦ÙĤ
ĠØ§ÙĦØª Ø§ÙĦÙĬØ©
Ø·Ùģ Ùī
Ø¬ Ø§Ø¨
Ø¹Ø± Ø§Ø¶
Ø§ÙĦ ÙĬÙģ
ĠØ§Ø¬Ø± Ø§Ø¡
ÙĦØ³ Ø©
ĠØ§ÙĦØ¹ Øµ
ĠØ§ÙĦØ§Ø¹ÙĦ Ø§ÙĨ
ĠØ« Ø§ÙĨ
Øª Ø±ÙĬ
ĠØ§ÙĦÙģ ÙĪØ±
ĠØ§ÙĦØ¬Ùħ ÙĩÙĪØ±ÙĬØ©
ĠØ§ÙĦØ´Ø± Ø·Ø©
Ú ¯
ĠÙĦ ØºØ©
ĠØ¨Ø§ÙĦ Ø§Ø³
Ø® Ø§ÙĦ
Ø± Ø§Ø¨
ĠØ¬ ÙĬ
Ø§Ø¹ Ø¨
Ø· ØŃ
ĠÙĦØ§ÙĨ Ùĩ
ĠÙĦÙĬ Ø¨ÙĬØ§
ĠØ´ ØŃÙĨ
ĠØ§ÙĦÙĨ Ø´
ĠÙĬ Ø³Ùħ
ĠÙħ ÙĦÙħ
ĠØªÙĨ ÙģÙĬØ°
Ø§Ø± ÙĬØ±
ÙĦØ¨ ÙĬØ©
ĠØ§ÙĦØ¯Ø± Ø§Ø³Ø§Øª
Ø§Ùĥ Ùħ
ĠØ§ÙĦØ§Ùħ Ùħ
ĠÙĦÙĪ ØŃØ©
ĠØ¨ÙĨ Ø³
Ø§Ø¦ ÙĨ
ĠÙħØŃ ÙĦ
ĠØª ÙĤÙĬÙĬÙħ
Ø¸ Ùģ
ĠØ§ÙĦÙħÙĪ Ø§ÙģÙĤ
ĠØ¨Ø§ÙĦ Ø§ÙĨ
ĠØ§Ùħ Ø³
ĠØ§ÙĦØ§ÙĪØ± ÙĪØ¨ÙĬ
ĠÙħØµ Ø¯Ø±
ĠØ¹ Ø²
ĠØ¨ ÙĪÙĥ
ĠØ¯ ÙĬÙĥ
ÙĬ ÙĪØ±
ĠØ¯ Ø§
ĠØª ØµÙĦ
Ø· Ø§ÙĨ
ĠØ§ÙĦØ· ÙģÙĦ
Ġ15 0
ĠØ§ÙĦØ¯ Ø±Ø¯Ø´Ø©
ĠØ¹ Ø¶ÙĪ
ØªÙģ Ø¹
ĠØ¨ÙĨ Ùĥ
Ø§Ø± Ùģ
ĠØ§ÙĦÙĪ Ø§ÙĤØ¹
ĠØ§ÙĦØ¨ÙĨ Ùĥ
ĠØ´Ùĩ Ø§Ø¯Ø©
ĠÙħØ¹ Ø±Ø¶
ĠØ§ÙĦÙģØ± ÙĨØ³ÙĬØ©
ĠØ§ÙĦØ¹ Ø±ÙĪØ¶
Ø¬Ø± Ø¯
ĠØª ØªØŃ
ĠØ§ÙĦØ· Ø¹Ø§Ùħ
ÙģÙĬØ± ÙĪØ³
ĠØ¬Ùħ Ø¹
ÙĪØ¨ Ø§Øª
ĠØ§Ø¬ Ø²Ø§Ø¡
ĠØ¬Ùħ Ø¹ÙĬØ©
ĠÙĪØ§ÙĦ Ùĩ
ĠÙĪØ¨ Ø¹Ø¯
ĠÙĪÙĬÙħ ÙĥÙĨ
ÙĨ ÙĬØ§Øª
ĠÙĬ Ø¹Ø¯
ĠÙģ Ø¶
ĠÙħØ¯Ø± Ø³Ø©
ĠØŃØµ Ø±ÙĬØ©
ĠØ§ÙĦØ¯ ÙģØ¹
ĠØ§ÙĦÙĥÙĩØ±Ø¨ Ø§Ø¦ÙĬØ©
Ø§ÙĦ ÙĤ
Ø´ Ø¨
ĠØ§ÙĦØŃ ÙĥÙħ
Øµ ØŃ
ĠØ§ÙĦØ¬Ø± Ø§ÙĨÙĬØª
ĠØ§ÙĦØ§ÙħØ±ÙĬÙĥ ÙĬ
ĠÙĪØ§ÙĦ Ø¹ÙĦ
ĠØµ ØŃÙĬØŃ
Ø§Øª ÙĩØ§
ĠÙĪØ§ÙĦ Øº
ĠØŃ ÙģØ¸
ĠØ§ÙĦÙħÙĥ ØªØ¨
ĠØ§ÙĦØ±ÙĬØ§Ø¶ Ø©
ĠØ§ÙĪÙĦ Ø§
ĠØ§ÙĦØª ÙĥØ³ÙĬØ±
ĠØ§ÙĦØŃ Øµ
ĠØµ ÙĨØ¯ÙĪÙĤ
ĠØ§ÙĦØ¨ÙĬ Øª
ĠØ§ÙĦØ´Ø±ÙĤ ÙĬØ©
Ùħ ÙĬÙĨ
Ø· Ø±Ø©
ĠØ§ÙĦÙĥ Øª
ĠØª Ø¹Ø±Ø¶
ĠÙĥ ÙĪÙĦ
ĠØ§ÙĦØ±ØŃ ÙħÙĨ
ĠØ§ ÙĬØ±
ĠØ¬ÙĪ Ø¬ÙĦ
ĠØ§ÙĦÙĥ Ø¨
ĠÙħØŃ Ø§ÙģØ¸Ø©
Ø¶ ÙĬØ±
ĠØ§ÙĦÙĩ ÙĪØ§Ø¡
ĠØ§Ø´ ØªØ±
Ø· Ø¨ÙĬÙĤ
ĠØ§ÙĦØªØ¬ Ø§Ø±Ø©
ĠÙħÙĥ ØªØ¨Ø©
ĠÙĬØ¹ ØªØ¨Ø±
ĠØ¨ ÙĪØª
ØªÙĤ Ùī
ĠÙĤØ· Ø¹Ø©
Ø²ÙĬ ÙĪÙĨ
ĠØ§ ÙħÙĦ
ĠØ¨Ø§ÙĦ Ø·
ĠØ§Ø¬Ø± Ø§Ø¡Ø§Øª
ĠØ§ÙĩÙħ ÙĬØ©
ĠØ§ÙĦÙħÙĩ ÙĨÙĬØ©
ĠØ¬ ÙĬØ¯
Ġ08 8
Ø§ÙĨ Ùĩ
Ø®ÙĦ Øµ
Ø§Ø¦ ÙĩØ§
ĠÙĦÙĦ Ø§Ùħ
ĠÙĪÙĦ ÙĬØ³
ĠØ§ÙĦØ³ Ø§Ø®
ĠØ§ÙĦØªØ±Ùĥ ÙĬØ©
ĠØ¨Ø±ÙĬØ· Ø§ÙĨÙĬØ§
ĠØ§ÙĦØ´Ø¹ Ø¨ÙĬ
ĠØ¨Øª ÙĨ
ĠØ³ Ø¬ÙĦ
ÙĨ Ø§Ø¦ÙĬØ©
ĠÙħÙĪ Ø¬
ĠÙĪØª Ø´
Ø§Ø¬ Ùĩ
Ġ52 93
ÙĩØ¯ Ø§Ùģ
ĠØŃ Ø¯Ø«
ĠÙĦÙĦ ÙħØ±
ĠØ§Ø¨ ÙĦ
ĠØª Ø¨Ø¯
ĠÙĪØ§ÙĦÙħ Ø¹
ĠØ§ ØªØŃ
ĠØ¬ ÙĩØ©
Ø¦ ÙĬ
Ø¯ÙĬØ¯ Ø©
Ø±ÙĬ Ø·Ø©
Øª ÙĤÙĦ
ĠÙħ ÙĥÙĨ
ĠÙģÙĩ ÙĪ
Ġ19 8
ĠÙħÙĨ Ø¸ÙħØ©
ĠØ§ÙĦØ³ ÙĬØ±
ĠØ§ÙĦØ³ ÙģØ±
ĠØ³ Ùģ
Ø§Ùĥ Ø±
ĠØ§ÙĦÙĬ Ø§Ø¨
ĠÙĦÙħ ÙĪÙĤØ¹
ĠØ¯ Ø±Ø¯Ø´Ø©
Ø¬Ùħ ÙĬÙĦ
ĠÙĪÙĥ ÙĬÙģ
ĠÙħÙħ ÙĥÙĨ
ĠÙĪ Ø³Øª
ĠØ§ÙĦÙĪØ² ÙĨ
ĠÙĬÙĥ Ø´Ùģ
ĠØŃ ÙħØ¯
Ø³ ÙĬÙĦ
Ø§ ÙĬÙĨ
ĠØ± Ø´
ĠØº Ø±Ùģ
ĠÙħØ± Ø§ÙĥØ²
ĠØ§ÙĦØ§Ø³ ÙĪØ¯
9 9
ÙĨ Ø³ÙĬ
Ø· Ø¹
ĠØ¨ÙĨ ÙĬ
ĠØ§ÙĦØ¹Ø±Ø§ÙĤ ÙĬØ©
ĠØŃÙĥ ÙĪÙħØ©
ĠØ¨ÙĦ Ø¯
ØŃ Ø§Ø«
ĠØ§ÙĨ ØŃ
Ø§Ø³ ÙĦ
ĠØ¸ ÙĦ
ÙĪÙĨÙĬØ³ ÙĬØ§
ĠØ¨ ØªØŃ
ĠØ§ÙĦÙħØŃ ØªÙĪÙī
ĠØ§ÙĦØ±Ø³Ùħ ÙĬ
Ġ9 15
Ø§ØŃ ÙĬ
ĠØ±Ø¤ ÙĬØ©
ĠØ§ÙĦÙĦØ¬ ÙĨØ©
ĠØ´ Ø§Ø´Ø©
Ø§Ø± Ø¶
Ġ6 00
ĠØ§ÙĦØªØµ ÙħÙĬÙħ
Ø±Ùģ Ø¹
ÙĥÙĪÙĨ Ø§Øª
Ø±ÙĪ Ø©
ĠØ§ÙĦ Ø±ÙĬ
ÙĨ Ø¨ÙĬ
ĠØ¹ Ø·ÙĪØ±
ĠÙĨ Ø²
ĠØ§Øµ ØŃØ§Ø¨
ĠÙĤØ¯ Ø±Ø©
Ùĩ ÙĪÙĦØ©
Ø³ Ø±
ĠÙħ Ø¸
ĠØ³ Ø¹Ø¯
ĠÙħØ® Ø·Ø·
ĠØ¯Ø§Ø¦ ÙħØ§
ĠØ§Ø³ Ø¦ÙĦØ©
ĠØ§Ø± Ø¯
Ø¦ ÙĬØ©
ĠØ§ÙĦØ§ÙĨ Ø¯
ĠØ´ Ø±ÙĤ
ĠØ¨ÙĬÙĨ ÙħØ§
ĠØ¨Ø§ÙĦ ÙħÙĨ
ĠØ§ÙĦÙĤ ÙĪØ§Øª
ĠØ§ÙĦØª ÙĥÙĨÙĪÙĦÙĪØ¬ÙĬØ§
ĠÙĪØ§ÙĦÙħ ØŃ
ĠØ§ÙĦØ¨ ÙĪ
ĠØ§ÙĦÙĤ ÙĬØ§Ùħ
ÙĬØ¯ ÙĬØ©
ÙĬ Ø¨Ø©
ĠØªÙĪ Ø§ØµÙĦ
ĠØ§ÙĦØ³ ÙĬÙĨ
Ø§ ÙĪÙĬØ©
ĠØµ Ø¯
ĠØ± ÙĬÙħÙĪÙĨ
Ø§Ø± Øª
ĠÙħÙĪ Ø§Ø¶ÙĬØ¹
ĠØ§ÙĦØ¨ Ø´Ø±Ø©
ĠØ§ÙĨ Ø³
Ġ15 84
ĠÙģ ÙĦØ§
ĠØ§ÙĦÙĤØ¯ Ø³
ÙĨ Ø§Ùģ
ĠØ´ Ø§Ø±Ø¹
ĠØ¬Ø±ÙĬ Ø¯Ø©
Ùĥ ÙĬÙĨ
ĠÙħØªØ± Ø¬ÙħØ©
ĠØ· Ø±Ùģ
ĠØ® Ø·Ø©
ĠØ§ÙĦØ´ ØŃÙĨ
Ø§Ø¦ Ø©
ĠØ§ÙĦÙĪ Ø¸ÙĬÙģØ©
ĠØ·ÙĪ ÙĬÙĦØ©
Ø® ÙĬ
ĠÙĨ ÙĬØ¬
ĠØµ Ø¨
ĠØ¨ÙĪ Ø§Ø¨Ø©
ĠÙĦÙĦ Ø§Ø¹
ĠØ³Ø¨ Ø¨
ĠØªØŃ ÙĦÙĬÙĦ
Ġ1584 41
ĠÙģ Ø¹Ø§ÙĦ
ĠÙĬ ÙħÙĨ
ĠØ¹ÙĦÙĬÙĥ Ùħ
ĠÙħ ÙĪÙĦ
ĠÙĪ ÙĪ
ĠØª Ø¹Ø±
ÙħÙĦ Ùĥ
ĠØ§ÙĦÙħØ±ÙĥØ² ÙĬ
ĠÙħØ´ Ø§ÙĥÙĦ
ĠØ§ÙĦÙģ Ø±ÙĬÙĤ
1 7
ĠØª ÙĪÙĤ
ĠØ±Ø³ ÙĪÙĦ
ĠØ§Ø³ØªØ® Ø±Ø§Ø¬
Ø§Ø¯ ÙĬÙħÙĬØ©
ÙĬÙģ Ø±
ĠØ·Ø¨ Ø§Ø¹Ø©
ĠØµ ÙĨØ§Ø¹
ĠÙħØŃ Ø¬Ø±
4 2
3 6
ĠØªÙĩ ØªØ²
Ø§Ùģ ÙĤØ©
ÙĤ Ø³
ĠØ§ÙĦØµ Ø§ÙĨØ¹
Ø· Ø§ÙĦÙĬØ§
ĠØªØ¹ ØªØ¨Ø±
ĠÙĥ ÙĬÙĦ
ĠÙħØ±Ø§Ø¬ Ø¹Ø©
Ø§Ø¨ Ø±
ĠØ§ÙĦØ¬ ÙĪ
Ø®Ùģ Ø§Ø¶
ĠÙħÙĨ ØªØ¬
Ø± Ø±
ĠØ§ÙĨ ÙĬ
Ø¹ ÙħØ§ÙĦ
Ùĩ Ø§Ø¯
Ø¹ Ø²ÙĬØ²
ĠØ§ÙĦØ§Ø¯ Ø§Ø±ÙĬØ©
Ø¯ ÙĬÙĨ
ĠÙĦ Ø§Ø¬
ĠÙĥ Ùģ
ĠÙĥ ÙĪ
ĠØ§ÙĦÙħØ³ Ø¤ÙĪÙĦ
ĠØ§ÙĦ Ø§ØµÙĦ
ĠØ§ÙĦØ¹ÙħÙĦ ÙĬØ©
ĠÙħØ¹ Ø±ÙģØ©
ÙĪØ³ Ø©
ĠÙĤ ÙĪØ©
Ø¹ÙĦ ÙĪÙħØ§Øª
ĠØ§ÙĦØµÙĬÙĨ ÙĬØ©
Ø¬ ÙĦØ©
ĠØªØŃ ÙĪÙĬÙĦ
ĠØ§Ø² Ø§ÙĦØ©
Ø¹ÙĦ ÙĤØ©
ĠØ§ÙĦØ¨ ÙĤ
ĠØ§ÙĦÙħ Ø§Ø¯Ø©
ĠØ§ÙĦØªØ´ ØºÙĬÙĦ
Ø¯Ø± Ø§Ø³Ø§Øª
ĠÙĦ Ø§Øª
ĠØ¹ Ø§Ø¬ÙĦ
ĠÙĩ ÙĨØ¯
ĠÙħØ¤ ØªÙħØ±
ÙĤØ± Ø±
ĠØª Ø§Ø³
ĠÙĪØ§ÙĦ Ø§Ø¯
ĠØªØ³ Ø§Ø¹Ø¯
ĠØ§Ø¨Ø± Ø²
ĠØ§ÙĦØªÙĨ ÙħÙĬØ©
ĠØ§ÙĦÙĨ ÙĪØ¹
ĠÙĦÙĦ Ø±
ĠØ³ ÙĤ
ĠØ§ØŃØ¯ Ø§Ø«
ĠØŃ Ø§ÙĦØ§Øª
Ø¸ Ø§Ø±
ĠØ§ÙĦØ¨ Ø§Ø±
ĠØ§Ø· Ø§Ø±
ĠØ§ÙĦÙħÙĤØ¨ ÙĦØ©
ĠÙĨØµ Ø§Ø¦ØŃ
ĠØ§ÙĦÙĨ ÙĬ
Øª Ø§Øª
ĠØ§ÙĦÙĦØ¨ÙĨ Ø§ÙĨÙĬØ©
ĠØ§ÙĦÙģ ÙĦØ³Ø·ÙĬÙĨ
Ø¯ ÙĬØ±
ĠÙħÙħ Øª
ĠØ§ÙĦØªÙĤ ÙĨÙĬØ©
ĠØ§Ø² ÙħØ©
ĠØªØ³Øª Ø·ÙĬØ¹
ĠØ§ÙĦØ± Ø®Ø§Ùħ
ĠØ§ÙĦØ§Ø³Ø±Ø§Ø¦ÙĬÙĦ ÙĬ
ĠØ§ÙĦØ² ÙĬØª
ĠØ§ÙĦÙģ ÙĨÙĬØ©
ĠØ§ÙĦØ§Ùģ Ø¶ÙĦ
ĠÙĦ ØªÙĪ
ĠØ§ÙĦØ«ÙĤ ÙĬÙĦØ©
ĠØ§ÙĦØ· ØŃÙĨ
ĠØŃ ÙĦÙĤØ©
ÙĤØ± Ø§Ø±
ĠØ§ÙĦØŃ Ùħ
ĠØ§ÙĦØ§Ø´ Ø®Ø§Øµ
ĠØŃ ÙħÙĦ
Ùħ ØŃ
ĠØ¶ ØºØ·
Ġ3 82
ĠØªÙħ Øª
ÙĪ ØªÙĪ
ĠØ§ÙĦÙĤØ¯ ÙĬÙħØ©
ĠØ§ÙĨØ¯ ÙĪÙĨÙĬØ³ÙĬØ§
ĠØ§ÙĦØ§Ø³Øª Ø§Ø°
ÙĨØ· ÙĨ
ĠØ§ÙĦÙħØ³ÙĦÙħ ÙĬÙĨ
Ø®Øµ ÙĪØµ
Ø± Ø§Ùģ
ĠØ§ÙĦØ§ÙĦ Ø¹Ø§Ø¨
Øµ ÙĬÙĦ
ĠØŃ ØµÙĦ
ĠØ¨Øº Ø¯Ø§Ø¯
ĠÙħ Ø±Ø¨
ĠÙĦØ¹ Ø§Ùħ
ĠÙĨÙĤ ÙĪÙħ
ĠÙģ Ø¶ÙĦ
ĠØ§Ø± Ø´ÙĬÙģ
ĠÙĤØµ Øµ
ĠØ¶ Ø¹
ĠØ§ÙĦØŃ Ø§ÙĦÙĬ
ĠÙĪ ÙĬÙĤ
ĠØ§ÙĦØº Ø§Ø¡
ĠØ§ÙĦØ¯ Ùĩ
ÙĪÙħ Ø§
Ġ41 7
ĠØ§ÙĦØ± Ø¬ÙĦ
Ø§ÙĦ Ø§
ĠØ´ Ø¨Ø§Ø¨
ĠØ§ÙĦ Ø§Ø°
ĠØ§ÙĦØ¨ Ø±ÙĬØ·
ĠÙħØµ Ø·ÙģÙī
ĠØ§ÙĦØ³ ÙĪØ±ÙĬØ©
ÙħØ± Ø§Ø¡
ĠØ§ÙĦØ§Ø¨ØªØ¯ Ø§Ø¦ÙĬØ©
ĠÙħÙĨ Ø§Ø·ÙĤ
Ø³ÙĬ Ø·Ø©
ÙĥÙħ Ø¨ÙĬÙĪØªØ±
Ùĥ ØªØ¨
ĠØ§ÙĦØ§Ø³ Ø±Ø©
ĠÙĩ Ø¯Ùģ
ĠØ§Ø³Øª Ø±Ø§Øª
ĠÙĦ Ø¹ÙħÙĦ
ĠØ§ÙĦÙĤ Ø§Ø¦ÙħØ©
Ø§ÙĪÙĦ Ø§Øª
ĠØŃ ÙħÙĦØ©
Ø§ØŃ Ø«
ĠØªØ± Ø§ÙħØ¨
ĠØŃ Ø±Ø¨
ĠØª ÙĦÙĤ
Ø® Ø±Ø©
ĠØ´ ÙĨ
ĠØ§ÙĦØ¹ Ø§ØµÙħØ©
Ø±ÙĬ Ø¨ÙĬØ©
ĠØ§ÙĦØ´ Ø±ÙĬÙģ
ĠØº ÙĬØ§Ø±
ÙĬØ² Ø±
ĠØ« ÙĦ
Ø§Ùĥ ÙĬØ¯
ĠØ§ÙĦÙħØ´ Ø§Ø±ÙĥØ§Øª
ĠØ§ Ø¡
ĠÙĦÙĦ Ø±Ø¬Ø§ÙĦ
Ø§Ø³ ÙĬØ±
Ø§ÙĬ ÙĬØ±
ĠØ§ÙĦØ° Ø§Øª
ĠØ§ÙĦ ÙĪÙĦ
ĠØ§ÙĦØ³ ÙĬÙĦ
ĠØ§ÙĦÙĪ Ø§ØŃ
ĠÙĦ Ø¨
ĠØ§ÙĦÙĩ ÙĬØ¦Ø©
ÙĨÙĬ ÙĬÙĨ
ĠØ§ÙĦØ¬Ùħ ÙĬØ¹
ĠØ§ÙĦÙģÙĦØ³Ø·ÙĬÙĨ ÙĬØ©
ĠØ§ÙĦØªØŃ ÙĥÙħ
Û ¡
ĠÙĦ Ø§Ùħ
ĠÙĪØ§ÙĦ Ø§Ø¹
ĠØ§ÙĦØŃØ± Ø§Ø±Ø©
ØªÙĬ Ø§Ø¬Ø§Øª
ĠÙĦ Ø¹ÙĦ
ĠÙĪ ÙĦÙĬ
ĠØªÙĥ Ø´Ùģ
ĠÙħ ÙĪÙĨ
ÙĤ Ø¯Ùħ
Ø§Ø± ÙĤØ©
ĠØ§ ØªØµ
ĠØ¨ÙĦ Ø§
ĠÙĪØ§ÙĦ ØªØŃ
ØªØŃ Ø§ÙĨ
ĠØ¹ ÙģØ´
ĠØ§ÙĦØ¯ ÙĬÙħÙĤØ±Ø§Ø·
ØªÙħ ÙĬØ²
ĠØ§ÙĦÙħÙĤ Ø¨ÙĦ
ĠØª Ø¯Ø§ÙĪÙĦ
ĠØ¨ Ø¯Ø±
Ġ3 41
ĠØ§ÙĦÙĨ ÙĪÙħ
ÙĨ Ùĥ
ĠÙĦ ÙĪÙĨ
ĠØ§ÙĦÙĤØ± ÙĨ
ĠØ§ÙĦØµÙĦ Ø§Ø©
ĠØ³Ø¨ ÙĬÙĦ
ĠØ§ÙĦØ³ÙĦ Ø·Ø©
ÙĪØ± ÙĪÙĨØ§
Ø§Ø¦ Ø·
ĠÙĦÙħ Ø³
ĠÙĦÙĤ Ø§Ø¡
ĠÙħØªÙĪ Ø³Ø·
ĠØ§ÙĦØ·Ø¨ÙĬØ¹ ÙĬØ©
Ø±Ø· Ø§ÙĨ
ĠÙĬØ¬ Ø¹ÙĦ
ĠÙĨÙĤ Ø¯Ùħ
ĠØª ØªÙĪ
ĠÙĤ Ø¶
ĠØ§ÙĦØ¯ Ø¹Ùħ
Øª Ø§Ø¡
ĠØ§ÙĦÙģ ØªØ±Ø©
Ø±ÙĪ ØŃ
Ø§ÙĬ ÙĬÙĨ
ĠÙĬ Ø·
ĠØ§ÙĦØ§ÙĦ Ø§Øª
ĠØ¨Ø§ÙĦÙģ ÙĬØ¯ÙĬÙĪ
ÙĨ Ùģ
ĠØ¨ÙħÙĨ Ø§Ø³Ø¨Ø©
ĠØ§ÙĦØŃ ØµÙī
Ø§ÙĦ Ø¹
Ùĩ ÙĪØ©
Ø¯ Ø¯Ø©
ĠØ§Ø® ØªØ¨Ø§Ø±
Ø®Ø¯Ùħ Ø©
ĠØ§ÙĦØ§Ø® Ø±
Ġ200 9
ÙĨ Ùĩ
ĠÙħØ· Ø¹Ùħ
ĠØ¯ ÙģØ¹
ĠØµØ§ÙĦ ØŃØ©
Ø´ Ø§Øª
ĠØ§ÙĦÙħ Ø³ÙĦ
Ġ19 7
ĠÙĨÙĬØ¬ ÙĬØ±ÙĬØ§
ĠØ§ÙĦØ¹ÙĦ Ø§ÙĤØ§Øª
ĠØ¨Ùħ ØŃ
ĠØª ÙĪØ¬Ø¯
ĠÙĤ ÙĦØ¨
ĠØ§ÙĨ ÙĨØ§
ĠÙĪØ§ÙĦ ØªÙĪ
ĠØ§ÙĦØ³ Ùģ
ĠØ§ÙĦØ± Ø¯
Ø· ÙĤ
Ø§Ø® Ø°
ĠØ§ÙĦÙĤØ§ÙĨÙĪÙĨ ÙĬØ©
ĠÙĨØ§Ùģ Ø°Ø©
ĠØ³ ÙģØ±
ĠØ§ÙĦÙĪ Ø¶Ø¹
2 3
ĠÙĦÙĦ ØªÙĪ
ĠÙĤ Ø¯Ø±
ĠØªØ± ØªÙĬØ¨
ĠÙģ Ùĥ
ĠØ¯ Ùĩ
ĠÙĪØª Øµ
ĠØ§ÙĦØ§Ø³Øª Ø«ÙħØ§Ø±
6 7
ĠÙħÙĨ ØŃ
ĠØ§ÙĦØ¯ ÙĪØ±
ĠØ§Ø³Øª ÙħØ±
ĠÙĬ ÙĪØª
Ø±ÙĬØ¨ Ø§
ĠØ§ÙĦØ¹Ø± Ø¶
ÙĦØ§ ÙĬÙĨ
3 61
Ø§Ø¯ ÙħØ©
Ø¶ ÙĪÙĬØ©
ÙĬÙĦ Ùĩ
ØªØ¨ Ø§Ø±Ø§Øª
ĠØ§ÙĦÙĤØ· Ø§Ø¹
ĠÙĦÙĦ ØªØŃ
ÙĪØ² ÙĬØ¹
ĠÙĬ ÙĥÙĨ
ĠØ§ÙĦÙĨ Ø¸
ĠØªÙĤ ÙĨÙĬØ©
ĠØ§ÙĦØ¨Ø± ÙĦÙħØ§ÙĨ
Ø§Ø¨ Ùĩ
ĠÙĥ Ø°ÙĦÙĥ
ĠØ¨Ø· Ø±ÙĬÙĤØ©
Ġ41 2
ĠÙĥÙĨ Ø¯Ø§
Ùħ Ø¹
ĠØ§Ø¨ Ø·Ø§ÙĦ
ĠØ§ÙĦØ±ÙĤÙħ ÙĬØ©
ĠØ§ÙĦØ¶ ØºØ·
ĠØ§ ÙĬÙĦ
ÙĦ ØŃØ©
ÙĤØ¯ Ø±
ĠØ§ÙĦØª Ø¨
Ø¯ÙĬ ÙĤØ©
ĠØ§ÙĦØªØ¹ÙĦÙĬÙĤ Ø§Øª
ĠÙĪØ§ÙĦ Ø³ÙĦ
ĠÙĨ ÙĪ
ĠØºØ³ Ø§ÙĦØ§Øª
ĠÙĦØ§Ø³ ØªØ®Ø¯Ø§Ùħ
ĠØ§ÙĦÙĨ Ø§Ø±
ĠØ§ÙĦØª Ø§Ø³
Ø± Ø§Ø¹
ĠØ´ Ø§Ø±Ùĥ
ĠÙģØŃ Øµ
ĠÙĪ ØµÙĪÙĦ
ĠÙĦ ÙĬÙģ
ĠØ¹ Ø·
ĠØ¨ ÙĤÙĦ
ĠÙĨ Ø§
ĠÙħÙĪ Ø§Ø¬ÙĩØ©
Øµ Ø§Ø±
ĠØªØ¬ ÙĩÙĬØ²
ĠØ§ÙĦÙħØ³Øª ÙĤØ¨ÙĦ
ĠØ§ÙĦØ¨ÙĬ Ø¦Ø©
ĠÙĦÙħ Ø´
Ø§ÙĨ Ùī
ĠØ³ Ø§Ø¨ÙĤ
Ø·ÙĦØ¨ Ø§Øª
Ø§Ø¯ Ø¦
ÙĬØ³ Ø©
ÙĪØ§Ø± ØªØ²
ĠÙĪ Ø¸ÙĬÙģØ©
Ùĥ Ø§ÙĨÙĬØ©
ĠØ§ÙĦÙĤ Ø¶
ĠØ§ÙĦØ¯ÙĪÙĦ Ø§Ø±
ĠÙģ ÙĩÙħ
ĠØ² ÙĬØ¯
ĠØ¨Ø§ÙĦÙĥ ÙĪÙĬØª
ĠØ¨ÙĨ Øª
Ø¨ÙĬ Ùĩ
ĠÙħÙĨ ÙĩÙħ
ĠØ¨ÙĨØ³ Ø¨Ø©
ĠØ§ÙħØ± Ø§Ø©
ĠÙħ ÙĬØ¯ÙĬØ§
ĠØ¨ Ø¨
ÙĪÙĤ Ø©
Ġ341 361
ĠØ§ÙĦØ´ÙħØ§ÙĦ ÙĬØ©
ĠØ§ÙĦÙĥÙĩØ±Ø¨ Ø§Ø¡
ĠÙĤ Ø§Ø¹Ø¯Ø©
ĠØ§ Ø¦
Ø¹ Ùĩ
Ø¹ ÙħØ©
ÙĨ ÙĪÙĨ
ĠÙĨ ØµÙģ
ĠØ¨ÙĦ Øº
ĠØ± ØºÙħ
ĠØ§Ø¹ÙĦ Ø§ÙĨØ§Øª
ÙĬ Ø§Ø¬
ĠØª Ø«
ĠØ§Ø« Ø§Ø«
ĠØ§ÙĦØ§Ø« Ø§Ø«
ĠÙĦØ§ ÙĬ
Ø®Ùģ Ø¶
Ø´Ø± Ùģ
ĠØ§ÙĦØ² ÙħØ§ÙĦÙĥ
ĠØ§ÙĦØ¨Ø´Ø± ÙĬØ©
ĠÙħ ÙĩÙħØ©
ĠØ§ÙĦØŃ ÙĪØ«
ÙĤ ÙĬÙħ
ĠØª Ø¨ØŃØ«
ĠØ§ÙĦØ¬ Ø¯
ĠÙħØ¹ Ø¸Ùħ
ÙĬØ¯Ø± ÙĪÙĦ
1 1
ĠØ§ÙĦØŃ Ø´Ø±Ø§Øª
ĠØ§Ø³Øª Ø®Ø¯Ùħ
ĠØ§ÙĦØ¬ÙĨ ÙĪØ¨ÙĬØ©
ĠÙĪ Ø³ÙĬ
ĠØª ÙĬ
Ġ9 5
Ø¯ ÙĪØ²
ĠØ§ÙĦ Ø±Ùĥ
ĠØªØŃ ØªÙĪÙĬ
Ø±ÙĪ Ø§
Ùĩ ÙĬ
ĠØ´ Øº
ĠØ§ÙĦØ® Øµ
Ø® Ùħ
Ø¯ ÙĪØ¯Ø©
Øµ ÙĨØ¹
Ø¹ Ø§ÙħÙĦ
Ø¬ Ø§Ùĩ
ĠØ¨Ø· ÙĪÙĦØ©
ĠØ§ÙĦØ¹ÙĨ ÙĪØ§ÙĨ
ĠÙĪ ÙĬØ±
ĠØ§ÙĦÙħØ¹Ø¯ ÙĨÙĬØ©
ĠØ§ÙĦØ¹ Ø§ÙĦÙĬ
ĠØ§ÙĦÙĤ Ø¶Ø§Ø¡
ĠØ§ÙĦØ¹ Ø³ÙĥØ±ÙĬØ©
ĠØªØ¨ Ø¯Ø§
ĠØ¯ ÙĤØ§Ø¦ÙĤ
ĠØ§ÙĦØŃ Ø§ÙĦØ©
ĠØ§ÙĦÙģ ÙĨÙĬ
ĠØ« Ø§ÙĨÙĬØ©
2 5
ĠØ§ÙĦÙĦØ¨ÙĨ Ø§ÙĨÙĬ
Ġ Ú©
Ø´ÙĦ ÙĪÙĨØ©
ĠÙĪ Ø§Ø°Ø§
ĠØ§ÙĦØ§Ø¯ Ø¨
ĠØ§ÙĦØª ÙĦ
ÙĪØ± ÙĪ
ĠØ§ÙĦØ§Ø³ ØªÙģ
ĠØ±ÙĬ Ø§Ø¶ÙĬØ©
ĠØ¹ Ø±Ø¨
ĠÙĪØ§ÙĦ Ø²
ĠÙģ Ø§Ø±
ØªÙĬ ØŃ
ĠØ§ÙĦØŃØ¯ÙĬØ« Ø©
ĠØ§ÙĦØŃÙĤ ÙĪÙĦ
ĠØ³ ÙĪØ±Ø©
Ø° ÙĪØ±
ĠÙĤ Ø³
Ø§Ø¦ Ø²
ØªØ± ÙĥØ©
ĠØ§ÙĦØ´ Ø±Ø§Ø¡
ĠÙĬÙĪØª ÙĬÙĪØ¨
ØŃ Ø¯
ĠÙĦ Ø§Ùĥ
ĠÙĪØ§ÙĦ Ø§Øª
ĠØ§Ø´ ØªØ±Ùĥ
ĠÙĬØ³ Ø§Ø¹Ø¯
ĠÙĦÙĩ Ø°Ùĩ
ĠÙĦÙĦ Ø§Ø³Øª
ĠØ§ÙĦÙĥ ÙĪÙĨ
ĠÙħØ§ ÙĬ
ĠÙĬ Ø¹Ø±Ùģ
ĠÙĪØ§Ø³ Øª
ÙĩØ± Ø§Øª
ĠØ§ÙĦØ§Øª ÙģØ§ÙĤ
ÙĪØµ Ø§Øª
Ġ200 8
ĠØ³ Ø¯
ĠØªØŃ Ø³ÙĬÙĨ
ĠØ¨ÙĨ ÙģØ³
ĠÙħØ¯ Ø¨ÙĦ
ĠÙħÙĨ Øµ
ĠØ§ÙĦØ® Ø¨
ĠØ¸ ÙĩÙĪØ±
ĠØ§ØªØŃ Ø§Ø¯
ØªØ± Ø§Øª
ĠØ¨Ø§Ø± ÙĬØ³
ĠØ· Ø§Ø¦Ø±Ø©
ĠØ§ÙĦØ§ÙĤ Ø³Ø§Ùħ
Ø¬ Ø§Ø²
Ø±Ø¬ Ø§Øª
ĠØ§ÙģØª ØªØ§ØŃ
ĠØŃ Ø§Ø¯Ø«
ĠØ§ÙĦÙĥ ÙĨ
ĠÙĪØ§ÙĦ Ø§Ø®
ĠÙĦÙĦ ÙĨØ³Ø§Ø¡
ĠØ§ÙĦØ±Ø³Ùħ ÙĬØ©
ÙĬØ¯ Ø§Øª
ĠØ§ÙĦØ´ ÙĬ
ĠØ³ÙĦ ÙĬÙħØ§ÙĨ
ÙĬÙĨ Ùĩ
Ø²ÙĬ Ø§Ø¡
ĠÙĤ Ø¶ÙĬØ©
ĠØ§ÙĦØª Ø¯Ø§ÙĪÙĦ
ĠØ´ ÙĩØ¯
ĠÙĪÙħ ÙĪ
ĠØª ÙĪÙĤØ¹
ĠØ§ÙĦØº Ø§Ø²
ĠØŃ ÙģÙĦ
ĠØ§ÙĦÙħÙĦÙģ Ø§Øª
ĠØªØŃ ÙħÙĦ
ÙĬÙĥ Ø³
ÙĦ Ø§Ø¹
ĠÙĬ Øº
ĠÙģ Ø¹
ĠÙĪ ÙĬÙĦ
Ø³Øª ÙĬØ±
ĠØ§ÙĨØŃ Ø§Ø¡
Ùħ Ø¬Ø©
ĠÙĥØ§ÙĨ ÙĪÙĨ
ĠØªØ¯ ÙģÙĤ
Ġ14 43
ØŃ Ùĥ
ĠÙĪØ§Ø¶ Ø§Ùģ
4 5
ØŃ ÙĦÙĤØ©
ĠØ§ÙĦØªÙĨ Ø¸ÙĬÙģ
ĠØ§ÙĦØ§Ø® ÙĬØ±
ĠÙģØ± ØµØ©
ĠÙĦÙĦØº Ø§ÙĬØ©
ĠÙħ ÙĬØ¯
ĠÙĪØ§ÙĦØª ÙĨ
ĠØª ÙĥÙĨÙĪÙĦÙĪØ¬ÙĬØ§
Ø´ Ø¯
ĠØ§ÙĦÙħÙĪ Ø§Ø·ÙĨÙĬÙĨ
ĠØ¬ ÙĬØ¯Ø©
ĠØ¬ Ø§Ùħ
ĠØ¶ Ø¨Ø·
Ø§Ø¦ ÙĨØ§
ĠØº Ø²Ø©
ĠØ§Ø¯ Ø§Ø¡
ĠÙĨ ÙĪÙħ
ĠØ§ÙĦØŃ Ø¯ÙĪØ¯
ĠÙĦÙĦÙħ ÙĪ
ĠØ¹Ø¨ Ø§Ø±Ø©
ĠØ§ÙĦØ±Ø¬ Ø§Ø¡
ĠÙħÙĨ Ø§Ø²ÙĦ
ĠØ§ÙĦØ§Ùħ ÙĨÙĬØ©
ĠØ¯ Ø±ÙĪØ³
ĠØ§ÙĦÙħØº Ø±Ø¨ÙĬ
Øº Ø±Ø¨
Ø§ÙĦ Øµ
ĠÙĨ Ø§Ø±
Ġ12 0
ĠÙģ Ø³
ĠØ§ÙĦØ² ÙĪØ¬
ĠØŃÙĦ ÙĪÙĦ
ĠØ§Ø³ Ø¨
ĠÙĩ Ø§Ùħ
ĠØ§ÙĦØ¹ ÙĤÙĦ
ĠØµ Ø¯ÙĬÙĤ
ĠØ§Ø³ ÙĪØ¯
ĠØ§ÙĪÙĨ ÙĦØ§ÙĬÙĨ
ĠØ¹ÙĦÙĬ ÙĩÙħ
ĠØ®Ø· ÙĪØ§Øª
ĠÙĥ Ø§ØªØ¨
ĠØ§ÙĦØ± ÙĪØ³
ĠØ¯ Ø§Ø¹Ø´
ĠÙĦ ØŃÙĤÙĪÙĤ
ĠØ§ÙĦØ§ ÙĬØ·
ĠÙħ ÙĬ
ĠØ§ÙĦØ§Ø³ ÙĥÙĨØ¯Ø±ÙĬØ©
ĠÙħØªØ¹Ø¯ Ø¯Ø©
ĠØ¨Ø§ÙĦ Ø¯Ùħ
ĠØ§ÙĦØº Ø±Ø¨ÙĬØ©
ĠØ¬ Ø¨
ĠÙħÙĪÙĤØ¹ ÙĨØ§
ĠØ§ÙĦØ§Ø®Ø¨Ø§Ø± ÙĬØ©
ĠÙĪØ§Ø³ Ø¹
ĠØ§ÙĦØ¬ ÙĪÙĬØ©
ÙĤØ± Ø§Ùħ
ĠØ§Ø¹ÙĦ ÙĨ
ĠØªØ¬ Ø§Ùĩ
Ø§Ø¯ Øª
ĠØ§ÙĦÙħÙĪØ¬ ÙĪØ¯Ø©
Ø¯Ø§ ÙĬØ©
ĠÙĪ ÙĬØ¬
8 5
ĠÙĨØ³ Ø®Ø©
ĠØ§ÙĦÙħ Ø¬ÙħÙĪØ¹Ø©
Ùĩ ÙĪÙħ
ÙĬ Ø§ÙĦ
ĠÙĪØ§ÙĦ Ø§Ø³Øª
Ø¨ ÙĪ
ĠØŃ ÙĤÙĬÙĤØ©
ĠØ§ÙĦØ¯ Ø³Øª
ĠØ§ÙĦÙħÙĨ Ø²ÙĦÙĬØ©
ĠÙħØ´ Ø§ÙĩÙĬØ±
ĠØ§ÙĦÙĨ ÙĤØ¯
ĠÙħØµÙĨØ¹ ÙĬ
ĠÙħØ¨Ø§Ø± ÙĬØ§Øª
ĠÙĥØª Ø§Ø¨Ø©
ĠØ´ Ùĥ
ÙĦØ² ÙħØ§Øª
ĠØ§ÙĦØ· Ø±ÙĬÙĤØ©
ĠÙħÙĨ Ø¹
ĠØ° ÙĩØ¨
ØªØ§Ø¨ Ø¹Ø©
ĠÙĪØ§ÙĦØª Ø¹ÙĦÙĬÙħ
ĠØ§ÙĨØ¯ Ø±ÙĪÙĬØ¯
ĠØ§ÙĬ Ø·Ø§ÙĦÙĬØ§
Ø§ÙĦØª Ø§ÙĦÙĬ
ĠØ§ÙĦØ³ Ø§Ø¨ÙĤØ©
ĠØªØ´ ÙĥÙĬÙĦ
ĠÙħØ± ØŃØ¨
ĠØ§ÙĦØ«ÙĤ Ø§ÙģØ©
Ø§Ø± Ùī
ĠØ§ÙĦÙĦ ÙĪÙĨ
ĠØ§ÙĦÙħØŃ ÙĦÙĬ
ĠÙĦÙĦÙħ Ø´Ø§Ø±ÙĥØ©
ĠÙĦØ§ ÙĪÙĦ
ØŃ Ùī
ĠÙħØŃ ØªÙĪÙī
ĠÙĪØ§Ø´ ÙĨØ·ÙĨ
ĠÙĪØŃ ØªÙī
ĠÙħ Ø§Ùĩ
ĠØ¨Ø§ÙĦÙĥ Ø§ÙħÙĦ
ĠØ§ÙĦØ§Ø³ ÙĪØ§ÙĤ
ĠÙħØ¯ Ùī
ĠØ§ÙĦØ¬ ÙĪÙĨØ©
ØªÙħ Ø±Ø§Ø±
ÙĪÙħ ÙĬØª
ĠØ§Ø³ ÙĬØ§
ĠÙĬØŃ Ø¯Ø«
9 1
Ù ª
ĠÙĥ Ø±Ø¨
ÙĬØ± Ùĩ
ĠÙĦÙĦ Ø®
ÙĨØ¯ ÙĨ
Ùħ Ùħ
ĠØ¨Ùĩ Ø°Ø§
ĠÙĬØª Ø¹ÙĦÙĤ
ĠØ§ Ø¹Ø±Ø¶
ĠÙĦ ØªØ±
ĠØ§ÙĦÙħ ÙĬÙĦ
ĠÙĨ ÙĬ
ĠØ³ ÙĬÙĥÙĪÙĨ
ĠØ§ÙĦØŃ ÙĪØ§Ø±
ĠØŃØ¯ ÙĪØ¯
Ø§Ø± Ø¨Ø©
ĠØ§ÙĦØ¹Ø±Ø§ÙĤ ÙĬ
ĠØ¯ Ø®ÙĦ
ĠÙĪÙĬ ØŃ
ĠØªØ§Ø¬ ÙĬØ±
ĠÙģØª Ø§Ø©
ĠØ§ÙĦØ·ÙĦ Ø§Ø¨
ĠØ³ ÙĪØ±ÙĬØ©
ĠÙħØªÙĨ ÙĪØ¹Ø©
ĠØ§ØµÙĦ Ø§ØŃ
ĠØ§ÙĨ Ø·ÙĦØ§ÙĤ
ĠØªØŃ Ø±ÙĬØ±
ÙĦÙĬ ØŃ
ÙĨ Ø§Øª
ĠÙĪ ÙĬÙĥ
ĠÙĪØ§ÙĦ Ø§
ÙĦ Øª
ĠÙĪØ§ÙĦ Ø§ÙĤ
ĠØ§ÙĦØ§Ø¹ÙĦ Ø§ÙĨØ§Øª
ĠÙĦ Ø®
ĠØ§ÙĦØµ ÙĬØ¯
ĠØ§ÙĦØ¨ÙĬ Ø¶Ø§Ø¡
ĠØ ¦
ĠÙĦÙĦÙħ ØŃ
ÙĬÙĦ Ùħ
ĠÙħØ· ÙĦÙĪØ¨
ĠØ§ÙĦØ·Ø¨ÙĬØ¹ ÙĬ
ĠØ§ÙĦÙĨ Ø§ÙĤÙĦ
Ø«ÙĦ Ø§Ø«
ĠØŃÙĪ Ø§ÙĦÙĬ
ĠØ¹ ÙĪØ¯Ø©
ĠØ§ÙĦØµ ÙĦØ¨
Ø¶ ÙħØ§ÙĨ
ĠØ§ÙĦØ± Ø§Ø¨Ø·
Ùħ Ø³Ø©
ĠÙĪØ§ÙĦ Ø§Ø±
ĠØ§ÙĦØ¹ ÙĦØ§ÙħØ©
ĠØ§ÙĦÙħØ´ Ø§Ø±
ĠØ§ÙĦØ¨ Ø§Ø¨
ĠÙĥ Ø´
ĠØªØ¹ÙĦÙĬÙĤ Ø§Øª
ĠØ§ÙĦØ¹Ø« ÙĪØ±
ĠÙħ ÙĬÙĨ
ĠÙģ Ø§Øª
Ø±Ùģ Ø¶
ĠØ§ÙĦØ§Ø³ ÙĨØ§ÙĨ
ĠÙħ ÙĪÙĤÙģ
ĠØµ ÙĬ
Ø´ Ø·Ø©
Ø§Ø¦ Øµ
ĠØ¨Ø§ÙĦÙĦ ØºØ©
ĠØ§ÙĦØ§Ùħ ÙĪØ±
ĠØ§ÙĦÙħØµ Ø¯Ø±
ĠØ§ÙĦØ§Ø¨ØªØ¯ Ø§Ø¦ÙĬ
ĠØ§ÙĦØ³Ø¯ Ø§Ø³ÙĬ
ĠØ§ÙĦØ§ÙĦÙħ Ø§ÙĨÙĬØ©
ÙĪ Ø§ÙħÙĦ
ĠÙĦ ÙģØ©
ĠØ§ÙĦØ§Ø® Ø±ÙĬÙĨ
ĠÙĪ Ø§Ùģ
ĠØ§ØŃ ØªØ±
ĠØ§ÙĨØ´ Ø·Ø©
ĠØ§ØŃ ØªÙģ
ĠÙħØ³ Ø§Ø¹Ø¯Ø©
ÙĤ Øª
ĠØ³Ø§Ùħ Ø³ÙĪÙĨ
ØºØ§ÙĨ Ø³ØªØ§ÙĨ
ĠØ§ÙĦØª ÙĤÙĦ
ĠÙĪÙħ Ø´
ĠØ® Ø±ÙĬØ·Ø©
Ø¹Ø¯ Ø¯
ĠÙĬØŃ ØªØ§Ø¬
ĠÙĪÙħ Ø³
ĠØ§Ø± Ø³ÙĦ
ĠÙĦÙĦ ÙĥÙħØ¨ÙĬÙĪØªØ±
Ġ7 9
ĠÙĪÙģÙĤ Ø§
ĠØ¹ Ø±Ùģ
ÙĦÙħ Ø§Øª
ĠØ§ÙħØ±ÙĬÙĥ ÙĬ
Ø§ÙĬ Ø¨Ø±
Ø§Ø¯ Ùī
ĠØ§ÙĦØ§Ø³ Ø¯
ĠØ¬Ø² Ø±
ĠÙĨ Ø¹Ùħ
ĠÙģÙĩ ÙĬ
ĠØ¨Ø§ÙĦ Ø±
ĠØ§ÙĨ ÙĤØ±
ĠØ¹ÙĦ Ø§ÙĤØ©
ĠÙĪÙĦ Ø¯
ĠØ§ÙĦÙħ Ø§Ø¶ÙĬØ©
3 8
ĠØ¶ Ø±
ĠÙģ ÙĪØ²
ĠØ§ÙĦÙĥ ÙĪØ§Ø±ØªØ²
ĠØ§ÙĦÙģ Øª
ĠØ§ÙĦØ¬Ø² ÙĬØ±Ø©
ĠÙ ±
Ø¶ ÙĦØ©
Ø± ÙĤØ©
ĠØ±ÙĪØ§ ÙĬØ©
ĠÙĬÙĪÙħ ÙĬØ§
ÙĪØ± Ø¬
ĠØ§ÙĦÙħ Ø±Ø©
ĠØ³ Ø±ÙĬØ¹
ĠØªÙģ Ø¹
ĠØ§ÙĦØ¯Ø± Ø§Ø³ÙĬ
ĠØ§ÙĦÙħØº Ø±Ø¨ÙĬØ©
Ø±ÙĬ ÙĤÙĬ
ÙĪÙĤ ÙĬØª
Ø§Ø· Ø¦
Ø¬ ÙĬØ±
ĠØ³ ÙĦÙħØ§ÙĨ
ĠØ§ÙĦØ¬ ÙĨØ³ÙĬØ©
Ø¸ Ø§Øª
Ġ8 6
ÙĪÙģ ÙĬØ¯
ĠØ§ÙĦØ±Ø¬ Ø§ÙĦ
Ġ7 8
ØªÙĦ Ø§Ùģ
Ø¨Ø¹ Ø¶
ĠÙĪØ§ÙĦ Ø§Ø¨
ĠØ§ÙĨ ÙĤ
ĠØ§ÙĦÙħØ¯ Ø§Ø±Ø³
Ø³ÙĬÙĤ Ùī
ĠØ§Ø¹ÙĦ ÙĨØª
ĠÙĦÙĦØª ÙĨ
ĠØ§ÙĦÙĪ Ø¬
ĠØ± Ø§Ø¦Ø¹Ø©
ĠØ§ÙĦØ¬ Ø¨Ø³
ĠØ§ÙĦÙĥ Ø¨Ø±Ùī
ØªÙĪ ØŃ
ĠØ« Ø§ÙĦØ«
ĠÙħØ± ØŃÙĦØ©
ĠÙĪØ¹ ÙĨ
Ø§Ø± Ø¦
ĠÙĪÙħ Ø³Øª
ĠØ§ÙĦØ§ÙĦ Ø²Ø§Ùħ
Ġ36 28
ÙĬÙħ ÙĨ
ĠØµ ÙģØŃ
ÙĦ ÙĪÙĦ
Ø·Ø± ÙĬØ©
ĠØ§ØªÙģ Ø§ÙĤÙĬØ©
ĠØ§ÙĦØ± Ø§Ø¨Ø¹Ø©
ĠØªØ³ÙĪÙĤ ÙĬ
ĠØ§ÙĦØ§Ø³ØªØ± Ø§Øª
ĠÙĨØ´ Ø§Ø·
Ø± ÙĪÙĨ
ĠÙĬ Ø¨ØŃØ«
ĠÙĩ ÙĨ
ÙĪ ÙĬØ§
ĠØª Ø§
ĠÙĥ Ø±ÙĬ
ĠØ§ÙĦØ¯Ø± Ø§Ø³Ø©
ĠØ§ÙĦÙħØª Ø¹ÙĦÙĤØ©
ĠØ¨Ø± Ø´ÙĦÙĪÙĨØ©
ĠØ± Ùĥ
ĠØ§ØŃ ÙĥØ§Ùħ
ĠØ§ÙĦØ¬ ÙħÙĬÙĦ
ĠØ§Ø³Øª ÙĤ
ĠØ® ÙĬØ±
ĠØ¯ Ø§Ø¦Ùħ
ĠØ· Ø¨ÙĬØ©
ÙĬÙĨ ÙĪ
ĠØ§ÙĦØŃÙĬÙĪ Ø§ÙĨØ§Øª
ĠØ§ÙĦØ§Ø¬ Ø±Ø§Ø¡Ø§Øª
Ø§ÙĨØ¯ Ø±ÙĪÙĬØ¯
ĠÙħÙĨ Ø¸
Ø¬ ÙĪÙĨ
ĠÙĪØ¨ ÙĬÙĨ
ĠØ§ÙĦØ¹ Ø³ÙĥØ±ÙĬ
ĠÙħØ¹ Ø±Ùģ
ĠØ§ ØªØ®
ĠÙĪ Ø³ÙĦ
ĠØ§ÙĦØ± ÙĤ
ĠÙĪÙĥØ§ÙĨ Øª
Ø° ÙĥØ±Ø©
3 5
ĠØ´ Ø§Ø¨
ĠØ§Ø¶ Ùģ
ĠØ§ÙĦÙĥ Ø§ØªØ¨
ĠØ´Ø®Øµ ÙĬØ©
ĠÙħØ´Ø§Ø± ÙĬØ¹
ĠÙĪØ¹ ÙĨÙĪØ§ÙĨ
ĠØ³ Ø§Ø®
ĠØªØ¬ Ø¹ÙĦ
ĠØ¬ Ø§Ùĩ
ĠØ±Ø¬ Ø§ÙĦ
Ø§Ø¯ Ø§Ø±Ø©
ĠÙĥ ÙĦØ§Ùħ
ÙĪØ² Ø§Ø±Ø©
Ø±Ø· ÙĪÙħ
ĠÙĪØ§ÙĦÙħ ÙĪ
ĠÙħ ÙĬØ§Ùĩ
Ø¨ Ø§ÙĤ
ĠØ±Ùħ Ø²
Ø§Ø¶ Ø§Øª
ĠÙĨ Ø³Øª
ĠØ§ÙĦØ¨ Øµ
Ø§Ùĥ Ø©
ĠØ§ÙĦÙĦ Ø§Ø²ÙħØ©
ĠÙħÙĦ Ø§ØŃ
Ġ37 7
ĠØ§ÙĦÙģÙĨ Ø§Ø¯ÙĤ
ĠÙĤ ÙĦÙĬÙĦ
ĠØ§ÙĦØªØŃ ÙĤÙĬÙĤ
Ø§Ø¨ Øª
Øª Ø¯ÙĬ
Ø§ÙĦ Ø´
ĠÙĦÙĦ Ø³ÙĬ
ĠØ± ØŃÙĦØ©
ĠØ¨ Ø§ÙģØ¶ÙĦ
ĠØ§ÙĦØ° ÙĥÙĬØ©
ĠÙĪØ§ÙĦ Ø¨Ø±
ĠØ§ Ùī
ĠØ¨Ø§ÙĦÙĤ Ø±Ø¨
ĠÙħØ¯ Ø±ÙĬØ¯
Ġ9 6
ĠØ¨Ø§Ùĥ Ø³ØªØ§ÙĨ
ĠØ¨Ø§ÙĦØ¨ Ø´Ø±Ø©
ĠØ§ÙĦÙħØ¤ ØªÙħØ±
ĠØªØ¬ Ø§Ø±ÙĬØ©
ĠØµ ÙĨ
ĠØ§ÙĦØ¹ ÙħØ§ÙĦ
ĠÙħØ¹Ø¯ ÙĦ
ĠÙĬ Ø¶
ĠØ¯ Ø§Ø®
ĠØ´ÙĥØ± Ø§
Ø« ÙħØ±
ØºÙĦ ÙĬÙģ
ĠØ§ÙĨ Ø®ÙģØ§Ø¶
ĠØ§ÙĦÙĥØ¨ ÙĬØ±Ø©
ĠØ§ÙĦÙĪØŃ Ø¯Ø©
ĠØª ØªØ±
ĠÙĩ Ø¯Ø§ÙĬØ§
ĠØ§ÙĦØª Ø¹Ø¨
ÙĬØ¬ Ø§
ĠØŃ Ø§ÙĦÙĬØ§
ĠÙħØ· Ø§Ø±
ĠÙĪ ÙħØ¯
ĠØª ÙĪÙĥ
ĠÙĪØ§ÙĦÙħ Ø³
ĠØ§ÙĦØ³ÙĦ Ø·Ø§Øª
ĠØ§ÙĦØ´Ø®Øµ ÙĬ
ĠØ§ÙĦØ§Ùħ Ø±Ø§Ø¶
ĠØªØ± ØºØ¨
ÙĪ ÙĬØ¯
ĠØ§ÙĦØ§Ø® ÙĪØ§ÙĨ
ĠØ§ÙĦÙĬÙĪÙħ ÙĬØ©
Ø§Ùħ ÙĬÙħ
ĠØ§ÙĦÙĩ Ø¬Ø±Ø©
ĠØªØ¹ Ø²ÙĬØ²
ĠØ§ÙĦÙĥØªØ±ÙĪÙĨ ÙĬØ©
ĠØ§ÙĦÙħÙĤ Ø§ÙĦ
ĠØ¹ Ø²ÙĦ
ĠÙĦÙĥ Ø±Ø©
ĠØ§ÙĦØ§ÙĤØªØµ Ø§Ø¯ÙĬ
ÙĦ ÙĦ
ĠØ§ÙĦØŃ Ø¶
ĠØ§ÙĦÙħØŃ Ø§Ø¬Ø±
ĠØ§ÙĦØ¹ Ø§ÙħÙĦ
ĠØ· Ùģ
ĠØ· Ø¨ÙĬØ¨
ĠÙģÙĨ Ø§Ø¯ÙĤ
Ø³ Ø¯
ĠØª Ø¸ÙĩØ±
Ø·ÙĦ Ø¹
ĠØ§ÙĦØ® Ø¶
ĠØ§ÙĦØ² ÙĪØ§Ø¬
ĠÙĦØª Ø´
ĠØ³ Ø¤Ø§ÙĦ
ĠØµØŃ ÙĬØ©
ĠÙĪ ÙĬØ¨
1 2
ĠØ« Ø§ÙĨÙĬ
ĠØ§ÙĦØªÙĨ ÙģÙĬ
ĠØ§ÙĦÙĨØª Ø§Ø¦Ø¬
ĠÙĬØ¬ ÙĪØ²
ĠÙĦ Ø°Ø§
ĠÙĪÙħ ÙĤ
ĠÙħÙĨ Ùĥ
ĠØŃØ² ÙĬØ±Ø§ÙĨ
ĠØ§ÙĦØ§ ÙĪ
ĠØ² ÙĬÙĨ
ĠÙĪ Ø§Ø«
Øª Ø§ÙĦ
ĠØ§ÙĦØµ ÙĨØ§Ø¹Ø©
ĠØ§ÙĦÙĨ ÙĪØ§Ø¨
ĠÙĬ Ø±ÙĬØ¯
ĠØŃØµ Ø§ÙĨ
Ø§ÙĤ Ø´Ø©
ĠØ§ØªÙģ Ø§ÙĤ
ĠØ§ ÙĩØ¯Ø§Ùģ
ĠÙħ ÙĤØ±
ĠØ§ÙĦØ§Ø³ ÙĩÙħ
ĠØ§ÙĦ Ø¨ÙĬØ¹
ĠØ§ÙĦØ§Ø± Ø´ÙĬÙģ
Ø§Ø³ Ø¨Ø§Øª
Ø·ÙĦ Ø§Ø¨
Ø³ ÙĬÙħ
ĠØ¨ ÙĥØ±
Ø§Ø² ÙĨ
ĠØ§ÙĦØ§ÙĦØ²Ø§Ùħ ÙĬØ©
ĠÙĨØ¬ Ø§ØŃ
Ùĩ Ø§Ùħ
Øµ Ø§Øµ
ÙĪØ¬ ÙĬÙĩ
ĠÙħÙĤ Ø§Ø±ÙĨØ©
ĠØ§ÙĦØŃ Ø³Ø§Ø¨
ĠØ± Ø§Ø¦Ø¹
ÙĤØ± Ø§Ø¡
ĠØ¨ Ø°ÙĦÙĥ
ĠØ· ÙĪÙĬÙĦ
ĠÙħØ¹ Ùĩ
ÙĦØ¨ ÙĬÙĨ
Ùĥ ÙĬØ±
ĠØ¹ Ø§ÙħÙĦ
ÙĪ Ø§Ùħ
Ø±ÙĬ ØŃØ©
ĠØµ ØŃÙĬ
ĠØŃÙĤÙĬ Ø¨Ø©
ĠÙĪ ØªØ¨
ĠÙĦ ÙĨØ¯ÙĨ
ĠØ´ Ùģ
ĠØ¨ Ø§Ø®
ÙĦ Ø§Ùĥ
ĠØ§ÙĦØªØŃ Ø±ÙĬØ±
Øº Ø°ÙĬØ©
ĠØµ Ø¯Ø±
ØŃ Ø«
Ø§Ùģ Ø¹
ĠÙĦÙĦØ¨ÙĨ Ø§Øª
ØŃ Ø±
Ø§Ùĩ Ø¯Ø§Øª
ĠØ§ÙĦÙĤØ¨ Ø¶
Ùĥ Ø°Ø§
ĠØ§ÙĦÙģ Ø¶
ĠØª ÙĪØµÙĬÙĦ
ĠØ§ÙĨØª Ø´Ø§Ø±
ĠØ±ÙĪ ØŃ
ÙĨ Ø§Ø·
ĠØ§ÙĦØº Ø³ÙĬÙĦ
ĠÙĨ ØµØ±
ĠØ§ÙĦÙĪ Ø³Ø·
ĠØ§ÙĦØµÙĨØ§Ø¹ ÙĬ
Ø§ÙĤ ÙĦØ©
ÙĬØ³ Ùī
ĠÙĪ Ø±ÙĤ
Ø§ÙĤ Ø´
ĠØ§ÙĦØ§Ø³Øª Ø´
Ùĩ Ø±Ø©
Ø´Ùģ ÙĬØ§Øª
ĠØ§ÙĦÙģ Ø±Ø¯
ĠÙħØ¯ Ø§Ø±Ø³
ĠÙħØ± Ø¶
ĠÙĪØ§ÙĦÙħ Ø±
ĠÙħØ³ Ø§Ø¹Ø¯
ĠØ§ÙĦØŃÙĥ ÙĪÙħÙĬØ©
Ø¨ ÙĪÙĨ
ĠØ´ ÙħØ³
ĠÙħÙĪ Ø§ØµÙģØ§Øª
ĠØ§ÙĦØ±Ø³ Ø§Ø¦ÙĦ
Ø´ Ø§Ø¨
Ø§Ùħ ÙĬÙĥ
Ø² ÙĨ
3 1
ĠÙĦØ´ Ø±ÙĥØ©
ĠÙĬØ¤ Ø¯ÙĬ
Ø®Øµ Ø©
ĠØ¹Ùħ Ø±ÙĪ
Ø² ÙĦÙĬ
Ø§Ø¬ Ø³ØªÙĬØ±
ĠØ§ÙĦØŃ Ø³ÙĨ
ÙĬ ÙĤØ©
ĠØ§ÙĦØ§ ÙĬØ§Ùħ
ĠØ§ÙĦÙģÙĪØ± ÙĥØ³
ÙĬ Ø§Ø¨
ĠÙĦ Ø§Ø³Øª
ĠØ± ÙħÙĦ
ĠÙĪ Ø§Ø·
ĠØº Ø¶
Ø¨Ø± Ø©
ĠØ¬Ùħ ÙĩÙĪØ±ÙĬØ©
ĠØ§ÙĦÙħØ¤ Ø³Ø³Ø§Øª
ĠÙĦÙĤ Ø§ØŃ
Ø§Ùĥ Ø±Ø©
ĠÙĪØ¨ Ø§ÙĦ
ĠØªØ¨Ø¯ ÙĬÙĦ
Øª ÙĬÙĦ
ĠÙħ Ø³ÙĦ
ĠØ§ÙĦØ§ÙĦ ÙĬ
ĠØ¨Ø§ÙĨ Ùĩ
ĠØ§ÙĦØŃ ÙħØ§Ùħ
ĠØ§ÙĦØ±ÙĬØ§Ø¶ ÙĬØ§Øª
ĠÙħ ÙĩÙħ
ĠØ¨ Ø²ÙĬ
ĠØª ÙĪØ²ÙĬØ¹
ĠØ§Ø® Ø°
Ø§Ø¦ ÙĤØ©
ĠØ§ÙĦÙĪ Ø¸Ø§Ø¦Ùģ
ĠØ§ÙĦÙħØªÙĪ Ø³Ø·
ĠÙĦÙĥ ÙĬ
ĠØ§ÙĦØ³ÙĬÙĦ ÙĬÙĥØ§
ĠÙĨ Ø§ØµØ±
ĠÙģ ÙĪÙĦ
Ø§Ø¹ ÙĬØ¯
ĠØ¹ÙĦ Ø§ÙħØ©
ĠÙħ ÙĪØ¨Ø§ÙĬÙĦ
ĠØ® Ø±
ÙĬÙĨ Øº
ĠØ§Ø¨ Ø¯Ø§
ĠÙĪÙĩ Ø°Ùĩ
ĠØ¨ ÙĬÙĥ
ĠØ§ÙĦØµ ÙĬÙģ
ØªÙĩ ÙĬ
Ùģ ÙĬØ¯
ĠÙĤÙĪ Ø§Ø¹Ø¯
ĠØªØ¬ Ø¯
ĠØ§ÙĦØª Ø§Ø¨Ø¹Ø©
Ø±ÙĪ Ø¨Ø§Øª
ĠÙģØŃ ÙĪØµØ§Øª
ĠØ³Ø§ÙħØ³ÙĪÙĨ Ø¬
Ġ Ú
ĠÙĨÙĤ Ø·Ø©
ĠØ§ÙĦÙħØµÙĨØ¹ ÙĬÙĨ
ĠÙĥ Ø§ÙĦ
ĠØ§ÙĦÙģ ÙĬØ³
ÙĪØ± Ø§
Ø§ ÙĪÙħ
ĠØ¬Ø¯ Ø§Ø±Ø§
ĠÙĪÙĨ ØŃÙĨ
ĠØ§ÙĦØ¬Ùħ Ø¹ÙĬØ©
ĠÙĦ Ø§Ø®
ĠØ§ÙĬ ÙĤ
ĠØ² ÙħÙĨ
ĠØ§ÙĦØªØ¬ Ø§Ø±ÙĬ
ĠÙħØª Ø®ØµØµ
Ø¨ÙĦ ÙĪÙħ
ĠØª Ø·ÙĦÙĤ
ĠØ§Ø¯ Ø®Ø§ÙĦ
ĠØ§ÙĦÙħÙĪ Ø³
ĠØªØ³ Ø±Ø¨Ø§Øª
ĠØ§ÙĦØ§Øµ Ø§Ø¨Ø©
ĠÙħ Ø§Øª
ĠØ§ÙĦØ´ Ø±ÙĪØ·
Ø¨ÙĬ Ø¹Ø©
Ø§Ø¹ ÙĬÙĦ
ĠØ§ÙĨ ÙĩÙħ
ĠÙħØ³ Ø§ØŃØ©
ĠØ§ÙĤ ÙĪÙī
ĠØ§ÙĦØª ÙĪÙĨ
Ġ8 4
ĠØ¨Ø§ÙĦ Øµ
ĠØ¨Ø¹ ÙħÙĦ
ĠØ§ Ø¹Ø±Ø§Ø¶
ĠÙĪ ÙĬØ³
Ġ200 7
ĠØ§ÙĦØ³Ø¨ Ø¨
ÙĬ Ø§Ø¯
ĠØ¨ ØªÙĪ
ĠØµ ÙĬØ¯
ØªÙĪ ØŃØ©
ĠØ·ÙĦØ¨ Ø§Øª
ØŃ Ø¶
ĠØ§ÙĦØŃ Ø²Ø§Ùħ
Ø¨ ÙĪØ¨
ĠØ¨ ÙĥÙħ
ĠØ¨Ø³ Ø±Ø¹Ø©
Ø¨Ø¯ ÙĪ
ĠØ§ÙĦÙĤ ÙĬÙħØ©
ĠØ§ÙĦØ§ÙĬØ± Ø§ÙĨÙĬ
Ø§Ø° Ø¬
ĠÙħØ§Ø³ ØªØ±
ĠØ¨ ÙģÙĬØ±ÙĪØ³
ĠØ¨Ø§ÙĦ Ø¶
Ø« ÙħØ§ÙĨ
ĠØ§ÙĦÙģ ÙĦØ³
ĠÙĪØ§Ø³ Ø¹Ø©
Ġ23 21
Ø±ÙĬ ØŃØ§Øª
ĠØ´Øº Ø§ÙĦØ©
ĠÙĪ ØªØ±Ùĥ
Ø¨Ø± ÙĨØ§ÙħØ¬
Ø¹Ø¯ Ø§Ø¯
ĠØ§ÙĦØ§Ø³ Ø¦ÙĦØ©
ĠØ¬Ùħ ÙĬÙĦØ©
ĠØ§ÙĦØ± ØºÙħ
ĠÙĪØ§ØŃ ØµÙĦ
ĠØ§ Ø·ÙĦÙĤ
ĠØ§ÙĦÙĤ ÙĪ
Ø§ÙĤ Ø¯
ĠØ§ÙĦØ§Ø® Ø¶Ø±
ĠØªØŃ Ø¯Ø«
ĠØ¨ÙĤÙĦ Ùħ
ĠØ§ÙĦØ¹ÙĨ Ø§ØµØ±
ĠØ§ÙĦØ¨Ø¹ Ø¶
ĠØ§ÙĦÙĥ Ø§ÙħÙĦ
ĠÙĪÙħ Ø±
ĠØ¨ØŃ ÙĬØ«
ĠØŃ ÙĦÙħ
ĠÙĪ Ø±Ø¯
ĠØ§ÙĦØŃ Ø³ÙĬÙĨ
ĠØ§ÙĦÙħØ¬ Ø§ÙĦ
ĠØ§ÙĦØ« ÙĪØ±Ø©
ĠØ§ÙĦÙĨØ¨Ø§Øª Ø§Øª
ĠÙħ ÙĪØ±Ø¯
Ø¸ ÙģÙĬÙĨ
ĠÙħØª Ø§Ø¨Ø¹Ø©
ĠØ§ÙĦÙħÙĨ ØªØ¯ÙĬØ§Øª
ĠØ§ÙĦØ¬Ø§Ùħ Ø¹Ø§Øª
ĠØ§ÙĦØŃ Ø±Ø©
ĠØ¨ÙĨ ÙĩØ§
Ø§Ø¦ Ùĥ
ÙĦÙĤ Ø§Øª
Øª Ø¸Ø±
ĠØ§Ùģ ÙĥØ§Ø±
ĠÙħØ¹ ÙĨÙī
ĠØ§ÙĦÙħØŃ ÙĥÙħØ©
ĠÙĬ ÙĦÙĬ
Ø¬ÙĦ Ø§Øª
Ø¬Ùħ Ø§Øª
ĠØ§ÙĦØ§Ø¬ ÙĨØ¨ÙĬØ©
ĠØ§ÙĦÙħÙĦÙĥ ÙĬØ©
ĠØ§ÙĦØ² ÙħÙĨ
ÙĨ Ø§Ø¦ÙĬ
ÙĤØ· Ø§Ø¹
ĠØ±Ø³ ÙĪÙħ
ØªÙħ Ø§ÙĨ
ĠØ§Ùħ ØªØŃØ§ÙĨØ§Øª
Ġ6 2
ĠØªÙĩ ÙĨ
ĠØ³ÙĪ Ø¨Ø±
Ø¨ Ø§ÙĨ
ĠØª Ø±Ø¬ÙħØ©
ĠØ§ÙĦØ§Øª ØµØ§ÙĦØ§Øª
ĠØ§ÙĦÙħØ³Øª Ø¹ÙħÙĦØ©
ĠØ§ÙĦØµØŃ Ø§ÙģØ©
ĠØ¨Ø§ÙĦØ¯Ùħ Ø§Ùħ
ĠØ§ÙĦÙħ Ø±Ø¬
ĠÙħ Ø¨ÙĬØ¹Ø§Øª
ĠÙĪØ§ÙĦ Ø³ÙĬ
ĠØ§ÙĦÙħØ¯ ÙĨÙĬØ©
ĠØ§ÙĦÙħØ³ Ø§Ø¹Ø¯Ø©
Ø· ÙĨØ§Ø¹
ĠÙĪØ§ÙĦ ØªØ±
ĠØ§ÙĦÙĪ ÙĬØ¨
ĠÙħØ² Ø¯
Ùĩ Ø¬
ĠØ§ÙĦÙħÙĥ Ø§ÙĨ
Ø§ÙħÙĬÙĨ Ø§Øª
ĠØ§ÙĦØ§Øµ ÙĦÙĬ
ĠÙĥ ÙĪÙĥ
ÙĤ Ø§
ĠØ¬ ÙĬÙĨ
Ø§Ùĥ ÙħØ©
Ùĥ ÙĪÙħØ©
ĠØ¨Ø¬ ÙĪØ¯Ø©
Ø¨ Ùĥ
ĠÙĬ Ø²ÙĬØ¯
ĠØ³Ùĩ ÙĦØ©
Øª Ø§ÙĨ
ĠØ§ÙĦÙĥ ÙĪÙĥ
ĠÙĬØ¤ ÙĥØ¯
ĠØ¨Ùĩ Ø°Ùĩ
ĠÙĪÙĦ ÙĪ
ĠØªÙĦÙģ ÙĪÙĨ
ĠØ¬Ø¯ÙĬØ¯ ÙĨØ§
ĠØ± ÙģØ¶
ĠØ§ÙĦØªØ·Ø¨ÙĬÙĤ Ø§Øª
ĠÙģ ÙĨØ¯ÙĤ
ĠØ§ÙĦÙģ Ø¹ÙĦ
Ø§Ø® Ø±Ø©
ĠØ§ÙĦØ± Ø§Ø³
ĠØ§ÙĦÙħØ¯Ø± Ø³Ø©
ĠÙĦ Ø§Øµ
ĠÙħÙĨ Ø´
ĠØ§ÙĦØ±Ø¦ÙĬØ³ ÙĬ
ĠØµØ¨Ø§ØŃ Ø§
ĠØ§Ø´ Ø®Ø§Øµ
ĠØ§ÙĦÙĦ Ø¹Ø¨Ø©
Ġ9 7
ĠØ§ÙĦÙĦØŃ ÙĪÙħ
ĠØ§ÙĦÙĨ Ø¸Ø±
ĠØ§Ø³ ÙħÙĬ
ĠÙģØ± Øµ
ĠØªØ¹ ÙĬÙĬÙĨ
ĠØ¹Ø¨ Ø§Ø³
ÙĩØ§ ÙĬ
ĠÙģÙĤ Ø§ÙĦ
Ø§Ø¦ Ùī
ĠØ§ Ø¬Ùħ
ĠØ§ÙĤØªØµ Ø§Ø¯
ĠÙĪ Ø±Ø§Ø¡
ÙĪÙĨ Ùĩ
ĠÙħØ¯Ø¨ÙĦ Ø¬
ĠØ§ÙĦØ¬ Ø¨
ÙĨ Ø²
ĠØ§ÙĦØ§Ùģ ØªØ±
Ġ9 00
ÙĨØ¨ ÙĪÙĦ
ĠØ§ÙĦÙħØ¨ Ø§Ø´Ø±
ĠØ± Øº
ĠÙĥ ÙĬ
ĠØ§Ùħ ÙĥØ§ÙĨÙĬØ©
ĠØ§ÙĦÙĤ ÙĬØ§Ø¯Ø©
Ø¤ ÙĦØ§Ø¡
ĠØª Ø¬ÙħØ¹
ĠØ§Ùħ ÙĬÙĨ
ĠØ± ØŃÙħ
ĠØ§ÙĦØ§Ùħ Ø©
ĠÙģ Ø§
ĠØ§ÙĦÙħØ· Ø§ØŃÙĨ
ĠÙģØ¹Ø§ÙĦ ÙĬØ§Øª
ĠØ§ÙĦØ±ÙĪØ³ ÙĬØ©
Ø¯ ÙĬØ§Øª
ĠØ¨ ÙħØ±
Ø§Ø± Ø¶Ø©
ĠØ¬ ÙĦØ³Ø©
ĠØ± ÙĤ
ØªØ± Ø§
ĠÙħÙĤ Ø¯ÙħØ©
ØªØµ Ø±
ĠØ§ÙĦØ¨ Ø§ØŃØ«
ĠØ§ÙĦØ§Ùħ ÙĪØ§ÙĦ
ĠØ§ÙĦØ§Ùģ ÙĦØ§Ùħ
ĠÙħØªÙĨ ÙĤÙĦ
Ø¨ÙĨ Ùī
Ø¸Ùħ Ø§Øª
ĠØ§ÙĦØ¹Ùħ ÙĪØ¯ÙĬØ©
ĠÙĬ Ø§ØªÙĬ
ĠÙħÙħ ÙĬØ²Ø©
ĠØ§ÙĦØ³ ÙĥØ±
ĠØ§ÙĦØ¨Ø± Ø§Ø²
ĠØ² ÙĪØ§Ø¬
ĠÙħØ³ÙĦØ³ÙĦ Ø§Øª
ĠØ§ÙĦÙĥ Ø§ÙħÙĦØ©
Ø§Ø± ÙĬÙĨ
Ø« ÙĦØ©
Ø¶ Ø§ÙģØ©
ĠØ§ÙĦØªØ³ ÙĪÙĬÙĤ
ĠØ§ÙĦÙģØ± ÙĨØ³ÙĬ
ĠØªÙģØ¹ ÙĬÙĦ
ÙĨ Ø¬Ø±
Ġ8 1
ĠØ¨ ÙĬÙĦ
ĠØ§ÙĦØª Ø¹ÙĦÙħ
ĠØ· Ø±ØŃ
ĠØ¬ ÙĨØ³
ĠÙħØŃ Ø§ÙĪÙĦØ©
ÙĪØ§Ø¬ ÙĩØ©
ĠÙĦÙĦ Ø§Øª
ĠÙĬ Ø§Ø³
ĠØ§ÙĦÙħØ· Ø¨Ø®
ĠØ§ÙĦØŃ Ø±ÙĥØ©
ØªØ´ Ø§Ùģ
ÙĥØª Ø¨Ø©
ĠØ§ÙĤ ØªØ±
ĠØ§ÙĦØ¹ ÙĪØ¯Ø©
ĠØ§ÙĦØ³ Ø¤Ø§ÙĦ
Ø§Ø· ÙĬ
ĠØ¨ ÙĩØ¯Ùģ
ĠÙĥ Ø§Ø´
ĠØ§ÙĦØ³ÙĬ Ø§ØŃØ©
ĠØ¹ Ø²ÙĬØ²
ĠØ§Ùħ Ø±Ø§Ø¶
ÙĬÙģ Ø§
ĠÙħÙĪ Ø³Ùħ
ĠÙħÙĨÙĩ Ø¬
Ùģ ÙĪØ±
ĠØ§ÙĦÙĬ ÙĪÙĨ
Ġ47 7
ĠØ§ÙĨ Ø³Øª
ĠØ¯ ÙĦ
ĠØ¹ÙĨ Ø§ØµØ±
ĠØ§ÙĦØ¯Ø§Ø® ÙĦÙĬ
ĠØ§Ø¹ÙĦ Ø§Ùħ
ĠØ§ÙĦØªØ±Ùĥ ÙĬ
ĠØ³ ÙĥÙĨ
ĠØ§ØŃ ÙģØ¸
ĠÙĦÙĦÙħ Ø³
Ø² Ø§Ø²
Ø¯ Ø§Ø±Ø§Øª
ĠØ§ÙĦØ¬Ø²Ø§Ø¦ Ø±ÙĬ
ĠÙħØ±Ø¨ Ø¹
ĠÙħØ¯ Ø§Ø±
ĠØ§ÙĦØ±Ø³ Ø§ÙĦØ©
Ø¨ ÙĪÙĥ
ĠÙħÙĦÙħ ÙĪØ³Ø©
ØŃÙĬ Ø§Ø©
ĠØªØ¯ Ø®ÙĦ
ĠØ§ÙĦÙĤØ¯ Ø±Ø©
ĠØ® ØµÙĪØµ
ĠÙĪÙĤ Ùģ
ĠØ®Ø· ÙĪØ·
ĠØ§Ø¨ ØªØ¯
ĠØ§ÙĦÙħØ¤ Ø³Ø³Ø©
ĠØ§ÙĦÙĤ Ø±Ø§Ø¡Ø©
ĠÙĪ Ø§ÙĪ
ĠØ§ÙĦØ± Ø·Ø¨
Ø±ÙĬ Ø¬
ĠØ§ÙĦØª ÙĦÙģ
ĠØªÙĪ Ø¸ÙĬÙģ
2 4
ÛĮ ÙĨ
ĠØ§Ø³ÙĦØ§Ùħ ÙĬØ©
ĠØ±ÙĬØ§Ø¶ Ø©
ĠØ°ÙĥØ± Ùī
ÙĦ Øµ
Øª ÙħÙĦ
ĠØ¹Ø§ÙĦÙħ ÙĬØ©
Ø§Ø¦ ÙĬØ§Øª
ĠØªØŃ ÙĤÙĤ
82 8
ĠØ´ ÙĪ
ĠÙħØ±ØŃØ¨ Ø§
ĠØ§ÙĦØ³ Ùĥ
Ø±Ùģ ÙĬÙĩ
ĠØ§ÙĦÙħ Ø¹Ø±ÙģØ©
ĠØ§ÙĦØ§Ø³ Ø¨Ø§Ø¨
ĠØ§ÙĦÙħØ·ÙĦ ÙĪØ¨Ø©
ĠØ§Ø¨ ÙĨØ§Ø¡
ĠÙĨÙĤ Ø§Ø·
Øº Ø±Ø©
6 5
ĠØ´ ÙĬØ±
ĠØŃØ² Ø§Ùħ
ĠØ§ÙĦØª ÙħÙĪ
Ġ12 71
ĠØ§Ø« Ø§Ø±
ĠØ§ÙĦÙħÙĪ Ø§Ø±Ø¯
ĠØªÙĤ Ø§Ø±ÙĬØ±
ĠÙħ Ø§ÙĦÙĬØ©
Ø² Ø¹
ĠØ§ÙĦÙģ ÙĬØ±
ĠØ§ÙĦÙģ ÙĦØ¨ÙĬÙĨ
ĠØ· Ø¨ÙĤ
ĠÙĦØ§ÙĨ ÙĩØ§
ĠØ§Ø³Øª Ø¹ÙħØ§ÙĦ
ĠØ§ÙĦØª Ø±Ø¨
ĠØª ÙĪÙĦ
ĠØ§ÙĦØ¬ ÙħØ§ÙĦ
ĠØ§ÙĦÙĤ ÙĪØ©
ĠÙĦÙĦ Ø§ÙĨØ¯Ø±ÙĪÙĬØ¯
ĠØ§ÙĦØ§ØŃ ØªØ±
Ġ59 37
ĠÙħ Ø¯Ø©
ĠØ¯Ùħ Ø´ÙĤ
Ġ8 8
ĠØ§ÙĦÙħØ¯ ÙĨÙĬ
ĠØ§ÙĦØ¹ Ø¶ÙĪ
Ø¹ ÙĨ
ĠØª ÙĥÙĨ
Ø¶ ÙĬÙģ
ĠÙĪØ§ÙĨ Ø§
ĠØ§ÙĦØ³ Ø§Ø¨Ø¹
ÙĦ ÙĬÙĨ
ĠØ· ÙĪÙĦ
ĠØ³ Ø§ÙĦÙħ
ĠØ® Ø³
ĠØ§ Ø²ÙĬØ§Ø¡
ĠØŃ ÙħØ§Ùħ
Ø¹Ø¯ ÙĬÙĦ
Ø¦ ÙĪÙĨ
ĠØ§Ø¯ Ø®ÙĦ
ĠØª ÙħÙĨ
ĠØ³ÙĬ Ø§Ø³ÙĬØ©
ÙĪ ØªÙĬ
ÙĪØª ÙĬÙĨ
ĠØ§ÙĦØ· Ø¨ÙĬØ¨
1 9
ĠÙħÙĨ Ø²ÙĦÙĬØ©
ĠÙĬ ÙĪÙģØ±
ĠØ¨ ÙĪØµ
ĠØµ Ø§Ø±
ĠØµ Ø®Ø±Ø©
Ùģ ÙĬÙģØ©
ĠØ§ÙĦÙģ ÙĪÙĦ
ĠØ§ÙĦØ´Ø± Ø¹ÙĬØ©
Ø§Ø¦ Ø±Ø§Øª
ĠØ§Ùħ Ø§ÙĥÙĨ
ĠÙĨ Ø¹
ĠØªØ¯ ÙĪÙĬØ±
Ùģ Ø§
ĠØ§Ø± ÙĩØ§Ø¨
ĠØ§Ø±Ø¨ Ø¹Ø©
ÙĪ Ø§ÙĨÙĬ
ĠØ¨ ÙĪØ¯
ĠØª Ø®ØµØµ
ĠÙĬ Ø¹ÙĪØ¯
ĠØ§ÙĦÙĨ Ø²
ĠØ§Ùĥ Ø¯
ĠÙĥ ÙĪÙģÙĬØ¯
ĠØ§ÙĦØª Ø±Ø¬ÙħØ©
ĠØ§ÙĦØŃ Ø§ÙĦØ§Øª
ØªØ¬ Ø§Ø±Ø©
Ø±Ø§Ø¦ Ùħ
ĠØ§ÙĦØ§Ùħ ÙĬÙĨ
ĠØ§ÙĦÙħØ¯ ÙĬØ±
ĠØ¨ Ø¯Ø§Øª
Ø±Ø¨ ÙĪÙĦ
ĠØ§ÙĦØ³ÙĬ Ø§Ø³Ø©
ĠØ§Ø³Ùħ Ø§Ø¹ÙĬÙĦ
ĠØ¨Ø³ ÙĩÙĪÙĦØ©
ĠÙĤ ÙĬÙħ
ĠØ´ Ø§ÙĦ
Ø±ÙĬÙĤ ÙĬØ©
Øª ÙĤÙĬ
Ø®ÙĬ ØµØ©
ĠØ¯ ÙĥØªÙĪØ±
ĠØ§ÙĦÙĥ ÙĦÙħØ§Øª
ĠØª ÙĬÙĦ
ĠØ§ÙĦØª ÙģØ³ÙĬØ±
ĠØ§Ø³Ø¨ Ø§ÙĨÙĬØ§
ĠÙħØ³Øª ÙĤØ¨ÙĦ
ĠÙĦØ§Ø¹ Ø¨
ĠØ¨ ØªØµ
ĠØ§ÙĪ Øª
ĠØ§ÙĦÙĤØ¯ ÙĬÙħ
ĠÙĨØ¬ ÙĪÙħ
ĠØ§ÙĦØ§ØŃØ¯ Ø§Ø«
Ø±ÙĪ ØŃØ§Øª
Øº ÙĨ
ĠØ§ÙĦÙģ ÙĤÙĩ
ĠØ§ÙĦØ§ÙĪØ± ÙĪØ¨ÙĬØ©
ĠÙĬØ¨ Ø¯Ø§
ĠØª ÙĪØ³
ĠÙĦÙħ ÙĪ
ĠØ§ÙĦÙħÙĪ Øª
ĠØ¨ Ø§Ø¬
Ø¨Ø± Ø§
ĠÙĪØ¨ Ø§ÙĦØªØ§ÙĦÙĬ
ĠØ¹ Ø§Ø¯Ø©
Ø·Ø± ØŃ
ĠØ§ØµØ¨ØŃ Øª
ØŃØ¶ Ø±Ø§Øª
ÙĤÙĬÙĤ ÙĬØ©
ĠÙĪØ§ÙĦ Ø¹ÙħÙĦ
1 4
ĠØªÙħ Ø§Ùħ
ĠÙħÙĤ Ø§Ø·Ø¹
ĠØ§Ø³Ø· ÙĨØ¨ÙĪÙĦ
ĠÙĦØº Ø±Ø¶
ĠÙĩ ÙĬÙĦ
ĠÙħØª Ø§Ø¨Ø¹
ĠØ§ÙĦÙħØ´Ø§Ø± ÙĬØ¹
ÙĤ Ø§ÙģØ©
ĠØ§ÙĦÙħ ÙħØª
Ø¹ Ø§Ø¡
ĠØ§ÙĦØ¯ ÙĬÙĥ
ĠØ§ÙĦÙħÙĨ ØªØ®Ø¨
ĠÙĥØ«ÙĬØ± Ø§
Ø¬ Ø§Ø¹
ĠØ³ Ø±Ø¹Ø©
ĠØ§ÙĦØ³ Ø±
ĠÙĪ Ø¨Ø¯
Ġ19 9
ĠØ§ÙĦÙħÙħ ÙĬØ²Ø©
Øº ÙĪ
ÙħÙĦ Ø§Øª
ĠØ§ Ø¸
ĠØ§ÙĦÙħÙĨ Ø§Ø³Ø¨Ø©
ĠÙħØ¬ ØªÙħØ¹
Ø§Ø² Ø§ÙĦØ©
ĠØ§ÙĦÙħÙĨ Ø§Ø²ÙĦ
ĠØŃ Ø°Ùģ
ĠÙħØ¯ ÙĪÙĨØ©
ĠØ§ÙĦØ¹ ØµØ±
ĠÙĩ Ø§Ø´
ĠØ§ÙĦØ§ÙĨ Ùģ
ĠØ§ÙĦØŃ ÙģØ§Ø¸
ĠØªØŃ ØµÙĦ
ĠØ§ÙĦØ§Ø¯ ÙĪÙĬØ©
ĠÙĦÙĦ Ø§Ø¬
ĠÙħØ± ÙĪØ±
ĠØ§ÙĨ Ø¸ÙħØ©
ØªØ¨ Ø·
ĠØ§ÙĦÙħØ® Ø±ÙĪØ·
ĠØ§ÙĦÙħÙĤ Ø¯ÙħØ©
ØŃ Ø§ÙĨ
ĠÙħÙħØ§Ø± Ø³Ø©
ĠØ§ÙĦØ¹ ÙĩØ¯
ĠØ¨ Ø§ÙĤ
Øº Ø§Ùħ
ĠÙĥØ« ÙĬØ±Ø©
ĠÙĥ Ø±ÙĪ
ĠØ§ÙĦÙĤ ÙĩÙĪØ©
ĠÙĤØ§Ùħ Øª
ĠÙħØ¨ Ø¯Ø§
Ø² Ø§Ø¨
Ø§Ø³Øª ÙĬÙĥ
ĠØ¨Ø¹ ÙĬØ¯
ĠÙĩ Ø¬ÙĪÙħ
ĠÙħØŃ Ø§Ø¶
Ø±Ùģ ÙĬØ©
ØŃ Øª
Ġ8 00
ĠØ§Ø³ØªØ®Ø¯Ø§Ùħ ÙĩØ§
ĠÙģØ§ÙĨ Ùĩ
ĠØ§ÙĦÙĩ ÙĪØ§ØªÙģ
Ø¬ Ø§
ØºØ· ÙĬØ©
ĠØ· ÙģÙĦ
ĠÙĪØ§ÙĦØ¹ Ø§ÙĦÙħ
Ġ80 51
ĠÙħ Ø±ÙĪ
ĠÙĥ ÙĬÙĨÙĬØ§
ĠØ§ÙĦØ¹ ÙħÙĬÙĦ
ØªÙĬ Ø´
ĠØ³ Ø±ÙĬ
Ø§Ø¦ ÙĬØ§
Ø¬ÙĦÙĬ Ø²ÙĬØ©
ÙĪÙĦ ÙĬÙĨ
ĠØ§Ùģ ØºØ§ÙĨØ³ØªØ§ÙĨ
ĠÙĪÙĬ ØªÙħ
ĠØ¨ Ø³ÙĬØ·Ø©
ĠØ§Øº ÙĨÙĬØ©
Ġ477 828
ĠØ§ÙĦÙĥ Ø´Ùģ
ĠØ§ÙĦØ® ÙĬØ±
ĠØ´ ÙĬØ®
ÙĤØ¯ ÙĬØ±
ĠÙģ ÙħÙĨ
ÙĬÙħÙĬ Ø§Ø¦ÙĬØ©
Ùĥ ÙĬÙĦØ©
Ùĩ Ø§ÙĨ
ÙĬØ³ Ø§ÙĨ
ĠØ§ÙĦØ¹ÙĦ Ø§ÙĤØ©
ĠØ§ÙĦÙħØªÙĪ Ø³Ø·Ø©
ĠÙĪ Ø§ÙĤØ¹
ĠØ¹ÙĦ Ø§ÙħØ§Øª
ÙĬÙĥ Ø§ÙĨ
ĠØ§ÙĦØªØŃ ÙħÙĬÙĦ
ĠÙĤØµ ÙĬØ±Ø©
ĠÙĥØ§ÙĨ ÙĪØ§
ĠÙĦØ¯ÙĬ ÙĩØ§
ĠØ§ÙĦØŃ ÙħØ§ÙĬØ©
ĠØ§ÙĦØ§Øµ ÙĦÙĬØ©
ĠØ§Ùħ ÙĪØ§ÙĦ
ĠÙĥ ÙģØ±
ĠÙĦ Ø¹Ø¨
ĠØ³ÙĤ ÙĪØ·
Ø§Øµ Ø±Ø©
ÙĥØª Ø§Ø¨
ĠØ¹ÙĦ ÙĬÙĨØ§
ĠÙħÙĦ ØªÙĤÙī
ĠÙħÙĪØ¯ ÙĬÙĦ
Ø¦ Ø§
ĠØ§ÙĦØ± Ø§ÙĬ
ĠØª ÙĥØ±
ĠØ¨Ø§ÙĦ Øº
ĠØ§ÙĦÙħÙĨ Ø§Ø³Ø¨
ĠØ§ÙĦÙĤ ÙĦ
ĠØªØŃ ÙĥÙħ
ĠÙĪØ§ÙĦÙħ ÙĪÙĤØ¹
ĠØ§ÙĦÙĤÙĨ ÙĪØ§Øª
ĠÙģØ± Ø¹
ĠØ§Ø¨ÙĬ Ø¶
ĠØ¨Ø§ÙĦ ØªØ¹
ĠÙħØ³Øª Ø®Ø¯Ùħ
ĠØ§ÙĦÙĤØ± Ø§Ø±
ÙĪØ¯ Ø§ÙĨ
ĠÙĬØŃ ØµÙĦ
ĠØ¬Ø¯ ÙĪÙĦ
ĠØ³ ÙĬÙĦ
ĠÙĪØ§ÙĦÙĨ Ø´Ø±
ĠØ±Ø¨ ÙħØ§
Û ķ
Ø§Ø¯ ÙħÙĬØ©
ĠØ§ÙĦØ§ÙĨØ¬ÙĦÙĬ Ø²ÙĬ
ĠØ§ÙĦØª Ø®ÙĦØµ
ĠØ§ÙĦØ´ Ø§Ø±ÙĤØ©
ĠÙħØŃ Ø·Ø§Øª
ÙĪ ØºØ§ÙĨ
ĠÙħ ÙĥØ©
Ù «
ĠØ§ÙĦØµ ÙĬØ§ÙĨØ©
ĠØ§ ÙĬÙģÙĪÙĨ
ĠØ®ÙĦØ§ÙĦ ÙĩØ§
ØªØ¬ Ø§ÙĪØ²
ĠØ± ÙĥÙĨ
Ø³ÙĦ ÙĬÙħ
ĠØ¯Ø± Ø§Ø³Ø§Øª
ĠØ®Ø² Ø§ÙĨØ§Øª
ĠØ§ÙĦÙħÙĤ Ø§ÙĦØ§Øª
ĠØ§ÙĦØª Ùĩ
ĠØŃ Ø´Ø±Ø§Øª
ĠÙĦØ¹ÙĦ Ø§Ø¬
ĠØªØ´ ÙħÙĦ
ĠÙĪØ§ÙĦÙħ ÙĤ
Ø³ÙĬ ÙĬØ±
ĠÙĥ ÙĬØ±
ØµÙģ ØŃ
ÙĬÙģ Ø§Øª
ĠØ§Ø³Øª Ø§Ø°
Ø³ÙĦØ³ÙĦ Ø§Øª
ĠØ§Ø«Ø± Ø§Ø¡
ÙĪ Ø§ØŃ
ĠØ¨ Ø§ÙĬØ¯
ĠØ§ÙĬ Ø§Ø±
ĠÙĦ ÙĬÙĦØ©
ĠØªØŃ Ø¶ÙĬØ±
ĠØ® Ø·Ø±
ĠÙĪØª Ø³
ĠØ³ ØŃØ¨
ĠØ§ÙĦØ§Ø¹ÙĦØ§Ùħ ÙĬØ©
ĠØ§ÙĦØª Ø®ØµØµ
ĠØ§ÙĦÙĨ ÙĬÙĦ
ĠØ§ÙĦÙħ Ø§Ø³
ĠØ§ÙĦØ® ÙĬÙħØ©
ĠØ§ÙĦØ¹ÙĦÙħ Ø§Ø¡
Ùĥ Ø§ÙģØŃØ©
ĠØ§ÙĦØ· ÙĪØ¨
ĠØ®ÙĦÙģ ÙĬØ§Øª
ĠØ¬Ùħ ÙĬÙĦ
ĠØ¨Ø±ÙĬ Ø¯ÙĬ
ĠØ¯ Ø§Ø¦Ø±Ø©
Ø§Ø¬ ÙĬ
ĠØ§ ØªØ¬
ĠÙĦ Ø§Ùģ
ĠØ§ÙĦÙĨ ØµØ±
ÙĤÙĦ Ø§Ø¨
ĠØºØ³ Ø§ÙĦØ©
Ø° ÙĦ
ĠØ§ÙĦÙĪØ² ÙĬØ±
ĠØ§ÙĦØ® ÙĦÙģ
ĠØ¨Ø³ Ø¹Ø±
ĠØ§ÙĦØŃ ÙĤÙĬÙĤØ©
ĠØ§ÙĦÙħ Ø¨ÙĬØ¹Ø§Øª
ĠØº Ø°
ØªØ² Ùħ
ĠÙħÙĨ Ø§Ø³Ø¨Ø©
ĠÙĪØª Ø®
7 9
ĠÙģ ÙĥØ±Ø©
Ø· Ø§
ĠÙħØ± Ø§ÙĤØ¨Ø©
ĠØ§ÙĦØªØ¯ Ø±ÙĬØ¨
ĠÙĥÙĬÙĦ ÙĪ
ĠØ§ÙĦÙĩ ÙĦØ§ÙĦ
ĠÙĪØ§ØŃ Ø©
Ø¬ Ø§Øª
ĠØ¬ ÙĪØ±Ø¬
ĠØ§ÙĦØ¹Ø¯ ÙĦ
ĠØ§Ø¯ Ø§Ø©
ĠØ§Ø¯ ÙĨØ§Ùĩ
ĠÙĬÙĥ ØªØ¨
Ø³Ø§Øª ÙĬÙĨ
ĠØŃ Ø§Ø±
ĠØ§ØŃ ØªØ¬
ĠØ§ÙĦÙħØ« Ø§ÙĦ
ĠØ§ÙĦØ¹ Ø¨Ø¯
ĠØ³ Ø§Øª
Ø§Ùģ ÙĬØ§
ĠØ± Ùģ
ĠØ§ÙĦØ¬ ÙĪØ§ÙĦ
ĠØ¬ Ø¹
ØªØµ Ø§Øµ
ĠØµ Ø±Ùģ
ĠØ§ÙĦÙħÙĪ Ø§Ø·ÙĨ
ĠØ§ÙĦÙħÙģ Ø¶ÙĦØ©
Ø§ÙģØ¸ Ø§Øª
ÙĬÙĥ ÙĪ
ĠÙĪØª Ø¬
ØªÙĤ Ø¯Ùħ
ĠØ§ÙĦØ® Ø²
ØªØµ Ø§Ø±
ĠÙĤ Ø±ÙĬØ©
Ø§Ø« Ø©
ĠØ§ÙĦØº Ø±ÙģØ©
ĠØª ÙĪÙĤÙģ
ĠØ± Ø§Ùħ
ÙĨØª ÙĬÙĨ
ĠØ§ÙĦØ¯ÙĬÙĨ ÙĬØ©
Ø±ÙĪ Ø¡
ĠØ§ÙĦ Ø§Ø¦
Ø§ÙĤ Ø¨
ØŃ ÙĬØ¯
ĠØ§ÙĦØ² Ø¬Ø§Ø¬
Ùħ Ø±Ø©
ĠØ§ÙĦØ´Ø¨ ÙĥØ©
ĠÙĤ ÙĪÙĬØ©
ĠÙħØ¹ ÙĩØ§
ĠØ§ÙĦØ§Øµ Ø·ÙĨØ§Ø¹
ĠØ§ÙĦÙĨØ´ Ø§Ø·
ĠÙĦÙĦ Ø§Ø´
ĠØ¶ ÙħØ§ÙĨ
ÙĪÙħ ÙĨÙĬ
ĠØªØµ Ø¯Ø±
ĠÙħØ± Ø§Øª
ĠØ§ÙĦØ¯ÙĬÙħÙĤØ±Ø§Ø· ÙĬØ©
ĠÙĩ ÙĪÙĦ
ĠØº Ø¯Ø§
ĠÙĦØ¯ÙĬ Ùĩ
Ø§ÙħÙĦ Ø§Øª
Ùĩ ÙĬØ±
ĠØ§ÙĦØ³ÙĪØ¯ Ø§Ø¡
Ø¤ ÙĬØ©
Ø§Øµ ÙĦØ©
ĠØ§ÙĦÙĩÙĨØ¯ Ø³Ø©
ĠØ§ Ø¯Ø±
ÙĤ ÙĦØ©
ĠØ¬ Ø§Ø¦Ø²Ø©
ĠØ§ÙĦØ¨ Ø¯Ø§ÙĬØ©
ĠÙĥ ÙģØ§Ø¡Ø©
ĠÙĪØ§ÙĦ Ø®Ø¯ÙħØ§Øª
ÙĬÙħ ÙĬØ§Ø¡
ĠÙĬØ¯ Ø¹ÙĪ
ĠÙħØµÙĨØ¹ ÙĬÙĨ
ĠØ´Ø¨ Ùĩ
ĠØ¯ÙĬÙĨ Ø§Ø±
ĠÙĦÙĬÙģ Ø±Ø¨ÙĪÙĦ
ĠÙħØ¹ ÙĩØ¯
ĠØªÙħ Ø§ÙħØ§
ĠÙĦØ³ ÙĨØ©
ØªØ² Ø§Ùħ
ĠØ§ÙĨ ØªØ®Ø§Ø¨Ø§Øª
ĠØªØ³ÙĪÙĤ ÙĪØ§
ĠØ§ÙĦØ§ ÙĬØ¬
ĠØ§ÙĦØ§ØŃ ØªÙģ
ÙģØ§Øª ÙĬØŃ
ĠØ§ÙĦØ¬Ø§Ùħ Ø¹ÙĬ
ĠÙĦØ§Ø³ØªØ®Ø¯Ø§Ùħ ÙĩØ§
ĠØ° ÙĪ
ĠØ§ÙĦØª ØŃÙĤÙĤ
Ùģ ÙĬØ§Øª
ÙĬØ§ÙĨ Ø§
Ø· ÙĬØ¨
ØŃ ÙĬÙĨ
ĠØ§ÙĦØ³ÙĪ ÙĬØ³
Ùģ Ø°
ĠØ§ÙĦÙĥ Ø§Ø´
ĠØ¨ÙĨ Ø´Ø±
ĠØ³Ø¨ ÙĪØ±Øª
ĠØ§ÙĦØ¬ ÙĬÙĦ
ĠØ¨ Ø®ØµÙĪØµ
1 6
ĠØ§ÙĦØŃ ÙĤÙĬ
ĠØ§ÙĦØ´Ø¹Ø¨ ÙĬØ©
ĠØ¨ ÙħØ¯ÙĬÙĨØ©
ĠØ§ÙĦØ§Ø² ÙħØ©
ÙĪØ± ÙĬÙĨ
ĠØ¯ Ø±Ø¬Ø§Øª
ÙĬÙĪ ÙĬØ©
ĠØ¨Ùħ Ø³
ĠØ§ÙĦÙģ ÙĬØ²
ĠØ§ÙĬ Ø¬
ØªØ² Ø§Ø²
ĠØ§ÙĦÙĤ Ø§Ø¯ÙħØ©
ÙĪØ± Ùĩ
ĠØ¨ Ø§Ø´
ĠÙħÙĨ Ø§Ùģ
ĠØ® ÙħØ³
Ø¸ ÙĦ
ĠØ´Ø± Ø·Ø©
ĠØ³ Ø·ØŃ
ĠØ§ÙĦÙĨØª Ø±ÙĬÙĦ
ĠØ¨ Ø§
ĠØ¨ Ø§Ø·
ĠØ´ Ø§ÙĨ
ĠØ§ÙĦØº ÙĬØ±
ĠÙħØ¨Ø§Ø± Ùĥ
ÙĬÙĪ Ùģ
ĠØ§ÙĦØ¨ØŃ Ø±ÙĬØ©
ĠØ§Ø³ØªÙħØ± Ø§Ø±
ĠÙģÙĬ Øª
ĠØµÙĦ Ø§Ø©
ĠØ¬ Ø³Ùħ
ĠÙĬ ØªØ±
ĠØ§Ø³ØªØ±Ø§Øª ÙĬØ¬ÙĬØ©
Ø¹Ø§ÙĦ Ø¬Ø©
Ø° ÙĬØ¨
ĠØ«ÙĤ Ø§ÙģØ©
ĠÙĬØ³Øª Ø·ÙĬØ¹
ĠØ§ÙĦØ§ÙĤ ØµÙī
ĠØ§ÙĦÙħØ§ÙĦ ÙĥÙĬ
4 8
1 8
ØªÙħ Ø¯Ø©
ÙĤ Ø¨
Ø¯ÙĤ Ø§Ø¡
ĠØ³ ÙĬÙģ
ØŃ Ø§ÙĬØ§
ĠØ¯ Ùģ
ĠØ¨Ùħ Ø¹
ĠØ§ÙĦÙĨØ³ Ø®Ø©
ĠÙĦÙĬÙĨ ÙĥØ¯
ĠØ§ Ø¯Ùħ
ÙĬØ¯Ø±ÙĪÙĦ ÙĬÙĥÙĬØ©
ÙĤ ÙĪÙĦ
ĠØ®Ø· ÙĪØ©
Ø´ ÙĬØ±
ĠØ¹Ø¨Ø¯Ø§ÙĦ Ø¹Ø²ÙĬØ²
ĠÙħ Ø±Ùģ
ĠÙĪØ¹ Ø¯Ùħ
ĠØ§ÙĦÙħ ÙĥØ³
Ø§Ø¨ Ø·Ø©
ĠØ§ÙĦØ· Ø§ÙĦØ¨
ĠØ§ÙĦÙĬØ§Ø¨ Ø§ÙĨ
ÙĪÙħÙĨÙĬ ÙĪÙħ
ĠÙĨ Ø§Ø³
ĠÙĬØŃ ÙĬ
ĠÙĦØªØŃ ÙĤÙĬÙĤ
ĠØ§ÙĦÙħØ´ ØªØ±ÙĥØ©
ĠÙħØŃ Ø±Ùĥ
ĠØ§ÙĦØº ÙĬØ§Ø±
ĠØ§ÙĦÙĪØ² Ø§Ø±Ø©
ĠØ§ÙĦØªØµÙĨ ÙĬØ¹
ĠÙħ Ø«ÙĬØ±
ÙĤÙĬ Ø¨
ĠÙĨÙģØ³ ÙĩØ§
Ùħ Ø¬
ĠØ· Ø¨Ø¹
ĠÙħØ¹ Ø§
ĠÙħØ± Ø³
ĠØ§ÙĦÙĥ Ø§Ùħ
ĠÙĤ ÙĪÙĦ
ĠØ§ÙĦÙĨ Ø§Ø¦Ø¨
ĠØªÙģ Ø§Ø³ÙĬØ±
ĠØª ØªØ¨Ø¹
ĠØ° Ùĥ
ĠØªØµ ÙĪÙĬØ±
ĠÙħØŃ ÙĥÙħØ©
ĠÙĪÙĦ ÙĨ
ĠÙĬ Ø¨Ø¯ÙĪ
Ø§Ø¯ ÙĪ
ĠÙĪ Ø¶
ÙĦØ§ÙĦ Ø§Øª
ĠÙħ ÙĬØ±
ĠÙħØ³Ø¤ÙĪÙĦ ÙĬØ©
ĠØ¶ ÙĪØ¡
ĠØ§ÙĦÙħÙĤ Ø§ÙĪÙħØ©
ĠÙĤ Ø±Ø¨
ĠØ§ÙĦØ§Ø´ ÙĬØ§Ø¡
ĠÙħØ¬Ùħ ÙĪØ¹
Ø· ØŃÙĨØ©
ĠÙĬ Ø¸ÙĩØ±
ĠÙĪ Ø¹ÙħÙĦ
ĠØ§ÙĦØŃ ÙħØ¯
ĠØ§ÙĦÙĥ Ø±Ø¨
ĠØ¨Ø§ÙĦ Ø§Ùħ
ĠØ§ÙĦØ§ÙĨ ØªÙĤ
Ø´Ø± ÙĤ
Ùĩ ÙĦÙĥ
Ø§ÙĦ Ø³ÙĬ
ØªÙĥ ÙĪÙĬÙĨ
ĠØ§ÙĦØµØŃ ÙģÙĬ
ĠÙĪØ§ ÙĬØª
ĠÙĪØ§ÙĦ ÙħÙĦ
ĠØ¨ ØŃÙĤ
ĠÙĪÙģ Ø¯
ĠØ¨Øµ ÙĪØ±Ø©
Øº Ø§Ø±
ĠÙĩ Ø¤ÙĦØ§Ø¡
ĠØ§ÙĦØ®Ø§Ùħ Ø³Ø©
ÛĮ Ø©
Ø³Øª ÙĩØ§
ĠØ° ÙĬ
ĠØ§ÙĦØ± Ø¹Ø§ÙĬØ©
ĠØ§ÙĦÙħØ¤ ÙĦÙģ
ĠØ§ÙĦÙħØ³ØªØ®Ø¯Ùħ ÙĬÙĨ
ĠØ§ÙĦØ± ÙĪÙħ
ĠØ§ÙĦØ° Ùĥ
ĠØª ÙĦÙħ
ÙĬØ± Ø§Ø¯
ĠØ§ÙĦØ¹ Ø§ÙĦÙĬØ©
ĠØ§ÙĦØªÙĨ Ø¸ÙĬÙħ
87 5
ĠØ§ÙĦÙĨØ¨ ÙĪÙĬ
ĠØ¯Ø± Ø³
Ø² ÙĪÙĨ
ĠØ§Ø³ ÙĪØ§ÙĤ
ĠØ§ÙĦÙħØ¯ ÙĨ
3 2
ĠÙĪØ§ÙĦ ÙĦÙĩ
ĠØ§ÙĦÙĨ Ø§Øª
Ø§Ø« Ø±
ĠØ§Ø¹ ØªÙħØ§Ø¯
ĠØ§ÙĦÙħ Ø¬Ùħ
ĠØ§ÙĦÙģ ÙĬÙĦÙħ
ĠÙĦØ¯ Ø¹Ùħ
ĠØ´ ÙĤØ©
ĠØ§ÙĦØ³ÙĪØ¯ Ø§ÙĨÙĬ
ĠØ·Ø¨ÙĬØ¹ ÙĬØ©
ĠÙģ Ùħ
ĠØ·Ø¨ÙĬØ¹ ÙĬ
ĠØ³ ÙĪÙī
Ø§Ùģ Ùĩ
ĠØŃ ÙĪØ§Ø±
ĠÙĦÙĦ Ø¹ÙĦ
ĠØ§ÙĦÙħØ³ÙĦ ØŃØ©
ĠØ§ÙĪØ± Ø§ÙĤ
ĠØ§ÙĦ ÙĬØ³
ĠØŃØ¯ ÙĪØ«
ÙĪÙĨ Øº
ĠØ§ÙĦØ§Ø¯ Ø§Ø¡
ĠØ§ÙĦØ³ ÙĥÙĨ
ĠØ§ÙĦØ³ÙĬ Ø§ØŃÙĬØ©
ĠÙħØ¨ Ø§Ø¯Ø±Ø©
ĠØ§ÙĦÙħ Ø§ÙĦÙĬ
ĠÙĪØ§ÙĬ Ø¶Ø§
ĠØ§ÙĦØ® Ø±Ø·ÙĪÙħ
Ø¨ ÙĪÙĦ
ĠØ§ÙĦØ§Ùħ Ø§ÙĥÙĨ
ĠÙħ ÙħÙĨ
ĠØ´ Ø§Ø´Ø§Øª
7 5
Ġ8 2
ĠØ¨ Ø§ÙĤÙĦ
ÙħÙĨ Ø©
ĠÙĪØ± ÙĤØ©
ĠØ¬Ø² ÙĬØ±Ø©
ĠØ§ÙĦØ§Ø³ Ø§Ø³ÙĬ
ÙĪØ¬ Ø¨
Ø§ÙĦ ÙĬØ¯
Ø§Ø± Ùħ
ĠØ¬ ÙĩÙĪØ¯
ĠØ§ÙĦÙĤ Ø§Ø¯Ùħ
ĠÙĨ ÙĨ
ØªÙĪ Ø¨
ÙĪØµ ÙĪÙĦ
ĠÙĬ ÙĤÙĦ
ĠØ§ÙĦØ¬ Ø§ÙĨØ¨
ĠØ¯Ø¹ ÙĪØ©
ĠØ§ÙĦØ§Ø¹ÙĦØ§Ùħ ÙĬ
ĠØ³ ÙĥØ§ÙĨ
ĠØ¨ØŃ Ø³Ø¨
Ø² ÙĬØ¹
ĠÙĥ ÙħÙĬØ©
ĠÙħÙĬÙĦ Ø§Ø¯
Ø§Ø· Ùģ
ÙĬ ÙĤÙĬ
ÙĤØ± Ø§Ø¡Ø©
Ġ23 4
ĠØ¨Ø§ÙĦÙģ Ø¹ÙĦ
Ø¬ Ø±ÙĬ
ĠØ§Ø¹ ØªÙĤØ§ÙĦ
ĠØ§ÙĦØªØ´ Ø±ÙĬØ¹
Ø§Øª ÙĦ
ĠÙĪØ§ÙĦÙħ Ø³Øª
ĠØ§Ø¨ÙĪ Ø§Ø¨
ĠØ§ÙĦØ«ÙĤ Ø§ÙģÙĬØ©
Ø±ÙĪØ¡ Ø©
ĠØ¯Ø± ÙĩÙħ
ĠÙĨ Ø¬Ùħ
ĠØ§ÙĦØ§ÙĤ Ø§ÙħØ©
ĠØ§ÙĦØ³ÙĦ Ø¹
ĠØ§ÙĦØ¬ÙĦ Ø¯
Ø§Ø¨ ÙĬÙĨ
ĠØ§ÙĦÙħØŃ Ø¯ÙĪØ¯Ø©
ĠØ¹ Ø«ÙħØ§ÙĨ
Ø´ ÙĪ
ÙĪØ¹ ÙĬØ©
ĠØ§ÙĬÙĦ ÙĪÙĦ
ĠØ± Ø®ÙĬØµØ©
ĠØ§ÙĦÙħÙĨ Ø§Ùħ
ØªÙĬ Ø§ÙĦ
ĠÙħ Ø±Ùĥ
Ø¹ÙĪØ¯ ÙĬØ©
ĠÙĤØ§ÙĦ Øª
ĠÙĤ ÙĬØ§Ø¯Ø©
ÙĬÙĪ Ø¨ÙĬØ§
ĠØª ØºÙĬØ±
ÙĪØ¬ ÙĪØ¯
ĠØ¬Ø±ÙĬ ÙħØ©
ĠÙĤÙĬ Ø§Ø³
ĠØªØµ ÙĦÙĬØŃ
ĠØ±ÙĬÙħÙĪÙĨ Ø¯
ĠØ§Ùģ Ø±
ĠØ§ÙĦØ±ÙĬØ§Ø¶ ÙĬ
Øº ÙĩØ§ÙĬ
ĠØ· ÙĬØ±Ø§ÙĨ
Øµ ÙĬØ¯
Ø§Ùģ Ø§
ĠØ§Ø´ ÙĥØ§ÙĦ
ĠØ«Ø§ÙĨ ÙĪÙĬ
Ø§Ø¨ ØªØ©
ĠÙĪØ§ÙĦÙħ Ø´
ĠØ§ÙĦÙģÙĬØ± ÙĪØ³
ÙĦ ÙĨØ¯Ø§
Ø§Ø· Ø¹Ø©
ĠØ§ÙĦÙħ ØªØ±
ĠØ§ÙĦØ¹ ÙĬØ¯
ĠØ§ÙĦØ· ÙĤØ³
ĠÙĪØ§ÙĦ Ø¬Ùħ
ĠØ§ÙĤ Ø§ÙħØ©
ĠÙĬØ¯ Ø®ÙĦ
ĠØ§ÙĦØ¹ ÙĬÙĪÙĨ
ÙĪ Ø®
ĠÙĨ ÙĤØ¯
ĠØ§ÙĦØ´ÙħØ³ ÙĬØ©
ĠØ§ÙĨØªÙĩ Ø§Ø¡
ĠÙĪÙĬÙĨ Ø¯ÙĪØ²
ĠÙħØµ ÙĨ
ÙĩØ± Ø§ÙĨ
ĠÙħÙĦ Ø®Øµ
ĠØ§ÙĦØ§Ø¯ Ø§Ø¨
ĠÙĦØ· ØŃÙĨ
ĠØ§ÙĦÙħØ´ ØªØ±Ùĥ
ĠØªØ¹ Ø§ÙĪÙĨ
ĠØªÙĬÙĦ ÙĤØ±Ø§Ùħ
ÙĨØ¯ ÙĬØ©
ĠØŃØ³ Ø§Ø¨Ø§Øª
ĠÙħÙģ ÙĩÙĪÙħ
ĠÙĦÙĬØ³ Ø§ÙĨØ³
ĠÙħÙĨ Ø§
ĠÙħÙħ ÙĬØ²Ø§Øª
ÙĦÙĬ Øº
ĠÙĪØª Ùģ
ĠØªØ¹ Ø¨Ø±
ĠÙĪÙĥ ÙĬÙĦ
ĠÙĤ ÙĪÙĦÙĩ
ÙĬÙħ ÙĬÙĦ
ĠÙħÙĪ Øª
ĠÙĩ ÙĪØ§ØªÙģ
ĠÙĦÙħ Ø¹Ø±ÙģØ©
ĠÙĪØª Ø·ÙĪÙĬØ±
ĠØ§ÙĦØ´ Ø§Ø±Ø¹
ĠÙĦÙĦÙħ ÙĤ
ĠØ¨Ø¹ ÙĨÙĪØ§ÙĨ
ĠÙħØ¤ Ø´Ø±
ĠÙĦÙĪ Ø§Ø²Ùħ
ĠØ³Ø¹ÙĪØ¯ ÙĬ
ĠØ«ÙĦ Ø§Ø¬Ø§Øª
ĠØ§ÙĦØ± Ø¨ÙĬØ¹
ĠØ§ÙĦÙĤÙĬ Ø§Ø³
Ø¨ ØºÙĬ
Ø§Øª Ùħ
Ø§Ø¯ Ø±Ø§Øª
ĠÙĦ Ø²ÙĬ
ĠÙĦØ§ÙĨ ØªØ§Ø¬
Ø¶ÙĦ Ø§Øª
ĠØ§ÙĦØ§ÙĬØ± Ø§ÙĨÙĬØ©
ĠØ§ÙĦØ¹ÙħÙĦ ÙĬØ§Øª
ĠØ§ÙĨÙģ Ø¬Ø§Ø±
Ø§ÙĦ ÙĬØ¨
ĠÙĬ Ø·ÙĦÙĤ
ĠÙĬÙĤ Ø¹
Ġ11 0
ĠØ¹ÙĤ ÙĪØ¯
Ġ68 875
ĠØ¹ Ø§Ø¦
ĠÙħØ¬ Ø¯
ØªÙĥ Ø§Ø±
ĠØ§ÙĦÙħÙĩ ÙĨØ¯Ø³
Ø¯ Ø§Ø¡
ĠØ¹ Ø§Ø¯ÙĦ
ØªØ¯ Ø±ÙĬØ¨
ĠØ§ÙĦÙħØ± Ø§Ùĩ
ĠØ§ÙĦØŃ ÙħØ±Ø§Ø¡
ÙĨØ¯ Ø§Øª
ĠÙĩ ÙĬØ±
ÙĦÙħ Ø§ÙĨÙĬØ©
ÙĤØ· Ø¹
Ġ19 5
ĠØ§ÙĪÙĦ Ùī
ĠØ§ÙĦØ§Ùĥ Ø¨Ø±
ĠØ§ÙĦØ§ÙĨØ¯ Ø±ÙĪÙĬØ¯
ĠØ§ÙĦØ§ÙĪÙĦ ÙĬØ©
ÙĬÙĪØ± Ùĥ
ĠØ¯ ÙĬØ±
ĠØ§ÙĦØ¯ ÙĨÙĬØ§
ĠØ¨Ø¬ Ø§ÙħØ¹Ø©
Ø¶ Ø§Ø¹
ĠÙħÙĪØ³ Ùī
ĠØ§Ø³Øª Ùĥ
ĠØ§ÙĦÙħØª ÙĨ
ĠØ³Ø¨ ÙĤ
ĠÙĬÙĪÙħ Ø§
ĠØ§ ØªØ¨
ĠÙĪØ§ÙĦ Ø§ÙĦ
Ø§Ùĩ ÙĬÙĦ
Ù ¬
ĠÙĤÙĨ ÙĪØ§Øª
ĠÙĦÙĬ ÙĪÙħ
3 9
ĠÙĥ Ø§Ø¨
ĠØ³ ÙĬØªÙĬ
Ø® ÙħØ©
Ø§ÙĤ Ùģ
ĠØ¬ Ø§ÙĨ
ĠØ§Ø± Ø®Øµ
ĠØªÙĤ Ø¹
ØŃ Ùĩ
ĠØ¨ Ø§Ø¯
ĠØ§ÙĦÙĥ ÙģØ§Ø¡Ø©
ĠÙĥ ÙĪØ±ÙĬØ§
ĠØ¨Ùĥ ÙĪØ±ÙĪÙĨØ§
ĠØªØ¹ÙĦ ÙĬÙĤÙĬ
ĠØ·ÙĦ Ø§Ø¨
ĠÙģ Ø§Ø³
ĠØ§ÙĦÙĤ Ø±ÙĬØ¨Ø©
ĠÙħÙĩ Ø§Ø±Ø§Øª
ĠØª ÙħØ±
ĠØ® ÙħØ³Ø©
4 4
ĠÙħ ÙĪØ±
ĠØ§ÙĦØ¯ ÙĤÙĬÙĤØ©
ĠØ§ÙĦØ¨ ÙĪØ±
ĠØ§Ùĥ Ø§Ø¯ÙĬÙħÙĬØ©
ĠØ§ÙĦØ« ÙĦ
ĠØ§ÙĦÙģ Ø·Ø±
ĠØ® ÙĦÙĤ
ĠØªØµ Ø§Ø¯ÙħÙĬØ©
ĠØ¨ÙĬÙĨ ÙĩÙħ
ĠØ¨ ÙĤÙĬ
ĠØ§Ø³Øª Ø¹Ø§Ø¯Ø©
ĠØ§ÙĦÙħÙĤØ¯ Ø³
Øª Ø±ÙĬØ§Øª
ĠØªÙħ ÙĥÙĨ
ĠØªÙĪ Ø§ÙģÙĤ
ĠÙĦÙĦ ØªØ®
ĠÙĤØ§ÙĨÙĪÙĨ ÙĬØ©
ĠØ§Ø³ Ø±Ø¹
ĠÙĪÙĦ Ùĩ
ÙĪÙĬ Ø¶
ĠØ§ÙĦØ§Ùģ Ø±ÙĬÙĤÙĬ
ĠÙĪØ± Ø´Ø©
ĠÙĪ ÙĬØ´
ĠÙģ ÙħØ§
ĠØªÙĩÙĨ Ø¦Ø©
ĠØ¨ ÙĬØ¯
ØªØ± ÙĪÙĦ
ĠØ¨Ø§ÙĦØ¬ ÙħÙĦØ©
ĠØ¹ ÙħØ§ÙĦ
Ġ13 0
ĠØ§ÙĦÙħ Ø±Ùģ
ĠØªØº Ø°ÙĬØ©
ĠØ³ ÙĦÙħ
Ø±ÙĬ Ø¯Ø©
ĠØ§ÙĤ Ø¯Ùħ
ĠØŃ Ø§Øµ
ĠÙħÙħ ÙĬØ²
ĠØ§ÙĦÙĪØ§ØŃ Ø¯
ĠÙħÙģ Ø§Ø¬
ĠØ§ÙĦØ² Ø¨
ĠØ§ÙĦÙĨÙģØ³ ÙĬØ©
Ø¹ ÙĤ
ĠØ§ÙĦÙħØ´ Ø§ÙĥÙĦ
ĠØ§ÙĦØŃ Ø±ÙĬØ©
ĠØ§ÙĦÙħØ¨Ø§Ø± Ùĥ
6 6
ĠØ§ÙĦÙħØ¨Ø§Ø± Ø§Ø©
ØŃ ÙĦ
ĠØ§ÙĦÙĥ ÙĦÙĬØ©
ĠÙħØ§Ø± ÙĥØª
ĠÙĨ Ø§ÙĤÙĦ
ĠØ§ÙĦÙĪ Ø«
ĠØªØ¬ Ø§Ø±
ĠØ³ Ø®
ĠÙĪØ³ ÙĪÙģ
ĠØ§ÙĦØ¨Ø±ÙĬØ· Ø§ÙĨÙĬØ©
Ø±ÙĬ Ø¨Ø§Øª
Ø±Ø§Ø¦ Ø¨
ĠØ§ÙĦØ§Ø³Øª Ø«Ùħ
ĠÙĨ Ø¸Ùħ
ĠÙģ ÛĮ
ĠØ§ÙĦÙĤ ÙĪÙĦ
ĠÙĪ Ø°
ĠØ§ÙĦØ§ÙĨ Øª
ĠØ§ÙĦØ° ÙĥØ±
ĠØ§Ø¬ ÙĨØ¨ÙĬ
ĠØ§ÙĦÙħØ¤ ÙħÙĨ
ĠÙħÙĪ Ø§Ø·ÙĨ
ØªØµ Ùģ
ĠØ§ ÙĬØ¯
ĠÙħØ¹ ÙĦÙħ
ĠØ§Ø¯ ÙĪÙĬØ©
ĠÙĥ Ø±Ø§Øª
ĠØ´ Ùħ
ĠØ§ÙĦÙĩ Ø¯Ùģ
ĠØ§ÙĦÙħØ´ Ø§ÙĩØ¯Ø§Øª
ÙĥØª Ø§Ø¨Ø©
ĠÙħØ· Ø¨Ø®
ĠÙĪØ§ÙĦÙħ Ø¤
ĠÙħÙĤ Ø±ÙĪØ¡Ø©
ĠØ§ÙĦØ¬ ÙĬØ²Ø©
ĠØ§ÙĦØ±Ø³ ÙĪÙħ
ĠØ¹ ÙĬØ§Ø¯Ø©
ÙĪØ§Ø± Ø¨
ĠØ§ Ø±ÙĬ
ĠÙħ Ø°ÙĥØ±Ø©
ĠÙħÙĦ Ø§ÙĬÙĬÙĨ
Ø² ÙĪØ¬
ĠÙĪØ§ÙĦ ØªØµ
ĠØ§ÙĦØ§Ø¹ Ø¯Ø§Ø¯
ĠØ¬ Ø¨ÙĦ
ĠÙĤ Ø¶Ø§ÙĬØ§
ĠØ§ÙĦØ§Ø³Ø¨ÙĪØ¹ ÙĬØ©
ĠØ§ÙĦØµ Ø¨Ø§ØŃ
ĠØ§Ø® Øª
ĠØ§ÙĦØ¹ Ø¸ÙĬÙħ
ĠØ§Ùĥ Ø³Ø¨
ÙĦØ§ ÙĬØ§
ĠØ§ÙĦÙĨÙĩ Ø¶Ø©
ĠÙħÙĨ Ø¬Ùħ
ĠÙħØµ Ø±ÙĬØ©
ĠÙĦØ§Ø¹ Ø§Ø¯Ø©
ĠØ§ÙĦØ± Ø¦
ĠÙĨ Ø®
ĠØ§ÙĦØŃ Ø§Ø¬Ø©
ĠØ§ÙĦØª ØºÙĬÙĬØ±
ĠØ· Ø§ÙĦ
ĠÙħ Ø²ÙĬØ¯
Ġ45 9
ĠÙģÙĬ ØµÙĦ
ĠØ³ÙĦ ÙĬÙħ
ĠØ§ÙĦÙħ Ø§Ø¦Ø©
ĠØ§ÙĦØ· ÙĬØ±Ø§ÙĨ
ĠØ° Ø§
ĠÙĪØ¬ Ø¯
ĠØª ÙĪØ±
ĠØ§ÙĦØµ Ø¯
ĠØ´ Ø§ÙħÙĦ
Ø§Ùĩ Ø¨
Ø¯ ÙĪÙĨ
ĠØŃ Ø§Ø¬Ø©
ØªÙģ ÙĦ
ĠÙĨÙģØ³ Ùĥ
ĠÙħØ´ ØªØ±Ùĥ
ĠÙĪØ§Ùĥ Ø«Ø±
ĠØ§ÙĦØª Ø¬ÙħÙĬÙĦ
ĠØ¬ Ø§Ùĥ
ĠÙħÙĨ Ø§Ø³Ø¨
ĠÙĤ ÙĨØ§Ø¹
ĠØ§ÙĦÙģ ÙĪ
ĠØ¨ØŃ Ø§Ø¬Ø©
ĠØ¯ÙĪÙĦ ÙĬØ©
ĠØ§ÙĦØ¨Ø±ÙĬØ¯ ÙĬØ©
ĠÙĪØª Ø¯
ĠÙĥÙĪØ¨ ÙĪÙĨ
ĠØªØµ Ø±ÙĬØŃ
ĠØ§Øº ÙĦØ§ÙĤ
ÙĪ Ø³Øª
ĠØŃ ÙģØ±
ĠØ§ÙĦÙĤ Ø§Ø±Ø¦
ĠØ§ÙĦØ® ÙĬØ§Ø±Ø§Øª
ĠØº Ø§ÙĦØ¨
ĠØ®Ø§Ø±Ø¬ ÙĬØ©
ĠØ§ÙĨ ÙħÙĬ
ĠØ® ÙĬØ§Ø±Ø§Øª
ĠØ¹ ØµØ±
ĠÙĦØŃ ÙħØ§ÙĬØ©
ĠØŃ Ø¶
ĠÙĪØµÙģ Ø§Øª
Ø±ÙĪ ÙģØ©
ĠØµ Ø±
ĠØ§Ø± Ø§Ø¶ÙĬ
ĠØ§ÙĦØ³Ø§Ø® ÙĨ
ÙĨ ÙĥØ±
Ø« Ø§ÙĦ
ĠØ¨Ø§ÙĦ Ø§ØŃ
ĠØ§ÙĦØ§ÙĨ ØªØ®
Ø¹ Ø§ÙĪÙĨ
ĠØ¬ ÙĬØ±
ĠÙĥØª ÙĦØ©
ĠØ¯ ÙĬØ¨
ĠØ§ÙĦØ± Ø§Ø¦Ø¯Ø©
ĠØ§ÙĦØ° Ùĩ
ĠØ§Ø±Ø¯ ÙĪØºØ§ÙĨ
ĠÙĦÙħ ÙĪØ§Ø¬ÙĩØ©
ĠØ§ÙĦØ§Ø³ØªØ±Ø§Øª ÙĬØ¬ÙĬØ©
Ø¶ ÙħØ§Ùħ
ÙĬÙĪ Ø³
Ø§Ø±Ø³ Ø§ÙĦ
ĠØ¨ÙĤ ÙĬÙħØ©
ĠØ§ÙĦÙĪÙĤ Ø§ÙĬØ©
Ø§Ø¯ Ø§
ĠØ¯ ÙĬÙĪØ§ÙĨ
ĠÙĪØ§ÙĦ Ø§Ùĥ
Ø¯Ø± Ø§Ø³Ø©
ĠØ®Ø· Ø§
ĠØ¨ ÙĩÙħ
ĠØŃ Ø§ÙĪÙĦ
ÙĪÙħ ÙĬÙĨ
ĠØ§ÙĦØ°Ø§Øª ÙĬØ©
ĠØ§ÙĦØ¨ÙĬ Ø§ÙĨÙĬ
ĠÙĪØ§ÙĨ Øª
ĠØ§ÙĦÙħØ¬ ØªÙħ
ĠÙĦØ³ ØŃÙĤ
ĠÙĦØªØŃ Ø³ÙĬÙĨ
ĠÙĨØ³ Ø®
Ø± Øµ
Ø² Ø²
Ø³Øª Ø§ÙĨÙĬ
ĠØµ ÙģØ±
ĠØ§ÙĬ Ùĩ
ØªØ¨ Ø·Ø©
ĠØ§ÙĦÙĥØª Ø§Ø¨Ø©
ĠØ§ÙĦØŃÙĤÙĬ ÙĤÙĬ
Ø³ ÙĥØ±
ĠØ§ÙĦØŃ Ø§ÙĦÙĬØ©
Ø§Ùĥ Ùĩ
ĠÙħØ¬Ùħ Ø¹
ĠØ§Ø³ ÙģÙĦ
ĠØ§ØªØ¬ Ø§Ùĩ
Ø¬ ØªÙħØ¹
ĠØ³ ÙĪØ¯
Ùĩ Ø§Ø¬
ĠØ± ÙĬØª
ĠØ§ÙĦØ« Ø¯ÙĬ
ĠØ§ÙĦÙħØª Ø·
ĠØ³ ØªØ±
ĠØ§ØŃ Øµ
ĠØ§ÙĦØ§Ø¬ Ø§Ø¨Ø©
ĠØªØ¯ Ø±ÙĬØ¨
ĠØ³ Ø±ÙĬØ¹Ø©
ĠØ¬ ÙĪÙĨ
ĠÙħÙħ Ø«ÙĦ
ĠØ§ÙĦØªÙĤ ÙĪÙĬÙħ
ĠÙĪØ§ÙĦ Ø¨ÙĬ
ĠØ§ÙĦÙģ ÙĬØª
ĠØªØ¹ Ø¨
ĠØ§ÙĦØ¨ÙĨ ÙĪÙĥ
ĠØ§ÙĦØ± Ø¨ØŃ
ĠØ± ÙĪÙĨ
ĠØŃÙģ Ø§Ø¶Ø§Øª
ĠØ§ÙĥØª Ø´Ùģ
ĠØ® ÙĬØ§Ø±
ĠØªØ± Ø§Ø¬Ø¹
ĠØªØ§Ø³ ÙĬØ³
ĠØªØ¬ Ø¯ÙĬØ¯
ĠØ² Ø¨
Ġ200 6
ĠØ§Ø³Øª ÙģØ³
ĠØ§Ùģ Ø±Ø§Ø¯
ĠØ§ÙĦÙħÙħ ÙĥÙĨ
ĠØ§ÙĦØ±ÙĤÙħ ÙĬ
ĠÙħ ÙĬØª
ĠØª Ø³Ø¨Ø¨
Ø§ØµÙĦ Ø§ØŃ
ĠØ§ÙĦØ¯Ø± Ø§Ø³ÙĬØ©
ĠÙĨÙĪØ¹ ÙĬØ©
ĠÙĨ ÙĬØ³Ø§ÙĨ
ĠØªØ³ÙĦ ÙĬÙħ
ĠØ¬ ÙĪØ²
ĠÙģ Ø§Ø°Ø§
ĠØ§ÙĦÙĦ ÙĬÙĦ
ĠØ§ÙĦØ¨ÙĬ Ø§ÙĨ
Ø§Ø¹ Ùĩ
ĠØ¬Ùħ Ø§Ø¹Ø©
Ġ9 1
ĠØªÙĪ Ø§Ø¬Ùĩ
ĠØŃØ§Øµ Ø¨Ø§ÙĨÙĬ
Øµ Ø§Øª
Ø¸ Ø§Ùĩ
ĠØ§ÙĦØ¨ ÙĪÙĦ
ĠØ§ÙĦØªØŃ ÙĦÙĬÙĦ
ĠØ¹ Ø´Ø±Ø©
Ġ9 2
ĠØ¶Ø± ÙĪØ±Ø©
ĠØ¹ Ø§ÙĦÙĬ
ĠØ§ÙĦØ± Ø´
ĠØ§ÙĦØ§Ø± Ø§Ø¶ÙĬ
ĠÙħØ³ Ø§Ø¨ÙĤØ©
ĠØ¨ÙĤ ÙĪØ©
ÙĪÙĨ ÙĬØ§
ĠØ§ÙĦÙħØª ÙĤ
Ġ9 4
ĠØ§Ø¹ ØªØ¨Ø§Ø±
ĠÙĨ Ø¨Ø§Øª
ĠÙĥÙħ Ø¨ÙĬÙĪØªØ±
ĠØ· Ø§Ø±ÙĤ
ÙĬØ² Ø§ÙĨ
ĠØ§ÙĤÙĦ ÙĬÙħ
ĠØ§ÙĦØ«Ø§ÙĨ ÙĪÙĬ
ĠØ§ Ø±ÙĬØ¯
ĠØ¨Ø§ÙĬØ¯ ÙĨ
ĠØ¹ÙĦ Ø§ÙĤØ§Øª
3 4
ĠØŃ ÙĬØ¯Ø±
ĠÙĤ ÙħØª
ÙħØ§ÙĦ ÙĬØ©
ĠÙĨÙĩ Ø§Ø¦ÙĬ
ĠØ¹ Ø³ÙĥØ±ÙĬØ©
8 9
ĠØ§ÙĦØª ÙĪØµÙĬÙĦ
ĠØ§ÙĦØ§Ø¯ ÙĪØ§Øª
ÙĪØ¯ Ø§
ĠØª Ø§Ùħ
Øº ÙĦØ§ÙĦ
ĠÙħÙĤ Ø§ÙĦ
ĠØ¬ Ùĩ
ĠÙĦÙĦÙħ Ø´
Ø± Ø³
ĠØ¹ ÙĬØ³Ùī
ĠÙĦØŃ Ø¸Ø©
Ø§ÙĪÙĦ Ø§Ø¯
ĠØ§ÙĦÙħØ®Ø±ÙĪØ· ÙĬØ©
ĠÙĦÙĦ Ø§ØŃ
ĠØ§ÙĦØ° Ùī
ÙĬØ¨ ÙĬØ©
ĠØ«ÙĤ ÙĬÙĦØ©
ĠØ§ÙĦÙĤ Ø§Ø¶ÙĬ
ĠÙħØ³Øª ÙĦØ²ÙħØ§Øª
ĠØ§Ø¨ØªØ¯ Ø§Ø¦ÙĬ
ĠØ§ÙĦÙĥ ÙĦØ§Ùħ
ØªÙħ ÙĨÙī
ĠØ§ÙĦØ³ÙĬ Ø·Ø±Ø©
ĠØ§ÙĦÙħÙĬÙĦ Ø§Ø¯
Ùħ Ùī
ĠØªÙĦ ÙĤÙĬ
Øª ÙĦÙĥ
ĠØ§Ø³ ÙħÙĨØª
ĠÙĦÙĦÙħ Ø³Øª
ĠØ§ÙĦØ±Ø³ ÙĪÙĦ
ĠÙħ Ø³ÙĦÙħ
ĠÙħØ¹ ÙĬÙĨØ©
ĠØ§ØªØµ Ø§ÙĦ
ĠØ³ ÙĦØ§Ùħ
ĠØ¨ÙĦ Ø§Ø¯
ĠØ§ÙĦØ§Ø« Ø§Ø±
ĠØ§Ø¬Ùħ Ø§ÙĦÙĬ
ĠÙĦØª ÙĤØ¯ÙĬÙħ
Ø§ÙĨ Øª
ĠØ§ÙĦÙĥ ÙĦÙĬ
ØªØ¨ Ø§Ùĥ
ĠÙĪØ¬ ÙĩØ©
ĠÙģÙĬØ¯ÙĬÙĪ ÙĩØ§Øª
Ø§Ø³ ÙĪØ¨
Ø±ÙĤ ÙĬØ©
ĠØ¨Øª ÙĪÙĤÙĬØª
ĠØ§ÙĦÙħØ· ØŃÙĨØ©
ĠÙģÙĦ ÙĦ
ĠØ§ÙĦØ¯Ùĩ ÙĪÙĨ
ĠØ´ÙĨ ØºÙĩØ§ÙĬ
ĠØ§ÙĦÙħ Ø±Ùĥ
ÙĥÙĦ Ùħ
Ø± Ø§Ùħ
ĠØ¨ ÙĪØ³
ĠØª Ø®Øµ
ĠØ§ÙĦÙħ ÙĥØ±
ĠØªØ¹ ØªÙħØ¯
ĠØ®Ø· Ø§Ø¨
ĠØ§ØŃ ÙħØ±
ĠÙģ Ø±ÙĤ
Ø§Ø± ÙĬÙĪ
ĠØ§ÙĦØª ÙĤØ±ÙĬØ±
ĠØ§ÙĦØµ Ø§Ø¨ÙĪÙĨ
ĠØ§Ø° ÙĨ
ÙĪØ¯ Ùĩ
ÙĨ ÙĬØ¹
Ø±Ø¨ Øª
ĠÙĪÙĩ ÙĨØ§Ùĥ
ĠØ± Ø¶ÙĬ
ĠØ§ÙĦÙĦ ØºØ§Øª
ĠØ§ÙĦØ± ÙĪØŃ
ĠØ§ÙĦØ§ÙħÙĬØ± ÙĥÙĬØ©
ÙĬÙģ ÙĬ
ĠÙĤ ÙĪÙĬ
Ø±ÙĪ Ø±ÙĬ
ĠØ§ÙĦØ§ÙĨ ØªÙĤØ§ÙĦ
ĠØ§ÙĦÙĤ ÙħØ±
ĠÙħØµ ØºØ±Ø©
ĠØ³ ÙĦØ§ÙħØ©
ĠØµ Ø¹
ĠØ§ÙĦÙĨ Ø¬
Ø§Ø´ Ø¯
Ø´Ø± ÙĪÙĨ
ØªÙħ ÙĥÙĨ
ĠÙħÙħØ§Ø± Ø³ØªÙĩØ§
ĠØ§ÙĦØµ Ø±Ùģ
ĠØ§ÙĦØ¹ÙĤ Ø§Ø±ÙĬ
ĠØ¹Ø¨Ø¯Ø§ÙĦ Ø±ØŃ
ĠÙħ ÙĬØ³ÙĬ
Ø¬Ùħ Ø§ÙĨ
ĠØ§ÙĦØ§Ø¨ Ø§ØŃÙĬØ©
ĠÙĪ Ø±ØŃ
Ø§Ùģ ÙĦ
ĠØ§ÙĦÙĨ Ø¬Ø§ØŃ
ĠØ§ÙĦØ§ÙĦ ÙĪØ§ÙĨ
Ø§ÙĪ ÙĬÙĨ
ĠÙĦÙĦØ´ Ø¹Ø±
ĠÙĦÙĬÙĨÙĥØ¯ Ø§ÙĨ
ÙĨØ¯ Ø³ÙĬÙĨ
Ø¹ÙĪØ¯ Ø©
ĠØ§ÙħØ±ÙĬÙĥ ÙĬØ©
ĠÙĪØ§ÙĦ ÙħØ¯
ĠÙĪØ§ÙĦ ÙģØ±
Ø¨ Ø¹Ø©
ĠØ§ÙĦØŃØ± Ø§Ø±ÙĬØ©
ĠØ¯Ø§ ÙĪØ¯
ĠÙħ Ø¨Ø±
ĠØ´ Ø§ÙħÙĦØ©
Ġ14 82
Ø³Ùĥ ÙĪ
ĠÙĦÙĦ Ø¯Ø±Ø§Ø³Ø§Øª
ĠØ§Ø³ØªÙĤ Ø¨Ø§ÙĦ
ØŃ Ùģ
Ø· Ø§Ø¹
ĠØ± Ø§ÙĬØª
Ø§Ø¨ÙĤ Ø§Øª
ĠØ§ÙĦÙĩ ÙĨØ¯ÙĬ
ĠØ³Ø¨ Øª
ĠØ§ÙĦ Ø§Ø¶Ø§ÙģØ©
ĠØ§ÙĦØ³ÙĨ ÙĪØ§Øª
ĠÙĨ ÙĩØ±
ĠØ§ÙĦØ¹ Ø¶ÙĪÙĬØ©
ĠØ§ÙĦØ´ Ø§Ø¹Ø±
ĠÙĪÙħ Øµ
ĠÙģ ÙĦÙħ
ÙĤ Ùģ
ÙĬØ± ÙĪ
Ġ7 1
ĠØ§ÙĦÙĩ ÙĬØ¯
ÙĪÙģ Ø©
ĠØ¨Ø¯ ÙĦØ§
ĠØ§ÙĦØ³Ø§Ø® ÙĨØ©
ĠØ³ ØªØŃ
ĠØ¯ Ùī
ĠØ§ÙĦØ¯ ÙħØ§Ùħ
ĠØ§ÙĦØ«Ø§ÙĨ Ùī
ĠØ§ÙĦØŃ Ø§Ø³Ø¨
ØªÙģ Ø³
ĠØ§ÙĦØ¯ÙĪÙĦ ÙĪÙħÙĬØª
Ø§Ùģ Øª
ĠØ§ÙĦØº Ø±Ø¨
Ø§Ùĥ ÙĬ
ÙĥÙĦ Ø§Øª
ĠÙħ Ø¬Ø±Ø¯
Ø§Ø¯ ÙĦØ©
ĠØ¹ Ø§Ø´
ĠØ¨Ø± Ø§Ø¨Ø·
ĠØªÙĪÙĤ ÙĬØ¹
ĠØ§ÙĦØªÙĪÙĨ Ø³ÙĬ
ĠØªÙħ ÙĪÙĬÙĦ
Ġ76 94
ĠØ±Ø³Ùħ ÙĬ
ĠØ³ ÙĬØª
ĠØŃ Ø¯ÙĬØ¯
ĠÙħØª Ùī
ĠÙħØ³Øª Ø¹ÙħÙĦ
ĠØ§ÙĦØ§Ø± Ø²
ĠØ§ÙĦÙħØ´ ÙĥÙĦØ©
ĠØ§ÙĦÙħ ÙĥØªØ¨Ø©
ĠØªØ¬ Ø±Ø¨
ĠÙħØ§Ø³ ÙĨØ¬Ø±
ĠÙĩ Ùī
ĠÙĤ Ø§Ø¨ÙĦ
ĠÙĦØª Ø³
Ġ200 4
ĠØ§ÙĦØ¹ÙĨ Ùģ
ĠÙħÙĪØ³ ÙĪØ¹Ø©
Ø² Ø§Øª
ĠÙĪØªØŃ ÙħÙĬÙĦ
ĠØ¨Ø§Ø³ Øª
ĠÙħØ³ Ø¬Ø¯
Ø· ÙĪØ·
ÙĦÙģ ÙĦ
ĠÙĤØ± Ø§Ø±Ø§Øª
ĠØ§ÙĦØ§ÙĦ ÙĪÙħÙĨÙĬÙĪÙħ
ĠÙĪØŃ Ø¯Ø§Øª
ĠØ§Ø¨ ØŃØ«
ÙĪØ§Ø¬ Ùĩ
Ø§ÙĦØ³ÙĬ ÙĪÙħ
Ø« ÙĬÙĤ
ĠÙĩ ÙĥØ°Ø§
ĠØ§ÙĦØ³ Ø±Ø¹Ø©
ĠØ§ÙĦØ³ÙĬÙĨ Ùħ
ĠØ¬ Ø°
ĠÙĩ Ø´
ĠØ§ÙĦØ§Ø³ ØªØŃ
ĠÙĪÙħÙĨ ØªØ¬Ø§Øª
Ø§ÙĩÙħ Ø©
ĠØ§ÙĦØµ ØºÙĬØ±
ĠØ§ÙĦØ¬ Ùĩ
ØªØ± ØŃ
Ø¹Ø¯ Ø©
Ø¯ÙĬ Ùĩ
Ø¶Ø± ÙĪØ±Ø©
ĠØ§Ø³Ø§Ø³ ÙĬØ§Øª
ĠØ§ÙĦØª ØºØ°ÙĬØ©
ĠÙĬ ÙĪØ±ÙĪ
ĠØ§ÙĦÙħØŃ Ø±Ùĥ
ĠØªØª Ø¶ÙħÙĨ
ĠØµØ¯ ÙĪØ±
ĠØ¹ Ø§Ø¦ÙĦØ©
ĠØ§ÙĦØ´ ÙĥÙĦ
ĠØªÙĨ ÙħÙĬØ©
ĠÙĥØ§Ùħ ÙĬØ±Ø§Øª
ĠÙĥ Ø¨Ø§Ø±
ĠØ§ÙĦÙģ Ø³
ĠÙĨÙħ Ø§Ø°Ø¬
ĠÙĤ ÙĪØ§ÙĨÙĬÙĨ
ĠÙĥØ³ Ø§Ø±Ùĩ
ĠØ§ÙĦÙħ Ø³Ùħ
ĠØ§ÙĦØªØŃ Ø§ÙĦÙģ
ĠØ§ÙĦÙħ ØªÙħ
ĠÙĪØ§ÙĦØ¹ÙĦ ÙĪÙħ
Ø±ÙĪ ÙĬØ¬
Ø§Ø¶ ÙĦ
ĠÙĬØŃ ÙħÙĦ
Ø§Øº Ø±Ø©
ĠØ§ÙĦÙħØ¬ Ø§ÙĦØ§Øª
2 2
ĠÙĪØ§ÙĦÙħ Øµ
ĠÙĬ Ø¨ÙĦØº
ĠØ§Ø« ÙĨÙĬÙĨ
Ø± Øª
ĠØŃ Ø¬Ø²
ĠØ¬ ÙĬØ¯Ø§
ĠÙĤ Ø§Ø¦Ø¯
ĠØ¨ÙĦ Ø§Øº
Ø· ÙĬÙĨ
ĠÙĪØ§ÙĦ ØªÙĤ
ĠØ§ÙĦØªØ¯ Ø±ÙĬØ³
ĠÙĬ ÙĦØ§
ĠÙħ ÙĤØ¯
ĠØ¹ Ø¶
ĠØŃ Ø¶ÙĪØ±
ĠÙĨÙĬÙĪ ÙĬÙĪØ±Ùĥ
ĠØ§Ø±Ø¨ Ø¹
Ø§Ùĥ Ø¨
ØªØ¨ Ùĩ
ĠÙĦ Ø§ÙĤ
Ø§ÙĩØ¯ Ø§Ùģ
Ùħ ÙĬØ±ÙĬ
ĠÙħÙĨ ØªØ®Ø¨
ĠØ§ØªØ® Ø§Ø°
ĠÙħÙĥ ÙĬØ§Ø¬
ĠØ§ÙĦØ¬ ÙĩØ§Øª
ĠØ¹ Ø·Ø±
Ø° Ø§Ø¡
Ø± Ø§Ø²
ÙĪ ÙĬÙĩ
ĠØªÙĨ Ø³ÙĬÙĤ
Ø· ÙĨØ©
ĠØ§ÙĦØ´ Ø¤ÙĪÙĨ
ÙĪØ§Ø± Ø¹
ĠØµØŃ ÙģÙĬ
ÙĪ Øº
Ø§Ø¨ ÙĬØ¹
ĠØ§ÙĦÙĥ Ø§ÙĦØ³ÙĬÙĪÙħ
ĠÙĬÙĪÙħ ÙĬ
ĠÙħØª Ùĥ
ĠØ§ÙĦØ± ÙĪØ§
ĠØ§ÙĦØµ Ø¯Ø±
ĠÙĬØ· Ø§ÙĦØ¨
ĠÙħØŃ Ø±ÙĥØ§Øª
ĠØ§Øµ ÙĪÙĦ
ĠÙĨØ³ Ø§Ø¦ÙĬØ©
ĠÙģ Ø³Ø§ØªÙĬÙĨ
ĠØ« ÙĪØ±Ø©
ĠÙħ Ø§Ø±ÙĥØ§Øª
ÙĨØ§Ø· ÙĬØ³ÙĬ
ĠØ§ÙĦÙĤ ÙĨØ¨
ĠØ§ÙĦØ±ÙĪ Ø³ÙĬ
ØªØ± Ø¶
ÙĪØ§Ø± Ø¦
ĠØ³Øª ÙĥÙĪÙĨ
ĠØ§ÙĦØªØ§Ø±ÙĬØ® ÙĬØ©
ĠØ¨ Ø·ÙĦ
ĠØ§ÙĦÙĪ Ø§ÙĨ
ĠÙĦØ§ ÙĬÙģ
ÙĪÙĦ Ùī
ĠØ§ÙĦÙĨ Ø§Ø¯ÙĬ
ĠÙĪØ§Ø³ ØªØ®Ø¯Ø§Ùħ
ĠØŃ Ø±ÙĬÙĤ
ĠØªØ® Ø·ÙĬØ·
Ùģ Øª
ĠØ§ÙĦÙĤ Ùħ
ĠÙģ Ø¦Ø©
Ġ18 0
Ø° Ø§Ø±
ĠÙĬÙĨ Ø¨ØºÙĬ
ĠØ· ÙĪØ§ÙĦ
ĠØ² ÙĬØ§Ø±
ĠØ° ÙĪÙĬ
ĠØ± ÙĪØ¨
ĠØ§ÙĦØ¬ÙĨ ÙĪØ¨
ĠØ§ÙĦØµÙĨØ§Ø¹ Ø§Øª
ÙģØ± Ø¯
ĠØ§ÙĦØ§Ø³Ø±Ø§Ø¦ÙĬÙĦ ÙĬØ©
ĠÙĨ Ø§Ø¬
ĠØ§Ø¬ Ø¹ÙĦ
Ġ25 54
ĠØ§ÙĦØ§Ø² ÙĩØ±
ĠØŃ ÙĦÙĤØ§Øª
ĠØ§ÙĦØ³ ÙĬØ±Ø©
ĠØ¯ ÙĤÙĬÙĤ
ĠØ¯ ÙĪØ±Ø§Øª
ÙĦ ÙĪ
ĠØ§ÙĦÙĪØŃ ÙĬØ¯
ĠØ§ÙĦØ§Ø±Ø¯ ÙĨÙĬØ©
Ø¹Ø¯ ÙĬØ¯
Ø§Ùĩ ÙĬØ©
ĠØ§ÙĦ ÙĬØ©
Ø¹Ø± Ø§ÙĤ
ÙĬØª Ùĥ
Ø« Ø±Ø©
Ø¦ ÙĨØ§Ùģ
ĠØ§ÙĦØ§Ø· Ø¨Ø§Ø¡
ĠÙħØ² ÙĪØ¯
ĠØ§ÙĦØ§Ø® ØªÙĬØ§Ø±
ØªÙĤ Ø¨Ø§ÙĦ
ĠØ§ÙĦÙĥØ± ÙĪÙħ
ĠÙĬØ³Ùħ ØŃ
ĠØ§ÙĦÙħØ³ Ø¬Ø¯
ĠØ±ÙĪ Ø¶Ø©
ĠØ§ÙĦØ²ÙĬØª ÙĪÙĨ
ĠØ§ÙĦØ¹Ø§ÙħÙĦ ÙĬÙĨ
Ùģ Ø§ÙĨ
ĠØ§ÙĦØ· Ø§Ø¦Ø±Ø©
ĠÙĬØ¹ ÙĬØ´
ĠØ§ÙĦÙĬÙħ ÙĨÙĬ
Ùĥ ÙĬÙĥ
ĠØ¨Ø§Ø³ Ø¹Ø§Ø±
ĠÙĦ Ø§Øº
ĠÙĦÙĦ ØªØµ
ĠØ§Ùĥ ØªØ´Ø§Ùģ
ĠØ§Ø· Ø¨Ø§ÙĤ
ĠØ§Ùĩ ÙĦØ§
ĠØ§ÙĦÙĨÙģØ· ÙĬØ©
ĠØ§ÙĦÙħ Ø°Ùĥ
ĠØ§ÙĦØŃ Ø§ÙĦ
ĠÙĦ ØŃÙħ
ÙĬÙħ Ø§Øª
ĠØ§ÙĦÙģ ÙĤ
ĠÙĨ Ø³ØªØ®Ø¯Ùħ
ĠØ§ÙĦÙħØ¯ ÙĪÙĨØ©
ĠØ§ÙĦÙģ ÙĥØ±
ĠÙģ Ø´ÙĦ
Ø· ÙĬÙĦ
ĠØ§ÙĦØµØŃ Ùģ
ĠÙĪØ® Ø§ØµØ©
Ø§ ÙĩØ§
ĠØ§ÙĦÙħØª Ø§Ø¬Ø±
ĠØ§ÙĦØ«ÙĤ Ø§ÙģÙĬ
ĠØªØ¬ Ø§Ø±ÙĬ
ĠØ§ÙĦØ§Ùģ Ø±ÙĬÙĤÙĬØ©
ĠÙĬ Ø®Øµ
ĠØ§ÙĦØµ ØŃÙĬØŃ
ĠØ® ÙĬ
ĠØªÙħ Ø«ÙĦ
ĠØ§ÙĦØµÙĬÙĨ ÙĬ
ØªÙħ Øª
ĠØ§ÙĦØªÙĨÙģÙĬ Ø°ÙĬ
ĠÙģÙĬ Ø³
ĠÙĨ ÙħÙĪ
ĠØ§ÙĨ Ø¬ÙĦ
ĠØ§ÙĦÙĨ ÙħÙĪØ°Ø¬
ĠØ¨ Ø§Øµ
ĠÙģØ± Ø¶
ĠØ®Ø¨Ø± Ø§Ø¡
Ø±ÙĬ Ø¨ÙĬ
ĠØŃ ÙĤÙĤ
ĠØ§ÙĦÙĥ ÙĬÙħÙĬØ§Ø¦ÙĬØ©
Ø§Ø¹ Ø¯Ø§Øª
ĠØµ Ø§Ø¨ÙĪÙĨ
ĠØªØ¹ ÙĪØ¯
ĠØªØ¬ Ø§ÙĪØ²
6 4
Ø§Ø² ÙĬØ©
ØŃ Øµ
ĠÙĦ ÙĪÙĥ
ĠØ§ÙĨ ØªÙĤ
ĠÙĪÙĦ ÙĦ
ĠÙħØ³Øª ÙĪÙĬØ§Øª
Ø¦ ÙĪÙĦÙĬØ©
ĠÙħØ¸ ÙĦØ§Øª
ĠØ§ÙĦÙħØ¬ Ø§ÙĨÙĬØ©
ĠØ´Ø¹Ø¨ ÙĬØ©
ĠØ§ÙĦØª ÙĦÙĤ
ĠØ§ÙĦÙħÙĦÙĥ ÙĬ
ĠØ¹ Ø¯ÙĬØ¯Ø©
ĠØªØ® ÙģÙĬ
Ø§Ùħ ÙĨØ©
ĠØ§ÙĦØ§Ø¯ ÙĨÙī
Ø« ÙĬÙĦ
ĠØ¯Ø¹ Ø§Ø¡
ĠØ§ÙĦØ¹ ÙĦØ§Ùħ
ĠÙĤ Ø±ÙĬØ¨Ø§
ĠØ§ÙĦØ¯ ÙĤÙĬÙĤ
Ø¬Ø± Ø§Ùħ
ĠØ§ÙĦØ§Ùĩ ÙĦÙĬØ©
Ø§ÙħØ¨ ÙĪ
ĠØ§ØªØ¨ Ø§Ø¹
ĠØª Ø§ÙħÙĬÙĨ
Ø§ ÙĬÙģ
ĠØ¹ Ø§ÙĦ
ĠÙħØ¹ Ø§ÙĬÙĬØ±
ĠØ§ÙĦØ± Øº
ĠØ² Ø§Ø¦Ø±
Ø§Ø¨ ÙĬØ¨
ĠØ§ÙĦØ® Ø´Ø¨
ĠØ§ÙĦØ§Ùħ ÙĦ
ĠØ§ÙĦØ§Ùħ ØªØŃØ§ÙĨ
ĠØ§ÙĦØ¨Ø±Ø§Ø² ÙĬÙĦ
ĠÙĬ ØªÙģ
ĠÙĦÙĦØ¹ Ø§Ùħ
Ø®Ùģ Ø¶Ø©
ĠØ¨ Ø¶
ĠØª Ø±Ø¨ÙĬØ©
ĠØ§Ø³ Ø±Ø©
Ø¨ÙĬ Ø§ÙĨ
ÙĪÙģ ÙĬ
ĠØª Ø¶Ùħ
Ø±ÙĬ Ø´
ĠØ§ÙĦØ·Ø¨ÙĬ Ø¹Ø©
ĠØ§ÙĦØ²Ø± Ø§Ø¹ÙĬØ©
ĠÙģØ¶ÙĦ Ø§
ĠØ§ÙĦØª Ø¶
ĠØ§ÙĦØŃ ÙĪ
ĠØ§ÙĦÙĦ Ø§Ø¬
ĠØ§ÙĦØ§ ÙĬÙħØ§ÙĨ
ØªÙĩ Ø§Ø¡
ĠØ§ÙĦÙħØ® ØªØµ
ĠØª ÙĪØ¬ÙĬÙĩ
ØªØ§Ø¨ Ø¹
ĠØªÙĪ Ø¶ÙĬ
Ø² Ùĩ
Ø§ØŃ Ùĩ
ĠØ§ÙĦØ¬ Ø§Ø±ÙĬ
ĠØº Ø§ÙĨØ§
ĠØ§ÙĦØ²Ø± Ø§Ø¹Ø©
Ø¯Ø± Ø§ÙĨ
ĠØ§ÙĦØª Ø±Ùħ
ĠØªØ¬ Ø§Ø±Ø©
ĠÙĪØ§ÙĦØ§Ø¬ ØªÙħØ§Ø¹
ĠØ§ÙĦÙħÙĨ Ø§Ø®
ĠØ§ÙĦÙħØª Ø¬Ø±
ĠØ§ÙĦÙĨÙĩ Ø§Ø¦ÙĬ
ĠÙĪØ² ÙĨ
ĠØŃØ¨ ÙĪØ¨
ĠØ§ÙĦØŃ Ø§Ø¬
Ø± Ø§ÙĦ
Ø§ÙĦ ÙģØ©
Ø¯ Ø§Ø¯ÙĬ
ĠÙĦ ÙĬÙĦ
ĠØ´ Ø¹Ø§Ø±
ĠØ¹ÙħÙĦ Ø§Ø¡
ĠØ§ÙĦØ§Ùĥ Ø³
Ùĩ ÙĪÙĦ
ĠÙĪØ§ÙĦ Ø¬Ø±
7 0
ÙĨ ÙĪØ¨
ĠØµÙģØŃ Ø§Øª
ĠØ§ÙĤ Ø±Ø¨
ÙĬØ¨ ÙĬØ¯ÙĬØ§
ĠØ§ÙĦØ³ Ø¹ÙĬØ¯
ØªØ± ÙģÙĬÙĨ
ĠØ§ÙĦØ¬ÙħÙĬÙĦ Ø©
ĠÙģÙĦ Ø§Ø´
ĠÙħØ§ÙĦ Ùĥ
ĠØ´ Ø§Ø¡
ĠØ§ÙĦÙģ ÙĥØ±ÙĬØ©
ĠØ¨ÙĬÙĨ ÙĩØ§
ĠÙģÙĩ Ø°Ø§
Ø® ÙĬÙĨ
ĠÙĪØ§ÙĦ ØªÙħ
ØŃÙĤ Ø§Øª
ĠØ§ÙĦØ®Ø· ÙĪØ·
ĠÙĦØ¯ÙĬ ÙĩÙħ
ĠÙħ ÙĩÙħØ§
ĠØ§ÙĦØ§Øª Ø¬Ø§Ùĩ
ĠØª Ø²ÙĬØ¯
ĠÙĪÙħ Ùħ
ĠØ¨Ø§ÙĦÙĤ Ø§ÙĩØ±Ø©
ĠÙħ ØªÙħ
ĠÙħØŃ ÙĦÙĬØ©
ĠØ¨ÙĨ Ø¯Ùĩ
ÙĪÙģ ÙĬØ©
ÙģÙĪ Ø¶ÙĬØ©
ĠØ±ØŃÙħ Ùĩ
ĠØ³ ÙĦØ©
Ġ19 0
Øª Ø§Ùħ
ĠÙħ Ø§Ø±Ø¨
ĠØ§ÙĦÙħ ÙĩÙħ
Ø´ Ø³ØªØ±
ĠØ§ÙĦÙħØŃ Ø§ÙģØ¸Ø©
ÙĤ ÙĪÙħ
ĠÙĥ Ø§Ùģ
ĠÙĩ Ø¯
Ø§Ø² ÙĪÙĨ
ĠÙĤ ÙħØ©
ĠØ± Ø©
ĠØ§ÙĦÙħØ·ÙĦ ÙĪØ¨
ĠØ§ÙĦÙħÙĩ Ø¯ÙĬ
ĠØªØ´ Ø§Ø±Ùĥ
ĠØ§ÙĦÙģ ÙĪØ²
ĠØ¹ÙĦÙħ Ø§Ø¡
ĠØ¨Ø§Ùħ ÙĥØ§ÙĨ
ÙĩØ¯ Ø§Ø¡
ĠØ§ÙĦØ³ ÙĬØ¯Ø©
ÙĪØ² ÙĬØ±
ĠØ§Øª Ø´
ÙĪ ÙĩØ§
ĠØ§ÙĤ Ø³Ø§Ùħ
ĠÙĥÙĩØ±Ø¨ Ø§Ø¡
ĠØ¨ Ø¬ÙħÙĬØ¹
ĠØ¨Ø§ÙĦ ÙĦÙĩ
ĠÙĦ Ø¨ÙĬØ¹
ĠØ§ÙĦÙģ Ø¦Ø©
Ø±ÙĪ Ø§Øª
ÙĤÙĬ Ø§Ø³
ĠÙħØ´ Ø§ÙĩØ¯
ØŃ Ø§
ĠØ± ÙĬÙģ
ĠÙĪÙħ Ø¹Ø¯Ø§Øª
ĠØ§ÙĦØŃ Ùģ
ĠØ§ØŃ Ø¨
ĠØ§ÙĦÙħØ³Øª Ø´ÙģÙī
ĠØ§Øº Ø§ÙĨÙĬ
ĠØ´Ø±Ùĥ ØªÙĨØ§
ĠÙħ Ø§Ø¡
Ø³ ÙĪÙĤ
ĠÙĪ Ø¬Ø±
ĠØ¬ ÙĪÙĦ
ĠØªÙĤ ÙĨÙĬØ§Øª
ĠØ§ÙĦØ³ÙĬØ± Ø§ÙħÙĬÙĥ
6 8
ĠØ¹Ø¨Ø¯Ø§ÙĦØ±ØŃ ÙħÙĨ
ÙĬÙĥ Ùħ
Ùģ Ùī
ĠÙĥ ÙĪØ±Ø©
ĠØ§ÙĦØª ÙĤÙĬÙĬÙħ
Ø±ÙĬ Ùĩ
ĠÙĪØ¨ Ø¹
Ø§Ø¯ÙĬ ÙĤ
ĠØ¨ Ø§Ø±Ùĥ
ĠÙĦ Ø¶ÙħØ§ÙĨ
ĠØ¹ ÙĪ
ĠØ§ÙĦØ´ Ùģ
ĠÙĪØ¨ ØŃ
ĠØŃ Ø¨ÙĬØ¨
ĠØ¶ ØŃØ§ÙĬØ§
ĠØªØ® Ø²ÙĬÙĨ
ĠØ± Ø¶Ø§
ĠØ§ÙĦØ¬ Ø¯Ø¯
ÙĬØ² Ø§ÙĨÙĬØ©
Ø§Ø± Ø¯Ø©
Ø¬ Ø§Ùħ
ØºØ± Ø§Ùħ
ØºÙĨ ÙĬØ²
Ø¦ Ø§Ø¨
ĠØ§ÙĦØ§Ø³ Ø¨
ĠÙĬØ³Øª ÙĤØ¨ÙĦ
ĠÙĦ ÙĪÙĦ
ĠÙĦÙĦ Ø§Ø®
ĠØ®Øµ Ø§Ø¦Øµ
ĠØªØªÙħ ÙĥÙĨ
Ø§ÙĦ Ø±
ĠØ§ÙĦØ§ØŃ ÙĥØ§Ùħ
ĠØ§ÙĦØ±ØŃ ÙĦØ§Øª
ĠÙĪØ§ÙĦØ§ÙĤ ØªØµ
ĠØ® Ø§ÙĦÙĬØ©
ĠØ§ÙĦØ§Ø³ØªÙģ Ø§Ø¯Ø©
Ø³ ÙĪ
ĠØ§ÙĦØ¯ Ø±Ø¬Ø©
ĠÙħØŃÙħ ÙĪÙĦØ©
Ġ67 9
ĠØ§ÙĦØª ÙĩØ§Ø¨
ĠØ§ÙĦÙħÙĨ Ø²ÙĦÙĬ
ĠÙħØ¯ Ø±Ø¨
ĠØ§ÙĦÙħØª Ø§ØŃØ©
ĠØ§ÙĦØ§ÙĪØ± Ø§ÙĤ
ĠØ§ÙĦÙĨ Ø§ÙĤÙĦØ©
ÙĪØ±ÙĬ ÙĪØ³
ĠÙĦÙĨ ÙĤÙĦ
ĠÙħÙĨ Ø²
ĠØ¹ÙĤ Ø¨
ÙħØ§ÙĦ ÙĬ
ĠÙĬ Ø±Ø¯
ĠØ§ÙĦØ§ÙħÙĬØ± ÙĥÙĬ
ĠØ§ÙĦØª Ø³Ùħ
ĠØ§ÙĦØ¬ Ø§Ùĩ
ĠØ§ÙĦØ§ØµØ·ÙĨØ§Ø¹ ÙĬ
ÙĬ ÙĩØ§
ĠØªØµ Ø±ÙĬØŃØ§Øª
ĠÙħÙĤ Ø§ÙĪÙħØ©
Ø¬ ØŃ
ĠØ¨ØŃ Ø¶ÙĪØ±
ĠØ³Ùħ ÙĬØ±
Ġ9 8
ĠØ§ÙĦÙħÙĨ Ø¸
ĠØªÙĤ ÙĪÙĦ
ĠØªØ· ÙĪØ±
ĠØ§ÙĦÙħØ¹ÙĦ Ø¨Ø©
ĠÙĨ Ø¹ÙħÙĦ
ĠØ¨ÙĬÙĨ Øª
ĠØ§ÙĦØ¹ÙĦØ§Ùħ Ø§Øª
ĠÙħÙĨ Ø§ÙĤØ´Ø©
ĠØ§ÙĦØ§ØŃ Ø¬Ø§Ø±
ĠÙĪÙĬÙĥ ÙĬØ¨ÙĬØ¯ÙĬØ§
ĠÙħ ØªØ¬
ĠØªØ¯ Ø¹ÙĪ
ĠÙĥÙĩØ±Ø¨ Ø§Ø¦ÙĬØ©
ĠØ¹ ÙĩØ¯
ĠØ§ÙĦÙģ Ø§Øª
ĠØ§ÙĦÙħØ³Ø¤ÙĪÙĦ ÙĬØ©
Ùħ Ø§Ø·
ĠØª ÙĪØ¨
ĠØ¬ Ø±Ø§Ø¡
ĠØ± Ø¹Ø§ÙĬØ©
Ġ7 00
ĠØ ¤
ĠØ¹ÙĨ Ø§ÙĪÙĬÙĨ
ĠØ§ÙĦØ³ÙĪ ÙĬØ¯
ĠÙģ ÙĩØ¯
ĠÙĥÙĦ ÙĩØ§
ĠÙĦØ§ØŃ Ø¯
ĠØ§Ø³ Ø±Ø§Ø±
ĠØ§ÙĦØª Ø§ÙħÙĬÙĨ
ĠÙĦÙĦ ØªØ±
ĠØ· Ø±Ø§Ø¨
ĠØ§ÙĦØªØ· ÙĪÙĬØ±
ĠØ§ÙĦØ³ÙĦØ§Ùħ Ø©
ĠÙĬØµ Ø¯Ø±
ĠÙħØ¶ Ùħ
Ø± Ø§ÙĨ
ĠØ§ÙĦÙĨ Ø´Ø±Ø©
ÙĪØª Ø³
ĠØ§Ø¶ Ø·Ø±
ĠÙĪØ§ ÙĩÙħ
ÙĪ ÙĩØ±Ø§Øª
Ø¹Ø± Ø¨ÙĬ
ĠØ§ÙĦØªÙĤ Ø¯Ùħ
ĠØ¯ÙĬÙĥ ÙĪØ±
ĠÙĪÙĥÙĬÙģ ÙĬØ©
ĠÙĪÙĤ Ø¹
ØªÙĩØ§ ÙĥØ§Øª
ĠÙĪØ§ÙĨ Ùĩ
ĠØ§ÙĦØªÙĥ ÙĦÙģØ©
ĠØ³Ø§Ø® ÙĨ
ĠØ´ Ø§Ùĩ
Ø§Ø° ÙĨ
ĠØªÙĥ ÙĪÙĬÙĨ
ĠØ³ÙĬÙĨ Ø§Ø¡
ĠØ³ Ø§Ø¹Ø¯
ĠÙħØ· Ø§ÙĦ
ĠØ®Ø· Ø·
Ġ32 0
ĠØ§ÙĦÙĨÙģ Ø³ÙĬ
ĠØ§ÙĦÙģ Ø¶Ø§Ø¡
Ø§ÙĪ Ø¶Ø§Øª
Ġ35 0
ĠØªÙĪÙĤØ¹ Ø§Øª
Øµ Ø§ÙĨ
ĠØŃ Ø¶Ø±
Ø¬ÙĦ Ø¯
ĠØªØ« Ø¨ÙĬØª
ĠØ§ÙĦØ· ÙĬ
Ø§Ø²ÙĦ Øª
ĠØ§Ùĥ ØªØ¨
ĠØŃ Ø±Ùģ
ĠØ§ÙĦØ« Ø§ÙħÙĨ
ĠØ§Ø« ÙĬÙĪØ¨ÙĬØ§
ĠØªÙĪÙĥ ÙĬÙĦ
Ø± Ùĩ
ĠÙħ ÙĥÙĪÙĨØ§Øª
ĠØ§ÙĦØ¨ Ø®
ĠØ§ÙĦÙĨ Ø§Ø´
ĠØ§ÙĦØ± Ø¨
ĠÙĪ ÙĬÙĪ
ØªØ± Ø§Ùģ
ĠØ§Ø¯ Ø§Ø±ÙĬØ©
ĠØªØ³ Ø¬ÙĦ
Ø¬ÙĦÙĬ Ø²ÙĬ
ĠØ§ÙĦÙħØ³ÙĬ ØŃ
ĠØ§Ø± Ùħ
Ø¯Ø§Ùħ Ø©
Ø§ÙĨØ³ ÙĬØ©
Ø´ Ø§Ø¯
ĠÙħØ¯ÙĬØ± ÙĬØ©
Ùģ Ø§Ø±
ĠØ§ÙĦÙĨ ÙĪØ±
ĠØ§Ø³ØªØ®Ø¯Ø§Ùħ Ùĩ
ĠÙĪØ§Øª Ø³
ĠØ§ÙĦÙĦ ÙĩÙħ
ĠØ§ÙĦØ« ÙĤØ©
ĠØ§ÙĦØªØ¹ Ø±ÙĬÙģ
Ø¶ Ùģ
ĠÙĬÙħ Ø«ÙĦ
ÙħØª Ø¹
ĠÙĤØ¨ ÙĪÙĦ
ĠØ§ÙĨ ÙģØ³
Ø§ÙĤ Ùħ
ĠØ³ Ø¨ÙĦ
ĠØ´ Ø¤ÙĪÙĨ
Ġ200 5
Ġ ÛĮ
ĠØ§ÙĦØ¯ ÙĪØ§Ø¡
ĠØŃ Ø¸
ĠØ§ÙĦÙħÙĪ Ø¸ÙģÙĬÙĨ
ĠØ§ÙĦÙĥÙĨ ÙĬØ³Ø©
ĠÙĪ Ø±Ø¨
ÙĪØ±ÙĬ Ø¯
ĠØ§Ø®Ø± ÙĬÙĨ
ĠØ¨Øª ÙĤØ¯ÙĬÙħ
ĠØ§ÙĦØ¬Ø²Ø§Ø¦ Ø±ÙĬØ©
ĠÙĪØ§ÙĦ Ø°
ĠØ§ÙĦØªÙĪ Ø¸ÙĬÙģ
Ø§Ùħ Ùĩ
ĠÙĪØ§ÙĦ Ø±ÙĬØ§Ø¶
ĠØ§ØŃ ÙĦÙī
ĠÙħÙĩ ÙĨØ¯Ø³
ĠØ§ØŃ ÙĬØ§Ø¡
ĠØ§ÙĦØ§Øµ Ø¯Ø§Ø±
ĠÙħØ¬Ø§ÙĦ Ø³
ĠØ±Ø³Ùħ ÙĬØ§
ĠØ§ÙĦØŃÙĪØ« ÙĬ
ĠØ¨ Ø²
Ø· Ùī
ĠØ§ÙĦØ§Ø² Ø±ÙĤ
ĠÙĦ Ø§ÙĦ
ĠØª Ø§ÙĬÙĦ
ĠØ² Ø§ÙĬØ¯
ĠØ¨ ÙĦØ³
ĠØªØªÙħ ÙĬØ²
ĠØ± Ø¶
ĠØ§ÙĦÙĨÙĪ ÙĪÙĬ
ĠÙ± ÙĦ
Ø³ ÙĬØ³
ĠØ§Øµ Ø¯Ø§Ø±Ø§Øª
ĠØ§ÙĦÙħ Ø§Ùĥ
ÙģØ± Ø§Øª
ĠÙħØ± Ø§ØŃÙĦ
ĠÙĪÙĬ Ø³Øª
ĠØ§ÙĦÙĬÙħ ÙĨÙĬØ©
ĠÙĪØ§ÙĦ Ø§Ø´
ĠØ´ Ø§Ø±
5 5
ĠØ§ÙĨ Ø¨ÙĪØ¨
Ø§Ùĩ ÙĬ
ĠØª Ø§ØªÙĬ
Ø§Ùģ ÙĦØ©
ĠØ§ÙĦÙĤ ØµØ©
ĠØ§ÙĦØ· Ø±Ùģ
Ø¨Ø¯ Ø§ÙĦ
ÙĬ Ø°
ĠØ§ÙĦØ¹ ÙģØ´
Ø§Ø¦ ÙĩÙħ
ĠØ® Ø±ÙĪØ¬
ĠØ§ÙĦÙħØ±ÙĥØ² ÙĬØ©
ĠØ®Ø¨Ø± Ø©
ĠØ§ÙĦÙħ ÙĪÙĦØ¯
ĠØ§ÙĦØ®Ø· ÙĪØ©
ĠÙģ Ø§ØµÙĦ
ĠØ§Ø® Ø¨Ø±
ĠÙĦÙħ ÙĥØ§ÙģØŃØ©
ĠØ§ÙĦÙģÙĨØ§ÙĨ Ø©
Ø§Øº Ø©
ĠÙĪØ§ÙĪ Ø¶ØŃ
ĠÙĦ Ø§Ø±
ĠØ§ÙĦØ´ Ùħ
ĠØ§ÙĦÙĤ ÙĪÙħÙĬ
ĠÙħØ§ ÙĬÙĥ
ĠØ³ÙĬ Ø§Ø³ÙĬ
ĠÙĪÙĤ Ø§ÙĦØª
ĠÙĦÙĦÙĨ Ø´Ø±
ĠØ¬ Ø±Ø§Ø¦Ùħ
Ġ8 3
ĠØ§Øº Ø³
ĠØ§ÙĦØªØµ ÙĪÙĬØ±
ÙĬÙĩ Ø§Øª
ĠÙĪØ² ÙĬØ±Ø©
ĠÙħ Ø±ÙĬÙħ
ĠØŃ Ø¬
ĠØ§ÙĦÙħØ³ Ø§Ø±
ĠÙĩ ÙĪØ§
ĠØ§ÙĦØ§Ø¬ Ø§ÙĨØ¨
ĠØ§Ø¨ Ø¯
Ø§ÙĪ ØŃ
Ø² ÙĤ
ĠØ§ÙĦÙĨÙĩ Ø§Ø¦ÙĬØ©
ĠÙĦÙĦ Ø§ÙĦ
ĠÙĤ Ø§Ø¨ÙĦØ©
ÙĬÙĪ Ø§ÙĨØ§Øª
ĠØ§ØŃ ØªÙĬØ§Ø¬Ø§Øª
ĠÙĨ Ø§ØŃÙĬØ©
Ġ16 0
ĠÙĪ Ø¬ÙĦ
ĠØ¶ Ùħ
ĠÙĬØ¹ ØªÙħØ¯
ĠØ§ÙĦØªÙĤÙĦ ÙĬØ¯ÙĬØ©
ĠÙħÙĦØ§ØŃ Ø¸Ø©
ĠÙĪÙħ Ø¤
Ø¨Ø± Ø§Ø·
ĠØ§Ø³Øª Ø«
ĠÙĪÙħÙĨ ÙĩØ§
ĠÙħØªÙĪ Ø³Ø·Ø©
ĠØ¨Ø§ÙĦØªØ¹ Ø§ÙĪÙĨ
ĠÙĨ Ùĥ
ĠØ§ÙĦØ§ÙĤ ØªØ±
ĠØ§ÙĦÙĦÙĤ Ø§Ø¡
ĠØ§ÙĦÙĤ Ø³
ĠÙĪ ÙĬØ¯
ĠØ¨ ØªØ±
ĠÙĦÙĦ Ø«
ĠØ§ÙĦØ§ÙĨ Ø´Ø·Ø©
ĠØ§ÙĦØ¯ Ø§Ø±
ĠÙĦÙĦ Ø²
ĠØ² Ø§Ø¯
ĠÙĪØ§ÙĨ ÙħØ§
ĠØ§ÙĦØ®Ø¨ Ø«
ĠÙĦ Ø´Ø±Ø§Ø¡
ĠÙĪØ§ÙĦ Ø¨ØŃ
ĠØ§ÙĦØŃ Ø²Ø¨
ĠØªØµ Ø¨ØŃ
ÙĬØ´ Ø©
ĠØ§ÙĦÙħÙĨ ØºÙĨÙĬØ²
ĠÙħÙĪ Ø«
Ġ76 5
ĠØ§ÙĦØ§Øª ØŃ
ĠØ§Øº ÙĦØ¨
ĠØ§ÙĦÙĦ Ø¹Ø¨
ĠÙĬÙĦ ØªÙĤÙĬ
ĠØ³ Ø§Ø¦ÙĤ
ĠØ´ Ø¯ÙĬØ¯
ĠØ§ÙĦÙĤ ÙĪÙī
ÙĬØª ÙĬÙĨ
ĠÙĦÙĪ ØŃØ§Øª
ÙĪ ÙĬÙģ
ĠØ¹ Ø§Ø¦ÙĦ
ĠÙħØŃ ÙĦØ§Øª
ÙĨ ÙĪ
ÙĬØª Ø¯
ĠØ§ÙĦÙħÙĪ Ø§ÙģÙĤØ©
ĠØ·ÙĨ Ø¬Ø©
ĠØ§ÙĦÙĨÙĬ Ø§Ø¨Ø©
Ùģ Ùģ
ĠØ® Ø±Ø¬
ĠÙħØ³ Ø§Ø±
ĠØ´Ø®Øµ Ø§
ĠØªØ³Ùħ ØŃ
ĠØ§ÙĦØ¨ÙĦØ¯ Ø§ÙĨ
Ø¶ Ø¨
ĠÙĤ ØµØ±
ĠØ§ÙĦØ§Ø³ Ø¨Ø§ÙĨÙĬ
ĠØ³ ÙħÙĪ
ÙħÙĬ ÙĪÙħ
ĠØ§ÙĦÙĨ Ø®
ĠØªØ± Ø¯
ĠÙĬØŃ Ø¨
ĠÙħØ² Ø§ÙĬØ§
Øº Ø§
Ø¹ÙĦ Ø§Ùħ
ĠÙĦÙĦ Ø¬ÙħÙĬØ¹
Ø§Ø· Ø§Øª
ĠØª ØªØ®
Øµ ÙĬ
ĠÙĪØ§ÙĦ ØªØ®
ĠØªØ® ØªÙĦÙģ
ĠÙĦÙĥÙĨ Ùĩ
ĠÙĨØ¸ Ø±Ø©
ĠÙĦÙĦ Ø§Ø¨
ĠØ§ÙĦØ¬ ÙħÙĦØ©
ĠØ§ÙĦÙĦ ÙĪ
ĠØ§Ø® ØªØ¨Ø§Ø±Ø§Øª
ĠÙħØª Ø®ØµØµØ©
Ø§ÙĨ ÙĪ
ØªØ¯ Ø¦ÙĬÙĨ
ĠØ§ÙĦØ§ÙĦ ØºØ§Ùħ
Ġ12 5
ĠÙĪÙħ Ø®
ĠÙģ Ø§ÙĬØ±
ĠØ§ÙĦÙĤ Ø¶ÙĬØ©
ÙħÙĨ ÙĬ
ĠØ±ÙĪ Ø§Ø¨Ø·
ÙĤ ÙĬÙĨ
ĠÙģ ÙĤÙĩ
ĠÙ ¾
ĠÙĤ ÙĬØ§Ùħ
ĠÙĪØ§ÙĦØª Ø´
ĠØªØ¤ ÙĥØ¯
ĠØ§ÙĦØªØ® Ø·ÙĬØ·
ĠÙħÙĨ Ø³
ÙĤÙĦ Ø§ÙĦ
ĠØ®ÙĦ ÙĬÙģØ©
ĠØª ÙĪØµ
ĠØ§ÙĦÙħ Ø§Ø±ÙĥØ§Øª
ĠØ¨Ø± ÙħØ¬Ø©
ĠØ§ÙĦØ§Ø² ÙĬØ§Ø¡
ĠÙĪØ§ÙĦØª Ø·ÙĪÙĬØ±
ÙģÙĬ ÙĤ
ĠØªÙħ ÙĪØ²
ĠÙĬØŃÙĬ Ùī
ĠÙĤ ÙĬØ¯
ĠØ§ÙĦØ¶ ÙĪØ¡
ĠÙĬÙħÙĥÙĨ ÙĨÙĬ
ĠØ§ÙĦØ§Ø¯ Ø¨ÙĬØ©
ĠØ§ÙĦØ®Ø¨Ø± Ø©
ĠÙħØ±Ø§Ø¬ Ø¹Ø§Øª
ĠØ§ÙĦØ§Ø¯ Ø§Ø±ÙĬ
ĠØ¨Ø§ÙĦ Ø§Ø¹
ĠØ§ÙĦÙĪÙĤ ÙĪØ¯
ĠØ§ÙĦÙĪÙĦ Ø§Ø¯Ø©
ĠØ¨ÙĪØµ Ø©
ĠØ§ÙĦØ¨Ø· ÙĪÙĦØ©
ĠØ¨Ø²ÙĬ Ø§Ø±Ø©
ĠØ§ Ø¯ÙĬØ¯
ĠÙħØ· Ø§ÙĦØ¨
ĠÙĤ Ø±ÙĬØ¨
ĠØ§ÙĦØ¬Ùħ Ø¹
ØªØ§ ÙĪÙī
Ø§ ÙĪÙī
ĠØ§ÙĦØ§Ø¨ Ø¹Ø§Ø¯
ĠØ§ÙĦÙħØ® Ø¯Ø±Ø§Øª
ĠØ¶Ø¹ Ùģ
ĠØ§ÙĦØ´ ØªØ§Ø¡
ĠØ§ÙĦØ§Ø³Ùħ Ø§Ø¡
ĠØ§Ø¯ÙĬØ¯ Ø§Ø³
ĠÙĪ Ø§Ø¦ÙĦ
ĠÙħÙĨ Øª
ĠØ§ÙĦØ· ÙĪ
ĠÙħØ· Ø±ÙĤØ©
ĠÙģ Ø§Ø¹
ĠÙĦÙĦÙħ Ø²ÙĬØ¯
ĠØ¨ØŃ Ø±
ĠØ§ÙĦØ§Ø· ÙĦØ§ÙĤ
ĠØª Ø¨ÙĦØº
ĠØ¹ÙĦ ÙħÙĬØ©
ĠØ§ÙĦØ§ØŃ ÙĬØ§ÙĨ
ĠØŃ Ø§Ø¬
ĠØ§ÙĦÙĪ Ùĥ
Ø§Ø´ ÙĬ
ĠØ§ÙĬÙĤ Ø§Ùģ
1 3
ĠÙĪ Ø¨ÙĦ
ĠØ§ÙĨ Ø¬Ø§Ø²
ĠØ§ÙĦØªØ§Ø³ Ø¹
Ø§ ÙĪØ©
ĠØ§ÙĦÙħ ÙĩÙħØ©
ĠØ³ÙĦ Ø·Ø§ÙĨ
6 2
Ùĩ ÙĬÙĦ
ĠÙĤØ¯ ÙĬÙħ
Ø· ÙĬÙģ
Ø° ÙĬØ±
ĠØ§ÙĦØ¹ ÙĤØ¯
ĠØ§ÙĦØ³ ÙģÙĬØ±
ĠØ§ÙĦÙĪ Ø³ÙĬØ·
ĠØ§ÙĦØ· Ø¨Ø¹
ĠÙĪØ§Øµ Ø§Ø¨Ø©
ĠØªØŃ Ø§ÙĪÙĦ
ĠØ§ÙĦÙħØ³Øª Ø¬Ø¯
ĠÙħØ¹ ÙĬÙĨ
ĠØ§Ø³Øª ÙĩÙĦ
ĠØ§ÙĦØªÙĬ Ø§Ø±
ĠØ§ÙĦØŃÙĬÙĪ ÙĬØ©
ĠØ±ÙĪØ§ ÙĬØ§Øª
ĠÙĪØ§ÙĦ ØªØ¬
ĠÙĨØ¯ ÙĪØ©
ĠÙĪ ÙĪÙģ
ĠÙħØ¬ Ø§ÙĦØ§Øª
ĠØ·Ø§ÙĦØ¨ Ø§ÙĨ
ĠØ§ÙĦØ´ Ø§Ùħ
ĠØ§ÙĦÙħØŃ Øª
ĠÙħØª ÙģØ±
ĠØ§ÙĦØ¨ÙĪ ÙĥØ³
ĠØ· Ø¹Ø§Ùħ
ĠØ´Ø¨ ÙĥØ§Øª
ĠØ® Ø¨
ĠØ§ÙĦÙħØª ÙĤØ¯Ùħ
ĠÙħÙĦ Ø¹Ø¨
ĠØ³ Ø¹Ø©
ĠØ§ÙĦØ³ Ø§ØŃÙĦ
ĠØ§ÙĦØ¬ ÙĬØ±
ĠØ§Ø® Øµ
ĠØ§Ø³Øª Ø¶Ø§ÙģØ©
ĠØ±Ø³Ùħ ÙĬØ©
ÙĦÙĥ ÙĬØ©
ĠØ²ÙĬØ¯ ÙĪÙĨ
Ø¨ÙĤ Ùī
ĠØ§ÙĦÙĦØ§Ø¬ Ø¦ÙĬÙĨ
Ø² ÙĪ
ĠØ¯ Ø¨
ĠÙĥÙĦ Ø§
ĠÙĨÙĤ Øµ
ĠØ§ÙĦØ§ÙĬØ· Ø§ÙĦÙĬØ©
ÙĪØ± Ùī
ĠØ¯ ÙĪØª
ĠÙħØ¯ ÙĨ
ĠÙĦØªØ¬ ÙĩÙĬØ²
ÙĨ Ùħ
ÙĬÙĨ Ø¬
Ø§Ø¨ Ø®
ĠÙĬØªØŃ Ø¯Ø«
ĠØ§ÙĦØ®Ø¶ Ø±Ø§Ø¡
ĠÙĦ ÙĬØª
ĠØª Ø±Ø¨
ĠØ§ÙĦÙħ Ø§Ø±ÙĥØ©
ĠÙĬ Ø¹ÙĦÙħ
ĠÙħØ³ Ø±ØŃ
ĠØ¹ÙĤ Ø§Ø±Ø§Øª
ÙĬØ±ÙĬ Ø³Øª
ĠÙĦÙĦØ¨ Ø´Ø±Ø©
ĠØ§ÙĦØª Ø³ÙĬÙĬØ±
ĠØ§ÙĦØ§Ø³ Ø§Ø³
ØªØ¨ Ø¯
ĠØ§ÙĦØ¨Ø±ÙĬØ· Ø§ÙĨÙĬ
ĠÙģ ÙĨÙĬØ©
ÙĤÙĬ Ø§Ùħ
ÙĪ Ø°
Ø´ Ø§
ĠÙħÙĨ Ø§Ø¬Ùħ
ĠØ§ÙĦÙħ ÙĤØ±
ĠØ³ ÙĥØ±
ĠØ³ ÙĩÙĦ
ĠÙħØª Ø·ÙĦØ¨Ø§Øª
ĠÙħØ³ ÙĬØ±Ø©
ĠØªØ± Ùī
ĠØ§ÙĦØ°ÙĩØ¨ ÙĬØ©
Ùħ ÙĪØ±
ĠÙĬÙħÙĥÙĨ ÙĥÙħ
ĠÙħÙĪ Ø¸Ùģ
ĠØ§Øµ Ø§Ø¨Ø§Øª
Ø·Ø¨ Ø§Ø¹Ø©
ĠØ§ÙĦØ¬ ÙĪÙĦØ©
ĠÙĥØªØ¨ ÙĩØ§
ĠØ§ÙĦÙĦ Ø§Ø¹Ø¨
ĠÙĥØ§Ùħ ÙĬØ±Ø§
ÙĬÙĨ Øª
ĠØªØ±Ùĥ ÙĬ
ĠØ§ÙĦØ´Ùĩ ÙĬØ¯
ÙģØ± Ø¶
ĠØ§ÙĦØº Ø±
ĠØ§Ø· Ø¨Ø§Ø¡
ĠØµØŃ ÙģÙĬØ©
Ø§Ø¹Ø¯ Ø§Ø¯
ĠØ§ÙĦÙĤ ÙĪØ§ÙĨÙĬÙĨ
ĠÙĪÙĩ ÙĦ
ĠØ§ÙĤ ØµÙī
ĠØ§ÙĦØ³Ø§Ø¯ Ø³Ø©
ĠØ§ÙĦÙģÙĬØ³ Ø¨ÙĪÙĥ
Øª ÙĥÙħ
ĠÙħ ÙĥÙĪÙĨ
ĠÙĦÙĦÙħ Ø±Ø©
ĠØ§Ø³Øª ÙĦØ§Ùħ
ĠØ§ÙĦÙĩ ÙĪ
ĠØ§ÙĦØ§ÙĦÙħ Ø§ÙĨÙĬ
Øµ Ø¨
ĠØ§ÙĦØ§Ø· Ø¹ÙħØ©
Ø§ÙĦ ÙĨ
ĠØªØ±Ùĥ ÙĬØ©
ĠØ¨Ø§ÙĦ ØªÙģ
ĠØ§ÙĦØ´ Ø§ÙħÙĦØ©
ĠØªÙĨ ÙģÙĬ
Ùħ ÙĤ
Ø² ÙħØ©
ĠØ¨Ø§ÙĦ ÙħÙĪ
ĠØ¹Ùħ ÙĪØ¯ÙĬØ©
ĠÙĨ ÙĪÙĨ
ĠØ§ÙĦØ¯ Ø§Ø®ÙĦ
ÙĦÙĬ Ùĩ
ĠÙħÙĪ Ø§Ø¹ÙĬØ¯
Ø§Ø² Ø§ÙĨ
ĠØ§Ø® ÙĬ
ĠÙħØ¬Ùħ ÙĪØ¹Ø§Øª
ĠØ¨Ø±ÙĬ ÙħÙĬÙĪÙħ
ĠØ§ÙħÙĨ ÙĬØ©
ĠØŃØ¯ÙĬØ« Ø©
ĠØ¨Ø§ÙĦØ¶ ØºØ·
ĠØ§ÙĦØ¹ÙĤ Ø§Ø±ÙĬØ©
ĠØ§ÙĦØ¹Ùħ ÙĪÙħÙĬØ©
ĠØ§ÙĦØ°Ùĩ Ø¨ÙĬ
Ùģ ÙĨ
ĠØŃ Ø¯Ø¯
ĠØ³ÙĨ Ú¯
ĠØ¬Ø¯ ÙĪÙī
ĠØ§ÙĦØ¯Ø¹ ÙĪØ©
Ø«ÙħØ± ÙĬÙĨ
ĠÙĦÙĦ Ø§
Øº ÙĪØ·
ĠØ±Ø¦ÙĬØ³ ÙĬ
ĠØ§ÙĦÙħØ³Øª Ø´ÙģÙĬØ§Øª
ĠÙĦØª Ø¶Ùģ
ĠÙĪÙĥ Ø°Ø§
ĠØ§ÙĦØ§Ø¨ Ø¯Ø§Ø¹
ĠÙĩ Ø±
ÙĬØ¨ Ø§
ĠÙĬØ² Ø§ÙĦ
ĠØ¨ÙĬÙĨØª ÙĬØ±ÙĬØ³Øª
ĠØ§ÙĦÙħÙĦ ØŃ
ĠÙĨÙģ Ø³ÙĬ
ĠØŃØ± Ø§Ø±Ø©
ĠÙħØ³ Ø¬ÙĦ
ĠØ¨Ø¬ Ø¯Ø©
ĠØ§ÙĦØµÙĦ Ø¨Ø©
Ø§ÙĦ ÙĬØ§Øª
ĠØ§ÙĦÙĦ ÙĬØ²Ø±
ĠØªÙĤØ¯Ùħ ÙĩØ§
ĠØ´ Ø§ØºØ±Ø©
4 7
ĠØ§ÙĦØª Ø²Ø§Ùħ
Ġ14 96
ĠØ§ÙĦØ¹Ø¯ Ø§ÙĦØ©
ĠÙĪØ§ÙĦØªÙĨ ÙħÙĬØ©
Ø¨ÙĬ Ø¨Ø©
ĠØ§ÙĦØµ Ø§ÙĦØŃ
ĠØ§ÙĦÙĨØ³ Ø§Ø¦ÙĬØ©
ĠØ¨Ùģ Ø¶ÙĦ
Ø§Ø· ÙĬÙĦ
ĠØ§ÙĦØ§Ø· Ø±Ø§Ùģ
ĠÙħ Ø¨ÙĦØº
ĠÙĬÙĨ Ø§
ĠØ§ÙĦØ¨ØŃ ÙĪØ«
ĠÙĪ Ø®Ø¯ÙħØ§Øª
ĠØ¨ ÙħØ¯
ĠØ§Ø² ÙĩØ±
Ø³ ÙĪÙħ
ĠØ§ÙĦØ¬Ø§Ùħ Ø¹ÙĬØ©
ĠØ²ÙĪØ¬ ØªÙĩ
ĠØº ÙĬØ§Ø¨
ĠÙĦÙĦØª Ø¹ÙĦÙĬÙħ
ĠÙĩÙĨØ¯ Ø³Ø©
Ø§Ø¯ ÙĬØ±
ĠØªÙģ ÙĤØ¯
ĠØ¨ÙħÙĨ Ø·ÙĤØ©
ĠØ§ÙĦÙĪØ³Ø· Ùī
ĠØ¨ Ø³ÙĬØ·
ĠØ¨Ø§ÙĦÙħ ØºØ±Ø¨
Ø§ÙĦ Ø§Ø³
ĠÙħÙĤ Ø¯Ùħ
ĠØ§ÙĦØ¹ Ø§Ø´Ø±
ĠØ§Ø³ Ø±
ĠÙħÙĨ ØªØµÙģ
ĠØ§ÙĦØ³ Ø¬
ĠØªØ± Ø¯Ø¯
ĠØ§Ø¶ Ø±Ø§Ø±
Ø¹ Ø§Ùģ
ĠÙģÙĬ Ùħ
ĠØ§ÙĦÙģ Ø¬
ĠØ³Øª Ø§Ø±
Ùĩ ÙĬÙĪÙĨ
ÙĪÙģ Øª
ĠÙĦÙĦÙħ Ø¨
ĠØ± Ø§Ùģ
ĠØ§ÙĦØªÙģ ÙĥÙĬØ±
ĠØ¨ Ø°ÙĪØ±
ĠÙĩ Ø¯ÙĬØ©
ĠØ®Ø· ÙĬØ±Ø©
ÙĬÙĪØª ÙĬÙĪØ¨
ĠØ§ÙĦØµØŃ Ø±Ø§Ø¡
ĠÙĪ Ø§ÙģØ¶ÙĦ
ĠØ§ÙĦØ¯Ø³Øª ÙĪØ±
ĠØ§ÙĦØŃØ± ÙħÙĬÙĨ
ĠÙĦÙĦØ´ ÙĬØ®
ĠØ® ÙĦÙĬÙĦ
ĠØ§ÙĦØŃÙĥ ÙĪÙħÙĬ
ĠÙħÙħØª Ø§Ø²
ĠÙħ Ø§Ø²
ĠØ§ÙĦÙĨ ÙĩØ§ÙĬØ©
ĠØ§ÙĦÙħÙĨ Øª
ÙĬØ¬ ÙĬ
ĠÙĬØ¯ Ø¹Ùħ
ĠØ§ÙĦØ¯Ø± Ø³
Øª ÙĬØ±
ÙĤÙĬ Ùĩ
ĠØ¨Ø¹ Ø¯ÙħØ§
ĠØªØ¹ÙĦÙĬÙħ ÙĬØ©
ĠØ¯Ø§Ø® ÙĦÙĬØ©
ĠÙĥÙĩØ±Ø¨ Ø§Ø¦ÙĬ
ØŃ ÙĬÙģØ©
ĠÙģÙĬØª Ø§ÙħÙĬÙĨ
ĠØ§ÙĦØ·ÙĦ Ø¨Ø©
ĠØ³ Ø§ØŃØ©
ĠØ§ÙĦØªÙĦÙĤ Ø§Ø¦ÙĬ
ÙĦÙģ Ø§Øª
3 3
ĠØ§Ø³ Ø§Ø³ÙĬ
ĠØ§Ø³Øª Ø¹Ø¯Ø§Ø¯
ĠØ¨Ø§ÙĨ Ùĥ
ĠØ³Ùĩ ÙĪÙĦØ©
ĠØ¨Ø§ÙĦ ØªÙĪ
Ø±ÙĪ Ùĥ
ĠÙĪÙĦ Ø°ÙĦÙĥ
Ø§ÙĦ Ø®
ĠÙħØ²Ø¯ ÙĪØ¬Ø©
ĠØ§ÙĦÙħØŃ ÙĬØ·
ĠØ§ÙĦØ´Ø¨ ÙĥØ§Øª
ĠØ¯ÙĬÙĥ ÙĪØ±Ø§Øª
Ġ ÙĬØ©
ĠØ§ÙĦØª ÙĤØ¯ÙĬÙħ
ĠÙħØ® ØªØµ
ĠÙħ Ø§Ø¬Ø³ØªÙĬØ±
Øµ ÙĦØ©
ĠÙĪØ§ÙĦ Ø§Ø«
ĠØ§ÙĦØ¹ÙĤ Ø§Ø±Ø§Øª
87 79
ĠØ´ÙĬ Ø¦Ø§
ĠÙĨ Ø³Ø¨
ĠØ§Ø³Øª Ùģ
ĠØ§ÙĦØ§Ø® ÙĦØ§ÙĤ
Ġ14 0
ĠØ§ÙĦÙģÙĬØª Ø§ÙħÙĬÙĨØ§Øª
ĠØ§ ÙĬØ³
ĠØ§ÙĦØ´ Ø§ÙħÙĦ
ØªØ¨ Ø§Ùĩ
ĠÙħØ® ØªØ¨Ø±
ĠÙĪÙģ ÙĬØ§Øª
ĠÙĪ Ø§Ø¯ÙĬ
ĠØ® Ø´
ĠØ§ÙĦØªÙģ ØªÙĬØ´
ĠØ§Ùĩ ØªÙħØ§Ùħ
ĠØ§ÙĦØµÙĪØª ÙĬØ©
Øº Ø±ÙĤ
ÙĬÙħ Ø¨Ø§Ø¨
Ġ51 2
ÙĪÙĤ Øª
ĠØ§ÙĦÙħØ¹ ÙĩØ¯
ĠØªØª Ø¹ÙĦÙĤ
ĠØ§ÙĦØ¬ ØºØ±
99 8779
ĠØ¨ÙħØŃ Ø§ÙģØ¸Ø©
ĠØ§ÙĦØ§ÙĬØ· Ø§ÙĦÙĬ
Ġ12 00
ĠØ§Ø° Ø§Ø±
ĠØ§ÙĦØ· Ùģ
ĠÙĨÙĪÙģ Ø±
ĠÙģÙĬ ÙĨ
ØªÙħ Ø§ÙĦ
ĠØŃÙħ Ø§Ø³
ĠÙģ Ø§Ø·
Ø´Ø± ØŃ
ĠØ§ÙĦÙĤ ÙĬÙħ
ĠØ¹ÙĨ ØµØ±
ĠÙħ Ø¨ÙĨÙī
Ø¨ÙĬ Ø§Ø¡
ĠØ§ÙĦÙĤ Ø·Ø±ÙĬØ©
ĠØ§ÙĦØ® Ø±ÙĪØ¬
ĠØº ÙĦ
ĠØ§ÙĦÙħÙĨ Ø§Ùģ
ĠÙĪØŃ Ø¯
ĠØ§ÙĦÙģÙĬØ² ÙĬØ§Ø¡
ĠØ§ÙĦÙģØ³ Ø§Ø¯
ĠÙĬ Ø«
ĠÙĦÙĦ ØªØ¬Ø§Ø±Ø©
ĠÙĪÙħ Øª
Øµ ÙĪØ±Ø©
Ø§Ùħ Ø±Ø©
Ø§Ùĥ Ø´
ĠÙħÙĥ Ø§ØªØ¨
ĠÙĪ Ø¨ÙĬ
ĠØ§Ø¬ ÙĨØ¨ÙĬØ©
ĠØ§ÙĦÙĨÙģ Ø§ÙĬØ§Øª
ĠØ§ÙĦÙħØ¹ Ø±ÙĪÙģ
ĠÙĦÙħ Ø¬ÙĦØ³
ĠÙĥÙĦ ÙĬÙĨ
Ġ66 998779
4 9
ÙĤ ÙĪÙĦØ©
ĠÙģ Ø±ÙĬØ¯
ĠÙħØ§ÙĨ Ø´Ø³ØªØ±
ĠÙħ ÙģØ±
ĠØ§ÙĦÙħ ÙĥÙĪÙĨØ§Øª
ĠØ¨ÙĦ Ø¯ÙĬØ©
ĠØµÙģ ÙĤØ©
ĠÙħÙĨ ÙĬ
ĠØ§ÙĦØ² ÙĬÙĪØª
ÙĤ ÙĪØ¯
ĠÙĬÙĪÙħ ÙĬØ§Øª
ĠØŃØµÙĦ Øª
ĠØºØ¶ ÙĪÙĨ
ĠÙĦ ÙħÙĦ
ĠÙģ ÙĥØ±
ĠÙĨ Ø§Øª
ĠØ³ Ø¹
ĠØ§ÙĦØªØ¹ ÙĪÙĬÙħ
ĠØª ÙĥØ³
ĠØ§ÙĦÙħ ÙĦÙĬ
ĠÙĪØ§ÙĦ Ø¨ÙĨ
ĠØ§ÙĦÙĦ Ø§Øª
ĠØªØ· Ø§ÙĦØ¨
ØªØ¨ Ø§Ø³
ĠÙĬÙħÙĥÙĨ ÙĨØ§
ĠØ§ÙĦØ§Ø¨ Ø¯
ĠØ±ÙĪ Ø§Ø¯
ĠØ§ÙĦØ§Ø± ÙĤØ§Ùħ
ØªÙģ Ø¸
ĠÙĦÙĦÙħ Ø¹Ø¯Ø§Øª
ĠØ§ÙĦØ§Ø· ÙĦØ§Ø¹
ĠÙĦ Ø§Ø·
ĠØªØŃ ÙĪÙĦ
ĠØ§ØŃ Ø³ÙĨ
Ø³ Ø§Ø³
ØªØ± Ø¨
ĠØ§ÙĦÙħØ³ Ø±ØŃ
ĠØŃÙĬØ§Øª Ùĥ
Ø±Ø¨ ÙĬÙĨ
ĠÙģÙĬ ÙĦØ§
ĠÙĪØ±ØŃ ÙħØ©
ĠØ§ÙĦØ´ Ø§Ø¦Ø¹Ø©
ĠÙĦÙĦÙħØ± Ø§Ø©
ĠÙĪØ§ÙĦ Ø§Ùģ
ĠÙĦÙĦÙħ Ø¤
ĠØ§ÙĪÙĦ Ø§Ø¯
ÙĬ Ø§Ø©
ĠÙħ ÙĬØ³
ĠØ¹ Ø¬
ĠØ¹Ø§ÙĦÙħ ÙĬ
ÙĬ Ø§Ø³
Ùģ ÙĬØ²
ĠØ§Ø® ØªÙĬ
ĠØ§ÙĦÙĬÙĪÙħ ÙĬ
2 9
Øµ Ø§Ø¯
ĠØ§ÙĦØºØ° Ø§Ø¦ÙĬ
ĠÙĪ ÙĬÙĥÙĪÙĨ
ĠØ§ÙĦØ´ Ø§Ø¨
ÙĬÙĥ Ø§Øª
ĠÙĪØ§Ùĥ Ø¯
ĠØ§ÙĦÙĥ Ø±ÙĬÙħØ©
ĠÙĩ Ø§ÙĬØ¨Ø±
ØªØµ Ø§Ø¨
ĠØ§ÙĦØ° Ø±Ø©
ĠØ§ÙĦØ¨ÙĬ Ø¶
ĠØ®ÙĦÙģ ÙĬØ©
ĠÙĥØ±Ø¨ ÙĪÙĨØ§Øª
Ø´ Ø§Ùģ
ĠØ§ÙĦØ´ Ø±Ùĥ
Ø§ÙĨÙĬ Ùĩ
ĠØ²ÙĪØ¬ ÙĩØ§
ĠØºØ± Ø§ÙħØ©
Ġ22 0
Ø¬ ÙĬØ¹
ĠØ± Ø¦Ø§Ø³Ø©
ĠØ§ÙĦØ§ØµÙĦ Ø§ØŃ
ĠØ¹ÙĦ Ø§Ø¡
ĠØ§ÙĦØ¨ ÙĪÙħ
ĠØ§ÙĦØ§Ùħ ÙĬØ±Ø©
ĠØ§ÙĦÙĤ ÙħØŃ
ĠØ§ÙĦÙħÙĨØ´ ÙĪØ±Ø©
Ø§Ø® ÙĬØµ
ĠØ§ÙĦÙĦÙĬ Ø¨ÙĬ
ĠÙĪØ§ÙĦÙĦ ØºØ§Øª
ĠØ§ÙĦØ¹ Ø°
ĠÙĦÙĦ ÙħØ¯
ĠØ§Ø¹Ø¯ Ø§Ø¯ÙĬ
ĠØ§ÙĦØ·ÙĬ ÙĪÙĨØ©
ĠØ§ÙĨ ØªØ®
ĠØ´ Ø±Ø·
ØªÙĪ Ùĥ
ØªÙĩ ÙĦØ§Ùĥ
ĠØ§ÙĦÙħÙĪØ¶ÙĪØ¹ Ø§Øª
ĠØ²Ø± Ø§Ø¹Ø©
ĠÙĤ Ø§Ø¯Ø±
ĠÙĪØ¬ Ø¯Øª
ĠØ§ÙĦ ÙĪØ¯
ĠÙħ Ø¨ÙĬØ¹
ĠØ§ÙĦÙĤ Ø¶Ø§ÙĬØ§
ĠØ§ÙĦØªÙħÙĪ ÙĬÙĦ
ĠÙħÙĨ Ø·ÙĤ
ĠÙĥ Ø±Ø¯
ĠØ§ÙĦØ³ ÙĦÙħ
ĠÙħØ¤ Ø³Ø³Ø§Øª
ĠØ§ÙĦØ³Ùħ Ø§ØŃ
ĠØŃ Ø¸Ø±
ĠØ§ÙĦÙĤØµ Øµ
ĠØ§ÙĦØ§Ø¹ Ø±Ø§Ø¶
ÙĪ Ø§Ø·Ø±
ĠØ§ÙĦÙħØµ Ø±Ùī
ĠÙĬÙĨ ÙĬÙĥ
ĠØ§Ø³ØªÙĩÙĦ Ø§Ùĥ
ĠØªÙĦÙģ Ø²ÙĬÙĪÙĨ
Ø´ Ø±ÙĬ
ĠØ§ÙĦØª Ø±ÙģÙĬÙĩ
ĠØ§ÙĦÙħÙĨ ÙĩØ¬
Ø·ÙĦ Ø§Ø¹
ĠØ¨ÙĬ Ø¦Ø©
ÙĥØª ÙĪØ±Ø©
ĠØ¹ Ø¬ÙħØ§ÙĨ
ĠØ³ ÙĪØ±ÙĬ
ĠÙĦÙĦØŃ Ø¯
ĠØ§ÙĦØªØ± Ø§Ø«
ÙĤ Ø§Ø¡
ÙĪÙĨ Ø¯
ĠÙĦØº Ø§Øª
ĠÙĪ Ø§Øº
ĠØ± Ø§Ø¯
ĠØ§ÙĦÙħØ¹Ø¯ Ø©
Øª ØªØŃ
ĠØ§ÙĨ ÙħØ§
ĠÙħ ÙĬØ²Ø©
Ø¨ ÙĥØ©
ĠØ§ÙĦØµ Ø±
ĠØ§ÙĦØ§ØŃ ÙĪØ§ÙĦ
ĠÙħÙĥ Ø¹Ø¨
ÙĪÙĨØ§ ÙĬØªØ¯
ĠØ§ÙĦÙħÙĨ Ø¸ÙħØ©
ĠØ§ÙĦÙħØ¹ Ø§Ø±Ø¶Ø©
ĠØ§ÙĦØ¨ÙĦ Ø§Ø³ØªÙĬÙĥ
ĠØ®ÙĦ Ø·
Ø¯ÙĬ Ø§ÙĦ
ĠÙģ Ø±ÙĪØ¹
ĠÙħÙĨ ØµÙĪØ±
ĠØ§ÙĦØª ÙħØ±
ĠØ± Ø¨Ø·
ĠÙĥÙĦ Ùĩ
ĠØ§ÙĦÙħØ± Ø¶
Ø§Ø¹ ÙħØ©
ĠØ§ÙĦØªØŃ Ø¯ÙĬØ«
ĠÙĪØ¨Ø± ÙĥØ§Øª
ĠØ² ÙģØ§Ùģ
ĠØ§Øµ Ø¯Ø±
Ø§Ø±Ø¯ ÙĨ
2 6
ÙĤ Ø§Ø°
ĠØ§ÙĦÙħ ØªØ¨
Ø§ÙĪÙĦ ÙĬÙĨ
Ø§Ø¹ Ø¨ÙĬÙĨ
ĠØ§ÙĦØ§Ùħ ØªØŃØ§ÙĨØ§Øª
ĠØ§ÙĦÙħÙĪ Ø§ØµÙģØ§Øª
ĠØ§ÙĦØ¬Ùħ ÙĩÙĪØ±
ĠÙĪØ¨Ø¹ Ø¶
ĠÙĥØ³ Ø±
ĠØ§Ùģ ØªØ±
ĠØ¨Ø§ÙĦØ´ Ø¹Ø±
ĠØ¨Ùħ ÙĪØ¬Ø¨
ĠØ§ÙĦØ§Ø´ Ø§Ø±Ø©
ÙĦ Ø§ÙĨ
ĠÙĦ Ø§Ø¯Ø§Ø±Ø©
ĠØ§ÙĦØª ÙĪÙĨØ³
ĠØ§ÙĦØµ ÙĦØ©
Ø§Ø¨ ÙĬØ±
Ø§ØŃ ÙĨØ©
ĠØ§ÙĦØ§Ùĩ ØªÙħØ§Ùħ
ĠÙĪ Ø¹Ø¯
ĠÙģ ÙĦØ³
ĠØº Ø§Ø²
ĠØ§ÙĨØª ÙĤÙĦ
Ø§ÙĦ ÙĬØª
ĠÙĪØ· Ø±ÙĤ
ĠØ¬ Ø§Ø¨Ø±
ĠØ§Ø¨ Ø§Ø¯
ĠØª ÙĪØ¬Ùĩ
ĠØµ Ø®ÙĪØ±
ĠØ§ÙĦÙħØª Ø®ØµØµØ©
ĠØ§ÙĦÙħØ¹ÙĦ Ùħ
ĠØ§ÙĦØ¹ÙĤ ÙĪØ¯
ĠÙĨØ¬ Ø¯
ĠØ¬ ÙĪÙĦØ©
Ø§ÙĤ Ø·
ĠØ¨Ø± Ø¦Ø§Ø³Ø©
ĠØ¹ ÙĬ
Ø® ØªÙĦÙģ
ĠØ´ Ø±ÙĬÙĥ
ĠÙħÙĪÙĤØ¹ Ùĥ
ĠØªØ´ ÙĥÙĬÙĦØ©
ĠØ§ÙĦÙħØ® Ø§Ø·Ø±
ĠÙĪ Ø°ÙĥØ±
ĠØª Ø¶Ø¹
ĠÙħÙĨ Ùģ
ĠØ¨Ùħ Ø¬Ø±Ø¯
ĠÙģ Ø§Ø±Ø³
ĠØ§ÙĦØ§ÙĦ ØªØ²Ø§Ùħ
ØºÙĬØ± Ø§Øª
ĠØ³ÙĪ ÙĬÙģ
ĠÙĬØµ Ø¨ØŃ
Ø§Ø¹ÙĦ Ø§ÙĨ
ĠÙĬ Ø¶Ùħ
ĠÙħØ· ÙĦ
ĠØ¨ ÙĬØ³
ĠØ§ ÙĪÙĤØ§Øª
ĠÙĬ ÙĪØ§Ø¬Ùĩ
ÙĪØ± Ùĥ
ÙĬÙĪ Ø¨ÙĬØ©
2 00
Øª ÙĬØ©
ĠØ³ ØŃ
ĠÙĤ Ø§Ø³Ùħ
ĠØ§ÙĦÙĥ ÙĪ
ĠÙħØ³Øª ØŃØ¶Ø±Ø§Øª
ĠÙģØ±ÙĬ Ø²Ø±
ÙĬÙħ ÙĬÙĨ
ĠØ¨Ùĥ Ø§ÙĦ
ĠÙĦÙĦØ³ÙĬ Ø§Ø±Ø§Øª
ØªÙĪ Ø³
ĠØ§ÙĦØ³ÙĬÙĨÙħ Ø§Ø¦ÙĬ
ĠÙĩØ§ØªÙģ Ùĥ
ĠØ¯ÙĬ Ø§Ø¨
ĠØ§ÙĦÙĥÙĦ ÙħØ©
ĠÙħ Ø§ÙĦÙĬ
ĠÙĦ ØºÙĬØ±
ĠØ§ÙĦÙħØ³Øª Ø´Ø§Ø±
ĠØ§ÙĦØºØ° Ø§Ø¡
ĠØ§ÙĦØ³ ÙĦÙģ
ĠØ§ÙĦÙħØŃ Ø§Ø¶
Ø³ÙĬ Ø¬
ĠØ§ÙĦØŃ Ø¨ÙĬØ¨
ĠØ§ÙĦØ¨ Ø±ÙĬ
ÙĬÙģ ÙĬØ©
ĠØªØ³ Ø¹Ùī
ĠÙĥØ¨ ÙĬØ±Ø§
ĠÙĦØ§Ø¨ ÙĨ
ĠÙĪØ² Ø±Ø§Ø¡
ĠÙħØ· Ø§Ø¹Ùħ
ĠØ§ÙĦØ§ØŃ ØªÙĬØ§Ø¬Ø§Øª
ĠØ§Ø¦ ØªÙħØ§ÙĨ
ĠØ§ ÙĬØª
Ø· Ø¨Ø©
ĠÙĬ Ø·ÙĦØ¨
ĠØ§ÙĦØª Ø¬ÙħØ¹
Ø±Ø¨ ÙĪÙĨØ§Øª
ØªÙĪ ÙĬØ§Øª
ĠÙħÙĪ Ø¸
Ø®ÙĦ ÙĤ
ĠÙĦØµ Ø§ÙĦØŃ
ĠÙĬÙħÙĨ Ø¹
ÙĥØ± Ø±
ĠÙĪØ§ÙĦØª ÙĥÙĨÙĪÙĦÙĪØ¬ÙĬØ§
Ùĩ ÙĦØ©
ĠØ³ Ø¬ÙĨ
ĠØ§ÙĨ ØªØ±ÙĨØª
Ġ9 3
ĠØ¨Ø± Ø³
ĠÙĦØµ ÙĨØ§Ø¹Ø©
7 6
ĠÙħØ¹ Ùĥ
ĠØ§ÙĦÙĨ ÙħÙĦ
ĠÙħØ³Øª ÙħØ±
ĠØ²ÙĪØ¬ Ø©
ĠÙĤ Ø§Ø±
ĠØ§Ø³ Ø·ÙĪØ§ÙĨØ©
ĠÙĪØª Ùĥ
ĠØ§Øµ Ø¯ÙĤ
ĠØ§ÙĤØªØµ Ø§Ø¯ÙĬØ©
ĠØ§ÙĦÙģ Ùħ
ĠÙħØ³ Ø¨
ĠØ§ÙĦÙħØª ÙĪÙĤØ¹
ĠÙĪØ· ØŃÙĨ
ĠØ§ÙĦØ³ Ø¬ÙĨ
ĠØ¨Ø± Ø§
ĠÙĬØ¬ Ø±ÙĬ
ĠÙĬØ´ Ø§Ø±Ùĥ
ÙħØ§Ø± Ø³Ø©
ĠØ³ Ø§Ùĥ
Ø§Ùģ Ø¹ÙĬ
ĠÙħØ¹ Ø±ÙĥØ©
ĠØ¨Ùħ ÙĪ
ÙĪÙĦÙĪØ¬ ÙĬ
ĠØ§ÙĦØª Ø¹Ø±Ùģ
ĠØ§Ùħ Ø§Ø²ÙĪÙĨ
ĠÙĦØª Ø·ÙĪÙĬØ±
ĠÙĪ Ø¬ÙħÙĬØ¹
Ø´ Ùī
ĠØ§ÙĦÙĨ Ùħ
ĠØ§ØŃ ÙĦØ§Ùħ
Ġ16 5
ĠØ§ÙĦØ§Ø³Ø¨ Ø§ÙĨÙĬØ©
ĠÙģ ØŃÙħ
ĠØ¹ Ø´Ø±Ø§Øª
ĠØ§ÙĦØª Ø§Ø¨Ø¹
Ø§ØªÙģ Ø§ÙĤ
ĠØ§ÙĦØ¶ ÙħØ§ÙĨ
ĠØ´Ø±Ùĥ Ùĩ
Ø® Ø±Ø§
ĠÙĥ ÙħØ§ÙĦ
Ø¤ Ø§Ø¯
ĠØ§ÙĬ Ø¬Ø§Ø¯
ÙĤÙĦ Ø¨
ĠÙĦ ØªØ®
ĠØª ÙĪÙħÙĬ
ĠØ§Ø¯ ÙĨÙī
ĠØ§ÙĦØªØŃ ÙĪÙĬÙĦ
ĠØ§ÙĦØ®Ø¨ Ø²
ĠÙĦ Ø§Ø¯
ĠØ§ÙĦÙħ Ø³ÙĦØ³ÙĦ
ĠØ§ÙĦÙħÙĤ Ø§ÙĦØ©
ĠÙĦØ§ÙĨ Ø´Ø§Ø¡
ĠÙĥØ± ØªÙĪÙĨ
ĠØ§ÙĦ Ø¸ÙĩØ±
ĠÙĬØª Ø¹Ø±Ø¶
ĠÙĦ Ø¨Ø¹Ø¶
ĠØ§ÙĨ Ø¬
ĠØ² Ø¬Ø§Ø¬
ÙĩØ± Ø³
ĠØ¨Ø¹Ø¯ ÙĩØ§
ĠØ§ÙĦÙĬØ¯ ÙĬÙĨ
Ø¨ ÙĪØ±
Ø· ÙĪØ±Ø©
ĠØ³ ÙĬØ¯ÙĬ
ĠØµ Ø§ØŃ
ĠØ§ÙĦÙĥ ÙĬÙħÙĬØ§Ø¡
ĠØ§Ùħ ØªØŃØ§ÙĨ
ĠØ§ÙĦØ¨ØŃ Ø±ÙĬ
ĠÙĦÙĦØ§Ø³ ØªØ®Ø¯Ø§Ùħ
ĠØ§ÙĦØ°ÙĥØ± Ùī
ĠØ¹ ÙĪØ¯
ĠÙĦÙĬ Øµ
Ø± Ø´
ĠÙĦÙĦ Ø®Ø¯ÙħØ§Øª
Ø³Øª ÙĪÙĨ
ÙĪÙĤ Ø§Ùģ
ĠØº Ø±ÙĬØ¨
ĠØªÙħØª ÙĦÙĥ
Ø§ØŃ Ùģ
ĠØ¨ÙĨ Ø§Ø·ÙĬÙĦ
ĠÙħØ¯ Ùģ
ĠØ§ÙĦÙħØ¶ Ø§ÙģØ©
ĠØ§ÙĦØ®Ø· ÙĪØ§Øª
ĠØ§Ø¬ØªÙħØ§Ø¹ ÙĬØ©
ĠØ§Ø® Ø·Ø§Ø¡
ĠÙĪÙĬØ¬ Ø¨
Ø§ÙĦ ÙĦÙĩ
ĠÙĪØ§ÙĦ ÙĬ
ĠÙħØ³Øª Ø´Ø§Ø±
ĠØ¨Ùħ Ø´
ĠÙĪØ§ÙĦØ¯ ÙĥØªÙĪØ±
ĠØ¬Ø± Ø§Ùħ
Ø³ Ùī
ĠÙĪ ÙĥÙĨ
ĠØ§ÙĦÙģ Ø¶Ø©
ĠØ§ÙĦØ¹Ø§Ùħ ÙĦØ©
ĠÙħØ«ÙĦ Ø§
ĠÙĦÙĦ Ø¨Ø±
ĠØ¨Ø§ÙĦ ØªØŃ
ĠØª ÙĬØ´
ĠØ§ÙĦÙĦ ÙĪØ§Ø¡
ĠÙĤ Ø§Ø¦ÙĦ
ÙĪØ¹ Ùĩ
ĠÙħ Ø®ØµØµ
ĠØ§ÙĦØª Ø§ÙĥØ¯
Ø° Ø§Ø°
ĠÙĦÙĦ Ø¨ÙĬ
ÙĬÙĪ ÙĬ
ĠÙĪØ§ÙĦØ¹ ÙĨØ§ÙĬØ©
ĠØ§ÙĦØªÙĪÙĨØ³ ÙĬØ©
Ø¬ Ø§ÙĦ
ĠØŃ Ø§Ùħ
ĠØ§Ø± Ø§Ø¯
Ùģ Ø²
ĠÙĥØ´ ÙħÙĬØ±ÙĬ
ĠÙģ Ø§Ø¦ÙĤØ©
ĠØ§ÙĦØ§ ÙĪÙĤØ§Øª
ÙĤÙĬ ØŃ
ĠÙĦÙĦØ§Ø³ ÙħÙĨØª
ĠØ¬ Ø§Ø¦ØŃØ©
ĠÙħØ± Ø´ØŃ
ĠØ§ÙĦÙħÙĩ ÙĨÙĬ
ĠØ§ÙĦØŃØ¨ ÙĪØ¨
ĠØºØ±Ø¨ Ø§ÙĦ
ÙĪÙĤ Ø¹Ø©
ĠØ§ÙĦÙħ ÙĬØ¯
ĠØ³ ÙĨØª
ĠØ³ ÙĬØ¯Ø©
Ø±ÙĬ Øº
ĠÙĦÙĦ Ø³ÙĦ
ĠÙħØŃ Ø§ÙħÙĬ
ÙĪØ§ ÙĬ
ĠØ§ÙĨ ØªØ±
ĠØ¯ Ø©
ĠØ§ÙĦØªØ±Ø¨ ÙĪÙĬØ©
ÙĬÙħØ¨Ø§Ø¨ ÙĪÙĬ
ĠØ³ÙĦ Ø·Ø©
ĠÙĦ Ø®Ø§Ùħ
ĠØ§ÙĦÙħ Ø±ÙĬØ¶
ĠÙĩ Ø§ÙħØ©
ĠØ§ÙĦÙĨ Ø§Ø¬
ĠØ§ÙĦØ§ ÙĩÙħ
ÙĥØ± Ùħ
ĠØªØ¬ ÙĨØ¨
Ø§Ø¯ÙĬ Ø´
ĠÙĪØ± Ø¦ÙĬØ³
ĠÙħÙĪØ¬ ÙĪØ¯
ĠØ§ÙĦØ¹ Ø³ÙĦ
ĠØ§ÙĦØ¹ Ø§Ø¦ÙĦØ©
ĠÙĦÙĦ ÙĪØµÙĪÙĦ
ĠØ§Ø± Ø§Ø¡
ÙĪÙĦÙĪØ¬ ÙĬØ§
ÙĬØ¬ ÙĬØ§Øª
ĠÙĬ Ø³Ø¨Ø¨
ĠØ§ÙĦØŃØ± Ø§Ùħ
ĠÙħÙĨ ÙĪØ¹Ø§Øª
ĠÙģ ÙĪØ±ÙĬ
ĠÙĥÙĦ Ø§Ø³
ÙĤØ± Ø§
ĠØ§ÙĦØªØ±Ùĥ ÙĬØ²
ĠØª Ø¯Ùħ
Ø§ÙĨÙĬ ÙĬÙĨ
ĠØ§ÙĦÙĪÙĥ Ø§ÙĦØ©
ĠØ ¡
ÙĨ Ø§Ø³
ĠØªØ¤ Ø¯ÙĬ
9 5
ĠØ§ÙĦØ¨ Ø§ÙĦØº
ĠØ§ÙĦØ§ÙĦ ÙĬÙģØ©
ĠÙĬØ² ÙĪØ±
Ø§Ø² ÙĨØ©
Øµ Ø±ÙĬ
ĠØ§ÙĦØ« ÙĨØ§Ø¦ÙĬØ©
ĠØªØ³ ÙĪÙĬÙĤ
ĠØ± ÙĪÙĥ
ĠØ´ ÙĤØ±Ø§Ø¡
ÙĪÙħ Ùĩ
ØªÙħ ÙĬ
ĠÙĨÙĤ Ø§Ø¨Ø©
ĠØ§ÙĦØ¯Ùħ Ø§Øº
ĠØ¬ ÙĬØ¨
Ø§Ø¯ÙĬ Ø«
ĠÙħÙģ ØªÙĪØŃØ©
ĠØ§ÙĦØ±Ùħ Ø²
ĠØ§ÙĨ Ø³Ø§ÙĨ
ĠØ´ Ø±Ø§Ø¦
ĠØ§ÙĦØ§ÙĨ ØªÙĩØ§Ø¡
ĠØ§ÙĦÙĤØ· Ø¹
ĠØªØ¤ Ø«Ø±
ĠØ§ÙĦØ³ Ø§Ø¨Ø¹Ø©
ĠØ§ÙĦØ§ÙģØªØ± Ø§Ø¶ÙĬØ©
ØŃ ÙĪÙĦ
ĠØ´Ø¨ Ø§Ø·
ĠØ§ÙĦØµØŃÙĬ ØŃØ©
ĠÙħ Ø°Ùĩ
ĠØ¹ ÙĪÙĨ
ĠØ§ÙĦØ² ÙĩØ±
Ø±Ø¬ ÙĬ
ĠÙĪØ¨Ø±ÙĥØ§Øª Ùĩ
ĠÙĬ Ø¹Ø±Ø¶
ĠÙħ ÙģØ§ØªÙĬØŃ
ĠØ§ÙĦÙħØ¯ Ùģ
ĠØ¨Ø§ÙĨ ÙĩØ§
ĠØ§ÙĦØ§ ÙĬØ©
ĠÙħØ± Øª
ĠØ¨Ø¹ Ø¯Ùħ
ĠÙĩ ÙĬÙĥÙĦ
ĠØ¯ ÙĬÙģ
ĠØ§ÙĦØ§ÙĨ ÙĪØ§Ø¹
ĠØ§ÙĦØ¶ ÙĪ
ĠÙĪØ· ÙĨÙĬØ©
ĠÙĬÙĪ Ø§ØµÙĦ
ĠØ§ÙĦØ¬ ÙĦØ³Ø©
ĠØ§ÙĦÙħÙĪ Ø¶Ø©
ĠÙĬØ¹ Ø¨Ø±
ĠØ¨Ø® Ø·
ĠØ§ ØªÙħØ§Ùħ
ĠØ§ÙĦØ¹ Ø§Ø¯ÙĬØ©
ĠØ§ÙĦÙħØ³Øª ÙħØ±
ĠØªÙĤ Ø±ÙĬØ¨Ø§
ĠØ±Ø¬ Ø§ÙĦÙĬ
ĠØ§ÙĦØ®Ø¨Ø± Ø§Ø¡
ĠÙĦÙĦØ· Ø§ÙĤØ©
ĠØ§ÙĦØ´ÙĬ Ø¹Ø©
ĠØ§ÙĦÙĩ Ø¬ÙĪÙħ
ĠØ§ÙĦØ· Ø§Ø¦Ùģ
ĠØ§ÙĦØª Ø³ÙĦÙĬÙħ
ĠØµ Ø§Ø¯ÙĤ
ĠÙĦÙħ Ø¹
ĠØ§ÙĦØ§ØŃ Ø²Ø§Ø¨
ÙĬØ· Ø§ÙĨ
ĠÙĬØ´ Ø§ÙĩØ¯
ĠØ¹ Ø³ÙĥØ±ÙĬ
Ø¸ Ø§ÙĩØ±
ĠÙħØ¬Ø¯ Ø¯Ø§
ĠÙĥ Ø§Øª
ĠØŃ Ø§ÙħÙĦ
ĠÙĤ Ø§ÙĦØ¨
ĠÙħØŃ Ø¯Ø¯
ĠØ« Ø§Ø¨Øª
ĠØŃÙĬØ§Øª Ùĩ
ĠØª Ø¨Ø±
ĠØ· Ø¨ÙĬ
ĠØ§ÙĦØ± Ø§Ø¦Ø¹Ø©
ĠØ§ÙĦÙħØŃ Ø§ÙģØ¸Ø§Øª
ĠÙĪØ§ÙĦÙħ Øª
ĠØ±Ø³ ÙĬÙģØ±
ĠÙĪØ§Ø¶ ØŃ
Ø§Ø¬ ÙĦØ©
ĠØ§ÙĦÙĤ Ø§Ø¨
ĠØ§ÙĦØº Ø±Ø¨ÙĬ
ĠØ§ÙĦØ§ØŃ ØªÙĬ
ĠØªØ¯ Ø¹Ùħ
ĠÙĨØ¸ Ø§ÙģØ©
Ø§ ÙĪÙģ
Ø§Ø±Ø³ Ø§Øª
ĠØª Ø±ÙĬ
ĠÙħØŃ Ø§Ø±Ùħ
Ø¹ ÙĤØ©
ĠØ§Ø¯ Ùī
ĠÙĪ Ø³Ùħ
ĠØ¯ ÙĪØ§Ø¡
ĠØªØ® ÙģÙĬÙģ
ØªÙħØª Ø§Ø¹
ĠØ§ÙĦØ¬ Ø§ÙĨ
Ø¨Ø· ÙĬØ©
ĠÙĦÙĦ Ø¬Ùħ
ÙĬØ² ÙĦ
ĠØ§ÙĦØ±ÙħÙĦ ÙĬ
ĠÙĦØª ÙĤ
ĠØ¨ Ø³Ùħ
ĠØŃ Ø±ÙĬØ©
ĠØ± ÙĬØ¨
Ø¨ÙĬ Ø§Øª
ĠÙĪØ§ÙĦÙħ Ùĥ
ĠØ§ÙĦØ§ØŃ ÙĬØ§Ø¡
ĠÙĪÙĨ ÙĤÙĦ
ÙĤ Ø§Ø·
ĠØ§ÙĦÙħ ÙģØ±
ĠÙħÙĨ Ø®ÙģØ¶Ø©
ĠØ§ÙĦÙĩ Ø±Ùħ
ĠØªÙĬØ´ ÙĬØ±
Ø¨Ø§Ø± Ùĥ
ĠØ§ÙĦØ³ÙĦ ÙĪÙĥ
ĠØ§ÙĦØµ ÙĨØ¯ÙĪÙĤ
ĠØ§ÙĬ Ø¬Ø§Ø±
ĠÙħÙģ ØªÙĪØŃ
ĠÙĦÙħ Ø¯
ĠÙħØªÙĪ ÙģØ±
ĠØ§ÙĦÙħÙĪØ¬ ÙĪØ¯
Ø´ ÙĬÙĨ
ĠØ± Ø¨Ø¹
Ø§ÙĦØ¯ ÙĪ
ĠØ§ÙĦØ®Ø§Ø±Ø¬ ÙĬ
ĠÙĤ ÙĦÙĤ
ÙĦÙĥ ÙĬ
ÙĨØ¯ ÙĦ
Ġ14 20
ĠØ§ÙĦØ§Ø¶ ØŃÙī
ĠØ§ÙĦ ÙĬÙĪØªÙĬÙĪØ¨
Ø§Ùħ Ø¨ÙĬØ§
ĠØ§ÙĦØ³ÙĬÙĨ ÙħØ§
ĠØµÙĨØ§Ø¹ ÙĬØ©
ĠØ§ÙĦØ¹ ÙĪ
Ø§ØŃ ÙĬÙĨ
ĠÙħØ® Ø§Ø·Ø±
ĠØ¨Ø¬ Ø§ÙĨØ¨
ĠØ³ÙĪ ÙĬØ³
ĠØ§ÙĦØ¸ Ø±ÙĪÙģ
Ùħ Ùĩ
ĠÙĦ Ø§Ø´
ĠØ§Ø¸ ÙĩØ§Ø±
ĠØ§ÙĦØ¨Ø± Øª
ĠØ¨Ø§ÙĦØ¨ Ø±ÙĬØ¯
ĠØ§ÙĦÙĪ Ø§Ø¬
ĠÙĪØ§ÙĦÙħ Ùĩ
ĠÙĪØº Ø±Ø¨
ĠÙħ ÙĥØ³
ĠØ³ ÙģÙĬØ±
Ø§Ø¨ Ø§
ĠØ· Ø§ÙĤØ©
ĠØ§ÙĦÙĤ Ø§Ø¦Ùħ
ĠÙĪØ§ÙĦØ¹ Ø´Ø±ÙĪÙĨ
ĠÙĦÙħØ´ Ø§ÙĩØ¯Ø©
8 1
ØŃ ÙĬÙĦ
ĠØª Ø°
ĠØ® ÙģÙĬÙģØ©
ĠØµ Ø¹Ø¨
ĠØ§ÙĦØ§Ùģ Ø±Ø§Ø¯
ĠØ§ÙĦØ¹ Ø·
ĠØ® Ø°
Ø§ÙĦ ÙģØ§Øª
Øµ ÙĬØ¨
ĠØ¸ Ø±ÙĪÙģ
ĠØ³Ø¹ÙĪØ¯ ÙĬØ©
ĠÙĦÙĦ Ø§Ø±
ĠØ§ÙĦÙģ Ø¦Ø§Øª
ĠØ§ÙĦØ« Ø§ÙħÙĨØ©
Ø§ÙĪ ÙĬØ§Øª
ĠÙģØ§ÙĨ Øª
ĠØŃ ØªÙĬ
ĠÙħØ³ Ø¨ÙĤ
ĠØªØ¨ Ø§Ø¯ÙĦ
ĠÙĦØ¨ÙĨ Ø§Ø¡
ĠÙĪ Ø¬Ùħ
Ø§Ø± ÙĬØ§Øª
ĠØ¬ ÙĪØ§ÙĦ
ĠØ§ÙĦØ«ÙĦØ§Ø« Ø©
ĠØ¬Ø¹ ÙģØ±
ĠÙħÙĨ Ø¯
ĠÙĪØ§ÙĦ Ø¶
ĠØ§ÙĦØ± ØµØ§Øµ
ĠØ§ÙĦØ· Ø§ØŃÙĨ
ĠØ§ÙĦÙħØª ÙĩÙħ
ĠØ§ÙĦÙĬÙĥ Ùħ
ĠØ§ÙĦÙĤÙĪ Ø§Ø¹Ø¯
ĠØ§ÙĦØªÙĦÙģ Ø²ÙĬÙĪÙĨ
ĠØŃ ÙĦØ¨
ĠÙĬØª Ø¶ÙħÙĨ
ĠØ§ÙĦÙĥÙĪÙĬØª ÙĬØ©
ÙĨ ÙĬÙģ
ØªÙģ Ø§Ø¡
Ġ14 41
Ø² Ø¦Ø©
ÙĪÙĨ ÙĩØ§
Ø§Ùģ ÙĬÙĥ
Ø·ÙĦ Ø¨Ø©
ĠØ§ÙĦÙħØªÙĪ Ø§Ø¬Ø¯
ĠØ§ÙĦÙĤÙĨ Ø§Ø©
Ùħ Ø¨ÙĬ
ĠØ± Ùĩ
ĠØ§ÙĦÙģ ÙĪØªÙĪ
Ø¨Ø± Øª
ĠØ§ÙĦÙĦ Øº
ĠØ§Ø³ ÙĦÙĪØ¨
ĠØ§ÙĦÙĪ Ùģ
ĠÙĬØªÙħ ÙĬØ²
ĠØ±Ø¤ ÙĬØ§
ĠØ§ÙĦØ³Ùħ Ø§Ø¡
ĠØ§ÙĦØ¨Ø¯ Ø¡
ĠØ¬ ÙĬØ´
Ø¨ÙĬ Ø³
ĠØ§ÙĦÙĨ Ø§Ø·ÙĤ
ĠØ§ÙĦØ² ÙģØ§Ùģ
ĠØ§ ÙĬÙħØ§ÙĨ
Ø´ Ø§ÙĨ
Ùħ Ø§Ø¡
ĠØªÙĨ Ø´Ø±
Ġ200 3
ĠØ§ÙĦÙĥØ±Ø¨ ÙĪÙĨ
ĠÙĨ Ø§Ø´
ĠØ§ÙĦØ¨ Ø§Ø²ÙĦØª
ĠØ§ÙĦØ® ÙĦÙĬ
ĠØŃÙħØ¯ ÙĪÙĥ
ĠØ§ÙĦØªØ§Ø³ Ø¹Ø©
ĠÚ ¤
Ø« Ø¨ÙĬØª
ĠØ¬Ùħ Ø¹Ø©
ĠØ§ÙĦØ§Øµ Ø§Ø¨Ø§Øª
ĠÙĨØ¸Ø± Ø§
Ø¨ ÙĬÙĦ
Ùĩ Ø±ÙĬ
Ø² Ø§ÙĦ
ĠØ§ÙĦØ® ÙĬ
ĠØ§ÙĦØ¹ÙħÙĦ Ø©
ĠØ§ÙĦÙģØ¶ Ø§Ø¦ÙĬØ©
ĠØ§ÙĦÙĥ Ùģ
Ġ14 42
ĠØ§ÙĦÙħØº ÙĨØ§Ø·ÙĬØ³ÙĬ
Ø§Ø¸ Ø§ÙģØ±
ĠÙģ Ø®
ĠØ§ÙĦÙĨ ØµÙĪØµ
ĠØ§ÙĦØ¯ Ø¬Ø§Ø¬
ĠÙĦØª Ø¹Ø²ÙĬØ²
ĠØ§ÙĦÙħØ¯ Ùī
ĠÙħØ¨ Ø§Ø¯Ø¦
ĠØª ÙĩÙħ
ĠÙĤ Øª
ĠØ§ÙĦØ³ Ø§Ø¦ÙĦ
Ø§ÙĤ Ùĩ
ĠØªØµ Ø§ÙħÙĬÙħ
ÙĪØ§ÙĨ Ø¨
Ø·Ø¨ÙĬÙĤ Ø§Øª
ĠÙħÙħØª Ø§Ø²Ø©
ĠÙģ Ø¬
ĠØ¹ Ø§Ø¯
ĠÙĦÙħ Ø¹Ø§ÙĦØ¬Ø©
ÙĪÙģ Ø§
ĠØºÙĬØ± ÙĩØ§
ĠÙĨØ³ ÙĬØª
ĠØ³ Ø§
ĠØ§ÙĦØ¯ ÙĦÙĬÙĦ
ĠØ§ÙĦÙĪ ØµÙģ
ĠØªÙħ Ø§Ø±ÙĬÙĨ
ĠØ§ÙĨ ØµØ§Ø±
ĠØ§ÙĦØ¯ Ø¨ÙĦÙĪÙħ
ĠØ§ÙĦÙĦ Ø§Ø¹Ø¨ÙĬÙĨ
Ø°ÙĥØ± Ùī
ĠØ§ÙĦÙĪØ³ Ø§Ø¦Ø·
Ùĩ Ùī
ĠØ§Ø¯ ÙĦØ¨
ĠØ§ÙĦØ§Ø¨ ØŃØ§Ø«
ĠÙĤÙĦÙĬÙĦ Ø§
Ùĥ ÙĬÙħ
Ø§ÙĦ Ø·
ĠÙĬ ØªØµ
ĠØ® Ø¨ÙĬØ±
ĠØ¨Ùħ Ø³Øª
ĠØ¨Ø¯ ÙĤØ©
ĠØªØ® Ø±Ø¬
ĠØ¬ Ø§Ø±
ĠØ§ÙĦÙĩ ÙĬØ¯Ø±ÙĪÙĦÙĬÙĥÙĬØ©
ĠÙĪØ§ÙĦÙħ Ø®
ĠØ§ÙĦØ§Ùģ ÙĥØ§Ø±
ĠÙĬ Ø¶Ø¹
Ø±Ùģ ÙĬ
ĠÙħØ± Ø¬Ø¹
ØªÙĦ ÙĤÙī
ĠØªÙĥÙĬÙĬÙģ Ø§Øª
ĠØ§ÙĦÙĤØ¶ Ø§Ø¦ÙĬØ©
ĠØ± Ø®Ø§Ùħ
ĠØ§ÙĦÙĪ Ø§Ø±Ø¯Ø©
ĠØ¨Ø¯ ÙĦ
ĠØ§ÙĦÙħØªØŃ Ø±ÙĥØ©
ĠØªØ§Ø±ÙĬØ® ÙĬØ©
ĠÙĪØ§ÙĦØ³ÙĦ Ø§Ùħ
ĠÙĦ Ø§Ø¦ØŃØ©
ĠØ¯ Ø³Øª
Ø§Ø¶ Ø±
ĠØ§ÙĦØ· ÙĪØ§Ø±Ø¦
ĠØ§Ø´ ÙĬØ§Ø¡
6 3
ĠØ³ ØªØ¬
ĠØ§Ø³ ÙĬÙĪØ·
ĠØ§ÙĦÙħÙģ ØªÙĪØŃØ©
ĠØ§Ø³Ø¨ÙĪØ¹ ÙĬÙĨ
ĠÙĦ Ø²
ĠÙĪØ§ÙĦØª Ø³
ĠØ¨ÙĦ Ø§ÙĬ
ĠØªØ¬ Ø§Ø±Ø¨
ÙĨØ§Ø¹ Ø§Øª
ĠØ§ÙĦÙĤØ¨ ÙĪÙĦ
ĠØ§ÙĦØ® Ø´
ĠÙĦÙħ Ø³Øª
ĠÙĦØ§Ø¨ Ø¯
ĠÙĩØ´ Ø§Ùħ
ĠÙĬ Ø°ÙĥØ±
ĠØ§Ø³ Ø§Ø¨ÙĬØ¹
ĠØ§ÙĦØ¬ Ø§ÙģØ©
ĠØªØ® ØªØ§Ø±
ĠÙħ Ø³ÙĬ
ĠØª Ø§ÙĥÙĬØ¯
ĠØ§ÙĦØ¨ ÙĥØ§ÙĦ
ĠÙħØª ØµÙģØŃ
ĠÙĪØµ ÙĬØ§ÙĨØ©
ĠØ§ÙĦØŃÙĦ ÙĪÙĦ
ĠÙĦØ²ÙĬ Ø§Ø¯Ø©
ĠÙħ ÙĬØ²Ø§Øª
ĠØŃ ÙĤÙĬÙĤÙĬØ©
Ø§Ø¯ ÙĬÙĦ
ĠØ¨ÙĨ Ø¸Ø§Ùħ
ĠØ¬ÙħÙĬØ¹ Ø§
ĠØ± Ø®ØµØ©
ĠØ§ÙĦØ§ÙĨ Ø¸ÙħØ©
ĠØ§ÙĦÙħØµØ±ÙĬ ÙĬÙĨ
ĠÙĬ ÙĪÙĨØ§ÙĬØªØ¯
ĠØ¨ÙĨ Ø¬Ø§ØŃ
ĠØ§ÙĦÙħØ³ Ø¦ÙĪÙĦÙĬØ©
ĠØ¹Ø¯ ÙĨ
Ùħ Ø´
ĠØ¨ Ø§ÙĤÙĬ
ĠØ§ÙĦÙĨ Ø§Ùģ
ĠØ§Ø± ØªØ¯Ø§Ø¡
ÙĦØ§ ÙĪØ©
ĠÙĬØ¤ Ø«Ø±
ĠØ§ÙĦØ´Ø¹ ÙĪØ±
ĠÙĥØ±ÙĬ Ø³Øª
ĠØ¨ ÙħÙĦ
ĠØ§ÙĦÙħ Ø§Ø¦ÙĬØ©
ĠØ¹ ÙĬÙĪÙĨ
ĠØ³ Ø¬
ĠØ§ÙĦÙĪ Øµ
ĠØ§ÙĦÙħØ¬ Ø§ÙĨÙĬ
ĠØª ØªÙĬØŃ
Ø§Ø· ÙĬØ©
ĠØ¨ÙĦ Ø¬
Ø§ÙĦ Ø²
ĠØ³ Ø§Ø¦ÙĦ
ĠÙĪØ§ÙĦ Ùī
ĠØ§ÙĦØŃ ÙħÙĦØ©
ĠÙħÙĪ Ø±ÙĬØª
Ø±ÙĪ Ø´
ĠØ§ÙĦØªÙĨ ÙģÙĬØ°
ĠØ§ÙĦÙģÙĦØ³Ø·ÙĬÙĨÙĬ ÙĬÙĨ
ĠÙĬØ³Ùħ Ùī
ĠØ§ÙĦÙħØªÙĤ Ø¯ÙħØ©
ĠØ§ Ø±Ùĥ
ĠÙĦ Ø°
Ø±ÙĪ ÙĬ
ĠØ§ÙĦØ§ÙĪÙĦ ÙĬ
ĠØ³Øª Ø©
ĠØŃØ¯ Ø§Ø¦ÙĤ
ĠØ§ÙĦØ¹Ø¯ ÙĪ
ĠØ§ÙĦØ³ÙĨ ÙĪÙĬ
ĠØ§ÙĦÙħØ³ÙĬ ØŃÙĬ
ĠÙĦÙĦ ÙħÙĦ
ĠÙĦÙĦÙħÙĨ ØªØ¯Ùī
ĠØªÙĪÙĦ ÙĬØ¯
ĠÙħÙĨØ² ÙĦÙĥ
Ø· ÙĨ
ĠØ§ÙĦÙĨ ÙħØ³
Ø¹ÙĦ Ùĩ
ĠÙĦØŃ ÙĦ
Ø§Ø¸ Ùħ
Ġ36 0
ĠÙģ ÙĦØ³Ø·ÙĬÙĨÙĬ
ĠØ¨Ùħ Ø´Ø§Ø±ÙĥØ©
Ø§ÙĦÙģ ÙĨ
ĠÙĪØ§ÙĦØ§Ø¹ ÙĦØ§Ùħ
ĠÙĦ Ø¹Ø±Ø¶
ĠØ¨Ø§ÙĦ ÙħØ¯
Ø§Ø® Ø¨Ø§Ø±
ĠØ§ÙĦØ§Ùħ Ø§ÙĨØ©
ĠÙħØ³Øª ÙĤÙĦØ©
ĠØ§ÙĦØ® ÙĬØ±ÙĬØ©
ĠØ§ÙĨÙĩ Ø§Ø¡
ĠÙĪØ§Ø¹ Ø§Ø¯Ø©
ĠØ§ÙĦ ÙĬÙĨØ§
ĠÙģ Ø§ÙĬ
ĠÙĪØ³ ÙĬÙĦØ©
ÙĨØ§Ùĩ ÙĬØ©
Ø¹Ø¯ Ø¯Ø©
Ġ17 80
ĠØ§ÙĦØ§Ùĥ Ø§Ø¯ÙĬÙħÙĬØ©
ÙĬØ§Øª ÙĬ
ĠÙĪØª ÙĤØ¯ÙĬÙħ
ĠØ¶ Ø±ÙĬØ¨Ø©
ĠØ§ÙĦØ² ÙĪØ§Ø±
ĠÙħØ¨ Ø§ÙĦØº
Ø³ Ø§Ø±Ø©
ĠØ² ÙĬÙħØ¨Ø§Ø¨ÙĪÙĬ
ÙĪ Ø§Ø±ÙĬØ®
ĠÙĪ ÙĤÙĦ
Ø² ÙĬÙħØ©
ĠØ§ÙĦØ³ ÙĥØ§ÙĨ
ĠØ§ÙĦØ§Ø³ ÙģÙĦ
ĠØªØŃ Ø¨
Ġ30 60
ĠØ¨Ø¹Ø¶ ÙĩØ§
ĠÙħÙģ ØªØ§ØŃ
ĠÙħØ« ÙĬØ±Ø©
ĠØ§ÙĦÙħ Ø´Ø±
ĠØ§ÙĦØµ Ø±Ø§Ø¹
ĠØªØ§Ø¬ ÙĬÙĦ
Ø§ÙĦ ØªÙĩ
ĠØ³ ÙĬÙħØ§
ĠØ§ÙĦØ§Øµ ÙĪÙĦ
ĠØ§ÙĦØ¹ Ø«Ùħ
ĠØ§ÙĦÙĦ ÙĬØ¨ÙĬØ©
ĠØªØ¹ Ø§ÙĨÙĬ
ĠØ§ÙĦØ¨Ø· ÙĨ
Ø´ ÙĪØ¨
ĠÙħÙĪ Ø³ÙĥÙĪ
ĠÙħØ³ Ø§ÙĦØ©
ĠØ§Ø´ ØªØ±ÙĬ
ĠØ§ÙĦÙħØ¨ Ø§Ø´Ø±Ø©
ĠÙĤÙĦ ÙĬÙĦØ©
ĠÙĪÙħÙĦ Ø§Ø¨Ø³
ĠÙĥ Ø§Ø±ÙĬ
ĠØ§ÙĦØ´ ÙĬÙĪ
ĠØ§ÙĦÙĤ Ø§Ø¹Ø¯Ø©
ĠÙħØ¯ Ø®ÙĦ
ĠØ¨ÙĬØª Ùĥ
ĠØ³Ø¯ ÙĬÙħ
Ø¬Ø² Ø§Ø¦Ø±
ÙĤ Ø§ÙĨ
Ø§Ø® ÙĬØ±
Ġ24 80
ĠÙĦÙĥÙĨ ÙĩØ§
Øª Ø¦Ø§Ø¨
Ø· Ø§ÙĦØ¨
ĠØ´ Ø§Øª
ĠØ´ ÙĬÙĪ
ĠØªÙĨ Ø¸Ùħ
ĠØ³ ÙĬÙĪ
ĠÙħØ¤ Ùĥ
ĠÙĬØ¯ ÙĦ
6 9
ĠÙħØŃ Ø§ÙĥÙħØ©
ÙĪØ¶ Ø§Ø¹
ĠØ¨ Ø§ÙĪØ±
ĠØ´ ÙĩÙĪØ±
ĠØ² Ùĥ
Ø¯Ø± Ø³
ĠØŃÙĪ Ø§Ø¯Ø«
ĠØªØ² Ø§ÙĦ
ĠØ§ÙĦÙħ ÙĪÙĤÙģ
ĠÙĥØ§Ø± ÙģÙĪØ±
ĠØ¨Ø§Ø¹ ØªØ¨Ø§Ø±
ĠØ¨ØªÙĨ Ø³ÙĬÙĤ
ĠØ³ Ø±Ø·Ø§ÙĨ
ĠØ§Ø±Ø¨ Ø§ØŃ
ĠØ¹ÙĤ Ø§Ø±
ĠÙĥ Ø§Ø²
ĠØ· ÙĩØ±Ø§ÙĨ
ØªÙĪ Ø¨Ø©
ĠÙĦÙħ Ø¤
ÛĮ Ø¯
ĠØ§ÙĦØ§ÙĤÙĦ ÙĬÙħÙĬ
ĠØ§ ØªÙĩ
ĠØ¹ ÙħØ§
ĠØ§ÙĦØ¨ Ùĩ
ĠÙĪØ§ÙĦ Ø¨ØŃØ«
ĠØ§ÙĨ ÙĨÙĬ
ĠØªÙģ ØªØŃ
ĠØ¨ ØªÙĤ
ĠØ§ÙĦÙĥÙĩØ±Ø¨ Ø§Ø¦ÙĬ
ĠØ®ØµÙĪØµ Ø§
ĠÙħÙĪØª ÙĪØ±
ĠØª Ø¬ÙħÙĬÙĦ
ĠØ§ÙĦØ¯ ÙĬÙĨÙĬ
ĠØ§ÙĦØ§Ø± Ø¶ÙĬØ©
ĠØ§ÙĦØ§ÙĥØ³ Ø¬ÙĬÙĨ
ĠØ§ÙĦÙĥ ÙĪÙħ
ĠØªØ´ ÙĥÙĦ
ĠÙĦÙĦØª Ø§ÙħÙĬÙĨ
ĠØ± ØµØ¯
ĠØ§ÙĦÙĦ ÙĬÙħÙĪÙĨ
ĠØ§ÙĦØ· ÙĬÙĨ
ĠÙĨØ³ Ø§Ø¡
ĠØ¹ÙĦ ÙħÙĬ
ĠØ§ÙĦØ³ Ø±ÙĬØ¹Ø©
ĠØ§Ø´ Øª
ĠØ¬ÙĦ Ø¯
Ġ1780 94
ĠÙħ ÙĬÙĪÙĨ
Ø§ÙĦ Ø§ÙĨ
ĠØ§ÙĦØ²ÙĪØ¬ ÙĬØ©
ĠØ¬Ø± Ø§ØŃØ©
ĠØ§ÙĦØŃØ³ Ø§Ø¨Ø§Øª
ĠØ§ÙĦÙĨØ¨ ÙĪÙĬØ©
ĠÙħÙĬÙĥ Ø§ÙĨ
ĠØ´ Ø±ÙĬØ·
ĠØ¨Ø§ÙĦ Ø¹ÙħÙĦ
ĠÙħØµ ÙĦØŃØ©
ĠØ§ÙĦÙĩ ÙĪÙĬØ©
ĠØ¬Ø§Ùĩ Ø²Ø©
Ġ3060 98
Ġ2480 85
ĠÙĦÙħ ØµÙĨØ¹
ĠØ¬ÙĪ Ø§Ø²
ĠØ§ÙĦØªØ¯ Ø®ÙĦ
ĠÙĦÙĦ Ø¨ØŃØ«
ĠØ§ÙĦØ³ ØŃ
ĠØ§ÙĦØ´ ÙĩØ¯Ø§Ø¡
Ø´ ÙĬØ·
ĠØ§ÙĦØº Ø¨Ø§Ø±
ĠØ¨Ø§Ø³ ØªÙħØ±Ø§Ø±
Ø· Ùĩ
ĠØ§ÙĦØ¬ Ø¨ÙĦ
ĠØ¨Ùħ Ø«
ĠØ§ÙĦØ´ Ø±ÙĬØ¹Ø©
ĠØ§ÙĦØ§ÙĨ Ø¨ÙĬØ§Ø¡
ĠÙĪÙĦ ÙĬØ¯
ĠÙĪØ« ÙĬÙĤØ©
ĠØ§ÙĦØª Ø§Ø«ÙĬØ±
ĠØ§ÙĦØ¬ Ø§Ùģ
ĠÙĬØ¹ Ø§ÙĨÙĬ
ĠÙģ Ø¤Ø§Ø¯
ĠØ§ÙĦØ¹ Ø¬
ĠÙĦÙĦØ¹ ÙĨØ§ÙĬØ©
ĠØ§ÙĦÙħÙĪØ³ ÙĪØ¹Ø©
Ø¤ ÙĥØ¯
ØªØ¯ Ø®ÙĦ
ĠØ§Øµ Ø§Ø¨
Ø§ØŃÙĨ Ø§Øª
ĠØ§ÙħÙĨ Ø©
ĠØ§ÙĦØ®Øµ Ùħ
ĠØ§ÙĦÙĨØ§Øª Ø¬
ĠÙĬ ØªØ¬
ĠØŃ Ø±Ø§Ø¬
Ø§ØŃ Ø¸
ĠØ§ÙĦÙĨ ÙħÙĪ
ĠØ§ÙĦØ° Ø§ÙĥØ±Ø©
ĠØ§ÙĦÙħØ· Ø§Ø±
ĠÙĪØ« Ø§Ø¦ÙĤ
ĠØ§ÙĦÙģÙĦØ³ ÙģØ©
ĠØ§ÙĦØ³ Ø¹Ø§Ø¯Ø©
ĠØ§ÙĦÙģ ÙĨØ¯ÙĤ
ĠØ§ÙĦØ§Ø³ ÙĥØ§ÙĨ
ĠØ§Ø´Ø± Ø§ÙĤ
ĠØµ ÙĦØ©
ĠÙĪÙĨ Ø´
ĠÙĬØ´ ÙħÙĦ
ĠØ§ÙĦØ´ÙħØ§ÙĦ ÙĬ
ĠÙĦ ÙĥØ³Ø§Ø±Ø©
ĠØ§ÙĦØ¬ ÙĪÙĬ
ĠØ§ÙĦÙĨ ØŃÙĪ
ĠØ§ÙĦØµ Ø¹Ø¨
ĠÙĦÙĦÙħØ¨ ØªØ¯Ø¦ÙĬÙĨ
ĠØ§ÙĦØªÙĤ ÙĨÙĬØ§Øª
ĠÙĦÙħÙĨ Ø¹
ĠØ§ÙĦØ´ÙĬ Ø¡
ĠÙĦ ØªÙģ
ĠÙħÙĪ Ø§ÙģÙĤ
ĠØ§ÙĦØ³ Ø±Ø·Ø§ÙĨ
ĠØ§ÙĦØµ Ø¨
ĠØ§ÙĦØ§ ÙĪØ¶Ø§Ø¹
ĠØª ÙħÙĦÙĥ
Øº Ø§Ùģ
Ø¦ ÙĬØ§Øª
ĠØ§Ø³Øª Ø¨Ø¯Ø§ÙĦ
ĠØ§ÙĦÙģÙĥ ÙĬØ©
ĠØ§ÙĦÙģ Ø§Ø±
ÙĤØ± Ø§ÙĨ
ĠÙĬÙĪÙħ ÙĬÙĨ
ĠØ§ÙĦØŃØ± ÙĬØ±ÙĬ
ĠØ§ÙĦØ§Ø³ØªØŃ ÙħØ§Ùħ
ĠØ§ÙĦÙĨÙĪ ÙĪÙĬØ©
Ø§Øª ÙĩÙħ
ĠÙĬ Ø±Ùī
ÙĪ Ø§Ø¹Ø¯
ĠØª ØªØ¬Ø§ÙĪØ²
Ø§Ø¯ ÙĬÙħÙĬ
ĠØ§ÙĦØŃ Ø§Ø³ÙĪØ¨
ÙĪØª Ø´
ĠØ§ÙĦÙħØ¹ Ùħ
ĠØª Ø¨Ø¹
ĠØ§ÙĦØ§Ø±Ø¯ ÙĨÙĬ
ĠÙħÙĤ Ø§Ø³
ĠØ§ÙĦØªÙĪ Ø§ÙĦÙĬ
ĠØ´Ø®Øµ ÙĬØ§Øª
ĠÙĨØ¸ Ø±ÙĬØ©
ĠØ§ÙĦÙģÙĨ ÙĪÙĨ
ĠØ§ÙĦØ¨ÙĪÙĥØ³ ÙĬØª
ĠÙħØ¨ÙĬØ¹ Ø§
ĠØ§ÙĦØ¬ Ø±ÙĬÙħØ©
ĠØ§ÙĦÙģØª Ø§Ø©
ĠÙģØ§Ø· ÙħØ©
ĠÙĬ ØŃÙĤÙĤ
ĠÙĦÙĦØŃ ÙģØ§Ø¸
Ø§ÙĦ ÙĪØ¬
Ø§ÙĪ Ø¶
ĠÙħØªØŃ Ø±ÙĥØ©
ĠØ§ÙĦØ§ÙĨØªØ® Ø§Ø¨ÙĬØ©
ĠÙĤ ÙĪÙī
ĠÙĥÙĦ Ø§ÙĬÙĨ
ĠØ§ÙĦÙĨÙĩ Ø§Ø±
ĠØ¨ÙĨÙģØ³ Ùĥ
ĠØ§ÙĦÙĥÙĪÙĥ ÙĬØ²
ĠØ·Ø±Ø§Ø¨ ÙĦØ³
ĠÙģÙĤØ¯ Ø§ÙĨ
ĠÙħÙĬØ¯ Ø§ÙĨ
ÙĨØ§Ùĩ Ø¬
Ġ30 1
ĠÙĤÙĦ Øª
ĠÙĦØ§Øµ ØŃØ§Ø¨
Ø³ Ø¹
ĠÙĪØ§ÙĦ Ø¨ÙĦ
ĠÙħØ¹ ÙĩÙħ
ĠÙĪÙĦÙĥÙĨ Ùĩ
ĠØ¨Ø§ÙĦ Ùĩ
ØªØ± Ø§Ùħ
ÙĬÙħ Ø²
ĠØ¸ Ø§ÙĩØ±Ø©
ÙĪ Ø¸Ø§Ø¦Ùģ
ÙĪØ¯ Ø¹
ĠØ§ÙĦØµ ÙĩÙĬÙĪÙĨ
ĠÙĬØŃ Ø¯Ø¯
ĠØ±ÙĬØ§Ø¶ ÙĬØ§Øª
ĠÙģ Ø§Ø®Ø±Ø©
ĠØ¹ ÙĤÙĦ
ĠØ§ÙĦØ¨ Ø«
ĠÙĪØª Ø³Øª
ĠÙħÙģ ÙĬØ¯Ø©
ĠÙħÙĨØ¸ ÙĪÙħØ©
ĠÙħ Ø³Ùħ
ĠØ§ÙĦØ³ Øª
ĠØ¨ÙĬÙĨ ÙĩÙħØ§
ĠØ§ÙĦÙħÙģ ØªÙĪØŃ
ĠØ¹ Ø³
ĠØ§ÙĦØŃ ÙĦÙħ
ĠØ§ÙĤ ÙĪÙĦ
ĠØ¹ Ø§Øµ
ĠØ¬ ÙĩØ¯
ĠØ¶ Ø±Ø¨
ÙĪÙĨ Ø¯Ø§
ĠØ§ÙĦØ§Ø± Ø«
ĠÙģ ÙĩÙĦ
ĠØ§ÙĦÙħØª Ø§Ø¨Ø¹Ø©
ĠØ§Ùĩ Ø§ÙĦÙĬ
ĠØ§ÙĦÙĦÙĤ Ø§ØŃ
Øª Ø§Ø¯
ĠÙĪØª Øª
ĠØªÙĪÙģ ÙĬÙĤ
ĠÙĦÙģ ØªØ±Ø©
ĠØ§ÙĦØªØ¹Ø¨ ÙĬØ±
ĠØ§ÙĦÙģÙĪÙĦ Ø§Ø°
ĠØ§ÙĦØ´ Ø§ÙĬ
ĠØ§ÙĦØ¯ ÙĤØ©
Ø§Ùĩ ØªÙħØ§Ùħ
ĠØº ÙĬÙĨÙĬØ§
ĠÙĦÙħ Ø±
Ø±Ø¬ ÙĪ
ĠØ§Ø´Ø± Ùģ
ĠÙĥ Ø±Ø§Ø¬
Ø¦ ÙĪÙĦ
ĠÙħØµ ÙħÙħ
ĠØ§Ø³Øª Ø«Ùħ
ÙĬØª Ø´
ĠØ§Ø¨ Øª
ĠÙĦÙĦØªÙĨ ÙħÙĬØ©
ĠØ§ÙĦÙģ Ø§
ĠØ§ÙĦØ² ÙĬ
ĠØ§ØªØµ Ø§ÙĦØ§Øª
ØªØ¨Ø§Ùĥ Ø§Øª
ĠØ³ ÙĬØ±Ø©
Ø§Ø¨ ÙĦØ§Øª
ĠÙĤ Ø±Ø·
ĠØ§ÙĦØ± Ø¤ÙĬØ©
ĠÙħØ¬ Ø§ÙĨ
ĠØ³Ø¨ Ø§ØŃØ©
Ø¨ ÙĪØ·
ĠÙĪ ÙĥØ³Ø§Ø±Ø©
ĠÙģ ÙĥØ§ÙĨ
Ø§Ø¶ Ø©
ĠÙĬØŃ Ø°Ø±
ĠÙħØ¤ Ø®Ø±Ø§
ĠØ¹Ø¨ Ø§Ø±Ø§Øª
Ø³ ÙĪÙĦ
Ġ10 5
ĠØ§ÙĦØŃ Ø§Ø±
ĠÙĦÙħ Ø²ÙĬØ¯
ÙĨØ¯ Ø³Ø©
ĠØ´ Ø±ÙĬÙģ
ĠØ¨Ø± ÙĦÙħØ§ÙĨÙĬØ©
ĠØªÙģ Ø¬ÙĬØ±
ĠÙĬØª Ø·ÙĦØ¨
ÙĬØ¯ Ø²
ĠØ¯ÙĪÙĦ ÙĬ
ĠÙĤØªÙĦ Ùī
ĠØ§ÙĦØŃÙħ ÙĬØ¯
ØªÙĩ Ø¯
ĠÙħÙĥ Ø§Ùģ
Ø¹ÙĬ ÙĬÙĨ
ĠØ§ÙĦÙĤØ· Ø±ÙĬ
ĠØ§ÙĦØ¨ÙĪ Ø§Ø¨Ø©
ĠÙĨ Ø²ÙĦ
ĠÙħØ« Ø§ÙĦ
ĠØ¨ ØªØ¬
ĠÙĦ Ø¬Ùħ
Ø§Ùģ Ø±ÙĬÙĨ
ĠØ§ÙĦØµ ÙĨØ¹
ĠØ§ÙĦÙħØ± Ø¶Ùī
ĠØªØ´ ÙĬØ±
ĠÙģØ± Ø¯
Ø¬Ø¨ Ùĥ
ĠØ§ÙĦÙģ ØªØŃ
ĠØ§ÙĦÙħØ± ØªØ¨Ø·Ø©
ĠØ¨Ùħ ÙĤ
ĠØ³Ø¨ Ø§ÙĤ
ĠØ§ÙĥØ³ ÙĬØ¯
ĠÙĪÙĦÙĩ Ø°Ø§
ĠÙħ Ø§Ø¯
ĠØ¬ ÙĬÙĦ
Ø§Ø¬ ÙĬØ©
ĠØ§ÙĦØ® ÙĬØ§Ø±
ĠØ§ÙĦÙĩ Ø§Ø´
ĠØ§ÙĦÙħÙĤ Ø§ÙĪÙħ
ĠØ³ÙĦ Ø·ÙĨØ©
ĠØ§ÙĦØ¬Ø¯ ÙĪÙĦ
Ø§Ùħ Ø¹Ø§Øª
ĠØ§ÙĦØ° ÙĥÙĬ
ĠÙĬÙĤ ØªÙĦ
ĠÙĪØ§Ø´ Ø§Ø±
ĠÙĪØ¨Ø± Ø§ÙħØ¬
ĠØ¨ÙħØ« Ø§Ø¨Ø©
ĠØ§ Ø·Ø±
ĠÙĤ Ø¶Ø§Ø¡
ĠØ± Ø§ØŃ
ĠØ§Ø¨ ØªØ¯Ø§Ø¡
Ø¨Ø® Ø§Ø±
ĠØ§ÙĦØ´Ùĩ Ø§Ø¯Ø©
ĠÙĪØªØ±Ùĥ ÙĬØ¨
ĠØ§ÙĦÙħØ± ØŃ
ĠÙĦØª ÙĥÙĪÙĨ
ĠÙĪØ§Ø³ Ø¹Ø§Ø±
ĠØ§ÙĦÙĬØ§Ø¨ Ø§ÙĨÙĬØ©
ĠØ± Ø¨ØŃ
ĠØ§ÙĦØ± Ø§Ùģ
ĠØ§Ø³Øª ÙĬØ±Ø§Ø¯
ĠØªØ¹ ÙĨÙĬ
ĠÙģØ± Ø´
ĠØ§ÙĦÙħØ³ÙĬ ØŃÙĬØ©
ĠÙĦÙĦØ§Ø³Øª Ø«ÙħØ§Ø±
ĠØ§Ø¹Ø¯ Ø§Ø¯Ø§Øª
ĠÙħÙĨ ØŃØ©
ĠØ§ÙĦÙħØ³Øª ÙĩÙĦÙĥ
ĠØªÙĬØ´ÙĬØ± ØªØ§Øª
ĠØ§ÙĦÙĥ ÙĪØ¯
ÙĥØ³ Ø±
ĠØªÙĥ Ø§ÙĦÙĬÙģ
ĠÙĬÙĪÙĨ Ø³
ĠÙĥØ´Ùģ Øª
ĠÙĪÙĪ Ø¶Ø¹
ĠØ§ÙĦÙħÙĥØ³ ÙĬÙĥ
ĠØ³Ø§ÙĨ Øª
ĠØ§ÙĦ ÙĩÙħ
ĠØ§ÙĦØŃ Ø¯Ø«
ĠØ³ÙĬ Ø§Ø±
ĠÙĬØ´ Ø¹Ø±
ĠÙĥÙĪÙĦ ÙĪÙħ
ĠØ§ Ø¯ÙĬ
ÙĬÙĥ Ø©
ĠØ§Ùħ ÙĪØ±
ĠØªÙĨ Ø§Ø³Ø¨
ĠØ§Ø´ ØªØ±Ø§Ùĥ
ĠØ§ÙĦØªØ¬ Ø§Ø±
ĠÙĦÙĤ Ø¨
ĠØŃØ¯ÙĬØ« Ø§
Ġ10 1
ĠØªØ³ÙĦ ÙĬÙĥ
ĠØª Ø°ÙĥØ±
Ø§ÙĨ Ùĥ
ĠØ¨Ø¹ ÙĬØ¯Ø§
ĠØªØ®Øµ ÙĬØµ
ÙĨ Ø§Ø©
ĠÙĬ ÙĪØ¬Ùĩ
Ø¶ Ø§Ø±
ĠÙĪØ§ÙĦ ØªÙģ
ĠØ« ÙħÙĨ
Ø¨Ø¯ Ø¡
ĠØ§ÙĦØ§Ø¹ ØªÙħØ§Ø¯
ĠÙĦÙĨ Ø¸Ø§Ùħ
ĠØ¨ Ø³ÙĦ
Ø§Øª Ùĥ
Ø§ÙĨ Ùħ
ĠÙĬ ÙĪÙģ
ĠÙħØ¹ ÙħÙĦ
ĠØ§ÙĦØ¨ ÙĨØª
ĠÙĦÙĦÙħ Ø¹
ĠØªØ´ ÙĩØ¯
ĠØ§Ø®Ø¨Ø§Ø± ÙĬØ©
ĠÙĪØµ ÙģØ©
ĠØ§ÙĦÙĥØ± Ø§Ùħ
ÙĪ Ø³ÙĬ
Ùĥ Ø¨
ĠÙĬ ØªØ®
Ø§Ø¬ Ø¹Ø©
ĠØ§ÙĦØ¯ Ø±ÙĪØ³
ĠØ§ÙĦØ§Ø´ØªØ±Ø§Ùĥ Ø§Øª
ĠÙĦ ÙĬÙħ
ĠØ¬ÙĨ Ø±Ø§ÙĦ
ĠØ§ÙĦØªÙĥ ÙĪÙĬÙĨ
ĠÙĪ Ø´Ø±Ø§Ø¡
Ø§Ø´ Ùī
ĠÙĬÙħ Ø§Ø±Ø³
ĠÙħÙĤ Ø·Ø¹
ĠØªØ³ Ø¹
ĠØ¬ÙĪØ±Ø¬ ÙĬØ§
ÙĪÙĬ Ø¨
ĠÙĩÙĪÙĦ ÙĨØ¯Ø§
ĠØ¯Ø§Ø® ÙĦÙĬ
ĠØ¹ ÙĬØ§Ø±
ĠØ³ ÙĬÙħ
ÙĪÙĨ ÙĬØ©
ĠÙĩ ÙĪØ¯
ĠØ± ØµÙĬØ¯
ĠØ§ÙĦØ·Ø¨ Ø§Ø¹Ø©
ĠÙĦÙħØ³ Ø§Ø¹Ø¯
ĠØ³Ø§Ø¨ÙĤ Ø§
ĠØ§ ÙĬÙģ
ĠØ³ ÙĪØ§Ø±
ĠØ´Ø§Ùĩ ÙĬÙĨ
ĠØªØ§ÙĬÙĦ Ø§ÙĨØ¯
ĠÙĦ Ø®Ø¯ÙħØ§Øª
ĠØ¬ ÙĦØ§ÙĦ
ĠØ¨ÙĦ Ø¯Ø©
ÙħÙĬÙħ ÙĬ
ĠØ¨Ø§ÙĦÙħ ÙħÙĦÙĥØ©
ĠØ§ÙĦÙĨÙĤ Ø¯ÙĬ
ĠØ´ ÙĪØª
ĠØ§ÙĦÙĪ Ø§Øª
Ø§Ø´ ÙĬØ±Ø©
Ø¶ÙĪ ØŃ
ĠØ§ÙĦÙģØ±Ø¯ ÙĪØ³
ĠØ§ Ø¸ÙĩØ±
ĠØ§ Ø°ÙĩØ¨
ĠÙĪ Ø¹Ø¯Ø¯
ĠÙĨ Ø±
ĠØµÙĬØ¯ ÙĦÙĬØ©
ĠØª Ø¬ÙħÙĬØ¹
ĠØª ÙĩØ¯Ùģ
ĠØ¬ Ø³
ĠØ§Ø± ØªÙĥ
ĠØªØ± Ø§Ø®ÙĬØµ
ĠØ¨ÙĪ Ø¶Ø¹
ĠØ¹Ø¯ Ø¯Ø§
ĠÙĬØªØŃ ÙħÙĦ
ĠØŃÙĤÙĬ ÙĤÙĬ
ĠØ§ÙĦØªØ¹Ø¨ Ø¦Ø©
ĠØ§ÙĦÙħØ±Ø§Ùĩ ÙĤØ©
ĠØ§ÙĦØŃ Ø´Ø¯
ĠØ§ÙĦØ´ Ø±Ø¨
ĠØ§ÙĦØ§ÙĨ Ø¨Ø§Ø¡
ĠØªÙħ ÙĥÙĬÙĨ
Ġ15 00
ĠØ± Ø§Ø´Ø¯
ĠØ§ÙĦØ´Ø®Øµ ÙĬØ§Øª
ĠØ§ÙĦØ³Ùģ Ø§Ø±Ø©
ĠØ§ÙĦØ¨Øµ Ø±Ø©
ĠÙĬ Ø±ÙģØ¶
ĠØ³ Ø§Ø¹
ĠØ§ÙĦØ§ØŃ ÙĦØ§Ùħ
ĠØ§ÙĦØ§ÙħØ§Ø±Ø§Øª ÙĬ
ĠØ§ÙĦØ¹ ÙĪØ§ÙħÙĦ
ĠØ§ÙĥØ³Ø¨ ÙĪ
Ø´ Ø§Ø¯Ø§Øª
ĠØ§ÙĦØ¬ ÙĨØ©
ĠØ§ÙĦÙħØ¤ÙħÙĨ ÙĬÙĨ
ĠÙĦÙĦØª Ø¹Ø¯ÙĬÙĨ
Ø§Ùħ Øª
ĠÙĬ Ø¬ÙħØ¹
ĠØ§ÙĪ Ø¨
ĠØ§Ø¹ÙĦ Ùħ
ĠØ§ÙĦØ®Ø· Ø§Ø¨
ĠÙħÙĨØµ Ø§Øª
ĠØ§ÙĦÙħØ³ ØŃÙĪÙĤ
ĠÙĬÙĤ ÙĪØ¯
ÙĬ ØºØ©
ĠØªÙĦÙħ ÙĬØ¹
Ùĥ ÙĦÙĬ
ĠØ¨ ÙĬÙĪ
ĠØ¬ ÙħÙĦØ©
ĠØ§ÙĦÙĤ Ø¯Ø±Ø§Øª
ĠØ³ÙĨ ØªØ±
ĠÙĦ ØªÙħ
ĠØ³ Ø§Ø±Ø©
ĠÙħÙĪ Ø§ÙĤÙģ
ÙĪØ±Ø¯ ÙĬÙĨ
ĠÙĤØ§ÙĨÙĪÙĨ ÙĬ
ĠØ§ÙĦÙħØ°Ùĥ ÙĪØ±Ø©
ĠØ¨ Ø³Øª
ĠØ§ÙĦÙħØ³ Ø§ÙģØ±
ĠØªØ¯ ÙĦ
ĠÙĬ ØªÙĬØŃ
ĠØ§ÙĦÙģ Ø¹Ø§ÙĦ
ÙĪØ³ ÙģØ§Øª
ĠØ§ÙĦÙħ ÙĬÙĥØ§ÙĨ
ĠØ¬ Ø§ÙĦ
ĠØ² ÙĩØ±Ø©
Ø²Ø§ ÙĬØ¯
ĠÙĪ Ø§ÙħØ§
Ø§ØŃ ÙħØ¯
ĠØ· Ø¨ÙĬØ¹Ø©
ĠØ§ÙĦØ± Ø¨Ø§Ø·
ÙĬØª Ø§Øª
ĠØ§ÙĦÙĩ ÙĬ
ÙĪÙĦÙĪØ¬ ÙĬØ©
ĠØ§ÙĪ Ùģ
Ø§Øª Ø°Ø©
ĠØ³ Ø¹Ø§Ø¯Ø©
ĠØ§ÙĦØ§Ø³ Ø±Ùī
ĠØ§ÙĦØµ Ø¯Ùħ
ĠØ§ÙĦØªÙĪ ØŃÙĬØ¯
ĠÙģÙĨ ØŃÙĨ
ĠØ¹Ø±Ø¨ Ùī
ÙĪÙĥ ÙĪÙĦØ§Øª
ĠØ§ÙĦ Ø¶Ø¹
ĠØ§ÙĦØ° ÙĩØ§Ø¨
ĠÙħØ¤ Ø´Ø±Ø§Øª
ĠØ¨ÙĪØª Ø§Ø¬
ĠØ¨Ø§ÙĦ ÙħØ±
Ġ7 50
ĠØ§ÙĦÙħÙĪ ØŃØ¯
ĠØ§ÙĦÙĩ Ø¯Ø§ÙĬØ§
ĠØªØµ ÙĨØ¹
ĠØ¨ÙĦ ÙĪ
ØºØ· ÙĬ
ĠØŃØµ Ø±ÙĬ
ĠÙĪØ§ÙĦ Ø´Ø±
ĠÙħØµ Ø·ÙĦ
ĠØ¨Ø§ÙĦÙħ ØŃ
ĠØ¹Ø§ÙĦÙħ ÙĬØ§
ĠØ¨ÙĦØ¯ Ø§ÙĨ
ĠØªØ§Ø³ Ø³Øª
ĠØ§ÙĨ Ø¬ÙĦÙĬØ²ÙĬØ©
Ġ11 5
ĠÙĦÙĦØªÙĪ Ø§ØµÙĦ
ĠÙĦÙĦ Ø§ÙĪÙĦØ§Ø¯
ĠÙĩ Ø§Ø±
ĠØ§ÙĦÙħØ´ Ø§Ø±Ùĥ
Ø±ÙĪØ³ ÙĪÙģØª
ĠØ§ÙĦØ¹ÙĤ ÙĪØ¨Ø§Øª
ĠØ± ÙĬØ¯
ĠÙħØ¹ Ø±ÙĪÙģ
ĠØ§ÙĦÙĤ ØªÙĦ
ĠØ§ÙĦØ±ØŃ ÙĬÙħ
ĠØªÙĤÙĦ ÙĬÙĦ
ĠØ§ÙĦØ¯ÙĬÙħÙĤØ±Ø§Ø· ÙĬ
ĠØ§ÙĦÙĩÙĬØ¯ Ø±ÙĪÙĥ
ØŃ ÙĪÙĨ
ĠØª ÙĤØ¯
ĠØ§ÙĦØªÙĨ Ø³ÙĬÙĤ
ĠØ§ÙĦØ§ÙĤÙĦ ÙĬÙħÙĬØ©
ĠØ³ÙĥÙĨ ÙĬØ©
ĠØŃ Ø¯ÙĬÙĤØ©
ĠØ¨Ø§ÙĦ Ø¹Ø±Ø¨ÙĬ
ĠØ³ÙĦ Ø§ØŃ
ĠØ§ÙĦÙħØµ Ø§Ø¯Ø±
ĠØ®ÙĦØ§ÙĦ Ùĩ
ĠØ«ÙĦØ§Ø« ÙĬØ©
ĠÙĤ Ø§Ø¯
ĠØŃ ØµÙĪÙĦ
ĠÙĨ Ø§Ø¨
ĠØ§ÙĦØ´ ÙĪ
ĠØ§ÙĦÙħØªØŃ Ø¯Ø«
ĠØ§ÙĦÙħ ÙĪØ¨Ø§ÙĬÙĦ
ĠØ§ÙĦÙħ Ø§Ø¬Ø³ØªÙĬØ±
ĠØ³ ÙĬØ³
ĠÙħØŃ Ø§Ø¬Ø±
ĠØ§ÙĦÙĪ Ø¸ÙĬÙģ
ĠØªØŃ Ø¯Ø¯
ĠØ§ÙĬ Ø¬ÙĬ
ĠÙĬØŃ Ø§ÙĪÙĦ
ĠØ³Øª Ø§ÙĬÙĦ
ĠÙĦØ¹ Ø¯Ùħ
ĠÙĬÙĦ Ø²Ùħ
ĠØ§ÙĦÙĬØ¯ ÙĪÙĬØ©
ĠØ§Ø³ Ø³
ĠØ§ÙĦØ§ØŃ Ø³Ø§Ø¡
ĠØ§ÙĦÙħØª Ø¹Ø¯Ø¯Ø©
ĠØ§ÙĦÙģØ¬ ÙĬØ±Ø©
Ø¨ Ø§ÙĬ
ĠÙģ ÙģÙĬ
ĠÙĦÙĦ ØªÙģ
ĠØ² ÙĪØ§Ø±
ĠÙħØ´ ÙĩØ¯
ĠØªØ¯ ÙĪØ±
ĠØµÙĦ Ø§ØŃÙĬØ©
ĠØ§ÙĦØ¨Ø§Ø± ÙĬØª
ĠØ§ ØªØ±Ùĥ
ĠØ§ÙĦÙħ ØµÙĦ
ĠØ§ÙĦØµ Ø§Ø¯Ø±Ø©
Ø±ÙĬÙĥ Ø§
ĠØ§ÙĦØªØ¹ÙĦÙĬÙħ ÙĬ
ĠØ¹ Ø¬ÙĦØ©
ĠØ§ÙĦØµ ØºØ±
ĠØ±Ø¬ Ø§ÙĦÙĬØ©
ĠØªØ¹ÙĦÙĬÙħ Ø§Øª
4 6
ĠØª Ø§Ø¬Ø±
Ø´Ø§Ø± ÙĬØ¹
ĠÙĪØ§Ùĥ Ø³Ø³ÙĪØ§Ø±Ø§Øª
Ø²Ø± Ø§Ø¹Ø©
ĠÙĥÙģ ÙĪØ±ÙĬ
Ø· Ø¨ÙĤ
ĠØ´ ÙĤÙĬÙĤ
Ø¬Ø± Ø§ÙĨ
ĠÙĦÙĦÙħ ÙĪØ§Ø¯
ĠØ§Ø· ÙĪÙĦ
ĠØ§ÙĨ ÙĤÙĦØ§Ø¨
ĠØ§ÙĦØ§ØŃ Øµ
ÙħÙĪ Ø®
ĠØ§ÙĦÙģØ± ÙĨ
ĠØ¨ÙħØ¹ ÙĨÙī
ĠØ±ÙĪÙĨ Ø§ÙĦØ¯ÙĪ
ĠØ¨ ÙĬÙĪØª
ĠÙĦ ÙĪØ²Ø§Ø±Ø©
ĠØ§ÙĦÙħ ÙĪØ¯
ĠØ§ÙĦØ§Ø³ ÙĬØ±
ĠØ§Ø³Øª ÙĩØ¯Ø§Ùģ
ĠØªÙħ Ø¯ÙĬØ¯
ĠÙģÙĬ Ùĥ
Ø« Ùģ
ÙĤÙĦ ÙĬÙĦ
ĠØ§ÙĦØ§Ø¹ Ø´Ø§Ø¨
ÙĨØª Ø§Ø¦Ø¬
ĠØªØ´ Ø¹Ø±
Ø§Ø¯Ø« Ø§Øª
ĠØ§ÙĦØ±ÙĤ Ø§Ø¨Ø©
ĠØ§ÙĦØ· Ø¨Ø®
ĠØ§ÙĦÙħÙĪ ØµÙĦ
Ġ200 1
ĠØ§ÙĦÙĩÙĨØ¯ Ø³ÙĬØ©
ĠÙħØªØ¹Ø¯ Ø¯
ĠØ§ÙĦØ® ÙĦØ§ÙĬØ§
ĠÙħØ¯ ÙĨÙĬ
ĠØ§ÙĦÙħØ¹ Ø§ÙĦØ¬Ø©
ĠØ§Ø³Ùħ Ùĩ
ÙĥØ§ÙĨ ÙĬØ§Øª
ĠØ®ÙĦ Ø§Ùģ
ĠØ¨ Ø§Ùģ
ĠÙĦÙĦ Ø§Ø¯
ĠÛ ©
ĠØ° Ø±ÙĪØ©
Ø¨Ø§Ø± Ø§Ø©
ĠÙĪØ¨ ÙĨØ§Ø¡
ĠØ§ØŃ ÙĬØ§ÙĨØ§
ĠØ¨ÙĪØ± ØµØ©
ĠÙħØª Ø§ØŃ
ĠØ§ÙĦØ§Ø¨ ÙĦ
Ø±ØŃ Ø¨
ĠØ§ÙĦØ± Ø¶Ø¹
Ø¨Ø§ØŃ Ø«
ĠÙĬØ± ØºØ¨
Ø§Ø³Ùħ ÙĬÙĨ
Ø³ Ø§ÙĨÙĬØ©
ĠØ· Ùĩ
ĠØ§ÙĦÙģØ± Ø²
ÙĬ ØŃØ©
ĠØŃ ÙĨ
ĠÙĦÙĦ Ø·Ø¨Ø§Ø¹Ø©
ĠØ§ÙĦØ´ÙĩØ± ÙĬØ©
ĠÙģØ¶ ÙĦÙĥ
Ø³ ÙĦØ©
ĠØ¹ ÙĥØ³
ĠØ¬ ÙĦØ¨
Ø§Ùĩ Ø©
ĠØ§Ø¬ Ø§Ø¨Ø©
ĠØ§Ø· ÙĤÙħ
ĠÙĥ ÙĨØ§
ĠØ§ÙĦØª ÙħÙĬÙħÙĬ
ĠØ§ÙĦØ± Ø¯ÙĪØ¯
ĠØ§ÙĦØŃØµ Ø±ÙĬØ©
ÙĨ ÙĪØ§Øª
ĠÙĥ Ø§ÙĦÙģÙĨ
ĠØ§Ø³Øª Ø«ÙħØ§Ø±
ĠÙĪØ· ÙĨ
ĠØ§ÙĦØªØ± ØªÙĬØ¨
ĠØ§ÙĦØ§Ø³ØªÙģ Ø³
ĠØ§ÙĦÙĬÙĪÙĨ Ø§ÙĨ
ĠØ§ÙĦÙĥØªØ±ÙĪÙĨ ÙĬØ§
ĠØ§ÙĦÙħ ÙĬØª
ĠØ§ÙĦÙĩÙĨØ¯ ÙĬØ©
ÙħØ¬ ÙĬØ§Øª
ĠØ¹ÙħÙĦ Ùĩ
ĠØ§ÙĦÙħØ¹ ØªÙħØ¯Ø©
ĠØ§ÙĦØŃØ± Ø³
ĠÙĪØªØŃ ÙĤÙĬÙĤ
ĠÙĪØ§Ø¶ ØŃØ©
ĠØ¹ Ø§
ĠØ§Ùħ Ø¨ÙĬØ±
ĠØ§ÙĦØ§Ø¨ Ø±Ø§Ø¬
ĠØªÙģ Ø¶ÙĦ
ĠØ¨Øª Ø´
ĠØ±Ø¦ÙĬØ³ ÙĬØ©
ÙĨ ÙĬØ§Ùĩ
ĠØ§ÙĦØ³ Ø§Ø¹Ø§Øª
ĠØ§Ø² Ø±ÙĤ
ĠÙĨØ¯ Ø§Ø¡
ĠØ§ÙĦÙĥØ§Ùħ ÙĬØ±Ø§
ĠÙĥ Ø¬Ùħ
ĠØ§ÙĦØ³ Ø¬Ø§Ø¯
ÙĪÙĤ ÙĬØ¹
ĠÙĬØª Ø¹ÙĬÙĨ
ĠØ§ÙĦØ¶ Ø±
ĠØªØ± Ø®ÙĬØµ
ĠØ§ÙĦØ¨ÙĬ Ø¦ÙĬØ©
ĠÙĦ Ø®Ø¯ÙħØ©
ĠÙĨ Ø´Ø±Ø©
ĠØ´ Ø±Ùģ
ĠØ§ÙĦØ§Ø± Ø¬
ĠØ±Ùħ ØŃ
ĠÙħØŃÙħ ÙĪÙĦ
ĠÙģØ¹ÙĦ Ø§
ÙĨ ÙĬÙĩ
ĠÙħ ØªÙħÙĬØ²
Ø· ÙĪ
ĠØµ ÙĬÙĨÙĬØ©
Ø§Ùĥ ÙĩØ©
Ø¯ Ø§ÙĨ
ĠÙĤ Ø§Ø¯Ø©
ĠØµ Ø§Ø¯Ø±
ĠÙħÙĪØ¬ ÙĪØ¯Ø©
ĠØ§ÙĦØ§Ø· Ø§Ø±
ĠØ´ Ø¦
ÙĪØ¨ ÙĦ
ĠÙĬØ´ ÙĬØ±
ĠØ§ÙĦÙħ ÙĪØ±
ØªØ± Ùħ
ÙĪØ§Øª Ø±
ĠØ§ÙĦÙħØ¹ ØªÙħØ¯
ĠÙĪØ¹ ÙĨØ¯
Ġ17 0
ĠØ§ÙĦÙĩÙĬØ¯Ø±ÙĪÙĥ Ø±Ø¨ÙĪÙĨØ§Øª
ĠØ§ÙĦÙħ Ø«ÙĦ
ĠÙħØŃ Ø¯Ø¯Ø©
ĠØ§ÙĦÙħØ· Ø§Ø¹Ùħ
Ø¦ ÙĪÙĬØ©
ĠØ§ÙĦØ· ÙĬØ¨
ĠØ§ÙĦÙħØ´ ÙĩØ¯
Ø§Ø³Øª ÙĬÙĥÙĬØ©
Ġ58 5
8 8
ĠØ¨ Ø°
ĠØ§ÙĦØ¹ Ø²ÙĦ
ĠØ¨Ø§ÙĦ Ø¨Ø®Ø§Ø±
ĠÙħÙģØ§Ø¬ Ø§Ø©
ĠÙĥØ§Ø±ÙĬ ÙĬØ±
Ø² Ø§ÙĨ
ĠØ§ÙĦØŃ ÙĤÙĬÙĤÙĬØ©
ĠØ§ÙĦØ® ÙĦÙĬÙĦ
ĠÙĬØª Ø¹
ÙĪÙĤ Ø§ÙĬØ©
ĠØ§ÙĦÙĩ ÙĪÙĦ
ĠØŃÙĥ ÙĪÙħÙĬØ©
ĠØ§ÙĦÙĨØ¨Ø§Øª ÙĬØ©
ĠÙĥ ÙĨØ¨
ĠØ§ÙĦÙħÙĪ Ø³ÙĬÙĤÙī
ĠÙĪØ§ÙĦØ§Ø¬ØªÙħØ§Ø¹ ÙĬØ©
ĠØ§ÙĦÙĨ Ø¬Ùħ
ĠØ« ÙĨØ§Ø¦ÙĬØ©
ĠØ§ÙĦØªÙģ Ø§ØŃ
ĠØ§ÙĦØŃ ÙĨ
ĠØ· ÙĦØ§Ø¡
ĠØ§Ø³Øª ØºÙĦØ§ÙĦ
Ø³ ÙĥÙĬ
ĠØ§ÙĦÙħØª Ø¹
ĠØªØ¯ Ø±ÙĬØ¨ÙĬØ©
Ø§Ùħ ÙĬØ±
ĠØ§ÙĦØ¯ Ø§Ø¦Ø±Ø©
ĠØ§ÙĦØº Ø±Ùģ
ĠØ¹Ø¨ ÙĬØ¯
ĠØ§ ÙĬÙħ
ĠØ¨ Ø¹ÙĦ
ĠÙĩ Ø²Ø§Ø²
ĠØ§ÙĦØŃ ÙģØ±
ĠØ¯ Ø¨ÙĦ
ĠØ§ÙĦÙģ Ø¬Ø±
Ġ59 9
ĠÙĪØ§ÙĦØ§ÙĨ ØªØ§Ø¬
ĠÙĪØ§Ø¯ Ø§Ø±Ø©
ĠØ¨Ø¯ ÙĪØ±
ĠØ¨Ø· Ø§Ø±ÙĬØ©
ĠØ§ÙĦØ³ÙĨ ÙĪÙĬØ©
ĠØ§ÙĦØ³ÙĪØ±ÙĬ ÙĬÙĨ
ĠØ§ÙĬØ¬ Ø§Ø¨ÙĬØ©
ĠØŃ Ø¯Ø§Ø¯
Ø±Ø§Ø¦ ÙĤ
ĠØ§ÙĦÙħÙģ Ø¶ÙĦ
ĠØ§ÙĦØ¨Ø¯ ÙĬÙĦ
ĠØ§ÙĦÙħ Ø¬Ø±
ĠØ§ÙĦÙĤ ÙĦÙĤ
ĠØ±Ø¦ÙĬØ³ Ø§
ĠØ§ÙĦØ§Øº Ø°ÙĬØ©
ĠØ¸ÙĩØ± Øª
ĠØ³ Ø¬Ø§Ø¯
ÙĪÙĨ Ø¬
ĠØ§ÙĦÙĤ Ùģ
ĠØ§ÙĦÙĨØµ Ø§Ø¦ØŃ
ĠØ¹ Ø°
Ø¯Ø± Ø¬Ø©
ĠÙħØ§Ø³ Ùĥ
ØŃ Ø¯Ø©
ĠØµÙĨØ¹ Ø§Ø¡
ĠØ§ÙĦÙĥÙĦ Ø§Ø³
ĠØ¨ Ø¨Ø¹Ø¶
ĠØ² ÙħØ§ÙĨ
ĠØ³Øª Ø®Ø¯Ùħ
ĠØ¬Ø§Ø¡ Øª
ĠØ§ÙĦ ÙĬØ§Øª
ĠØª Ø§Ø¨Ø¹Ø©
ĠØº Ø¯
ĠØ§Ø® ÙĦØ§ÙĤ
ÙĪØ§Ø± Ø¯
ĠÙĨ Ø¬ÙĦ
ÙĥØª ÙĬØ±ÙĬØ§
ĠØ´Ø®Øµ ÙĬ
ĠÙĬØ® Ø±Ø¬
ĠØ§ÙĦØ§Ø³Ùħ Ø§Ø¹
ĠØ§ÙĦØª ÙĪÙģ
ĠØ§ÙĦØª ÙĥÙĨÙĪÙĦÙĪØ¬
Ø« ÙĨØ§Ø¡
ĠØ§ÙĦØ³ Ø¹Ø¯
ĠÙħØŃ ÙĪØ±
ÙĬØ² ÙĬ
ĠÙĥØ¨ Ø³
ĠØ§ÙĦÙĤØ± Ø§Ø±Ø§Øª
ĠØ³ÙĦ ÙĪÙĥ
ĠØ³Ùħ Ø¹
ĠÙħØº Ø±Ø¨ÙĬØ©
Ø³ Ø§
ĠØ§ÙĦØ± ØŃÙĦØ©
ĠØ§Ø³ Ø§Ø³ÙĬØ©
ĠØ« ÙĨØ§Ø¦ÙĬ
ĠÙħÙĦ Ø¹ÙĤØ©
ĠØ¨Ùĥ Ø«ÙĬØ±
ĠØ¨ Ø±Ø¨
ĠÙĥ Ø§ÙģÙĬØ©
ØªÙĬ Ø§Ø²
ĠØ§ÙĦÙħØ± Ø´ØŃ
ĠØ§ÙĦÙĤØ§ÙĨÙĪÙĨ ÙĬ
ĠÙĤÙĦ Ø¨ÙĬ
ĠØ§ÙĦÙħØ¯Ø± Ø³ÙĬØ©
ĠÙĪØ§ÙĦØ§ØŃ ÙĥØ§Ùħ
ĠÙħÙĬÙĥ Ø±ÙĪ
ĠØ§ÙĦØªØ®ØµØµ Ø§Øª
ĠØ§ÙĨÙĩ ÙĬØ§Ø±
ĠØªØ¨ ÙĦÙĬØº
ĠÙĬÙĪ Ø¶ØŃ
ĠØ± Ø§Ø¨Ø·Ø©
ĠÙĪØ§ÙĦÙħ Ø¹Ø¯Ø§Øª
ĠØ§ÙĦØ³ÙĦ Ø§ØŃ
ĠØ¹Ø¨ Ø§Ø¯
ĠÙģØ¹ Ø§ÙĦÙĬØ©
Ø³ Ø¹ÙĬØ¯
ĠØ¨ Ø§Øº
ØªÙģ Ø§Ø¯Ø©
ĠØ¨ØŃ Ø¬Ùħ
ĠØ§ÙĦØ§Ø´ ÙĥØ§ÙĦ
ĠØª Ø¶ÙħÙĨ
ĠØ¨Øª Ø³Ø¬ÙĬÙĦ
ÙĨ Ø§Ø¯
ĠØ§ÙĦÙħ ÙĤØ±Ø±
ĠØ§ÙĦØ¹ Ø´Ø±ÙĬÙĨ
ĠØ² Ø§ÙĪÙĬØ©
ĠØ§Ø¨ ØŃØ§Ø«
ĠØªØµ Ø±Ùģ
ĠØ§ÙĦÙħØ³Øª Ø¯Ø§ÙħØ©
ĠØ§ÙĦØ¨Ø¯ ÙĨÙĬØ©
ĠØ§ÙħÙĬØ± ÙĥØ§
ÙĦ ÙĬØ§Øª
Ø§ÙĨ Ø³ÙĬ
ĠØ§ÙĦØ± Ø¨Ø¹
ĠØŃØ³ Ø§Ùħ
ĠØ§ÙĦÙĬÙĩ ÙĪØ¯
ĠØ§Ø³ØªØ´ ÙĩØ§Ø¯
ĠØ§ÙĦÙħÙħØª Ø§Ø²
ĠØ§ÙĦÙħØŃ Ø§Ø³Ø¨Ø©
ÙĪØ§Ø¬ ÙĨ
ĠÙĪØ¯ Ø¹Ùħ
ĠÙĬÙģ ØªØŃ
ĠØºÙĬØ± Ùĩ
ĠÙħÙĩ Ø¯ÙĬ
ĠÙģ Øµ
ĠØ§Ø³Øª Ø±Ø¯
ĠÙĦÙĦØ´ Ø±ÙĥØ§Øª
ĠØ§ÙĦØ¯Ø³Øª ÙĪØ±ÙĬØ©
ĠØªØ§ ÙĬÙĪØ§ÙĨ
ÙĤ Øµ
ĠÙĬ Ø¨ÙĤÙī
ĠÙĦÙĦ ÙĪØ¬Ùĩ
ĠØ§ÙĦØ³ ÙĦØ©
ĠÙħØ¹ Ø§ÙĦØ¬
ĠØªØ¹ Ø·ÙĬÙĦ
ĠØ¬Ø¯ÙĬØ¯ Ø§
Ø·ÙĪØ§ÙĨ Ø§Øª
ĠØ§ÙĦ Ø§ÙĩØ¯Ø§Ùģ
ĠØ¬ Ø±Ø¹Ø©
ĠØ§ÙĦÙħÙħ ÙĬØ²
ĠØ§ÙĦØ°Ùĥ Ø§Ø¡
ĠØµØ¹ ÙĪØ¨Ø©
ĠØ§ÙĦÙħ Ø°
ĠØ§ÙĦÙģ Ø§Ø¦Ø¯Ø©
ĠØªØ¨ ÙĤÙī
ĠØ§ÙĦØ´Ùĩ ÙĬØ±Ø©
ĠÙĨÙħ Ø·
ĠØ§ÙĦØ¯ÙĬÙĥ ÙĪØ±
ĠØ§ÙĦÙĪØ« Ø§Ø¦ÙĤ
ĠÙĦÙħ Ø¬ÙħÙĪØ¹Ø©
ĠØ¬Ø¨ ÙĩØ©
ĠØ§ ÙĬØ¯ÙĬ
ĠØ§ÙĦØ³ Ø¨Ø¹
ĠØ§ÙĦØ¯ Ùģ
ĠØ§ÙĦØ¯ ÙĥØªÙĪØ±Ø©
ĠØ§Ø³ ÙĩÙĦ
ĠØ§ÙĦØŃØ¯ÙĬØ¯ ÙĬØ©
ĠÙĦÙĦØ³ ÙģØ±
ĠÙĤ Ø¨Ø±
ĠÙĪØ§ÙĦÙħ Ø·
ĠØªØ¹ ÙĬØ´
ĠÙĬØ¹ ØªÙĤØ¯
Ø§Ø¦ Ø±ÙĬ
ĠØ§Ø¹ ØªÙĤØ¯
Ø¬Ø² Ø±
ĠÙħÙĨ Ø®ÙģØ¶
ĠÙĪØ§ÙĦ Ø¯Ø±Ø§Ø³Ø§Øª
ĠØ§ÙĦØŃ ÙģØ¸
ĠÙĦÙħ ØªØ§Ø¨Ø¹Ø©
ĠÙĬØ¯ ÙģØ¹
ĠØ§ÙĦØ±ÙĪ Ø§Ø¨Ø·
Ø´ ÙĥÙĦ
ĠØ§ÙĦØ§ÙĤ ØµØ±
ÙģÙĦ ÙĪÙĨ
ĠØ³ ÙĤØ·
ĠØ§ØŃ ØªÙĬ
ĠÙĪØ§ÙĦÙħ Ø¹ÙĦÙĪÙħØ§Øª
Ø±ÙĪØ¶ Ø©
ĠÙĤØµ ÙĬØ¯Ø©
ĠÙĬÙģ ÙĪØ²
ĠÙħØ¶Ùħ ÙĪÙĨØ©
Øª Ø³Ø§Ø¨
ĠØ§ÙĦÙĤ ÙĪÙħÙĬØ©
ĠØ¨Ùħ ØµØ±
ĠØ§Øº Ø±Ø§Ø¶
ĠØ§ Ø±ÙĪØ¹
Ø§ÙĨ Øº
ĠØ· ÙĬØ¨
ĠÙħØ´ ØªØ±ÙĥØ©
ĠØ§ÙĦÙħÙĨ ØµØ©
ĠØ§Ø¶ Ø§Ùģ
ĠØ§ÙĦØµØŃ Ø±Ø§
ĠØ§ÙĦÙĨÙĤ Ø§Ø·
5 7
ĠØ§Ø® ØªÙĦØ§Ùģ
Ú© ÙĨ
ĠØ§ÙĦÙĨØŃ ÙĦ
ĠØ¹ Ø¶ÙĪÙĬØ©
ÙĬØ² ÙĪ
ĠÙħØª Ø§Ø¬Ø±
ĠØªØ±Ùĥ ÙĬØ²
ĠÙħØµ Ø§ÙĦØŃ
ĠØ§ÙĦØ· Ø§Ø¦Ø±Ø§Øª
ĠØ§ÙĦØ§Ùħ Ø§ÙĨ
ĠØ§ÙĦØ« Ø§Ø¨ØªØ©
ĠÙĦØ± Ø¦ÙĬØ³
ĠÙħØ§Ùĩ ÙĪ
ĠØ§ÙĦØ§ØŃØªÙģ Ø§ÙĦ
ÙĦ ÙĬÙĨÙĬ
ĠØªØŃ Ø¯ÙĬ
ĠØ² Ø§ÙħØ¨ÙĬØ§
ĠØ§Ø¹ÙĦ Ø§Ùĩ
ĠÙĪØ§ÙĦØ¹ ÙĨÙĪØ§ÙĨ
Ġ39 6
ĠØ§ Ø§Ùħ
Ø¨ Ø¶
ĠÙĪØ§ÙĦÙħ ÙĪØ§Ø¯
ĠÙĬÙħ ØªÙĦÙĥ
ĠØ§ÙĦØªØ¯ Ø±ÙĬØ¨ÙĬØ©
ĠÙĩ ÙĬØª
ĠØ§ÙĦØ´ ÙĬØ¹
ĠÙĪØª ÙĦ
ĠØªØ¯ Ø±ÙĬØ³
ĠØªØ¹Ø¨ Ø¦Ø©
ĠÙĩ ÙħØ§
ĠØ® ÙĦÙĬØ¬
ĠØ³ÙĪ Ø¡
ĠÙĦØªÙĪ ÙģÙĬØ±
Ø§ÙĪ ÙĬÙĦ
ĠØ§ÙĦØ¹Ø« ÙĬÙħ
ĠÙħÙĨØµ Ø¨
Ø±ÙĤ Ø§Ø¡
ĠØ§ÙĦØ¬Ùħ Ø§ÙĩÙĬØ±
Ø§ÙĬØ± Ø§ÙĨ
ĠÙħØŃØ§ÙģØ¸ Ø§Øª
ĠØª ÙĥØª
ĠØ§ÙĦØ¹ Ø¶ÙĦØ§Øª
ĠØ¬ ÙĦØ³
ĠÙĤ Ø¯Ø±Ø§Øª
ĠØªÙĪ Ø§ÙĦÙĬØª
ĠØ§ÙĦØ¹ÙĤÙĦ ÙĬØ©
ĠÙĪØ§ÙĦ Ø§Øµ
ĠÙģØ± ÙĨ
ĠÙĨØ¨ ÙĬÙĦ
ĠØ¨ÙĦØº Øª
ĠÙĥ ÙĬØ³
ĠØ§ÙĦØªÙĨÙģÙĬ Ø°ÙĬØ©
ÙĨ Ø¹Ø©
Ø§Ùĥ Ø§
ĠØ§ÙĦØ· ÙĪÙĬÙĦ
ĠÙĦØªØŃ ÙħÙĬÙĦ
ĠØ¨ÙĪÙĦ ÙĪ
ĠØ± Ø§Øª
ĠØ§ÙĦÙĥ Ø§Øª
Ø±Ø§Ø¦ Ø·
ĠØ¨Ø§ÙĨ ÙĬØª
ĠÙĩØ§Ø´ Ùħ
Ø¦ Ùĥ
ĠØ§ÙĦØ§ÙĦ Ùĩ
ĠÙħØ³Øª ÙħØ±Ø©
ĠØ§ÙĦÙħÙģ Ø§ØµÙĦ
Ø« ÙĤ
ĠØŃ Ø¨ÙĬ
ĠØ§ÙĦØ³ÙĦ Ø·Ø§ÙĨ
ĠØ¯ÙĬÙĨ ÙĬØ©
ĠØ§ÙĦØ¯ÙĪ ØŃØ©
Ø¨ Ø±ÙĬ
ĠÙĥ Ø¨Ø±Ùī
Ø§Ø³ Ùĥ
Ø§Ø¶ Ùī
ĠØ§ÙĦØ² ÙĬØ§Ø±Ø§Øª
ĠØ³ÙĬ Ø§ØŃÙĬØ©
ĠØ§ÙĦØ´Ø± ÙĤÙĬ
Ø²Ø§ ÙĬØ§
ĠØ§Ùħ Ø§ÙĨ
ĠÙĥÙĦ ÙħØ§
ĠØ§ÙĦØº Ø±Ø¶
ĠØ¬ ÙĬÙħ
ĠÙħÙĤ Ø§Ø·Ø¹Ø©
ĠÙĦØª Ø¹Ø¯ÙĬÙĨ
ĠÙĪØ¬ Ø§Ø¡
ĠØªØªÙĪ ÙģØ±
ĠÙĦÙĦØ¹ÙĦ ÙĪÙħ
Ø¹ Ùĥ
ĠØ§ÙĦÙģ Ø§Ø¦ÙĤØ©
ĠØªØµ ÙģÙĬØ§Øª
ĠÙĪØ§Øµ Ø¨ØŃ
ÙĨ ÙĩØ§
Ùģ Ùĩ
ĠØ´ Ø§ÙĥØ±
Ø¹Ø¯ ÙĦ
ĠÙħØ´ ØºÙĦ
ĠØ§ÙĦÙħØ³Øª Ø«ÙħØ±ÙĬÙĨ
ĠÙĦØªÙĨ Ø¸ÙĬÙģ
ĠØ§ÙĦØ±ÙĪØ§ ÙĬØ©
ØºØ§Ùģ ÙĪØ±Ø©
ĠØ§ÙĦÙģ ØŃØµ
ĠØ§ÙĦØªØ¹ÙĦÙĬÙħ Ø§Øª
ĠÙĨØ´Ø± Øª
ĠÙĪØ§ÙĦ ØµÙĪØ±
ÙĪØ¹ ÙĬ
ĠØ§ÙĦÙħØŃ Ø±
ĠÙħØª Ø§ØŃØ©
ĠØªØ¯ ÙģØ¹
ĠØ§ÙĦØ·ÙĦØ¨ Ø§Øª
ĠÙĨÙħ Ø´ÙĬ
ĠØ±Ø§ Ùī
ĠØ§ÙĦØµØŃÙģÙĬ ÙĬÙĨ
ĠØ§Ø³Øª Ùħ
ĠÙĬØ§Ø³ Ø±
ĠØ§ÙĦÙĨ Ø¯
ĠØ¹ÙħÙĦ Ø©
Ø´ÙĬ ØŃ
ĠÙĪØ§ÙĦ Ø«ÙĦØ§Ø«
ĠØ§ÙĦØ± ØŃÙħ
ÙĥØ± Ø§
ĠØ§ÙĦØ¶ ÙģØ©
ÙĩØ±Ø¨ Ø§Ø¡
ĠÙĨØ¬ ÙĬØ¨
ĠÙĪÙĬÙħÙĥÙĨ Ùĥ
ĠØ±Ø´ ÙĬØ¯
ĠØª ÙĤØ¯ÙĬØ±
ĠÙĬ Ø§Ø¨
Ø±ÙĬ Ø§ÙĨ
ĠØ§ÙĦØ§Ø³ ÙĦØŃØ©
ĠÙĦÙĦÙħ ÙĪÙĤØ¹
ĠØ§ÙĦØ¶ Ø±ÙĪØ±ÙĬ
ĠØŃØµ ÙĬÙĦØ©
ĠØ§ÙĦÙħØ« Ø§ÙĦÙĬØ©
ØªÙģØ¹ ÙĬÙĦ
ĠØ§ÙĦØ§Ø¦ ØªÙħ
ĠÙħØµÙĨ ÙĪØ¹Ø©
ĠØ¨ Ø§Ø²
ĠØ¨Ø§ÙĦ Ø²
Ø§Ø± ÙĬØ§
ØªØ® Ø±Ø§Ø¬
ĠÙĬÙĩ Ø¯Ø¯
ĠÙĬØª ÙĥÙĪÙĨ
ĠØ§ÙĦØªÙĨ ÙĤÙĦ
ĠÙģØ§ÙĨ Ùĥ
ĠØµÙģ ÙĪÙģ
ĠØ¬ÙĩØ§Ø² Ùĥ
ĠÙĦÙĦØµ Ø¯Ø§
ĠØ§ÙĦØ¨ÙĤ Ø§Ø¡
ĠÙĪ ÙĪØ³
ĠÙĦ Ø§ÙĦØ©
ĠØ§ÙĦÙħ Ø³Ø¨
ĠØ® ÙĦÙĬ
Ø§Ø´ ÙĬØ©
ĠØ®Ø³ Ø§Ø¦Ø±
ĠÙħØ® Ø§ÙĦÙģ
ÙĪÙħØ§Øª ÙĬÙĥ
20 21
ĠØ§Ø³ØªØ´ Ø§Ø±Ø©
ĠØ§ÙĦÙħØª Ø®ØµØµ
ĠÙħØµØ± Ø¹
ĠØ§ÙĦØªØŃ Ø¯ÙĬØ§Øª
ĠØªÙĩ Ø¯ÙĬØ¯
ĠÙĦÙĦØµ ØŃØ©
Ø§Ø¤ ÙĩØ§
ĠØ§ÙĦÙħØ¬Ùħ ÙĪØ¹Ø§Øª
ĠØ§ ÙĪØ¯
Ø° ÙĬÙĨ
ĠØº Ø§ÙĬØ©
ĠÙĤ ÙĬØ³
ĠØ§ÙĦØ®Ø· ÙĬØ¨
ĠØ§ÙĦØª ÙĪØ¬ÙĬÙĩ
ĠØ§ÙĦØ§Ùħ Ø¨Ø±Ø§Ø·
ĠØ§ÙĦÙħØŃ ØªØ±ÙģÙĬÙĨ
ĠÙĪØ§ÙĦØª Ø¹
ĠÙĦ Ø¨ÙĦ
Ø« ÙĬ
Ø« ÙĪØ±
ĠÙĬØ¹ ÙĤØ¯
ĠØ± ÙĪÙĦ
ĠØ§ÙĦØ³ Ø§ØŃ
ĠØ§ÙĦØ¨ÙĦ Ø¯ÙĬØ©
ĠÙĬÙģ Ø¹ÙĦ
ÙģÙĦÙĪÙĨ Ø²Ø§
ĠØ¨ Ø§Ø±Ø¯
ĠØ§ÙĦÙħ ØªØ¬
ĠØ¬ ÙĦÙĬ
ĠØ³Ø¨ ØŃ
ĠØ°Ø§Øª Ùĩ
ĠØ§ÙĦÙħØªÙĪØ§Ø¬Ø¯ ÙĪÙĨ
1 00
ÙĪ Ø§Øµ
ĠÙĪ Ø±ÙĪ
ĠÙĦ Ø©
ĠØ§ÙĦØ´ Ø§ÙģØ¹ÙĬ
ĠÙħÙĪØ±ÙĬØª Ø§ÙĨÙĬØ§
ĠØ§ÙĦÙħÙĨ ÙĬØ§
ĠØ§ÙĦØ¨ÙĬ ØªÙĥÙĪÙĬÙĨ
ĠØ§ÙĦØªØŃ ØªÙĬØ©
Ùĩ ÙĬØ²Ø§Øª
ĠØ¬ ÙĩØ§Øª
Ġ01 0
ĠØ§ÙĦØ§ÙģØªØ± Ø§Ø¶ÙĬ
Ø§ Ùī
ĠØ§ÙĦØ¹ Ø¸Ø§Ùħ
ÙĪØ§ ÙĬØ§
ĠØ§ÙĦØ§Ø±ÙĩØ§Ø¨ ÙĬØ©
ĠÙĨØ§ ÙĬÙĥ
ĠØ¹ ÙĪØ§ÙħÙĦ
ĠØ§ÙĦØ± Ø¶
ĠØ§ÙĦØ§Ø¨ Ø·Ø§ÙĦ
ĠØªÙĪ Ø¶ØŃ
ĠÙĨØ³ Ø§Ø¦ÙĬ
ĠØ§Ø³ØªØ±Ø¯ Ø§Ø¯
ÙĬØ¯ ÙĬÙĨ
ĠØ® ÙĦÙĬØ©
Ø³ÙĬ Ø·Ø±
ĠÙħØ¹Ø¯ ÙĦØ§Øª
Ø« Ùī
ĠØ§ÙĨ Ø¶Ùħ
ĠØ§ÙĦØ¨ ÙĨÙĬØ©
ĠØ§ÙĦØ· ÙĦØ§ÙĤ
ĠØ¬ÙĪ Ø§Ø¦Ø²
ĠÙĦØ¹ÙħÙĦ ÙĬØ©
ĠØ§ÙĦØª ÙħÙĬ
ĠØ± Ø§Ø¦ØŃØ©
ĠØ§ÙĦØŃ ÙĦÙĬØ¨
ĠÙħØª ØµÙģ
Ø±ÙĪØ³ ÙĬØ§
ĠØ§ÙĦØ¨ÙĨ Ø§Øª
ĠÙĦÙĦØ§Ùħ Ùħ
ĠØ§ÙĦÙĨ ØªÙĬØ¬Ø©
ĠÙĨÙĩ Ø§Ø¦ÙĬØ§
ĠØ§ÙĨØ¬ÙĦ ØªØ±Ø§
ĠÙħ Ø§Ø±ÙĥØ©
ĠØ§ÙĦÙħ Ø¨ÙĦØº
ĠØ´ Ø±Ø¨
ÙĪÙĤ ÙĬ
ĠØ§Ø³Ùħ Ùĥ
ĠØ§ÙĦØ¨ØŃØ±ÙĬÙĨ ÙĬØ©
Ø§Øª Ø§
Ø® Ø±Ø¬
ĠØ¯ ÙĤØ©
ĠÙĪØ² ÙĬØ§Ø¯Ø©
ĠØ§Øº ØªÙĬØ§ÙĦ
ĠØ§ÙĦØ´ ÙħÙĪØ®
ĠØ§Ùħ ÙĬ
ĠÙĪÙĩ ÙĨØ§
ĠØ§ÙĦØªÙĪ ØªØ±
ĠÙĬØ´ ÙĩØ¯
ĠØ§ÙĦØ¹ÙĤ ÙĬØ¯Ø©
Ø§Ø¯Ø« Ø©
ĠØ§ÙĦÙĪØ³ Ø§Ø¦ÙĦ
ĠÙĪØ§ÙĦ ÙĪ
ĠÙĤ Ø±ÙĬØ¨Ø©
ĠØ´ Ø§ÙħØ¨ÙĪ
ĠØ¨Ø§ÙĦØ¬ Ø³Ùħ
ÙĪ ÙĥØ³
ĠÙħ Ø¦Ø§Øª
ĠØª ØªØ¬
ĠØª Ø±ÙģÙĬÙĩ
ĠØ§ÙĦÙħ Ø®ØµØµØ©
ĠØ§ÙĦÙĪ Ø¹ÙĬ
ĠØ§Ø´ Ø§Ø±Ø©
ĠØ§ÙĤØ± Ø§Øµ
ĠØ³ Ø±ÙĬØ±
ĠØ® ÙģØ¶
ĠØµ Ø§ÙĨØ¹
Ø¦ ÙĨ
Ø§Ø® Ø§Øª
ĠØº Ø²
ĠØ¶ Ø®ÙħØ©
ĠØ§ÙĦÙħØ¹ ÙĨÙĬØ©
ĠÙģÙĬ ÙĦ
ĠÙĥ ÙĬØª
ĠØ´ Ø¹Ø¨Ø©
ĠØ¨ Ø·Ø±
Øµ Ø±ÙĬØ©
ĠÙĤ Ø§Ø¹Ø©
ĠØ§ÙĦÙĨ ÙĩØ±
ĠØ§ÙĦØ± Ø§Ø³ÙĬ
ĠÙħØª ÙĤ
ĠØ´ÙĩØ¯ Ø§Ø¡
ĠØª Ø¬Ùħ
ĠØ± Ø§Ø¬
ĠÙħØŃ Ø¯ÙĪØ¯Ø©
Ø³ÙĬ ÙĤÙĬ
ĠØ¶ ÙĪ
ĠØ¨ØŃ ÙĦÙĪÙĦ
ĠØŃØ± Øµ
Ø§ÙĦÙĬÙģ ÙĪØ±
ĠØ§ÙĦØµ Ø¹ÙĬØ¯
ĠØ§ÙĦØ§Ø¬ ÙħØ§ÙĦÙĬ
ĠÙĦØ§Ùĥ Ø«Ø±
ĠØªÙĤ Ø¨ÙĦ
ĠØ§ÙĦÙģÙĪ Ø§Ø¦Ø¯
Ø· ÙĬØ©
ĠØ§ÙĦÙĩ Ø§Ø¯ÙĬ
ĠØ§ÙĦØ§Ø® Ø·Ø§Ø¡
ĠÙĪØ¬ Ø¨Ø©
Ø§ÙĦ ÙĦ
ĠØªÙĤ Ø³ÙĬÙħ
ĠÙĬØ® ØªÙĦÙģ
Ø´ Ø§Ø±Ø§Øª
ĠØŃ ÙĦÙĬØ¨
ĠØ¹ÙĨ Ø¯ÙĬ
ĠÙħØª ÙĩÙħ
ĠØªØ¹ ÙĤÙĬÙħ
ĠØ§ÙĦØ§Ø± Ø¨Ø§ØŃ
ĠÙĤØµ ÙĬØ±
ĠÙĦÙĦØ§Ø¹ ÙĦØ§Ùħ
ĠØ§Ø®Øµ Ø§Ø¦ÙĬ
ĠØ§ÙĦØ¹ Ø§Ø¯ÙĬ
Ø§Ø« ÙĦØ©
ĠÙĪØªØµ ÙħÙĬÙħ
Ùĥ ÙĪÙħ
ĠÙĦ Ùī
ĠØ§ÙĦØ¬ÙĨ Ø³ÙĬ
ĠØ§ÙĦØ¨Ø· Ø§ÙĤØ©
ĠØ§ÙĦØ§Ø³Ùħ Ø§Ùĥ
ĠÙĤØ§Ø¦ÙĦ Ø§
ĠØŃ ÙĦØ§
ĠØ§ÙĦÙģ ÙĦÙģÙĦ
ĠØ§Ø³Øª Ø·Ø§Ø¹
ĠØ§ÙĦØ² ÙĨ
ĠÙĪØ§ÙĦ ØµÙĦ
ĠØ§ÙĦÙĥ Ø±ÙĬ
ĠÙħÙĪ Ø¶Ø©
ĠØªÙĪÙĤ ÙĬÙģ
ĠÙĦÙħØ´ Ø±ÙĪØ¹
ĠÙħ ÙĬØ´
ĠØª Ø®ÙĦ
ĠØ³ Ø§Ø¨ÙĤØ©
Ø¨Ø± ÙĬØ©
ĠØ§ÙĦÙĤ ÙħØ©
ĠØ§ÙĦÙĨ ØµÙģ
ĠØ§ÙĦØµ ÙģØ±
ĠØ§ÙĦØ¨Ø± ÙĬØ©
ĠØ§ÙĦØªØµ ÙĪÙĬØª
ĠÙĪÙĦÙĥÙĨ ÙĩØ§
ÙĨ Ø§Ùħ
ĠÙĪ ØŃÙĤÙĪÙĤ
Ø§Øµ ÙĬ
ĠØ§ÙĦØ® ÙħØ³
ÙĤØ¯ Ø§Ùħ
ĠØ¹Ø²ÙĬØ² ÙĬ
Øª Øª
ĠÙĪØ§ÙĦ Ø¹Ùħ
ĠØ§ÙĦØ¬ ÙĩÙĪØ¯
ĠØ§Ø³ ÙĩÙħ
ĠØ§ÙĦØ§ ÙĪÙĤØ§Ùģ
ĠÙĦÙĦÙĥ Ø§ØªØ¨
ĠØ¨ÙĦ Ø§Ø¯Ùĩ
ĠØ³ Ø§ÙħÙĬ
Ø±ÙĪ ØŃØ©
ĠØ§ÙĦÙĩ Ø§Ùħ
ĠØªÙĨ ØªØ¬
ĠÙħÙĥ ØªÙĪØ¨
ĠØ¨ÙĪ ÙĪØªØ³
ĠØµÙĨ Ø§Ø¯ÙĦ
ÙĬØ¯ Ø³
ĠØ§ÙĦØ² ÙħØ§ÙĨ
ĠØ¨Ø§ÙĨ ÙĪØ±
ĠØ¹Ø· ÙĦØ©
ĠÙĩ Ø§Ø¯ÙĬ
ĠØ§Ø³ ÙĨØ§ÙĨ
ÙĦÙħ ÙĬØ¹
ĠØ§ÙĦØ¨Ø® Ø§Ø±ÙĬ
Øµ Ø§Ø¨
ĠØ³ Ø§ÙĦ
ĠÙĨ Ø§ÙĤÙĦØ©
ĠÙĦÙĦ Ø§Øµ
ĠØ§ÙĦÙĤØµ ÙĬÙħ
ĠÙĥ Ø±ÙĬÙħØ©
ĠÙĪÙĨ Ø¸Ø§Ùħ
ĠØ§ÙĦØ§ÙĨØ³ Ø§ÙĨÙĬ
ĠØ§ÙĦØ³Ùĥ Ø±ÙĬ
ĠØ§ÙĦÙĨØ§Ùģ Ø°Ø©
ĠÙħØªÙĪ ÙģØ±Ø©
ĠØ±ÙĪÙħ Ø§ÙĨØ³ÙĬØ©
ĠØ§ÙĦÙħÙĤØ¯ Ø³Ø©
ĠØ§ÙĦØ§Ø¦ ØªÙħØ§ÙĨ
ĠØ§ÙĦØ¬Ø§ÙĨ Ø¨ÙĬØ©
ĠØ¨ÙĦØ¬ ÙĬÙĥØ§
ĠØª Ø±ÙģØ¶
ĠØ¬ ÙĬØ¬Ø§
ĠØ° ÙĥÙĬØ©
ÙĥØ³ Ø§Ø±Ø§Øª
ĠØ¹Ø§Ùħ Ø±
Ġ200 2
ĠØ§ÙĦØ¬ÙĨ ÙĪØ¨ÙĬ
ĠÙĪØ§ÙĦØµ ØŃØ©
ĠÙĪØ§Ø¬ ÙĩØ©
ĠÙģÙĪØ± Ø§
ĠÙĦÙĦ Ø§ÙĤ
ĠØ¬ Ø±Ùī
ĠÙĤ ÙĬØ±
ĠØ§ÙĦØ¨ Øº
ĠÙĦ Ø³Øª
ĠØª ÙĪØ±ÙĬØ¯
ĠØ§ÙĨ Øº
ĠÙħØª ÙĨØ§ÙĩÙĬØ©
Øª ÙĨÙĬ
ĠÙĦ ÙĬØ¨
ĠÙģ Ø§ÙĦÙħ
ĠØ³ Ø§ØŃ
ĠØ§ÙĦÙħØ± Ø§ÙĤØ¨Ø©
ĠÙĪØªØŃ Ø³ÙĬÙĨ
ĠØ§ÙĨØ³ Ø§ÙĨÙĬØ©
ĠÙĦÙĪÙĦ ÙĪ
ĠÙĦÙĦ Ø¨ÙĦ
ĠØ§ÙĨ Ø¨Ø§Ø¡
ĠÙĪØ§ÙĨ ÙĪØ§Ø¹
ĠÙĦÙĦØ¹ Ø±Ø¨ÙĬØ©
ĠØ±Ø¬ Ø¨
ĠØ§ÙĦØ¬Ø¯ ÙĦ
ĠØ§ÙĦØ¨Ø§Ø¨ Ø§
ĠÙħØ²Ø¯ ÙĪØ¬
ĠÙĬ Ø«ÙĬØ±
ĠØªØ· ÙĦØ¨
ĠÙĬØ³ Ø¹Ùī
ĠÙĪØ· Ø±ÙĬÙĤØ©
ĠØ®Ø³ Ø§Ø±Ø©
ĠÙħÙĨ ØªØ¯ÙĬ
ĠØ¨Ø§ÙĦ Ø¶Ø±ÙĪØ±Ø©
ĠÙħØ¹ Ø§ÙĦÙħ
ĠØ§ÙĦÙĥ ÙĬØ§ÙĨ
ĠØ¨ Ø±Ùĥ
Ø® Ø§Ø¡
ĠØ¨Ø§ÙĨ Øª
ĠØ±ÙĬ Ø§Ø¶ÙĬ
ĠØ¨Ø§ÙĦÙĦ ÙĪÙĨ
ĠØ§ÙĦÙħÙĥØ± ÙħØ©
ĠÙĥØ³ ÙĩØ§
ĠØ² Ø¹ÙĬÙħ
Ø°ÙĥØ± Ø§Øª
ĠÙĪ Ø§ÙģÙĤ
ĠØª Ø§Ø®Ø°
Ùī Ø¡
Ø§Ø¹ ÙĬØ§Øª
ĠØ® ØªÙħ
ĠØ¨Ø§ÙĦÙħ Ø¹
ĠØºØ° Ø§Ø¦ÙĬØ©
ĠØ§ÙĦÙħ Ø±ÙĬ
ĠÙģÙĬ Ø±
ĠØ¨Ø§ÙĦØª Ø³Ø¬ÙĬÙĦ
ĠÙĪ Ø¹ÙĦÙħ
ĠØ§ÙĦÙĥ Ø§ÙĪÙĦÙĬÙĨ
ĠØ§Ùĥ ÙĦ
ĠØªÙĤ ÙĪÙĬÙħ
ĠÙĬØ´ ÙĥÙĦ
Ø§Ø¸ Ø±
ĠØŃÙĤ Ø§Ø¦Ø¨
ĠØ§ÙĦÙĨØ¸ Ø§ÙģØ©
ĠÙħÙĨ Ø§Ùĩ
ĠØ¬ Ø§Ø³Ùħ
ĠØ§ÙĦØ´ Ø¯ÙĬØ¯
ĠØ§ÙĦØ± Ùģ
ÙģÙĬ ÙĪÙħ
Ø¹Ø§Ø± Ùģ
ĠØ§ÙĦÙħÙĩ ÙĨØ¯Ø³ÙĬÙĨ
ĠØ§ÙĦÙģÙĬØ±ÙĪØ³ Ø§Øª
ĠÙĨ Ø§ÙĤ
Ø¨Ø± Ø§ÙħØ¬
ĠØ§ÙĦÙĨ ÙĤØ±
ĠÙĦÙĨ ÙģØ³
ĠÙĥÙħ ÙĬØ§Øª
ĠÙħØ§ÙĬÙĥ Ø±ÙĪØ³ÙĪÙģØª
ĠØ§ÙĦØ± Ø§ØŃØ©
ÙĥØ± Ø§ÙĨÙĬØ§
ĠØ§ÙĦØ§Ùĩ ØªØ²Ø§Ø²
ĠÙĦØ§Ø¬ Ø±Ø§Ø¡
ĠÙĤØ¶ ÙĬØ¨
ĠÙĦ ÙĬÙĥÙĪÙĨ
Ø§Ø¬ Ø§
ĠØ§Ø³ Ø§ÙħØ©
ĠØ§Ø¹ ÙħØ§Ø±
ĠØ¹Ø´ ÙĤ
ĠÙħ Ø¯Ùħ
ĠØ³ Ø¯Ø§Ø¯
ĠØ´ Ø¬Ø±Ø©
ĠÙħØ· ÙĦÙĤ
ĠØ§ÙĦÙģØ± ØµØ©
ĠØ§ÙĦÙħÙĦ Ø§ØŃ
ĠÙģ Ø³ØªØ§ÙĨ
ĠÙĩ ÙĦØ§ÙĦ
ĠØ§ÙĦØ¬ ÙĩØ©
ĠØ§ÙĦØ± Ø§Ø¯
ĠØ¨Ùĥ Ø§ÙģØ©
ĠÙĦÙĦØ´ Ø¨Ø§Ø¨
ĠØ¯ÙĬØ³ Ùĥ
ĠÙĦØµ ÙĨØ¹
ĠØ§ÙĦØ§Ø° ÙĨ
ĠÙĪØ§ÙĦØ¹Ø§ÙĦÙħ ÙĬØ©
ĠØ¨ÙĤÙĬ Ø§Ø¯Ø©
ĠØ¨Ø§ÙĦ ØªÙĤ
ĠØ§ÙĬ ÙĩØ§
ĠØ¨Ø¯ Ø¹Ùħ
ĠÙĪØ§ÙĦØ« ÙĤ
ĠØµØ§ÙĦ ÙĪÙĨ
ĠÙħØ§Ùĩ ÙĬ
ĠÙĥ ÙĬÙħ
ĠØ´ Ø±ÙĪØŃØ§Øª
ÙĦÙĬ Øµ
ĠØ§ÙĦØ° Ø§ØªÙĬ
ĠØ¨Ùĥ Ø±Ø©
ĠÙħØ§Ùĥ Ø³
ØªØ±Ùģ ÙĬÙĩ
8 3
Ùĩ ÙĪØ±ÙĬ
Ø´ Ø±ÙĥØ©
ĠØ§ÙĦÙħÙĨ ØŃ
ĠØªÙĪØ¶ÙĬ ØŃ
ĠØ§ÙĦÙĤØ§Ø¨ Ø¶Ø©
Ø´ Ø§ÙĦ
Ø´ ÙĬØ±ÙĬ
ĠØ§ÙĦØ§ØŃ Ø°ÙĬØ©
ĠÙħØº ÙĦÙĤØ©
ĠÙĦÙĦØ³ ÙĨØ©
ĠØ§ ØªÙħÙĨÙī
ĠØŃ Ø§ÙģØ¸
ĠØ¯ ÙħÙĬ
ĠØ§Ø³Øª ÙĤØ¨ÙĦ
ĠÙħÙĪ Ø§ÙĦÙĬØ¯
ĠØ¨Ø¯ ÙĬÙĦ
ĠØ§ÙĦØªØŃ ÙĪÙĦ
ĠØŃÙĤ Ø§
ĠÙĩÙĪØ§ ÙĪÙĬ
ĠØ¯ Ø±ÙĪ
Ø§Ùģ Ø°
Ø±Ùĥ Ùħ
ĠØªØŃ Ø§ÙĦÙģ
ĠØ¯Ø± Ø§ÙħØ§
ĠÙħØ§Ùĥ Ø±ÙĪÙĨ
ĠØ§ÙĦØ¯ÙĪ Ø§Ø¦Ø±
ĠÙĪ ÙĥÙħ
ĠØ³ Ø±ÙĬØ©
ÙĦØ§Ùħ ÙĬØ°
ĠØ§ÙĦÙħØ¹ Ø§ØµØ±
ĠÙĦØ¯ Ø®ÙĪÙĦ
Ø³ Ø§ÙĦØ©
ĠÙħØ¹ ØªÙħØ¯Ø©
ĠØ§ÙĦØ± Ø§Ø¦Ø¹
ĠØ§ÙĦØ¬Ùħ Ø§Ø¹Ø©
Ø§Ø¨ Ø±Ø§Øª
ĠÙħÙĥ Ø§ÙģØ§Øª
Ġ24 0
ĠØ¹Ùħ Ø§Ø±
ĠØ§ÙĦÙĤÙĬ Ø§Ø³ÙĬØ©
ĠØ§ÙĦØµ Ø¯ÙĬÙĤ
ĠØ¨ØªØµ ÙħÙĬÙħ
ĠØ§ Ø©
ĠÙħ ÙħÙĦ
ĠÙĦ Ø§Ø²Ø§ÙĦØ©
ĠÙħÙĥ ÙĬÙģØ§Øª
ĠÙħÙĩ ØªÙħ
ĠÙģÙĦ ÙĨ
ĠÙħÙĬÙĨ Ø§Ø¡
ĠÙĥ Ø§
Ø§Ø¯ ÙĤØ©
ĠÙĩ Ø§Øª
ĠØ· ÙĬØ²
ĠØ§Ø® ØªØ§Ø±
Ġ17 4
ĠÙĦÙĦØ´ Ø±ÙĥØ©
Ø§ÙĦÙĬÙģÙĪØ± ÙĨÙĬØ§
Øµ ÙĬØ±
ĠØ³ Ø§ÙĩÙħ
ĠÙĪÙģ Ùī
ĠØ§ÙĦÙĪ Ø§Ø³
ĠØªÙĥ Ø±ÙĬÙħ
ĠØŃÙħ ÙĬØ¯
ĠØ§ÙĦÙģÙĬØ¯ÙĬÙĪ ÙĩØ§Øª
ĠØªØµ Ø¯ÙĬØ±
ĠÙĪØ¹ÙĨ Ø¯ÙħØ§
ĠÙĨ Ø¶
ĠØµ ÙĨØ¯ÙĦ
ĠØ§ÙĦØ¯ Ø§ÙĨ
ÙĦÙĥ Ùħ
ĠÙĦÙħ Ø·ØŃÙĨØ©
ĠØ§ÙĦØ§Ø± Ø¨Ø¹Ø©
ĠØ¨Ø§Ùĥ Ø«Ø±
Ø§ ÙĪØ±Ø©
ĠÙĬ ÙĥØª
ĠØ§ÙĦØŃ Ø´
ĠØ® Ø§Ø¯Ùħ
ÙĪÙģ Ø§ÙĨ
ĠØ§ÙĦØ§Ø® ØªØ¨Ø§Ø±
ĠÙĬØªÙħ ÙĥÙĨ
ĠØ¹ Ø§ØµÙħØ©
ĠÙĬ Ø±ÙģØ¹
ÙĤÙĦ ÙĤ
ĠØ¹ÙħØ± Ø§ÙĨ
ĠÙĪØ§Ø® Ø±
ĠØ§ÙĦÙħØ² Ø¹
Ø§ÙĦ ÙħÙĨ
ĠÙĪØª Ø§Ø¨Ø¹
ØªØ±Ùĥ Ø§Ø±Ø¯
ĠØ§ÙĦÙħØµÙĨ ÙĪØ¹Ø©
ĠÙĪØ§ÙĦØº Ø§Ø²
Ø¯ Ø§Ø¯ÙĬØ©
ĠØ§ÙĦÙħØª Ùĥ
Ø²ÙĬ ÙĬÙĨ
ĠÙĪØªØŃ Ø¯ÙĬØ¯
ĠØ¨ÙĪØª ÙĬÙĨ
ĠØµ Ø±Ø§Ø¹
ÙĬØ§ Ùĥ
ĠØ§ÙĦØ§Ø³ Ø±
ØªØ² Ø§
ĠØ§ÙĦØ¬Ø§Ùĩ Ø²Ø©
ĠÙĥÙĦ ÙĪØ¨
ĠØªØªÙħ ØªØ¹
ĠÙĪÙĬÙĤ ÙĪÙĦ
ĠØ¨ Ø¨Ø·
ĠØ§ÙĦØ¬ Ø±Ø¹Ø©
ĠØ§ÙĦÙĥ ÙĪØ¨
ĠØ§Ø¹ Ø¬Ø§Ø¨
ĠØ³ÙĬ ØŃ
ĠØ§ÙĦØ§Ø³Øª Ø¹ÙĦØ§Ùħ
ĠØ§Ø® ÙģØ§Ø¡
ĠØ§Ø± Ø¬ÙĪ
ĠØ¬ÙĨ Ø¨
ĠØ§ÙĦÙħÙĦ ØªÙĤÙī
ĠØ±ØŃ ÙħØ©
ĠØ§ÙĦÙģØª ÙĬØ§Øª
ĠÙĦÙĦØ§Øª ØŃØ§Ø¯
ĠØ³Ø¨ØŃ Ø§ÙĨÙĩ
Ùħ ÙĬØ±
ĠØ§ÙĦØ® ÙģÙĬÙģØ©
ĠØ§ÙĪ Ø¶ØŃ
ÙħØ§ÙĦ Ø©
ĠØ§ÙĦØ¹ Ø§Ø´Ø±Ø©
ĠØ§ÙĦØµ ÙĪÙĬØ§
ÙĨØ§ ÙĪÙĬÙĨ
ĠÙħÙĦ ØŃ
ÙħÙĬ Øµ
ĠÙĥÙĪÙĦÙĪÙħ Ø¨ÙĬØ§
ÙĤ ÙĪØ·
ĠÙĦ Ø³ÙĬ
ĠØ§Ø³Øª ÙĩØ¯Ùģ
ĠÙĦÙĥ Ø§ÙģØ©
ĠØ¸ Ø¨ÙĬ
ĠØªØ¬Ø§Ùĩ ÙĦÙĩ
ĠØ· Ø±Ø¯
ĠÙĦÙħ ÙĤ
Ø±Ø¶ Ùī
ĠØ« Ø§Ø¨ØªØ©
ĠÙħØ² ÙĬØ¬
ĠØ§ÙĦØªÙĤ ÙĨÙĬ
ĠØ§ÙĦÙħØ¬ØªÙħ Ø¹Ø§Øª
Ùħ ÙħØ©
ÙĪ Ø§Ø²
ĠÙħ Ø®ØµØµØ©
ĠÙĪ Ø§ÙĪÙĦ
ĠØ¹ ÙĬÙĨØ©
ĠÙĬ Ø§Ø®Ø°
ĠØ§Ø³ ÙĪØ§ÙĨ
ĠÙĪØŃ Ø¯Ùĩ
ĠÙħØ§Ø³ ØªØ±ÙĥØ§Ø±Ø¯
ĠÙĨØ¨ Ø°Ø©
ĠØª ÙĥÙĦ
ĠØªØŃ Ø°Ø±
ĠØ§Ø° Ø§Ø¹Ø©
ĠØ§ÙĦØ¯Ùħ ÙĪÙĬØ©
ÙĥØ§ÙĦ ÙĬÙģ
ĠØ¨ ÙĬØ¬
ĠØ¨ Ø§ÙĪÙĦ
ĠØ´ Ø§ØŃÙĨØ©
ĠØ¨Ø§ÙĦ Ø§Ø´
ĠØ§ÙĦÙģ ÙĬ
ĠØ§ÙĦØ² ÙĨÙĥ
ĠØ³ÙĬ Ø§Ø³Ø§Øª
ĠØ¨Ø§ØŃ Ø«
ĠÙĦ Ø¶
ĠØ§ÙĦØ¨ ØªØ±ÙĪÙĦ
Ø§Ø· Ø³
ĠÙħØ± Ø§Ùĩ
ĠÙħ ÙĪÙĦØ¯
Ø±Ùĥ ÙĬ
ĠØ§ÙĦØ§Ø³ ØªÙĩÙĦØ§Ùĥ
ĠØ§Ø¹ Ø·
Ġ25 5
ĠÙĪÙĨ Ø´Ø±
ĠØµÙĬ ØºØ©
ĠØ§Ø³ØªÙĥ ÙħØ§ÙĦ
Ø§ÙĦ ÙħØ©
ĠÙħØŃ ÙĬØ·
ĠØ·ÙĦØ¨ Ùĥ
ĠØ§ÙĨØªØ® Ø§Ø¨
Ġ10 7
ĠÙĥÙĪØ± Ø³
Ø¯Ø§Ø¯ Ø§Øª
Ø§ÙĦØ¯ ÙĬÙĨ
ÙĤ ÙĪØ¨
ĠØ§Ø± ØªØ¨Ø§Ø·
ĠØ§ÙĦØ§ØŃ ØªØ¬
ĠØ§ÙĦØ¹ÙĦ ÙĪÙĬ
ĠØ§ÙĦØ³ÙĪ Ø¨Ø±
Ø¹ Ø§Ø´
ĠØª Ø«ÙĬØ±
ĠØª ÙĤØ±Ø±
ĠØ¯ Ø§Ùħ
ĠØ§ÙĦÙĥ Ùĩ
ĠØ§ÙĦÙĦ ØŃÙħ
ÙĨÙĬ ÙĩØ§
ĠØªÙħ ÙĬØ²
ĠÙĪÙĤ ÙĪØ¹
ĠÙĪØ§Ø¬ Ùĩ
ĠÙħØ« Ø§ÙĦÙĬØ©
Ġ44 6
ĠÙħ ÙħÙĦÙĥØ©
ĠÙģ ÙĨØ§ÙĨ
ĠÙĦÙĦ Ø¶
ĠØ§Ùĥ Ø´ÙĨ
ĠØ¨Ø¹ ÙĨØ§ÙĬØ©
ĠÙħØ« Ø§ÙĦÙĬ
ĠØ¬ÙĬØ± ÙħØ§ÙĨ
ĠØ§Ø³ØªÙģØ³ Ø§Ø±Ø§Øª
ÙĨ Øº
ĠØ§ÙĦÙħ Ø¹Ø±Ø¶
ĠØ¯ Ø§Ùģ
Ø§Øµ Ø¨
ĠØ§ÙĦÙħØ³ Ø§ÙĦØ©
ĠÚ¤ Ø§ÙĬØ¨Ø±
ĠÙĩ Ø¬Ø±Ø©
Ø§Ø· Ø¦Ø©
ĠØªÙĪ Ø«ÙĬÙĤ
ĠØ·Ùģ ÙĦÙĥ
ĠÙĩ Ø§ÙĨÙĬ
ØªØ±Ùĥ ÙĬØ¨
ĠÙĦÙĦØ§ÙĨ ØªØ®Ø§Ø¨Ø§Øª
ĠØªÙĥØ³ Ø§Ø³
ĠØ¨ ØªÙģ
ĠØª ÙĪØ¯
Ø§Ø¨ Ø§ÙĬØª
ĠØ¬ Ø¨Ø±
ĠØ§ÙĦØ§Ø® ØªØ¨Ø§Ø±Ø§Øª
ĠØªÙħ Ø§Ø±Ø³
ĠØ§ÙĦØ¹Ø±Ø¨ Ùī
ĠÙĪØ§ÙĦÙħØ¹ Ø§Ø¯ÙĨ
ĠÙĪ Ø±ÙģØ¹
Ġ4 50
ØªÙĥ Ø±Ø©
ĠÙĬØ§Ø³ ÙĬÙĨ
ĠØ§ÙĦØ¨ÙĪØ± ØµØ©
ĠØ¬ ÙĬØ¬
ĠØ§ÙĦØ± Ø¤
ĠÙħØ± Ø§Ø³ÙĦ
ĠØ§ÙĦØ¹ÙĤ Ø§Ø±
ĠØª ØºØ·ÙĬØ©
ĠØ§ÙĦÙħØ± Ø§ÙĥØ²
ĠØ§Ø¬ ÙĪØ§Ø¡
ĠØªØ³Øª Ø¹Ø¯
ĠØ´ÙĩØ± ÙĬÙĨ
ĠØ§ÙĦØ³ÙĥÙĨ ÙĬØ©
ÙĬ Ø¡
ĠÙĪ Ø¹Ùħ
ĠØ§ÙĦØª Ø¹Ø¯
ĠØ¨Ø§ÙĦ Ø³ÙĦ
ĠØ· Ø§ÙĪÙĦØ©
ĠØ§ÙĦÙĤ Ø§Ø¦Ø¯
ĠØ§ÙĦØ§Ø¬ ÙĨØ¨ÙĬ
ĠØ¨ÙĪ Ø³Øª
ĠØ§ÙĦØªÙĨ ÙģØ³
ĠØ§ÙĨØª Ø¸Ø§Ø±
Ø¯ Ø§Ø«
ĠÙħ Ø§Ø¬
ĠØ¹ Ùģ
ĠÙĦÙĦ ØªØ¬
ĠØ± Ø§Ø¨
ĠØ§ÙĦÙĥ Ø§Ø±
ĠØº Ø·Ø§Ø¡
ÙĪØ² Ø©
ĠÙĪØ· ÙĦØ¨
ĠØ§ÙĦØŃ Ø¬Ø²
ĠØ§ÙĦØµ ÙĪÙħ
ĠÙħØµ Ø¨Ø§ØŃ
ĠÙĪØªÙĨ Ø¸ÙĬÙģ
ĠØ± ÙĪØª
ĠØ§ÙĨ ØªÙĤØ§ÙĦ
ĠØ¨Ø§ÙĦ Ø§Ø±
ĠØ§ÙĦØ§Ø®Ø¨Ø§Ø± ÙĬ
ĠØŃÙĤ Ø§Ø¦ÙĤ
ĠØ¹Øµ Ø§Ùħ
ĠØ§ÙĦØªÙĦ ÙĤÙĬØŃ
ĠØª ÙĤØ±
ĠÙģ Ø±Ø¬
ĠÙĬ ÙĩÙħ
ĠØ¨Ø§ÙĦ ØŃÙĤ
ĠØ§Ùħ Ø§Ø±Ø§Øª
ĠØ§ÙĦØ´Ùĩ ÙĬØ±
ĠÙĪ ÙĪØ±
ĠÙĪ Ø¸ÙĬÙģ
ĠØ§ÙĦØ³ Ø±ÙĬØ©
ĠØ§ÙĦØ· ÙĬØ¨Ø©
ĠØ§ÙĦØ§ ÙĬÙģÙĪÙĨ
ĠØ§ØŃ Ø§Ø¯ÙĬØ©
ĠØ§Ø³Øª ÙĤØ±Ø§Ø±
ĠØ¨Ø§ÙĨ Ø´Ø§Ø¡
ĠØ³ÙĪ ÙĩØ§Ø¬
ĠÙĬÙĥ ÙģÙĬ
ÙĨ ÙĪØ´
Ø§ÙĨ Ø§Ø©
Ø´ Ø§Ø·
ĠØ§ÙĨ Ø¸Ø±
ĠØ¯ ÙģØ§Ø¹
ĠØªØª ÙĥÙĪÙĨ
Ø±Ø¨ÙĬ Ø¬Ø§ÙĨ
ĠØ§ÙĦÙħÙĥ ÙĬØ§Ø¬
ĠØ·ÙĦ Ø¨Ø©
ĠÙħÙĦÙĥ ÙĬØ©
ĠØ¨Ø§ÙĦØ· Ø¨Ø¹
ĠØªØªØ± Ø¯Ø¯
Ø§ÙĦ Ø¨Ø©
ĠÙĩ Ø±Ùħ
ĠÙħØŃ Ø§Ø³Ø¨Ø©
Ø¤ ÙĦ
ĠÙħØ³Øª ÙĤÙĦ
ĠÙģØ¹ Ø§ÙĦØ©
ĠØ§ÙĦØ¨ ÙĨØ¯
ĠØ§ÙĦÙħØ´ Ø±ÙĪØ¨Ø§Øª
ĠØŃ Ø±ÙĪÙģ
Ø³Øª ÙĨ
ĠÙħØ¹ Ø§Ø±Ø¶
ØªÙħ Ø±Ø§Øª
ĠØ§ÙĦÙĩ Ø§ÙħØ©
ĠØ§ÙĨÙģØ³ ÙĩÙħ
ĠØ¨ÙĪØªØ§Ø¬ Ø§Ø²
ĠÙĦÙĦ Ø·ÙĦØ§Ø¨
ĠØ§Ùĥ ÙĪØ§Ø¯
ÙĬØ¯Ø±ÙĪÙĦ ÙĬÙĥÙĬ
ĠØ¨ Ø®ÙĦ
ĠØ³ ÙħØ±Ø§Ø¡
ĠÙĨ Ø©
Ø§Ø¦ Ø³
ĠØ§Ø´ Ø¹Ø§Ø±
ĠØ¨ÙĪ ÙĬÙĨØª
ĠØ¹Øµ ÙĬØ±
Ø¬ÙĪ ÙĩØ±Ø§Øª
ĠÙħØŃØ§Ø¶ Ø±Ø©
ĠØ¨ ÙĪØ²Ø§Ø±Ø©
ÙĪÙĨ ÙĬÙĥ
ĠØ¬ Ø§Ø²Ø§ÙĨ
ĠØ· Ø§Ø¦Ø±Ø§Øª
ĠØ§Ø³ Ø§ÙĦ
ĠØªØµ ØŃÙĬØŃ
ĠÙĤÙĦ ÙĪØ¨
Ø§Ø³ ÙĬØ³
ĠØ§ÙĦÙĨ Ø§Ø±ÙĬØ©
ĠÙħÙĤ Ø§ÙĦØ©
ĠÙĬØªÙħ ØªØ¹
ĠØ§ÙĦÙħÙĩ Ø§Ø±Ø§Øª
ĠÙĬÙĩ ØªÙħ
ĠØ§ÙĨ ØªØŃ
ĠÙĤØ¯ ÙĬÙħØ©
ĠÙĤØ· Ø§Ø±
ĠÙĥØ§ÙħÙĦ Ø§
ĠØ§ÙĦØ¨ÙĦØ¯ ÙĬÙĨ
ĠØ§ÙĦÙĨÙħØ³ Ø§
ĠØ§ÙĦØ¯ ÙĪØ±Ø§Øª
ĠØ§ÙĦÙĪ Ø§ÙĤ
ĠØ§ÙĦÙħØ± Ø§Ø¯
ĠÙĬØ¬ Ø¯
ĠØ¨ÙĪÙĦ Ø§ÙĬØ©
ĠÙħ Ø©
ĠÙĪØ§ÙĦ ØªÙī
Ø§Ùĩ ÙĨ
ĠØ§ÙĦÙħØŃ Ø§ÙħÙĬ
ĠØŃØµ Ø±ÙĬØ§
ĠØ±Ø¬ Ùī
ĠØ³ ÙĪÙĦ
ĠØµ Ø¯ÙĤ
ĠØ§Ø³ Ø§ÙĦÙĬØ¨
ĠÙĦÙħ ØµØ±
ĠØ§ÙĦÙħØ± Ø§ÙģÙĤ
ĠÙħÙĦ ØŃÙĤØ§Øª
ĠØªÙĩ ØªÙħ
ĠØ´ÙĬØ± ØªØ§Øª
ĠØ¯Ùģ Ø¹Ø©
ĠÙĪØ§ÙĦØ±ÙĬØ§Ø¶ Ø©
ĠÙĪ ÙĨØ¹
ĠÙĪ Ø¹Ø±Ø¶
ĠÙĬ ÙĩØ¯Ùģ
ĠØ® Ø§ÙĨ
ĠØ§ÙĦÙģ Ø®
ĠØ§ÙĦØ¯ ÙĪØ§Ø±
ØªØ¯ Ø§Ø¯
ĠØ§ÙĦÙĤØµ ÙĬØ±Ø©
ÙĪ ÙĥØ©
ĠØ± Ø§Ø¬Ø¹
ĠØ§ÙĦÙĤ Ø§Ø¨ÙĦØ©
ĠØ§ÙĦØ® Ø·Ø©
ĠØ§ÙĦÙħØ´ ÙģØ±Ø©
ĠØ§Øµ ØºØ±
ĠØ¯Ø®ÙĦ Øª
Ùĥ Ø§Ø©
ĠØ¯ Ø§ÙĨ
ĠØ§ÙĦØ§Ø¯ Ø¨ÙĬ
ĠØ§ÙĦØªØ¬ Ø±Ø¨Ø©
ĠØ¨ ÙĪØ¬ÙĪØ¯
ĠÙĥ Ø§ÙĦÙĬÙģÙĪØ±ÙĨÙĬØ§
ĠØ¯ Ø¨ÙĦÙĪÙħ
ĠØ§ÙĦÙĪ ÙĩØ§Ø¨
ØªØŃ Ø¯Ø«
ĠØ§Ùģ Ø§ÙĤ
ØªÙĩ Ø§Ø¨
ĠØ§ÙĦÙħØ® ØªØ¨Ø±
ĠØ§ÙĦØª Øº
ĠØŃ Ø¯Ø©
ĠØ§ÙĦØ¹ ÙĬØ´
ĠØ§Ùħ ÙĩØ§Øª
ĠØ¨ØŃ Ø±ÙĬØ©
ĠÙĦØ§ÙĨ Ø¯
Ø¨Ø³ Ø§Ø·Ø©
ĠØ¨Ø´Ø± ØªÙĥ
ĠØŃØ§Ùħ Ø¯
ĠØ³ ÙĬØ¨
ĠØ§ÙĦØ³ Ø±ÙĬØ±
ĠØ§Ø³Øª Ø¹Ø±Ø§Ø¶
ĠØ§Ø± Ø¬Ø§Ø¹
ĠØªÙĨ Ø²
ĠØ®Ø· ÙĬØ±
Ø§Ø¤ Ùĩ
ĠØ§ÙĦÙħØªÙĨ ÙĪØ¹Ø©
ĠØ³ ÙĪØ±
ĠØ´ Ø¯ÙĬØ¯Ø©
ĠØ§ÙĦÙĤ Ø§Ø¯Ø±
