{"<|endoftext|>":0,"<QUESTION>":1,"<ANSWER>":2,"[PAD]":3,"!":4,"\"":5,"#":6,"$":7,"%":8,"&":9,"'":10,"(":11,")":12,"*":13,"+":14,",":15,"-":16,".":17,"/":18,"0":19,"1":20,"2":21,"3":22,"4":23,"5":24,"6":25,"7":26,"8":27,"9":28,":":29,";":30,"<":31,"=":32,">":33,"?":34,"@":35,"A":36,"B":37,"C":38,"D":39,"E":40,"F":41,"G":42,"H":43,"I":44,"J":45,"K":46,"L":47,"M":48,"N":49,"O":50,"P":51,"Q":52,"R":53,"S":54,"T":55,"U":56,"V":57,"W":58,"X":59,"Y":60,"Z":61,"[":62,"\\":63,"]":64,"^":65,"_":66,"`":67,"a":68,"b":69,"c":70,"d":71,"e":72,"f":73,"g":74,"h":75,"i":76,"j":77,"k":78,"l":79,"m":80,"n":81,"o":82,"p":83,"q":84,"r":85,"s":86,"t":87,"u":88,"v":89,"w":90,"x":91,"y":92,"z":93,"{":94,"|":95,"}":96,"~":97,"¡":98,"¢":99,"£":100,"¤":101,"¥":102,"¦":103,"§":104,"¨":105,"©":106,"ª":107,"«":108,"¬":109,"®":110,"¯":111,"°":112,"±":113,"²":114,"³":115,"´":116,"µ":117,"¶":118,"·":119,"¸":120,"¹":121,"º":122,"»":123,"¼":124,"½":125,"¾":126,"¿":127,"À":128,"Á":129,"Â":130,"Ã":131,"Ä":132,"Å":133,"Æ":134,"Ç":135,"È":136,"É":137,"Ê":138,"Ë":139,"Ì":140,"Í":141,"Î":142,"Ï":143,"Ð":144,"Ñ":145,"Ò":146,"Ó":147,"Ô":148,"Õ":149,"Ö":150,"×":151,"Ø":152,"Ù":153,"Ú":154,"Û":155,"Ü":156,"Ý":157,"Þ":158,"ß":159,"à":160,"á":161,"â":162,"ã":163,"ä":164,"å":165,"æ":166,"ç":167,"è":168,"é":169,"ê":170,"ë":171,"ì":172,"í":173,"î":174,"ï":175,"ð":176,"ñ":177,"ò":178,"ó":179,"ô":180,"õ":181,"ö":182,"÷":183,"ø":184,"ù":185,"ú":186,"û":187,"ü":188,"ý":189,"þ":190,"ÿ":191,"Ā":192,"ā":193,"Ă":194,"ă":195,"Ą":196,"ą":197,"Ć":198,"ć":199,"Ĉ":200,"ĉ":201,"Ċ":202,"ċ":203,"Č":204,"č":205,"Ď":206,"ď":207,"Đ":208,"đ":209,"Ē":210,"ē":211,"Ĕ":212,"ĕ":213,"Ė":214,"ė":215,"Ę":216,"ę":217,"Ě":218,"ě":219,"Ĝ":220,"ĝ":221,"Ğ":222,"ğ":223,"Ġ":224,"ġ":225,"Ģ":226,"ģ":227,"Ĥ":228,"ĥ":229,"Ħ":230,"ħ":231,"Ĩ":232,"ĩ":233,"Ī":234,"ī":235,"Ĭ":236,"ĭ":237,"Į":238,"į":239,"İ":240,"ı":241,"Ĳ":242,"ĳ":243,"Ĵ":244,"ĵ":245,"Ķ":246,"ķ":247,"ĸ":248,"Ĺ":249,"ĺ":250,"Ļ":251,"ļ":252,"Ľ":253,"ľ":254,"Ŀ":255,"ŀ":256,"Ł":257,"ł":258,"Ń":259,"Ø§":260,"ÙĦ":261,"ÙĬ":262,"ĠØ§":263,"Ùħ":264,"ĠØ":265,"ĠØ§ÙĦ":266,"ÙĪ":267,"Ø§Ø":268,"ÙĨ":269,"Ø±":270,"Ø©":271,"Øª":272,"Ùģ":273,"Ø¯":274,"Ùĥ":275,"Ø¹":276,"ĠÙħ":277,"Ø¨":278,"ÙĤ":279,"Ø³":280,"Ùĩ":281,"ĠÙĪ":282,"ØŃ":283,"Ø§ÙĦ":284,"Ø¬":285,"ĠØ¨":286,"Ø§Øª":287,"ÙĬØ©":288,"ĠÙĦ":289,"ĠØª":290,"ĠÙģ":291,"ĠØ§ÙĦÙħ":292,"ĠØ¹":293,"Øµ":294,"Ø·":295,"Ø§Ø±":296,"Ø§ÙĨ":297,"Ùī":298,"Ø´":299,"Ø§Ùħ":300,"ĠÙģÙĬ":301,"Ø®":302,"ÙĬÙĨ":303,"ĠÙħÙĨ":304,"Ø²":305,"ĠÙĥ":306,"ĠÙĬ":307,"Ø¶":308,"ÙĬØ±":309,"Ġ1":310,"ĠØ³":311,"Ġ2":312,"ĠØ§ÙĦØª":313,"Ø§Ø³":314,"ÙĪÙĨ":315,"Ø±ÙĬ":316,"ÙĪÙĦ":317,"Ø«":318,"Ġ0":319,"Ø°":320,"ĠØŃ":321,"ĠÙĪØ§ÙĦ":322,"Ø§Ø¨":323,"ĠØ¹ÙĦ":324,"Ø§Ø¯":325,"ĠÙĨ":326,"ĠØ§ÙĦØ¹":327,"ÙĪØ±":328,"ĠÙĦÙĦ":329,"Øº":330,"Ø§Ø¡":331,"ĠØ¬":332,"ĠÙĩ":333,"ĠÙĤ":334,"Ø§Ø¹":335,"ĠØ±":336,"ĠØ§ÙĨ":337,"ÙĬÙĦ":338,"ÙĩØ§":339,"Ø§Ø¦":340,"ÙĬØ¯":341,"ĠØ§ÙĦØŃ":342,"ĠØ´":343,"ĠØ¹ÙĦÙī":344,"ĠØ§ÙĦØ³":345,"Ø³Øª":346,"ĠØ¯":347,"Ø¨ÙĬ":348,"ÙĪÙħ":349,"Ø§Ùģ":350,"Ġ20":351,"Ø§ØŃ":352,"ĠØ®":353,"Ø¸":354,"Ø§Ø¬":355,"ÙĬÙħ":356,"Ø§ÙĤ":357,"ĠØµ":358,"Ġ3":359,"ĠØ¨Ø§ÙĦ":360,"ØªØ±":361,"ĠØ§ÙĦØ¬":362,"ÙħÙĦ":363,"ĠÙħØ¹":364,"ĠØ§ÙĦÙģ":365,"Ø§Ø±Ø©":366,"Ø¨Ø±":367,"ĠØ§ÙĦÙĥ":368,"ÙĪÙĤ":369,"Ø±Ùĥ":370,"ĠØ§ÙĦØ´":371,"ÙĪØ¯":372,"ĠØ·":373,"ĠØ§ÙĦÙĤ":374,"ĠØ§ÙĦÙĨ":375,"ĠØ§ÙĦØµ":376,"ĠØ§ÙĦØ¯":377,"Ø¹ÙĦ":378,"Ø±Ø©":379,"ĠØ¹ÙĨ":380,"ÙĬØ§":381,"ĠØ§ÙĦØ±":382,"ĠØ§ÙĦØ¨":383,"ĠÙħØŃ":384,"Ø¯Ùħ":385,"ÙĬÙģ":386,"Ø±Ø¨":387,"Ø§Ùĥ":388,"Ø±ÙĪ":389,"Ġ4":390,"Ø¹Ø¯":391,"Ø§Øµ":392,"ĠØ§ÙĦØ®":393,"ØªÙħ":394,"Ø¦":395,"Ġ5":396,"Ø¹Ø©":397,"ĠØ§ÙĦØ§Ø³":398,"ÙĩÙħ":399,"ÙĬØ³":400,"ĠØ§ÙĦÙī":401,"ÙĨØ§":402,"ÙĤØ©":403,"ĠØ§ÙĦÙĦ":404,"ÙĦØ©":405,"ÙĬØ¹":406,"Ø§Ø·":407,"Ø§Ùĩ":408,"ÙĬØª":409,"ĠØ§ÙĪ":410,"Ø§Ø¶":411,"Ø§Ø®":412,"Ø¯Ø©":413,"ÙĬØ§Øª":414,"ÙĬÙĪ":415,"ĠÙĥØ³":416,"ÙħÙĨ":417,"ÙĬÙĥ":418,"ĠØ§Ø³":419,"Ø¹Ø±":420,"ÙĥÙĨ":421,"Ø§Ø²":422,"Ø¬Ø±":423,"Ø¨Ø©":424,"ĠØº":425,"Ø¯ÙĬØ¯":426,"ØŃÙĨ":427,"ÙħØ§":428,"ÙħØ©":429,"Ġ202":430,"Ġ6":431,"Ø°Ø§":432,"Ø§Ø±Ø§Øª":433,"ĠØ§ÙĦØ§ÙĨ":434,"ĠØ§ÙĦÙĪ":435,"ØªÙĪ":436,"ĠÙħØµ":437,"ØªØŃ":438,"ĠØ§ÙĦØ·":439,"Ø§Ø´":440,"ĠØ§ÙĦÙħÙĨ":441,"ĠØªØŃ":442,"ĠØ§Ø®":443,"Ø¤":444,"ĠØ§ÙĦØ§":445,"Ø³ÙĦ":446,"ĠÙĥØ³Ø§Ø±Ø©":447,"ÙĦÙĥ":448,"ÙĦÙĬ":449,"ĠØ§ØŃ":450,"Ġ201":451,"ĠØ§ÙĦØ§Ùħ":452,"Ġ7":453,"ĠØ§Ø³Øª":454,"ĠØ§Ùĥ":455,"Ø¬Ùħ":456,"ĠØ§ÙĦØ°":457,"ĠØ¨ÙĨ":458,"ĠØ§Ùħ":459,"ĠÙĦØ§":460,"Ø´Ø±":461,"ĠÙĦÙħ":462,"Ø¯ÙĬ":463,"ĠÙħØ§":464,"Ø³Ùħ":465,"ÙĪØ¨":466,"ØŃØ©":467,"Ġ8":468,"Ø§ÙĨÙĬ":469,"ĠØ²":470,"ĠØ§ÙĦØ«":471,"Ø§Ø©":472,"ĠØ§Ø¨":473,"ØªØ¨":474,"ÙĬØ²":475,"ÙħØ¯":476,"ĠØ§ÙĬ":477,"ÙĦØ§Ùħ":478,"ÙĦÙģ":479,"ĠØ§Ùģ":480,"Ø§Ø«":481,"ÙĤÙĬ":482,"ĠØ§ÙĦÙħÙĪ":483,"Ø§ÙĦÙħ":484,"ÙĤØ¯":485,"ĠÙħØ·":486,"ĠØ°":487,"Ġ10":488,"ĠÙħÙĪ":489,"ĠØ§ÙĦØªÙĬ":490,"ĠÙĥÙĦ":491,"ĠÙĪØª":492,"Ø±ÙĥØ©":493,"ĠÙĪÙĦ":494,"Ø¨ÙĬØ¹":495,"Ø·Ø©":496,"Ø¨ÙĦ":497,"ÙĬÙĩ":498,"ĠÙħØ´":499,"ĠÙĪÙħ":500,"ÙĪØ¹":501,"ĠØ§ÙĦÙĩ":502,"ĠØ§ÙĦÙħØŃ":503,"Ø¯Ø§":504,"ØµÙĦ":505,"ØªÙĬ":506,"Ġ2021":507,"ÙĬØ±Ø©":508,"Ø³ÙĬ":509,"ĠØ¬Ùħ":510,"ÙĪÙģ":511,"ÙĤÙĦ":512,"ĠØ«":513,"Ø¬ÙĦ":514,"Ġ9":515,"ØªØ¯":516,"ĠØ§Ø±":517,"ÙĨÙĬ":518,"ØªØ¬":519,"Ø§Ø¯Ø©":520,"ÙĪÙĤØ¹":521,"ÙĪÙĬ":522,"ĠØ§ÙĦØ§ÙĦ":523,"Ø¯Ø±":524,"ÙĥØ±":525,"ĠØ¨Ø±":526,"ÙĦØ§ÙĦ":527,"ÙĩØ±":528,"ÙĪØ¬":529,"ĠØ§ÙĦÙĬ":530,"ĠÙħØª":531,"ÙħØ§ÙĦ":532,"Ø°Ùĩ":533,"Ø±Ùģ":534,"Ø§ÙĨÙĬØ©":535,"ÙĥÙĦ":536,"Ø¨Ø§Ø±":537,"ĠÙĪØ§ÙĦÙħ":538,"ĠÙĩØ°Ø§":539,"Ø®Øµ":540,"ÙĨØ¯":541,"ÙĪØ±Ø©":542,"ĠÙħØ³":543,"ÙĪØ³":544,"ĠØªÙĨ":545,"Ø§Ø±ÙĬ":546,"ĠØªØµ":547,"ÙĦÙħ":548,"Ø§ÙĦØ©":549,"Ø¨Ø¯":550,"ĠØªØ¹":551,"ÙĨØ¹":552,"ĠØ¶":553,"ÙĥØ©":554,"ØªÙĩ":555,"ÙĨØ©":556,"ÙĬØ¨":557,"ÙĥØ³":558,"ÙģØ±":559,"ØªØµ":560,"ÙĪØ§Øª":561,"ĠÙħØ±":562,"ÙħØ±":563,"ÙĪØ§":564,"Ø±Ø¨ÙĬØ©":565,"ĠØ§ÙĦØ§Ø¹":566,"Ø¶ÙĦ":567,"Ø§Ø¹Ø©":568,"ÙĦØ¨":569,"ÙĤØ±":570,"ÙĪÙĦØ©":571,"ÙĪØª":572,"ÙģÙĬ":573,"ĠØ§ÙĦÙĦÙĩ":574,"ĠØ§ÙĦØº":575,"Ø®Ø¯Ùħ":576,"ØŃÙĨØ©":577,"ĠØ¨ÙĬÙĨ":578,"ĠØ§ÙĦØ§Ø±":579,"Ø¦ÙĬØ³":580,"Ø³Ø¨":581,"ÙĨÙĬØ©":582,"ĠØ¨Ø¹Ø¯":583,"Ø«Ø±":584,"Ø§ÙģØ©":585,"ĠØ§ÙĦØ§Ø®":586,"ĠØ§Ø¯":587,"ĠÙĥØ§ÙĨ":588,"Ø±ÙĬÙĤ":589,"ÙĥÙħ":590,"ĠØ§ÙĦØ²":591,"ĠÙħØ¬":592,"ĠÙĬÙħ":593,"ØªÙģ":594,"ØªØ®":595,"Ø§ÙĬ":596,"ĠÙħØ¯":597,"ĠØªÙħ":598,"ĠØ¹ÙħÙĦ":599,"Ø±ÙĤ":600,"ĠÙĩÙĪ":601,"ĠØ§Ø¹":602,"ØªØ±ÙĪÙĨ":603,"ĠÙħØ·ØŃÙĨØ©":604,"ÙĪØ±ÙĬ":605,"ĠØ³ÙĬ":606,"ĠØ§ÙĦØŃØ¬Ø±":607,"Ø§ÙĦÙĬØ©":608,"Ø¹ÙĪØ¯":609,"ĠØ´Ø±ÙĥØ©":610,"ÙĬØ§ÙĨ":611,"ÙĪÙĥ":612,"00":613,"ĠÙħØ®":614,"Ġ14":615,"ĠÙħÙĤ":616,"ĠÙĩØ°Ùĩ":617,"Ø·Ùħ":618,"ĠØ§ÙĦÙħØµ":619,"ĠÙĦÙĦÙħ":620,"ĠÙĦÙĦØ¨ÙĬØ¹":621,"ĠÙħØ³Øª":622,"Ø§ÙħÙĦ":623,"ÙĥÙĪÙĨ":624,"ÙĪØ§ÙĨ":625,"ĠØ§ÙĦÙħØ³Øª":626,"Ġ19":627,"Ø±Ø¬":628,"Ø¯Ø§Øª":629,"ÙĬÙĨØ©":630,"ÙĪÙĬØ©":631,"ĠØ¬ÙħÙĬØ¹":632,"ĠØ§ÙĦØ§ØŃ":633,"Ø¡":634,"ÙĨØª":635,"ØŃÙĤ":636,"Ø¯Ø§Ùħ":637,"Ø§Ø°":638,"ĠØ§ÙĦØ©":639,"Ø±Ø§Ø¡":640,"ÙĤÙħ":641,"ĠÙĪÙĩ":642,"Ø§ÙĦÙĬ":643,"Ø±ÙĬØ¯":644,"ÙĪØ²":645,"Ø§ÙħØ©":646,"ĠØ¹ÙĦÙĬ":647,"ÙĦØ³":648,"Ø§ÙħØ¬":649,"ĠØ§ÙĦÙħØ±":650,"ĠØ§ÙĦÙħØª":651,"ĠÙħØŃØ·Ùħ":652,"ĠØ§ÙĦØ§ÙĪÙĦ":653,"ĠØ¬Ø¯ÙĬØ¯":654,"ĠØ§Ø®Ø±":655,"Ø¯Ø¯":656,"Ø·ÙĦ":657,"ĠÙħÙĥ":658,"ĠØªÙĤ":659,"ĠØªØ³":660,"ĠØ§Ø¬":661,"ĠØ§ÙĦÙħØ´":662,"ĠØ§ÙĦØ§Ø¬":663,"ĠÙĩÙĬ":664,"Ø·Ø±":665,"ĠØ¨ÙĦ":666,"ĠÙĬÙħÙĥÙĨ":667,"ĠØ§ÙĦÙĬÙĪÙħ":668,"ĠØ®ÙĦØ§ÙĦ":669,"ĠØ¹Ø¨Ø¯":670,"ĠØ§ÙĦØ§Øª":671,"Ø§Ø¨Ø©":672,"ĠØ¨Ø¹":673,"ĠØªØ±":674,"ÙĨØ³":675,"ÙģØ³":676,"ĠÙĬÙĨ":677,"ĠØ¨Ùħ":678,"ĠØ§ÙĦØ¹Ø§ÙĦÙħ":679,"Ġ12":680,"ÙĥØªØ±ÙĪÙĨ":681,"Ø§Ø¦ÙĬØ©":682,"ĠØ§ÙĦÙħØ¹":683,"ÙħÙĬÙĦ":684,"ĠÙĪÙĤ":685,"ĠØ§ÙĦØ¨ØŃ":686,"ĠØ§ÙĦØ§ÙĦÙĥØªØ±ÙĪÙĨ":687,"ĠÙģÙī":688,"ĠÙĦØª":689,"ĠØªØ¬":690,"ĠÙĪØ¨":691,"Ø³Ø©":692,"ÙĩØ¯":693,"ĠØ§ÙĦØ°ÙĬ":694,"ĠØ§ÙĦØ³ÙĬ":695,"ÙĪÙī":696,"ĠÙĪØ²":697,"ĠÙħÙĦ":698,"ĠÙħØŃÙħØ¯":699,"Ø±ÙĬØ©":700,"ĠØ©":701,"Ø±ÙĥØ²":702,"Ø¦Ø©":703,"ĠØ§Øµ":704,"ĠÙĪØŃ":705,"Ø§Ø¯ÙĬ":706,"Ø¹Ø¨":707,"Ġ15":708,"ĠØ§ÙĦØ¹Ø±":709,"ĠØ§Ø´":710,"ĠØ¨Ø´":711,"ĠØŃÙĬ":712,"ĠÙħØµØ±":713,"ĠÙĬØ¹":714,"ĠØ§ÙģØ¶ÙĦ":715,"ÙĥØª":716,"Ø¹Ø§Ø±":717,"ÙĩØ¨":718,"Ø´Ùģ":719,"ĠØ§ÙĦØ¹ÙħÙĦ":720,"ÙĪÙħØ§Øª":721,"Ġ11":722,"Ø¸ÙĬÙģ":723,"ĠØ§ÙĦØ³Ø¹ÙĪØ¯":724,"ĠØªØ·":725,"Ø«ÙĦ":726,"Ø¬Ø©":727,"ĠÙĪÙĥ":728,"Ø¸Ø©":729,"ĠÙĬØŃ":730,"ĠÙħØµÙĨØ¹":731,"ĠØ¨ØŃ":732,"ÙĦÙĬØ©":733,"ĠÙĪØ³":734,"ØªØ§Ø¬":735,"Ø¹Ùħ":736,"ĠØŃØ³":737,"Ġ2020":738,"ÙĪØ©":739,"ĠØ§ÙĦØ§ÙĤ":740,"Ø§ÙĦØ§Øª":741,"ĠØ³Ø¨":742,"ÙĪØµ":743,"ØªÙĤ":744,"Ø¨Ø§Øª":745,"ÙĪØ¹Ø©":746,"ĠÙħÙĪÙĤØ¹":747,"ĠÙĪØ¬":748,"ĠØ§ÙĦÙħØ³":749,"ĠØ·ØŃÙĨ":750,"ĠØªØ´":751,"ĠÙĤØ¯":752,"ÙĤÙĪÙĤ":753,"Ø¹Ø¯ÙĬÙĨ":754,"ĠÙĪÙģ":755,"ØªØ¯Ùī":756,"ÙĬÙĤ":757,"ĠØ¨Ø¯":758,"Ø§Ø±ÙĬØ®":759,"ĠÙĪØ§ØŃ":760,"Ø±ÙĥØ§Øª":761,"Ø§ÙĨØ§Øª":762,"ØªÙĥ":763,"Ø¨ÙĨ":764,"ĠØ§ÙĦØ¹Ø±Ø¨ÙĬØ©":765,"ĠØ§ÙĦÙħÙĤ":766,"Ø§Ø¦ÙĦ":767,"Ø§Ø±ÙĬØ©":768,"ĠØ§Ø¶":769,"ĠØºÙĬØ±":770,"Ø§ÙĤØ©":771,"ÙĪÙĨØ©":772,"Ø§Øº":773,"ĠØ°ÙĦÙĥ":774,"ØªÙĩØ§":775,"Ġ25":776,"Ø±ÙĬÙĥ":777,"Ø¹ÙĦÙĬÙħ":778,"Ø±ÙĬØ§Ø¶":779,"ĠØ¹Ø§Ùħ":780,"ĠØ¨Ø§Ø³":781,"ĠØ¨ÙĪ":782,"ĠØ§ÙĤ":783,"ĠÙĪÙĨ":784,"ĠØ§ÙĦØ§Ø¯":785,"ĠØ§ÙĦØ§Ø¨":786,"Ġ30":787,"Ø§ØµØ©":788,"Ø§Ø¦ÙĬ":789,"ĠØªÙģ":790,"ØªÙĦ":791,"ØªÙħØ§Ø¹":792,"ĠÙĬÙĤ":793,"ĠÙĤØ¨ÙĦ":794,"ĠØ±ÙĤÙħ":795,"ØªÙī":796,"ÙĪØ¯Ø©":797,"ØµØ©":798,"ĠØ§ÙĦØ¨Ø±":799,"ÙĪØ§Ø±":800,"ĠÙĥÙĬÙģ":801,"ÙģØ©":802,"Ø¨ØŃ":803,"ĠØ§ÙĦÙħØ¯":804,"Ø²Ø©":805,"Ø§Ø³Ø©":806,"ĠØ§ÙĦÙģÙĥ":807,"ĠØ§ÙĦØ¯ÙĪÙĦ":808,"ÛĮ":809,"ÙĬÙĦØ©":810,"ĠØ§ÙĦØ¨ÙĬ":811,"ĠÙģØ±":812,"Ø§Ø±Ùĥ":813,"ĠÙħØ¨":814,"Ø¨ÙĬÙĤ":815,"ĠØ§ÙĦØ°ÙĩØ¨":816,"ÙĬØ¬":817,"ĠØ¨Øª":818,"ÙĨØ§ÙħØ¬":819,"ĠØªØ³Øª":820,"Ø§ØµÙĦ":821,"ĠØ§ØŃØ¯":822,"ĠØ§Ø¹ÙĦ":823,"ĠØ®Ø¯Ùħ":824,"ÙģÙĪ":825,"ĠØ§ÙĥØ«Ø±":826,"ĠØ§ÙĦØ§ÙĦÙĥØªØ±ÙĪÙĨÙĬ":827,"ĠÙĬÙĪÙħ":828,"ØªØ¬Ø§Øª":829,"Ø§ÙĬØ©":830,"ØµÙĪÙĦ":831,"ĠØ¬ÙĨ":832,"ØªØ§Ø¨":833,"ĠÙĪØ§ÙĨ":834,"ĠØ®Ø·":835,"ĠØ§ÙĦØ³Ø¹ÙĪØ¯ÙĬØ©":836,"ĠØ§ÙĦØªØŃ":837,"ĠÙħØ¹Ø¯Ø§Øª":838,"ĠÙĬØªÙħ":839,"Ø®ÙĦ":840,"ĠØ§ÙĦØ¬Ùħ":841,"ÙĤØ·":842,"Ø°ÙĦÙĥ":843,"Ø¨ÙĬØ©":844,"ØŃÙĬ":845,"Ø¹ÙħÙĦ":846,"ĠÙĥÙħØ§":847,"Ġ200":848,"ĠØ§ÙĦØ¹ÙĦ":849,"ÙĬØ´":850,"Ø¶Ø¹":851,"ÙħÙĬÙħ":852,"Ø§Ø¹Ø¯":853,"ØŃÙħ":854,"ĠØ§ÙĦØµÙĬÙĨ":855,"Ø±ÙĪØ·":856,"Ø±ÙĬÙĨ":857,"ĠØ®Ø§Ùħ":858,"ĠÙĪØ§ÙĦØª":859,"ÙĪÙħØ©":860,"ĠØ§ÙĪÙĦ":861,"ĠÙĬØ¬":862,"ØºØ©":863,"ĠØ§ÙĦÙħØªØŃ":864,"ÙĪÙĨØ§":865,"Ġ16":866,"ĠØ§Ø°Ø§":867,"ĠÙĦØ¯":868,"ØµÙģ":869,"ĠØ§ÙĦØ±Ø¦ÙĬØ³":870,"Ġ13":871,"Ø¨Ø¹":872,"ĠØ§ÙĦÙĥØ±Ø©":873,"ĠØ§ÙĦØ¬Ø¯ÙĬØ¯":874,"ĠÙĦÙĩ":875,"ÙĦØ§":876,"ĠØªØ¯":877,"Ø±Ø¶":878,"ĠÙĦØ§ÙĨ":879,"ĠØªÙĥ":880,"Ø±Ø§Øª":881,"Ø¸Ø§Ùħ":882,"ÙĦÙĤØ©":883,"ØºÙĬØ±":884,"Ø±Ø¯":885,"ØµØ±":886,"ĠØ¨Ø·":887,"ĠÙħØ¤":888,"ĠØ³Ø¹Ø±":889,"Ø±ÙĪØ¹":890,"ÙĦØ§Øª":891,"ĠØ§Ø³ØªØ®":892,"Ø§Ø³ÙĬØ©":893,"ĠÙĦÙĥ":894,"ĠØŃÙĬØ«":895,"ĠÙħÙħ":896,"Ø§ØŃØ©":897,"Ø¶Ø§Ø¡":898,"Ġ100":899,"Ø§Ø±Ø³":900,"Ø§ÙĨÙĪÙĨ":901,"ĠØ§ÙĦÙħØ¬":902,"ÙĦÙĬÙĦ":903,"Ø¬ÙĦØ³":904,"Ø±ÙĪØ¶":905,"ĠØ§ÙĦØ§Ùģ":906,"Ø±ØŃ":907,"ĠØŃÙĪÙĦ":908,"ĠØ§ÙĨÙĩ":909,"ĠØ³ÙĨ":910,"ĠØªÙĪ":911,"ĠÙĪØ¹":912,"ĠÙĥØ¨":913,"Ø§ØªÙģ":914,"Ø¯ÙĬØ«":915,"Ø³ÙĦØ³ÙĦ":916,"ĠØªØŃÙħÙĬÙĦ":917,"Ø§Ø¨Ø§Øª":918,"ĠØ±Ø¦ÙĬØ³":919,"ĠÙĪØ§Ø³":920,"Ø³Ø§ÙĨ":921,"Ø±Ø§Ø¦":922,"ĠÙĪÙħÙĨ":923,"ÙĨØ§Ø¡":924,"Ġ00":925,"Ø¶Ø§":926,"ĠØ¹Ø¨Ø±":927,"Ø²ÙĦ":928,"ĠÙĬØª":929,"Ø§ÙĤØ¹":930,"ĠÙĦÙĬ":931,"ÙĪÙĬØ±":932,"ĠØ§ÙĦÙħØ®":933,"ĠØ§Øº":934,"ĠØ§ÙĦÙĩÙĨØ¯":935,"ĠØ§ÙĦØ§Ø³Øª":936,"ĠØ§ÙĦÙĪØ·":937,"ĠØ¬Ø¯ÙĬØ¯Ø©":938,"Ġ17":939,"ĠØŃØªÙī":940,"ÙĩØ©":941,"ĠØ§Ø¨ÙĪ":942,"Ø§Ø³ÙĬ":943,"Ġ18":944,"ĠØ§ÙĦØªÙĨ":945,"Ø²ÙĬØ¯":946,"ÙħØ§ÙĨ":947,"ÙħÙĪ":948,"ĠØ§ÙĦØªØ¬":949,"ÙĪØ±ÙĬØ©":950,"Ø¨Ø§Ø¨":951,"ĠØ¨Ùĥ":952,"ĠØ¨Ùĩ":953,"Ø¹Ø±Ùģ":954,"ĠØ§ÙĦØ¹Ø§Ùħ":955,"ÙģØ¹":956,"ÙħÙĬ":957,"Ġ24":958,"Ø¬ÙĬÙĦ":959,"ĠØ¨Ø§ÙĨ":960,"Ø§ÙħØ¹Ø©":961,"ĠÙĤØ·":962,"Ø§ÙĦØ¨":963,"ĠØ§ÙĦÙħØªØŃØ¯Ø©":964,"ĠØ¹ÙĦÙĬÙĩ":965,"ĠØ§ÙĦØ±ÙĬØ§Ø¶":966,"ØªÙĪØ¨Ø±":967,"ÙģØ§ÙĦ":968,"Ø«ÙĬØ±":969,"ĠØ³ØŃÙĤ":970,"ĠØ¹ÙĨØ¯":971,"ĠØªØ±Ùĥ":972,"ÙĤÙĬÙĤ":973,"ĠÙħØ±ÙĥØ²":974,"ÙĦÙĤ":975,"ÙĬØ§ÙĨØ©":976,"ĠØ§ÙĦÙħØº":977,"ĠÙĦÙĨ":978,"Ø²ÙĬ":979,"ÙĬÙħØ©":980,"ĠÙĤØ³Ùħ":981,"ÙĦÙģØ©":982,"ĠÙĩÙĦ":983,"ĠØ§ÙĦØ¶":984,"ĠØ§ÙĥØªÙĪØ¨Ø±":985,"ĠØ§ÙĦØ§Ø·":986,"ĠØ§ÙĦÙĤØ±":987,"ĠØªØ¹ÙĦ":988,"ÙĪÙĬØª":989,"ÙĬØ±ÙĬ":990,"ĠØ¨Ø§ÙĦÙħ":991,"Ø§Ø¨Ø¹":992,"ĠØ±Ø³":993,"Ġ41":994,"Ø±ÙĬÙĤØ©":995,"ĠØ§ÙĦØ¬Ø²":996,"ĠÙĥÙĪØ±":997,"ĠØ§Ø³ØªØ®Ø¯Ø§Ùħ":998,"ÙģÙĦ":999,"ĠÙħØ¬Ùħ":1000,"ĠÙĪÙĬ":1001,"ĠØ¨Ø±ÙĨØ§ÙħØ¬":1002,"ĠØ§Øª":1003,"ĠØ§Ø«":1004,"ÙĪØ§ÙĦ":1005,"Ø§Ø±ÙĥØ©":1006,"ĠØ³Øª":1007,"ĠØ¨Ø¹Ø¶":1008,"ĠØ§ÙĦØŃÙĤÙĪÙĤ":1009,"ĠØ§Ø·":1010,"ÙĬÙĨØ§":1011,"Ø§ÙĬØ±":1012,"ĠÙħÙĨØªØ¯Ùī":1013,"ÙĬØ®":1014,"ĠØ¯Ø±":1015,"Ø§Ø±Ø¬":1016,"ĠÙĦÙĦØª":1017,"Ø¯Ø«":1018,"ÙĪØ±Ø¯":1019,"ÙĨØ§Ø¹":1020,"Ø§Ø®ÙĦ":1021,"ĠØ§ÙĦØªØµ":1022,"ĠØ§ÙĦÙħÙĪÙĤØ¹":1023,"ĠØ§ÙĦØªØ¹Ø¯ÙĬÙĨ":1024,"ĠØ§ÙĦØ§Ø´":1025,"ĠØ¸":1026,"ÙĬÙĨÙĬ":1027,"ĠÙĪÙĦØ§":1028,"ĠØ§ÙĦØµÙģ":1029,"Ø¨Øª":1030,"ĠÙħØŃÙģÙĪ":1031,"Ø¶ÙĪØ¹":1032,"ĠØ¯ÙĪÙĦ":1033,"ĠØ§ÙĦÙħØ¹ÙĦ":1034,"ĠÙĦÙĪ":1035,"ĠÙħØ«ÙĦ":1036,"ĠÙħØªØ±":1037,"ĠÙħØ³ÙĦØ³ÙĦ":1038,"Ø§ÙĪ":1039,"Ø±ÙĬÙģ":1040,"Ġ23":1041,"Ø§Ø¦Ø±":1042,"ØºØ·":1043,"Ø¶Ø©":1044,"ĠØ§ÙĦØ§Ø³ÙĦØ§Ùħ":1045,"ĠØ§ÙĦØµØŃ":1046,"ĠÙĨØ³":1047,"ĠÙĦØ¹":1048,"ØªØ²":1049,"ĠÙĬØ³Øª":1050,"Ø±ÙĬÙħ":1051,"ĠÙĨÙĤ":1052,"Ġ22":1053,"ĠØ§ÙĦÙħØ¤":1054,"ĠØ¨Ø´ÙĥÙĦ":1055,"ØªØ®Ø¯Ø§Ùħ":1056,"ĠØªØª":1057,"Ø±ÙĬØ¹":1058,"Ġ32":1059,"ĠØ¹ÙħÙĦÙĬØ©":1060,"ĠØ§ÙĦØ§Øµ":1061,"ĠÙģØ§ÙĨ":1062,"Ø·ÙĤØ©":1063,"ĠØ§Ø®Ø¨Ø§Ø±":1064,"ĠØ§ÙĦØ¨ÙĦ":1065,"Ø§Ø¦ÙħØ©":1066,"ĠÙħØŃÙģÙĪØ¸Ø©":1067,"Ġ2019":1068,"ĠØ§ÙĦØªØ¹ÙĦÙĬÙħ":1069,"Ġ21":1070,"ÙĦÙī":1071,"ÙħÙĬØ©":1072,"Ø¹Ø±Ø¶":1073,"ĠØ§ÙĦØ§Ø¬ØªÙħØ§Ø¹":1074,"ĠØŃØ¬Ø±":1075,"ĠØ±ÙĬ":1076,"ĠØ¨ÙĬ":1077,"ĠØªØ·Ø¨ÙĬÙĤ":1078,"ĠÙĦØŃ":1079,"ĠØ§ÙĦØªÙĪ":1080,"ĠØ§ÙĦØ§Ùĥ":1081,"ÙĦØ§Ø«":1082,"Ø³Ø·":1083,"ĠÙĦÙĦØŃ":1084,"ĠØ§Ø³Ùħ":1085,"ĠØµÙĪØ±":1086,"Ø§ÙĦØ«":1087,"Ø§ÙĨÙĬØ§":1088,"ÙģØ§Øª":1089,"ĠÙĬØ¯":1090,"ĠØ§ÙĦØ®Ø§ØµØ©":1091,"ĠØªØ®":1092,"Ø±Ùī":1093,"ÙħØ³":1094,"ĠØ§ÙĦØªØ¹":1095,"Ø±Ø§Ø±":1096,"ĠØ¹Ø¯Ø¯":1097,"ÙĨÙĬÙĨ":1098,"ØºÙĬØ±Ø©":1099,"ĠØ§ÙĦÙħØ·":1100,"Ø±ÙĬØ¨":1101,"ÙĨÙī":1102,"ØªØ±ÙĨØª":1103,"ĠØ§ÙĦØ¨ØŃØ«":1104,"Ø¹ÙĬØ©":1105,"ĠÙĪØ±":1106,"Ø§ÙĩØ¯":1107,"ĠÙĪØ§ÙĦØ¹":1108,"ĠÙĥÙĪØ±ÙĪÙĨØ§":1109,"Ø§Ø¦Ùģ":1110,"ÙĪØ§Ø¡":1111,"ÙĬØ¯Ø©":1112,"Ø´Ø©":1113,"ĠØ§ÙĦØ¹Ø±Ø§ÙĤ":1114,"ÙĬØ±Ø§ÙĨ":1115,"ĠØ³ÙĦ":1116,"ÙĪÙĦØ§":1117,"Ø§Ø¯ÙĬØ©":1118,"ĠÙĬÙĥÙĪÙĨ":1119,"ĠÙħÙģ":1120,"ĠØ«Ùħ":1121,"Ø¸Ø±":1122,"ĠÙĪØ§ÙĦØŃ":1123,"ÙĨÙĤ":1124,"ĠØ§ÙĦØŃÙĥ":1125,"Ø³Ø¨Ø¨":1126,"Ø§ÙĨØ§":1127,"ĠØ§ÙĦØªØ³":1128,"Ø¬Ø§Ø±":1129,"ÙĦÙĩ":1130,"ĠØ§ÙĦØŃÙĦÙĤØ©":1131,"ÙĪØ§Ø¹":1132,"ĠØ§ÙĦÙģØ±":1133,"ÙĪÙĬÙĦ":1134,"Ø§ÙĪÙĦ":1135,"ĠØ§ØŃÙħØ¯":1136,"ÙħÙĦÙĥØ©":1137,"ÙĨØ§Ùĥ":1138,"Ø§Ø¦Ø¯":1139,"ÙģØŃ":1140,"Ø§Ø°Ø§":1141,"ĠØ¨Ø³":1142,"ĠÙĥØ³Ø§Ø±Ø§Øª":1143,"ĠØµÙĬØ§ÙĨØ©":1144,"ÙĪØ·":1145,"ĠÙĩØ§ØªÙģ":1146,"ØªØ±Ùĥ":1147,"ÙħÙĨØª":1148,"Ø¹ÙĬ":1149,"Ø®ÙĪÙĦ":1150,"ĠØ¹Ùħ":1151,"ĠØ§ÙĦØ«Ø§ÙĨÙĬ":1152,"ĠØ§ÙĦÙħÙĩ":1153,"ĠÙħØ§Ùĥ":1154,"ÙĬØ§Ø±":1155,"Ġ47":1156,"Ġ2018":1157,"ĠØªØµÙħÙĬÙħ":1158,"Ø³ÙĦÙħ":1159,"ĠÙĤØ§ÙĦ":1160,"ÙĬÙģØ©":1161,"ÙĨØ§ÙĨ":1162,"Ø§Ø³Øª":1163,"ĠØ§Ø³Ø¹Ø§Ø±":1164,"ĠØ§ÙĦØ¯Ø±":1165,"ĠØ§ÙĦØ§ÙħØ§Ø±Ø§Øª":1166,"Ø§Ø¯Ø±":1167,"Ø±ÙĪØ³":1168,"ĠÙģÙĤØ·":1169,"Ø±Ø¨ÙĬ":1170,"ĠØ§ÙĦØ¹Ø§ÙħØ©":1171,"Ø¯ÙĬÙĪ":1172,"ĠØ§ÙĦÙħÙĦ":1173,"ĠØ§ÙĦØ¹ÙĦÙħ":1174,"ĠÙħÙĦÙĬ":1175,"ĠÙĥØªØ¨":1176,"ĠØ§ÙĦÙħØ¹Ø¯":1177,"ĠØ¨ÙĪØ§Ø³":1178,"ĠØ³Ùħ":1179,"ĠØ§ÙĦÙħØŃÙħ":1180,"ĠØ§ÙĦÙħÙĥ":1181,"ĠØ§Ø²":1182,"ÙĪØ«":1183,"ÙĩÙĦ":1184,"ĠØ§ÙĦØŃØ¯ÙĬØ¯":1185,"ĠØ´Ø®Øµ":1186,"ĠØ¨ÙĪØ§Ø³Ø·Ø©":1187,"ĠÙĥØ§ÙĨØª":1188,"ĠÙĦÙĤ":1189,"Ø§Ø¶ÙĬ":1190,"ĠÙħÙĨØªØ¬Ø§Øª":1191,"ÙĦØ³Ø·":1192,"Ø³Ø³":1193,"ĠØ´Ø¨":1194,"ÙĩØ§Ø²":1195,"ĠØ¨ÙĬØ¹":1196,"ĠØ¨ÙĩØ§":1197,"ĠØ¯Ø§Ø®ÙĦ":1198,"ĠÙĨØª":1199,"ÙĩØ²Ø©":1200,"ÙĩØ§Øª":1201,"ĠÙħÙĨØ°":1202,"ĠÙħØ¬ÙħÙĪØ¹Ø©":1203,"ĠØ´Ø±ÙĥØ§Øª":1204,"ÙĪÙĦÙĪØ¬":1205,"Ġ05":1206,"ĠÙħØ¬ÙĦØ³":1207,"ĠØ§ÙĦØŃØ±":1208,"Ø§Ø¨Ø·":1209,"Ø¸Ùħ":1210,"ĠÙħØ®Ø±ÙĪØ·":1211,"Ø¹Ø§Øª":1212,"ĠØ§ÙĦØ§ÙĨØªØ±ÙĨØª":1213,"ĠØµØŃ":1214,"ĠÙĪØ´":1215,"ÙĬØ·":1216,"ĠØ§Ø®Ø±Ùī":1217,"Ø¯Ø§Ø¯":1218,"Ø§Ø¨Ø³":1219,"ÙĩØ±Ø¨":1220,"ĠÙģÙĬØ¯ÙĬÙĪ":1221,"Ø§ÙĦØŃ":1222,"ĠÙĥØªØ§Ø¨":1223,"Ø°ÙĬØ©":1224,"ĠØ§ÙĨØª":1225,"Ø´Ø±Ø©":1226,"ĠØ§ÙĦÙħÙģ":1227,"ÙĨØ§Ø¹Ø©":1228,"ĠØªØ³ØªØ®Ø¯Ùħ":1229,"Ø§ÙħÙĦØ©":1230,"ĠØ¹Ø±ÙĪØ¶":1231,"ĠØ§ÙĦØ³ÙĦ":1232,"Ø§Ø´Ø±":1233,"ĠÙĬØ´":1234,"ÙĥØªÙĪØ±":1235,"ĠØ§ÙĦÙĪÙĤ":1236,"ÙĪØ§Ø¬":1237,"ĠØ±Ùħ":1238,"Ø§Ø¹Ø§Øª":1239,"ĠØ¹Ø§ÙĦÙĬØ©":1240,"ĠØ·Ø±ÙĬÙĤ":1241,"Ø§Ø¦ÙĤ":1242,"ĠÙĬØ¬Ø¨":1243,"Ø§Ø¨ÙĤ":1244,"ĠØ®Ø¯ÙħØ©":1245,"ĠØ¨Ø¬":1246,"ĠØ§ÙĦÙĪØ²":1247,"Ø§Ø³Ø§Øª":1248,"ĠØªØ§Ø±ÙĬØ®":1249,"ĠØ§ÙĦØ«Ø§ÙĦØ«":1250,"ĠØ§ÙĦØ¬Ø¯ÙĬØ¯Ø©":1251,"ØºÙĬ":1252,"ĠØ¨ÙĤ":1253,"ĠØ§ÙĦØ´ÙĬØ®":1254,"ĠØ§ÙĦØ§ÙħØ±ÙĬÙĥ":1255,"Ø§ÙģÙĬØ©":1256,"ĠØ¹Ø¨":1257,"ØªØ¨Ø±":1258,"ĠØ§ÙĦØ§Ø«":1259,"ÙĬØ§Ø¡":1260,"ĠØ§ÙĦØ¹Ø±Ø¨ÙĬ":1261,"ĠÙĨÙģØ³":1262,"Ø§ÙĤØ§Øª":1263,"Ø±Ø§Ø¦ÙĬÙĦ":1264,"Ø§ÙĩØ±Ø©":1265,"ĠÙĪÙĦÙĥÙĨ":1266,"ĠÙħÙĩ":1267,"ĠÙħØ²":1268,"ĠÙħÙĦÙģ":1269,"Ø±ÙĬÙĤÙĬØ§":1270,"Ø§ÙĪÙĨ":1271,"ĠØ§ÙĦØµØŃØ©":1272,"ĠØ§ÙĦØªÙģ":1273,"Ø¸Ø§Ø¦Ùģ":1274,"ĠØ§Ø¨Ø±":1275,"Ø§Ø¨ÙĦ":1276,"Ø§Ø±Ø¯":1277,"ĠØŃØ³Ø§Ø¨":1278,"Ġ2016":1279,"Ġ26":1280,"ĠØ³ÙĥØ³":1281,"ĠØ§ÙĦÙĥØ³":1282,"Ø§ÙģÙĤ":1283,"ĠØ§ÙĦØªÙĤ":1284,"ĠÙĬØ³":1285,"ÙĬÙĬÙĨ":1286,"ĠØªÙĨØ¸ÙĬÙģ":1287,"Ġ2017":1288,"ĠØ§ÙĦØ¨Ø±ÙĬØ¯":1289,"ĠÙĪÙĩÙĪ":1290,"ĠÙĥÙħ":1291,"ĠØ¹Ø±Ø¶":1292,"ĠØ§ÙĦÙħØ¹ÙĦÙĪÙħØ§Øª":1293,"Ø±ÙģØ©":1294,"ÙħØ¨Ø±":1295,"ĠØªØµÙĨ":1296,"ĠØ§Ø¨ÙĨ":1297,"ĠØŃÙĦ":1298,"ĠØ§ÙĩÙħ":1299,"Ġ39":1300,"ĠØ¬ÙĨÙĪØ¨":1301,"ÙĬØ§Ùĩ":1302,"Ø§ÙĩØ¯Ø©":1303,"Ø¨ÙĪØ¹":1304,"ĠØ§ÙĦØ³Ø¹Ø±":1305,"ĠØ§ÙĦØ§ÙĪÙĦÙī":1306,"ĠØ§ÙĦÙģØŃÙħ":1307,"ĠØªØ¨":1308,"ØŃØ§Øª":1309,"ĠØ§ÙģØ±ÙĬÙĤÙĬØ§":1310,"ĠØ§ÙĦØ±Ø¦ÙĬØ³ÙĬØ©":1311,"Ø²ÙĬØ²":1312,"ÙĩÙħØ§":1313,"ĠÙĦÙĥÙĨ":1314,"Ø§Ø¯Ø§Øª":1315,"Ø®ÙĪØ±":1316,"Ø§Ø¸":1317,"ĠØ§ÙĬØ¶Ø§":1318,"ĠØ§ÙĦÙħÙħÙĦÙĥØ©":1319,"Ġ27":1320,"ĠÙĪØ²ÙĬØ±":1321,"ĠØ§ÙĦÙĤØ¯":1322,"ĠØ§ÙĦÙĦØºØ©":1323,"ÙĨØ¨":1324,"ĠØ§ÙĦØªØ·":1325,"ÙĤØ¯ÙĬÙħ":1326,"ĠÙĬÙĪÙĨ":1327,"ĠØ§ÙĦØ®Ø¯Ùħ":1328,"Ø¶Ø±":1329,"ĠÙĦÙĩØ§":1330,"ĠÙģÙĬÙĩØ§":1331,"Ø¯ÙħØ§":1332,"Ġ50":1333,"ĠÙĬÙħÙĥÙĨÙĥ":1334,"Ø¨Ø·":1335,"ĠÙĪØ¯":1336,"20":1337,"ĠÙĪØµ":1338,"ÙĬÙĪÙĨ":1339,"ÙĥÙĬØ©":1340,"ĠØ±ÙĪ":1341,"ĠÙĦØ¨ÙĨ":1342,"ÙħØ§Ø±":1343,"ÙĪØ¨Ø§":1344,"ÙĤÙĬÙĤØ©":1345,"ĠØ®Ø¯ÙħØ§Øª":1346,"ÙĬØ§Ø¯Ø©":1347,"ĠØ¯ÙĪÙĨ":1348,"ĠØ§ÙĦØ®Ø·":1349,"ĠÙĨÙĪØ¹":1350,"ĠØ¬Ø²":1351,"ĠÙĥÙĬÙģÙĬØ©":1352,"ĠØ§ÙĦØ´Ø±":1353,"ĠÙĪØ·":1354,"Ø³Ø§Ø¨":1355,"ĠØ§ÙĦØ´Ø®Øµ":1356,"ÙĥØ§ÙĨ":1357,"ĠØ°Ø§Øª":1358,"ĠÙĪØ²Ø§Ø±Ø©":1359,"ĠØ·ÙĨ":1360,"ĠØ§ÙĦØ´Ø±ÙĥØ©":1361,"ÙĩØ§Ø¨":1362,"ĠØ§ÙĦØ¯ÙĬÙĨ":1363,"Ø§Ø¹Ø¯Ø©":1364,"ÙĥÙĬ":1365,"ĠØ·Ø±ÙĬÙĤØ©":1366,"Ø¬ÙĦÙĬ":1367,"ÙħØ§Ùħ":1368,"ĠØ§ÙĦØ¹ÙĤ":1369,"ĠØ§ÙĦØ®Ø§Ùħ":1370,"ÙĥØ³ÙĬØ±":1371,"ĠÙĩÙĨØ§Ùĥ":1372,"Ø³ÙĬÙĨ":1373,"87":1374,"ĠØ¬Ø¯":1375,"41":1376,"Ø±Ø§":1377,"ÙĨÙĤÙĦØ©":1378,"ĠÙħØ´Ø±ÙĪØ¹":1379,"ĠØ§ÙĦÙĨÙģ":1380,"ĠØªÙĩ":1381,"Ġ01":1382,"ĠÙĪÙģÙĬ":1383,"ĠÙĩÙĨØ§":1384,"ØµÙĪØµ":1385,"ÙĦØ³ÙĦØ©":1386,"ĠØ§ÙħØ§Ùħ":1387,"ĠØ¨ÙĬØ§ÙĨ":1388,"ØŃÙĦØ©":1389,"ĠØ§ÙĦÙħØ²ÙĬØ¯":1390,"ĠØ¹ÙĦÙĬÙĩØ§":1391,"ÙħØ§Øª":1392,"ÙĪØ±ÙĬØ§":1393,"ÙĤÙĤ":1394,"ĠØ¹Ø¨Ø¯Ø§ÙĦ":1395,"ØºØ±":1396,"ĠÙĤØµ":1397,"ĠØ§ÙĨÙĪØ§Ø¹":1398,"ĠÙģÙĦ":1399,"Ø§Ø¨Ø¹Ø©":1400,"ÙħØª":1401,"Ø§ØŃÙĪÙĨØ©":1402,"ĠØ§ÙĦÙħØ³ØªØ®Ø¯Ùħ":1403,"ĠØ§ÙĪÙĨ":1404,"Ø§ØŃÙĬØ©":1405,"ĠÙħØ¨Ø§Ø±":1406,"ĠØŃØ³Ø¨":1407,"Ø§Ø³Ø¨":1408,"ĠØŃØµ":1409,"Ø§ØµÙĬÙĦ":1410,"ĠÙĪØ§ÙĦÙĨ":1411,"ĠØªÙĥÙĪÙĨ":1412,"ĠØŃØ²":1413,"ĠØ§ÙĦÙħÙĦÙĥ":1414,"ĠÙħØ®Øª":1415,"Ø±Ø§Ø¬":1416,"Ø³ØªØ§ÙĨ":1417,"ĠØ§ÙĨØªØ§Ø¬":1418,"ĠØŃÙĤÙĪÙĤ":1419,"ĠØ§ÙĦØ§Ø³ÙħÙĨØª":1420,"ĠØ§ÙĨØ´":1421,"Ġ52":1422,"Ø§ÙħÙĬÙĨ":1423,"ĠØ§Ø¯Ø§Ø±Ø©":1424,"ĠØ¬Ø§ÙħØ¹Ø©":1425,"Ø§ÙĨØ¹":1426,"ØµØ§ÙĦ":1427,"ÙħÙĦØ©":1428,"ĠÙĨØ¸Ø§Ùħ":1429,"ĠÙĨÙĤÙĦ":1430,"ĠÙĪØ§ÙĦØ¯":1431,"ĠÙħØ¹ÙĦ":1432,"ĠØ§ÙĦØ®Ø§Øµ":1433,"ĠØ§ÙĦÙħÙĪØ¶ÙĪØ¹":1434,"37":1435,"ĠØ§ÙĦØ§ÙĤØªØµ":1436,"ØªÙĬÙĨ":1437,"ĠÙĪØ§":1438,"ĠØ§ÙĦØ³Ø±ÙĬØ¹":1439,"ĠÙĪÙĤØ¯":1440,"ÙĬØ¯ÙĬÙĪ":1441,"ĠØ§ÙĦØ¬ÙĨ":1442,"ĠØ§Ø°":1443,"Ø¹ÙĬØ¯":1444,"Ø¨Ø§ØŃ":1445,"ĠÙħØŃØ·Ø©":1446,"Ø§Ø¦Ø¬":1447,"ĠØ¬ÙĪ":1448,"ĠØ§ÙĦÙĥÙĪÙĬØª":1449,"Ġ35":1450,"ĠØµÙģ":1451,"ÙĨØ§ÙĬØ©":1452,"ĠÙĦÙĬØ³":1453,"ĠÙģÙĬÙĩ":1454,"ĠØ¨Ø§Ø±":1455,"Ø§ØªØ¨":1456,"ĠØ§ÙĦØ§Ø®Ø¨Ø§Ø±":1457,"Ġ28":1458,"ĠÙĤØ§Ø¦ÙħØ©":1459,"ĠØ³ÙĦØ³ÙĦØ©":1460,"ÙĪÙĬÙĨ":1461,"ĠØ¨Ø±ÙĬ":1462,"ÙĩÙĪØ±":1463,"Ø¨ÙĬØ±":1464,"Ø§ÙĦÙĬØ§":1465,"ĠÙħØ¯ÙĬÙĨØ©":1466,"ĠØ§ÙĦØªØ´":1467,"ĠØ¹ÙĦÙĬÙĥ":1468,"Ø¹ÙĦÙħ":1469,"Ġ08":1470,"ØºÙĦ":1471,"ĠØ§ÙĦØ«ÙĤ":1472,"ĠÙĦÙĦØ´":1473,"ĠØ¹Ø§ÙĦÙħ":1474,"ĠÙĦØ¬":1475,"Ø§ÙĦØ¯":1476,"ĠÙĪØ§ØŃØ¯":1477,"ĠÙĨØ¬":1478,"ĠÙħÙĨÙĩØ§":1479,"ÙĪÙĤÙģ":1480,"ĠØ§ÙĨØ¯":1481,"Ġ69":1482,"ĠØ§ÙĦÙħØ¨":1483,"ØŃÙĪ":1484,"ĠØ§ÙĦØ§Ùĩ":1485,"ÙĬØ²Ø©":1486,"Ø¸ÙĬÙħ":1487,"ĠØ³Ø§Ø¹Ø©":1488,"Ø¹Ø§ÙĦ":1489,"Ø±Ø¨Ø©":1490,"Ø¶ÙĬ":1491,"ÙĤØ§Ùħ":1492,"ĠÙĨØµ":1493,"ĠØ·Ø§ØŃÙĪÙĨØ©":1494,"ÙĪÙĦØ§ÙĬØ§Øª":1495,"Ø§ÙĦÙģ":1496,"ĠÙĪØªØŃ":1497,"Ø±ÙĬÙĦ":1498,"ĠØ§ÙĪØ±":1499,"ĠØ§ÙĦØµØ®ÙĪØ±":1500,"ĠØ§ÙĦØŃØµÙĪÙĦ":1501,"Ġ29":1502,"Ø²Ø§":1503,"Ø§ØŃÙĨ":1504,"Ø§Ø±ÙĥØ§Øª":1505,"Ø±Ø§Ø¶":1506,"ØªÙħØ¹":1507,"Ø§ÙĨØ¨":1508,"ĠØµÙĨØ¹":1509,"ÙĬØ±Ø§":1510,"ĠÙĨØ´Ø±":1511,"ĠØ®ÙĦ":1512,"Ø¸ÙħØ©":1513,"ĠØŃØ§ÙĦØ©":1514,"Ø§Ø³Ø¨Ø©":1515,"ÙĥÙĨÙĪÙĦÙĪØ¬":1516,"ÙģØ§Ø¡":1517,"ĠØ¹ÙĤ":1518,"Ġ31":1519,"ÙĪØ¨Ø©":1520,"ÙĪØªØ±":1521,"ĠØ§ÙĦÙĨØ³":1522,"ĠØ§ÙĦØ³ÙĪØ¯":1523,"ĠØ§ÙĦØ³ÙĦØ§Ùħ":1524,"82":1525,"ĠÙĪØ®":1526,"ĠØ§ÙĦØ¨ØŃØ±ÙĬÙĨ":1527,"ĠØ¶Ø¯":1528,"ĠØ§ÙĦÙĤØ§ÙĨÙĪÙĨ":1529,"ĠØ§ÙĦØŃÙĬ":1530,"ÙĪØ±Ø§Øª":1531,"ĠØ´ÙĬ":1532,"Ø§ØµØ±":1533,"ĠØ¨Ø³Ø¨Ø¨":1534,"ĠØ§ÙĦÙĤØ·":1535,"ĠØ§ÙĦÙĬÙħ":1536,"Ø§Ø«ÙĬØ±":1537,"ÙĬØ³ÙĬ":1538,"Ø±Ø¹Ø©":1539,"ĠØ§ÙĦØªØ¯":1540,"Ġ40":1541,"ĠØ§ÙĦØ¨ÙĨ":1542,"Ø¨ÙĤ":1543,"Ø§ÙĦØª":1544,"Ø§ÙģÙĬ":1545,"ĠØ¬Ø¯Ø§":1546,"Ø§Ø¦Ø¨":1547,"Ø§Ø¶ÙĬØ¹":1548,"ĠÙĪÙĩÙĬ":1549,"ÙģØ¸":1550,"Ø¤ÙĪÙĦ":1551,"Ø®ØµØµ":1552,"ØºÙĬÙĦ":1553,"ĠØªÙĪÙģ":1554,"ØªØ±Ø©":1555,"Ġ51":1556,"ÙģÙĬØ±":1557,"Ø³ÙĨ":1558,"ĠØªÙĦ":1559,"ÙħØ§ÙĬØ©":1560,"ĠØ§ÙĥØ¨Ø±":1561,"ĠÙĦØ§Ø³":1562,"Ø´ÙĬ":1563,"ĠÙĪØ¹ÙĦ":1564,"ĠÙģØªØŃ":1565,"ĠÙĥÙĨØª":1566,"Ø³Ùĥ":1567,"Ø§ÙĨØ¯":1568,"Ø§ÙħØ§":1569,"Ø¶ÙĬØ©":1570,"Ø±Ùħ":1571,"ĠØ¯ÙĬ":1572,"ĠØ§ÙĦØ´Ø¹Ø±":1573,"ĠÙĪØ§ÙĦØªÙĬ":1574,"ĠÙħØ¹ÙĦÙĪÙħØ§Øª":1575,"ĠØ§ÙĦØ§ÙĨØ³Ø§ÙĨ":1576,"Ø¸ÙĩØ±":1577,"ØŃÙĪÙĤ":1578,"Ø¨ÙĬÙĪØªØ±":1579,"Ø¬ÙħÙĬØ¹":1580,"Ø¬Ø²":1581,"ĠØ§ÙĦØ§Ø¹ÙĦØ§Ùħ":1582,"ĠØ§ÙĦØ¹ÙĦÙĪÙħ":1583,"ĠÙĦØ´":1584,"ĠÙĥØ¨ÙĬØ±Ø©":1585,"Ø²ÙĬØ©":1586,"ĠØºØ³":1587,"ØŃØ¨":1588,"ĠØµÙĦ":1589,"Ø§Ø´Ø©":1590,"ĠØ´ÙĩØ±":1591,"ĠØ§ÙĦØ¹Ùħ":1592,"ĠØªØ³Ø¬ÙĬÙĦ":1593,"ĠØ«ÙĦØ§Ø«":1594,"ĠÙħØ´Ø§ÙĩØ¯Ø©":1595,"ĠØ·ÙĦØ¨":1596,"97":1597,"ÙĤØ¨ÙĦ":1598,"ĠØŃØ¯":1599,"ĠØ§ÙĦÙħØ±ÙĥØ²":1600,"Ø·ÙĦÙĤ":1601,"Ø§Ø¬Ø§Øª":1602,"ĠØ¨Ø±ÙĬØ¯":1603,"ĠÙĪØ°ÙĦÙĥ":1604,"ĠØ§ÙĦÙĪØ·ÙĨÙĬ":1605,"ĠØ§ÙĦÙĥÙĦ":1606,"ĠØ§ÙĦØ°ÙĬÙĨ":1607,"ØµÙĪØ±":1608,"ØŃØ§Ø¯":1609,"Ø§Ø·ÙĤ":1610,"ĠÙĪØ§Øª":1611,"Ø§Ø±Ø¨":1612,"ĠØ§ÙĦØ¹ÙĨ":1613,"Ø§ÙĨØ©":1614,"ØªÙħØ¨Ø±":1615,"ĠØ§ÙĦØ±Ø³Ùħ":1616,"ĠØ§Ùĩ":1617,"ĠÙĦØ¨ÙĨØ§ÙĨ":1618,"ĠØ§ÙĦØ¯ÙĥØªÙĪØ±":1619,"ĠÙħØªØ±Ø¬Ùħ":1620,"Ø¨ÙĬØ§":1621,"ĠØ§ÙĦÙĪÙĦØ§ÙĬØ§Øª":1622,"ĠØ§ÙĨÙĩØ§":1623,"ĠÙĥÙĨ":1624,"ĠØ¨Ø§Ùĥ":1625,"ÙĬØ§Ùħ":1626,"ĠØªØŃØª":1627,"ĠØªØ¹Ø¯ÙĬÙĨ":1628,"Ø§Ø¦Ùħ":1629,"Ø°ÙĬ":1630,"ĠÙĨÙĪÙģ":1631,"Ø´Ø±Ø§Øª":1632,"ĠØ³Ø¨ØªÙħØ¨Ø±":1633,"ĠØ¹Ø¯":1634,"Ø¬Ø¯":1635,"ĠÙĦÙĦØ¹":1636,"ĠØ¯ÙĪÙĦØ§Ø±":1637,"ĠÙĤØ·Ø¹":1638,"Ø§Ø¬Ø±":1639,"ĠÙĥØ§ÙħÙĦ":1640,"ĠØ§Ø¬ÙĦ":1641,"ÙĦØ³Ø·ÙĬÙĨ":1642,"ĠØ§ÙĦÙħÙĨØªØ¯Ùī":1643,"Ġ60":1644,"ÙĪØ¬Ø¯":1645,"Ø§Ø²ÙĦ":1646,"ĠÙħØ¶":1647,"ĠÙĪØ¸Ø§Ø¦Ùģ":1648,"ĠØ¨ÙĬØ±":1649,"ĠÙĥØ¨ÙĬØ±":1650,"ÙĦØ§ÙĤ":1651,"ĠÙģÙĩ":1652,"Ø±Ø·":1653,"ĠØ§ÙħØ±ÙĬÙĥ":1654,"ĠÙģÙĨ":1655,"Ġ36":1656,"ĠØ§ÙĦØ±Ø³":1657,"Ø§ÙģØ¸":1658,"ĠÙĬÙģ":1659,"ĠÙĪØ§ÙĦØ´":1660,"ĠØ¨Ø¯ÙĪÙĨ":1661,"ĠØ§Ø¬Ø±":1662,"ĠØ¹ÙĨØ¯ÙħØ§":1663,"ĠØªØ¹Ø±Ùģ":1664,"Ø¬Ø§ÙĨ":1665,"Ġ59":1666,"ĠØ§ÙĨØ§":1667,"ĠØ¹ÙĦÙħ":1668,"Ø²ÙĬÙĦ":1669,"ĠØ§ÙĦØ§Ø¹ÙħØ§ÙĦ":1670,"ĠØ§ÙĦØŃÙĥÙĪÙħØ©":1671,"ĠØ±Ø¬":1672,"ØªÙĬØ§Ø±":1673,"ĠØ§ÙĦØ§Ø²":1674,"ĠÙħÙĨÙĩ":1675,"Ø¨ÙĬØ¨":1676,"ĠÙĪÙģØ±":1677,"ĠØ§ÙģÙĦØ§Ùħ":1678,"ĠÙĬØ§":1679,"ĠØ§ÙĦØ§ÙħØ±ÙĬÙĥÙĬØ©":1680,"ĠÙĨÙĬÙĪ":1681,"Ø¨ØŃØ«":1682,"ĠØ§ÙĦØµÙģØŃØ©":1683,"ĠØ§ÙĦØ®Ø§Ø±Ø¬":1684,"ĠØµØºÙĬØ±Ø©":1685,"ĠØ¨Øµ":1686,"ĠØ§ÙĦÙĤØ±Ø§ÙĨ":1687,"Ø¬ÙħØ¹":1688,"Ø®Ùģ":1689,"ĠØ³ÙĪ":1690,"ĠØ´Ùĩ":1691,"Ø´Ø§Ø±":1692,"50":1693,"Ø±ÙĬØ±":1694,"ĠØªØµÙĨÙĬØ¹":1695,"ĠÙħØªÙĪ":1696,"ĠØ§ÙĦØ´Ø±ÙĥØ§Øª":1697,"ĠÙĪÙĤØª":1698,"ØªØ¹":1699,"ĠØ³ÙĨØ©":1700,"ĠØ¯Ø¹":1701,"ĠÙĪØ§ÙĦØ³":1702,"Ø§Ø²Ø§Øª":1703,"ĠØ§ÙĦØ¯ÙĪÙĦØ©":1704,"ĠØ§ÙĦØ¹Ø§Ø¨":1705,"ĠØ§ÙĦØ¹Ø¯ÙĬØ¯":1706,"ĠØ§ÙĦØ¯ÙĪÙĦÙĬ":1707,"ĠÙĪØ§Ø¹":1708,"ĠØ§ÙĦÙĪÙĤØª":1709,"ĠÙĦØ¹Ø¨Ø©":1710,"ØªÙģØ§Ø¹":1711,"ĠØ§ÙĦØ§Ø·ÙģØ§ÙĦ":1712,"ĠÙĬÙĪÙĦ":1713,"ĠØ§ÙĦØ§Ø±Ø¯":1714,"Ø³Ø³Ø©":1715,"ĠÙĤØ§ÙĨÙĪÙĨ":1716,"Ø¶ÙĪ":1717,"Ø§ÙģØŃØ©":1718,"ĠÙĬÙĥ":1719,"ÙĬØµ":1720,"ĠØ§ÙĦÙħØµÙĨ":1721,"ĠÙħÙĪØ§ÙĤØ¹":1722,"ĠØŃÙħ":1723,"ÙĬØ¯ÙĬ":1724,"ĠØ§ÙĦÙħØ¹Ø¯Ø§Øª":1725,"ĠØ§ÙĦØ§ÙĪØ±":1726,"ĠØ§ÙĦÙĥØªØ±ÙĪÙĨ":1727,"ÙĪØ¨ÙĬ":1728,"ÙĥÙĨÙĪÙĦÙĪØ¬ÙĬØ§":1729,"Ø§ØªÙĬ":1730,"ĠÙĪØ§ÙĦÙĤ":1731,"ĠØ§ÙĦÙħÙĨØªØ¬Ø§Øª":1732,"ĠØ§ÙĦØ§ØŃØ¯":1733,"ØªÙĪÙĬ":1734,"ØºÙĬÙĬØ±":1735,"ĠØ§ÙĦØ±ÙħÙĦ":1736,"ĠØ§ÙĦØŃÙĬØ§Ø©":1737,"Ø§Ø´Ø±Ø©":1738,"ĠÙĦØ§Ø¹":1739,"ĠØ§ÙĦØ§ÙĦÙĥØªØ±ÙĪÙĨÙĬØ©":1740,"Ø§Ø¶Ø§ÙģØ©":1741,"ÙģØ§Ø¹":1742,"Ø±ÙĪÙģ":1743,"ĠÙĦØªØŃ":1744,"Ġ06":1745,"ĠØ§ÙĦØ«Ø§ÙĨÙĬØ©":1746,"ĠØ®Øµ":1747,"ĠØ¯ÙĪØ±":1748,"Ø¯Ø§ÙĪÙĦ":1749,"ĠØ§ÙĦØ¹Ø§ÙĦÙħÙĬØ©":1750,"ĠØ§ÙĦØ«Ø§ÙĨ":1751,"ĠØ§ÙĦÙħÙĪØ§Ø¯":1752,"Ø§Ø¯ÙĤ":1753,"ĠÙĪØ¶Ø¹":1754,"ĠÙħØ§ÙĦ":1755,"80":1756,"ĠØ§ÙĦØŃØ¬":1757,"ĠØ¯Ø¨ÙĬ":1758,"Ø§Ø¦Ø¹":1759,"ĠÙħØ¬Ø§ÙĨØ§":1760,"ĠÙħÙĦÙĬÙĪÙĨ":1761,"Ġ2015":1762,"Ø¨Ø³":1763,"Ġ2014":1764,"ĠØ§ÙĦÙĤØ§ÙĩØ±Ø©":1765,"ĠØ¹ÙħØ±":1766,"ÙĤÙĩ":1767,"Ø²Ø§Ùħ":1768,"ĠØ§ÙĦÙħÙĪØ±Ø¯":1769,"ĠØ¨Ø§ÙĦÙĥ":1770,"ĠØ¯ÙĬØ³":1771,"ĠØªØ³ÙĪÙĤ":1772,"ĠÙĪÙĥØ§ÙĨ":1773,"ØªÙĨØ§":1774,"Ø¬Ùĩ":1775,"ĠØ§ÙĦØ¯Ø®ÙĪÙĦ":1776,"ĠÙĪØ§ØŃØ¯Ø©":1777,"Ø·Ø§Øª":1778,"ĠØ®Ø§ØµØ©":1779,"ĠØ§Ø¶Ø§ÙģØ©":1780,"ÙĨØ³ÙĬØ©":1781,"Ø§Ø¬Ø©":1782,"ĠØ§ÙĦØµÙĨØ§Ø¹":1783,"Ø¯Ø§Ø±":1784,"ĠÙĪØ§ÙĦÙģ":1785,"Ø§Ø±Ø¹":1786,"ĠØ¹Ø¯Ùħ":1787,"ĠÙħØ³ØŃÙĪÙĤ":1788,"Ø°Ø©":1789,"ĠØ§ÙĦØ¯Ø§Ø®":1790,"ĠÙħÙĨØ·ÙĤØ©":1791,"ĠØ±ØŃ":1792,"ĠØ§ÙĦØ³ÙĬØ§Ø±Ø§Øª":1793,"ØªØ®Ø§Ø¨Ø§Øª":1794,"Ø³ÙĬÙĤ":1795,"Ø¨Ùĩ":1796,"Ġ09":1797,"ĠØµÙĨØ§Ø¹Ø©":1798,"ĠØŃÙĥ":1799,"ĠØ§ÙĦØ´Ø±ÙĤ":1800,"ĠÙĪØ§ÙĦØµ":1801,"ĠØ§ÙĦÙħØªÙĪ":1802,"ĠØ§ÙĦØªØµÙĨ":1803,"Ø§ÙĤÙĦ":1804,"ĠÙĤÙĨ":1805,"Ø§ÙĩÙĬÙħ":1806,"Ġ33":1807,"Ø§ÙĦØ¬Ø©":1808,"Ø§Ø¯ÙĦ":1809,"ĠÙħØ¬Ø§ÙĦ":1810,"ĠÙĬØµ":1811,"ĠØªÙĦÙĥ":1812,"Ø§Ø¯Ø«":1813,"Ø§Ø¦Ø±Ø©":1814,"ĠØ§Ø¨ÙĬ":1815,"ĠØ§ÙĦÙĥØ«ÙĬØ±":1816,"ÙĪÙĨØ³":1817,"ĠÙħØº":1818,"ĠÙĬØ®":1819,"ĠØ¨Ø§Ø¨":1820,"ÙĨØ·":1821,"ØµÙī":1822,"ØªØ¨Ø§Ø±":1823,"ĠÙħØ±Ø©":1824,"ĠÙĤØ·Ø±":1825,"ĠØ§ÙĦØ¬ÙĬØ±ÙĬ":1826,"Ġ37":1827,"ĠÙĦÙĦØ§Ø³":1828,"ÙĪØ§Ø¨":1829,"ÙĬÙĪØ·":1830,"ĠØ§ÙĦØªØ±Ùĥ":1831,"ĠÙĬØ¤":1832,"Ø¬ÙĬ":1833,"ĠØ§ÙĦÙĪØ·ÙĨÙĬØ©":1834,"ĠØ§ÙĦØ³Ø§Ø¹Ø©":1835,"ĠÙĨØŃÙĨ":1836,"ĠÙĬÙĪÙĨÙĬÙĪ":1837,"Ø¶Ø§ÙĨ":1838,"Ø§ÙħÙĬ":1839,"ĠÙģÙĪ":1840,"ĠØ¹ÙĨÙĪØ§ÙĨ":1841,"ĠÙĥÙĦÙħØ©":1842,"ÙĥØ§Øª":1843,"ÙħØ¯ÙĬÙĨØ©":1844,"ĠØªØ§Ø«ÙĬØ±":1845,"ĠÙĦÙĥÙĦ":1846,"Ø·ÙĦØ¨":1847,"ĠÙĦØ³":1848,"Ø¶ØŃ":1849,"ĠÙĤÙħ":1850,"ĠØŃÙĤ":1851,"Ø®Ø©":1852,"ĠØ§ÙĦØªÙĪØ§ØµÙĦ":1853,"ĠØ§ÙĦÙħÙĨØªØ¬":1854,"ĠØ§Ø¹Ø¯":1855,"ĠÙĪØ§ÙĦØ§Ø³":1856,"Ø§ÙĥÙĦ":1857,"ĠØ¨ÙĨØ§":1858,"61":1859,"ĠÙĬØ±":1860,"Ø°ÙĥØ±":1861,"Ø·ÙĦØ§ÙĤ":1862,"Ø¯ÙĬØ©":1863,"ĠØªÙĥØ³ÙĬØ±":1864,"Ø§ÙĩÙħ":1865,"ĠØ§ÙĦÙħÙħ":1866,"ĠØ§ÙĦÙħØµØ±ÙĬ":1867,"ĠØªØ¹Ø¯":1868,"ÙĤØ±ÙĬØ±":1869,"ĠÙħÙĦÙģØ§Øª":1870,"ĠØ¨Ø§ÙĦÙĤ":1871,"ĠØ§ÙĦØ§ÙĨØ¬ÙĦÙĬ":1872,"ĠØ¬Ø±":1873,"ĠØ³ÙĬØ±":1874,"ĠØ´Ø±Ø§Ø¡":1875,"ĠØ§ÙĦØ§Ø³ÙĦØ§ÙħÙĬØ©":1876,"ÙĪÙħÙĬ":1877,"ĠØ§ÙĦØŃØ¯ÙĬØ«":1878,"ØªØ§":1879,"ĠÙĦÙħÙĨ":1880,"ĠØ§ÙĦØªØ§Ø±ÙĬØ®":1881,"Ø¨Ø®":1882,"ĠØ¨ÙĬØª":1883,"ĠÙģÙĬÙĦÙħ":1884,"ĠØ§ÙĦØ¹Ø¯":1885,"Ø§Ø¯Ø±Ø©":1886,"Ġ02":1887,"ĠØ§ÙĦØªØ¬Ø§Ø±ÙĬØ©":1888,"ĠØ§ÙĦØ§Ø¬ØªÙħØ§Ø¹ÙĬØ©":1889,"ĠØ¯ÙĦÙĬÙĦ":1890,"ØªÙĪÙī":1891,"Ø§Ø¡Ø§Øª":1892,"ØªØ±Ø§Ùĥ":1893,"ĠØ§Ø¬ØªÙħØ§Ø¹":1894,"Ú©":1895,"ĠØ´Ø±":1896,"ĠØ§ÙĦØ¹Ø±Ø¨":1897,"Ø§ÙħØ§Øª":1898,"ÙģØ³ÙĬØ±":1899,"ĠÙħØ§Ø±Ø³":1900,"ĠØ§ÙĦÙĨÙģØ·":1901,"ĠÙĪØ§Ø¬":1902,"ĠÙģÙĤØ¯":1903,"ĠØ§ÙĦÙħØ§ÙĦ":1904,"Ġ04":1905,"ĠØ¨ÙħØ§":1906,"ĠØ§ÙĦÙĨØ§Ø³":1907,"ĠÙĨØ´":1908,"ĠÙĦØµ":1909,"ĠÙĥØ±":1910,"ĠØ§ÙĦØ«ÙĦØ§Ø«":1911,"ĠØ§ÙĦØ§ØªØµØ§ÙĦ":1912,"ĠÙĥØ§Ø±":1913,"ĠØ§ÙĦÙĥÙĩØ±Ø¨":1914,"ÙĬÙĨØ§Øª":1915,"ĠÙĦÙĦÙĨ":1916,"ĠØ§ØŃØ¯Ø«":1917,"ÙĪÙĩ":1918,"Ø¯Ùĩ":1919,"Ø§Ø¶ÙĬØ©":1920,"Ø¨Ø§Ø¡":1921,"Ø§Ø¦ØŃ":1922,"Ġ07":1923,"ÙĬÙħÙĬ":1924,"Ø§ÙĨØ³":1925,"ĠØ§ÙĦØ¨Ø·":1926,"ØºÙħ":1927,"ĠØ§ÙĦØ³Ø¨Øª":1928,"ĠØ¨Ø§ÙĦÙģ":1929,"ØŃØ§Ø¨":1930,"ÙħÙĬØ³":1931,"ĠÙĪØºÙĬØ±":1932,"ĠØ§ÙħØ±":1933,"ĠÙĦØ§ÙĬÙĨ":1934,"ĠØ¬ÙĩØ§Ø²":1935,"ÙĬÙĪØ¨":1936,"ĠÙħØ§Ø±":1937,"ĠØŃØ³ÙĨ":1938,"ĠØ§Ø±ÙĤØ§Ùħ":1939,"ĠØ§ÙĦÙħØºØ±Ø¨":1940,"ĠÙĤØ±":1941,"Ø´Ø±ÙĬÙĨ":1942,"ĠÙħØŃÙħ":1943,"ĠÙĪÙħØ§":1944,"Ø·ÙĬØ¹":1945,"ĠØ§ÙĦÙĨØŃ":1946,"ĠØªÙĤØ¯Ùħ":1947,"ĠØªØ±ÙĥÙĬØ§":1948,"ĠØ§ÙħÙĨ":1949,"ĠÙħØ«":1950,"ĠØ³ÙĨÙĪØ§Øª":1951,"Ø¸ÙĬÙģØ©":1952,"ĠØ§ÙĦØ¬ÙħØ¹Ø©":1953,"ĠØªØ¹ÙĦÙĬÙĤ":1954,"ØªØ¯ÙĬØ§Øª":1955,"ĠØ§ÙĦØ³ÙĨØ©":1956,"ĠØ§ÙĦØªØ±":1957,"ØªÙħØ±":1958,"Ø¨Ø§ÙĦ":1959,"Ø§Ø¨ÙĬ":1960,"ĠØ§ÙĤÙĦ":1961,"ĠÙĦÙģ":1962,"ĠØ§ÙĦÙĨÙĤ":1963,"ĠÙĦØ¯Ùī":1964,"Ø¶Ùħ":1965,"Ø§ÙģØ¸Ø©":1966,"ĠÙĬÙĦ":1967,"Ø³Ø§Ùħ":1968,"ĠÙħØ´Ø§Ø±ÙĥØ©":1969,"ĠØ§ÙĦØ±ÙħØ§ÙĦ":1970,"Ø§ÙĥØ³":1971,"ØªØ§ØŃ":1972,"21":1973,"ĠÙī":1974,"ĠÙĨÙģ":1975,"ĠÙĨØªØ§Ø¦Ø¬":1976,"ĠÙħØ¨Ø§Ø´Ø±":1977,"ĠØ®Ø§Øµ":1978,"ĠÙĪØ§Ø®":1979,"ĠØ¨Ø±Ø§ÙħØ¬":1980,"ĠØ§Ø¹ÙħØ§ÙĦ":1981,"27":1982,"ĠØ§ÙĦØ§Ø³Ø¹Ø§Ø±":1983,"Ġ2013":1984,"ĠØ¨Ø§Ø³ØªØ®Ø¯Ø§Ùħ":1985,"ĠØ¨ÙħÙĨ":1986,"ĠØ§ÙĦØ§Ø®Ø±Ùī":1987,"ÙĪØŃ":1988,"ÙĪØ§ÙĤ":1989,"ĠØ§ÙĦØ¹ÙĨØ§ÙĬØ©":1990,"ÙĪÙĨØ§Øª":1991,"Ġ03":1992,"Ø±Ø¬Ø©":1993,"ĠØ§ÙĦØ¯ÙĪÙĦÙĬØ©":1994,"Ø§ÙģØ±":1995,"ÙĥØ¯":1996,"ĠØ§ÙĦØµØºÙĬØ±Ø©":1997,"ĠØ§ÙĦØ±ØŃ":1998,"ÙĪÙĬØªØ±":1999,"ĠØ±ÙħØ¶Ø§ÙĨ":2000,"ĠØ³ÙĬØ§Ø±Ø§Øª":2001,"ĠÙĥØ§ÙģØ©":2002,"ĠØ¨ÙĨØ§Ø¡":2003,"ĠØ§ÙĦØ±Ø¬":2004,"Ġ45":2005,"ĠØ§ÙĬØ§Ùħ":2006,"ĠÙģØ¨Ø±":2007,"ĠÙĪÙģÙĤ":2008,"ĠØªØ¹Ø±ÙĬÙģ":2009,"Ø¹ÙĦÙĬÙĤ":2010,"ĠÙħÙĦØ§Ø¨Ø³":2011,"Ġ56":2012,"Ø³Ø§ÙĦ":2013,"ĠÙħØ¹Ø§ÙĦØ¬Ø©":2014,"Ø·Ùģ":2015,"ØµØ¯":2016,"ĠØ§ÙĦÙħØŃÙħÙĪÙĦØ©":2017,"ĠÙħØ§Ø³":2018,"Ø§ÙģØ§Øª":2019,"ĠØ§ÙĦØ§Ø±Ø¶":2020,"ĠØ§ÙĦØ®Ø¯ÙħØ§Øª":2021,"Ø·ÙĪØ±":2022,"ÙĩØ¯Ùģ":2023,"ĠØ§ÙĦØŃÙĤ":2024,"ĠØ³ÙĬØ§Ø³Ø©":2025,"ĠØ§ÙĦØ§Ø¹ÙĦ":2026,"Ø§Ø¯ÙĨ":2027,"ĠØ§ÙĦØ¯Ùħ":2028,"Ø§Ø¹ÙĬ":2029,"ĠØ§ÙĦÙħØµÙĨØ¹Ø©":2030,"ÙĥØ±Ø©":2031,"ĠØ²ÙĬØª":2032,"ĠØ¨Ø§ÙĦØ¬":2033,"ĠÙħØ§ÙĬÙĪ":2034,"ĠØ¨Ø¯Ø§":2035,"ĠØ·Ø¨":2036,"ĠØªÙĥÙĦÙģØ©":2037,"ÙĥØ§":2038,"ĠÙĬÙĪÙĦÙĬÙĪ":2039,"ĠÙħØ¯ÙĬØ±":2040,"Ø·Ø§ÙĦ":2041,"ĠØ§ÙĦÙħØŃÙħÙĪÙĦ":2042,"ÙĩÙĪØ±ÙĬØ©":2043,"ĠØ§ÙĦØ³ÙĬØ¯":2044,"ØªÙĨ":2045,"ÙĪÙĦØ§Øª":2046,"Ø®Ø§Øµ":2047,"ĠØ´Ø§ÙĩØ¯":2048,"Ġ80":2049,"Ġ253":2050,"Ø±ÙĪÙĬØ¯":2051,"ĠÙĨØ¸":2052,"ĠØ§Ø¹ÙĦØ§ÙĨ":2053,"Ø§ÙĬØ§":2054,"ÙĬÙħØ§ÙĨ":2055,"ĠÙħØªÙĨ":2056,"ĠØ´Ø¨ÙĥØ©":2057,"ÙĪØ§Ø±Ø§Øª":2058,"ĠÙĥØª":2059,"ĠØ§ÙĦØ±ÙĤÙħ":2060,"ĠÙĦÙĥÙħ":2061,"ĠÙħÙħØ§":2062,"ØŃÙĬØŃ":2063,"ĠØ§ÙĦÙĨÙĩ":2064,"ĠØ°ÙĥØ±":2065,"ĠÙģØŃ":2066,"Ø§ÙĬØª":2067,"ĠØ§ÙĦØ³ÙĨ":2068,"ĠØ§ÙĦÙħØ§ÙĦÙĬØ©":2069,"ĠØ±Ø³Ø§ÙĦØ©":2070,"ĠÙĬÙĨØ§ÙĬØ±":2071,"ĠÙĤÙĦ":2072,"Ø±Ø¯Ø´Ø©":2073,"ĠØªØªÙħ":2074,"ÙĥØ§Ø±":2075,"Ø±Ø§Ø¡Ø©":2076,"Ø¯ÙĪØ¯":2077,"ĠÙħØªÙĨÙĤÙĦØ©":2078,"ĠØ³ÙĪÙģ":2079,"Ġ65":2080,"Ø·Ø¨":2081,"Ø§Ø³Ùħ":2082,"ĠÙĪØ§ÙĦØ§ÙĨ":2083,"ĠØ§ÙĦØµØŃÙĬØ©":2084,"ÙĩØ§ÙĬØ©":2085,"ĠØ§ÙĬØ±Ø§ÙĨ":2086,"ĠØ§ÙĦØ³ÙĪ":2087,"ĠÙĪØ§Ø¶":2088,"ÙĨØ§ÙĪÙĦ":2089,"ÙĥØ§Ùħ":2090,"ÙĬÙħÙĪÙĨ":2091,"ĠØ§Ø³Ø±Ø§Ø¦ÙĬÙĦ":2092,"ĠØ§ÙħØ§":2093,"ĠÙĪØ§Ø´":2094,"ĠØ§ÙĦÙħÙĬØ§Ùĩ":2095,"ĠØ¹Ø±Ø¨ÙĬ":2096,"ĠÙĪØ§ÙĦØ¬":2097,"ĠÙģØ±ÙĬÙĤ":2098,"ĠØ±Ø§Ø³":2099,"ĠÙĦØ¯ÙĬ":2100,"ĠØ§ÙĦØ§ØªØŃØ§Ø¯":2101,"ÙĥØ±ÙĬØ©":2102,"ĠÙĦÙĦØ³":2103,"ĠØ§ÙĦØ·Ø§ÙĤØ©":2104,"ĠØ§Ø±Ø¨":2105,"Ø§ÙĤÙĬØ©":2106,"ĠÙħÙĥØ§ÙĨ":2107,"ĠÙĪØ§ÙĦØ®":2108,"Ø°Ø±":2109,"ÙĪÙħÙĬØ©":2110,"ĠØ§ÙĦØªØ±Ø¨ÙĬØ©":2111,"ĠØ§Ø¨Ø±ÙĬÙĦ":2112,"ÙĪØ¨ÙĬØ©":2113,"ĠØ§ÙĦØ§Ø¬ØªÙħØ§Ø¹ÙĬ":2114,"ĠØ§ÙĦØµÙĪØ±":2115,"ĠØ³ÙĪØ±ÙĬØ§":2116,"ĠØªÙĤØ¯ÙĬÙħ":2117,"ĠØ§ÙĤØ±":2118,"Ø±ÙĬØ³":2119,"ÙĬÙĦÙĬ":2120,"Ø¯ÙħØ©":2121,"ĠØ§ÙĦÙħØ±Ø§Ø©":2122,"Ø¹Øª":2123,"ÙģÙĬØ°":2124,"ĠÙĪØ¬ÙĪØ¯":2125,"ĠØ§ÙĦÙħÙĨØ²ÙĦ":2126,"ĠØ§Ø¬ÙĩØ²Ø©":2127,"ĠÙĪØ§Ùĥ":2128,"ĠØŃØ±":2129,"ĠØ§Ø«ÙĨØ§Ø¡":2130,"Ø§Ø¦Ø¯Ø©":2131,"ĠØ§ÙĦØŃÙĦ":2132,"ĠØ§ÙĦØ§ÙħÙĨ":2133,"ĠØ§Ø¹Ø§Ø¯Ø©":2134,"ĠØ§Ø®ØªØ±":2135,"ØªØ´":2136,"ĠØ§ÙĦÙħÙĪØ³Ùħ":2137,"ĠØ§ÙĦØ§Ø³Ø¨ÙĪØ¹":2138,"ĠØ§ÙĦØ¬Ø±":2139,"ĠÙħØ¨Ø§Ø±Ø§Ø©":2140,"ÙĥÙĦØ©":2141,"ĠØ§ÙĦÙĨØ¨Ø§Øª":2142,"ĠÙħÙĥØ§ÙģØŃØ©":2143,"ĠØ¹Ø´Ø±":2144,"Ø¨ÙĦØº":2145,"Ø¹Ø§Ùħ":2146,"ÙĬÙĦØ§Øª":2147,"Ø±ÙĬØ§Øª":2148,"51":2149,"ÙĦÙħØ§ÙĨ":2150,"Ġ500":2151,"ĠØªÙĪÙĬØªØ±":2152,"Ø·ÙĪØ§ÙĨ":2153,"ĠØ±Ø¤":2154,"ĠØ§ÙĦÙĨØ¸Ø§Ùħ":2155,"ÙĬÙĥÙĪÙĨ":2156,"ĠØ§ÙĦØ´Ùĩ":2157,"Ø´ÙĦ":2158,"ĠÙĪØµÙĦ":2159,"ĠØ¶ÙħÙĨ":2160,"ÙĬÙĥØ§":2161,"ĠØ§ÙĦØ´Ø¹":2162,"Ø¹ÙħÙĦØ©":2163,"ĠÙĦÙĦØ¯":2164,"ĠØ«ÙĤ":2165,"ĠØ§ÙĦÙĦØ¨ÙĨ":2166,"ĠØ¹ÙĬØ¯":2167,"ĠØ§ÙĦÙĥØ±ÙĬÙħ":2168,"ĠØ§ÙĦØ®ØµÙĪØµ":2169,"ĠØ§ÙĦØªØ·Ø¨ÙĬÙĤ":2170,"ÙĬÙĥÙĬØ©":2171,"ĠØ´Ø±ØŃ":2172,"ĠØ§ÙĦÙģÙĬØ¯ÙĬÙĪ":2173,"ÙĪØ±Øª":2174,"ØªÙĤØ§ÙĦ":2175,"ĠØ§ÙĦØ§ÙħØ±":2176,"ĠØ¨ÙĥÙĦ":2177,"ĠØ§ÙĦØ³Ùħ":2178,"ĠØ§ÙĦØ§Ø¨ØªØ¯":2179,"ĠØ§ÙĦÙĥØªØ§Ø¨":2180,"Ø§ÙĪÙĬ":2181,"ĠØ§ÙĦØªØµÙĨÙĬÙģ":2182,"ĠØ²ÙĬ":2183,"ĠÙħØ³Ø§Ø¡":2184,"Ø±Ø¹":2185,"Ø§Ø¨ÙĤØ©":2186,"Ø§ÙĦÙī":2187,"ĠØ§ÙĦØ§ÙħØ§Ùħ":2188,"ÙħÙĪØ°":2189,"Ø¯ÙĤ":2190,"ÙĪØ¶":2191,"Ġ49":2192,"ĠØŃØ¨":2193,"ĠØ§ÙĦÙĥØ±":2194,"Ø§Ø¨ÙĬØ©":2195,"ÙĬØ±Ø§Øª":2196,"ĠØ±Ø¨":2197,"ÙĥØ§ÙĦ":2198,"ĠØ¬Ø±ÙĬ":2199,"ĠØ§ÙĦØ¬Ø§Ùħ":2200,"ĠØ¯ÙĪÙĦØ©":2201,"ĠØ§ÙĦØºØ°":2202,"ĠÙĦÙĦÙģ":2203,"ĠØ§ÙĦÙĨØ´Ø±":2204,"Ø´ÙģÙī":2205,"Ø§ÙĥÙĨ":2206,"Ø®Ø§Ùħ":2207,"ĠØªØ¹ÙĦÙĬÙħ":2208,"ĠØ§ØŃØµÙĦ":2209,"ĠÙĦØº":2210,"Ø§ÙħØ¨":2211,"ÙĪÙĨÙĬ":2212,"ĠØ§ÙĬØ¶":2213,"ĠÙħØ¨Ø§Ø´Ø±Ø©":2214,"ÙĬØ²Ø§Øª":2215,"ĠØ¨Ø§Ø³ÙĬÙĪØ·":2216,"ĠØ§Ø¨Ø±Ø§ÙĩÙĬÙħ":2217,"Ġ87":2218,"ÙĪØ¡":2219,"Ø³Ø¨ÙĪÙĥ":2220,"ĠØ±Ø³Ùħ":2221,"ĠÙĨØŃÙĪ":2222,"93":2223,"ĠÙĪÙĩØ°Ø§":2224,"ĠÙĨÙĪÙģÙħØ¨Ø±":2225,"Ø®Ø¯ÙħØ§Øª":2226,"ÙĬØ¯Ø±":2227,"ĠØ§ÙĦØ®ÙħÙĬØ³":2228,"ÙĩÙħØ©":2229,"ĠÙħØ¯Ø±":2230,"ĠÙģÙĬØ³Ø¨ÙĪÙĥ":2231,"94":2232,"Ø³Ø·Ø³":2233,"ĠØ§ÙĦØ¬Ø²Ø§Ø¦Ø±":2234,"Ġ73":2235,"ĠØ§ÙĦØ®Ø±":2236,"ĠØ§ÙĦÙģØµÙĦ":2237,"ĠØªØ¹ÙħÙĦ":2238,"ØªÙħØ¯":2239,"ØºØ§ÙĨ":2240,"Ø§ÙħÙĨ":2241,"Ø¬Ø±Ø©":2242,"Ø²ÙĬÙĨ":2243,"ĠÙĬÙĩ":2244,"Ġ38":2245,"ĠØªÙĤÙĪÙħ":2246,"ĠØ²ÙĪØ¬":2247,"ĠÙģØ¹ÙĦ":2248,"ĠÙĨÙĩ":2249,"ÙĦØ§Ø¡":2250,"ÙĪÙĦÙĬ":2251,"ĠØ§ÙĦØµÙĦ":2252,"ĠØ§ÙĦØ´Ø®ØµÙĬØ©":2253,"ĠØ§ØºØ³Ø·Ø³":2254,"ĠØ§Ø±ØªÙģØ§Ø¹":2255,"ĠØ¨Ùģ":2256,"Ø¦ÙĦØ©":2257,"ÙħÙĪØ°Ø¬":2258,"ĠØ§ÙĦÙħØ·Ø±":2259,"Ø§ØŃÙĦ":2260,"ĠÙħØ³ØªÙĪÙī":2261,"ÙģÙĬÙĨ":2262,"ĠØ§ÙĦØ§ÙħÙĬØ±":2263,"Ø·Ø§Ø¡":2264,"ÙĪØ§Ø¯":2265,"ĠØ¨Ø§ÙĦØ±ÙĬØ§Ø¶":2266,"ĠØ¯ÙĬØ³ÙħØ¨Ø±":2267,"ĠØ§ÙĦØ´Ø¹Ø¨":2268,"ĠÙĤØ§Ùħ":2269,"ĠØªØ±ÙĥÙĬØ¨":2270,"Ø·Ø§Ø±":2271,"ÙĨØ§Ùĩ":2272,"ĠÙĤØ¯Ùħ":2273,"ĠØ§ÙĦØ¨ÙĨØ§Ø¡":2274,"ĠØŃØ¯ÙĬØ«":2275,"ØªØ¨Ø©":2276,"ĠØ¹ÙĦÙĪÙħ":2277,"ĠØ§ÙĦÙħØ³ØªØ®Ø¯ÙħØ©":2278,"ĠØ®ÙĦÙģ":2279,"Ø¬ÙĨ":2280,"ĠÙģØ¨Ø±Ø§ÙĬØ±":2281,"Ġ2012":2282,"ĠØ§ÙĦÙĥØ³Ø§Ø±Ø§Øª":2283,"Ø§ÙĬÙĦ":2284,"ĠÙĥØ´Ùģ":2285,"ĠØ§ÙĦÙħØµØ±ÙĬØ©":2286,"15":2287,"ĠØ§ÙĦÙħÙĨÙĪØ±Ø©":2288,"ĠØ§ÙĦØ¹Ø¨":2289,"ĠØ¯ÙĬÙĨ":2290,"40":2291,"ĠØ¹ÙĦØ§Ø¬":2292,"Ø²Ø§Ø¡":2293,"ĠØ´ÙĬØ¡":2294,"ĠØ¨Ø®":2295,"ĠØ§ÙĦØ®Ø§Ø±Ø¬ÙĬØ©":2296,"ĠÙĥÙĦÙĬØ©":2297,"Ġ85":2298,"ĠØ§ÙĦÙģÙĨ":2299,"ĠØ§ØµÙĦ":2300,"ĠÙĤÙĬ":2301,"ĠØ±ÙĬØ§ÙĦ":2302,"ĠØ§ÙĦØ·Ø¨ÙĬØ¹":2303,"Ø§Ø¹ÙĬØ©":2304,"ĠØ§ÙĦØ®ØµÙĪØµÙĬØ©":2305,"ĠØ§Ø«Ø±":2306,"ĠØ®Ø§Ø±Ø¬":2307,"Ġ300":2308,"Ø¯Ùģ":2309,"Ø«Ùħ":2310,"ĠØ§ÙĦØ§ÙĨØ³":2311,"ĠØ§ØªÙģ":2312,"ĠØ§ÙĦÙĪØŃ":2313,"ĠÙĦØ§ØŃ":2314,"43":2315,"ĠÙĦÙĦØµ":2316,"ĠØ§ÙĦØ´ÙħØ³":2317,"ÙĤÙĬÙĬÙħ":2318,"ĠØ¨Ø´Ø§ÙĨ":2319,"ÙĦÙĪØ¨":2320,"ĠØ§Ø´ÙĩØ±":2321,"ĠØ§ÙĦØ¹Ø§ÙĦÙħÙĬ":2322,"Ø§ÙĪÙĦØ©":2323,"ĠØŃÙģ":2324,"Ø§ÙĨÙĬØª":2325,"ĠØŃØ¬Ùħ":2326,"ØªÙĩÙħ":2327,"ĠØ¨Ø±ÙĬØ¯Ùĥ":2328,"ĠØ§ÙĦÙĥÙħ":2329,"ĠØ§ÙĦÙĬÙĩ":2330,"ĠØ¨Ø§ÙĦØª":2331,"ĠÙĥØ§ÙħÙĦØ©":2332,"Ø´ÙĬÙģ":2333,"Ø¶ÙħÙĨ":2334,"Ø¬Ø¨":2335,"Ø³Ø³ÙĪØ§Ø±Ø§Øª":2336,"ĠØ·Ø±ÙĤ":2337,"ĠØ¨Øº":2338,"Ø¬Ø§Ø¬":2339,"ĠØ§ÙĦÙħØ²":2340,"ĠØªÙģØ§ØµÙĬÙĦ":2341,"ĠÙĪØ§ÙĦÙĥ":2342,"Ø¹Ùī":2343,"ĠØªØµÙģØŃ":2344,"Ø¹ÙĦÙĤ":2345,"ØªÙĬØ¬Ø©":2346,"ĠØ§ÙĦØªØ¹ÙĦÙĬÙĤ":2347,"ĠØ§ÙĦØ¯Ø§Ø®ÙĦÙĬØ©":2348,"ĠÙĪÙħØ¹":2349,"Ø«ÙħØ§Ø±":2350,"ĠØ§ÙĦÙħØ¯ÙĬÙĨØ©":2351,"Ø·Ø§ÙĤ":2352,"ĠØ§ÙĦØ³Ø§Ø¨ÙĤ":2353,"ÙĪØ¯ÙĬ":2354,"ĠØ§ÙĦØ§Ø³Ùħ":2355,"ĠØ§ÙĦØ§Ø±Ø¯ÙĨ":2356,"ØªÙĦØ§ÙĦ":2357,"ĠÙħÙĪØ¶ÙĪØ¹":2358,"ĠØ¨ØªØ§Ø±ÙĬØ®":2359,"Ø§ÙĩØ±":2360,"Ø´ÙĨ":2361,"ĠØ§ÙĦÙħÙĨØ·ÙĤØ©":2362,"ĠØ§ÙĦØ§Ø±Ø¨Ø¹":2363,"ÙĬØ¯ÙĬØ§":2364,"ĠØ§ÙĨØ´Ø§Ø¡":2365,"Ġ61":2366,"Ø³ÙĬØ·":2367,"Ø§Ø¦Ø¹Ø©":2368,"ĠÙħØ¬Ø§ÙĨÙĬØ©":2369,"ĠØ±ÙĪØ³":2370,"ĠÙħÙĥØªØ¨":2371,"ĠÙĦÙĤØ¯":2372,"ĠØ§ÙĦØ¯ÙĪØ±ÙĬ":2373,"Ø¹Ø¨Ø©":2374,"ĠØ³ÙĪÙĤ":2375,"Ø¹ÙĬÙĨ":2376,"Ø§Ø¬Ø¯":2377,"ÙĤÙĬØ©":2378,"Ø§Ø·Ø±":2379,"ĠØªÙĤØ±ÙĬØ±":2380,"ĠØ§ÙĦÙĬÙĥ":2381,"ĠÙħÙĬÙĦ":2382,"Ø§ÙħØ±":2383,"ĠÙĪÙĦØ§ÙĬØ©":2384,"ÙĥÙĬÙĦ":2385,"ĠØªØ·ÙĪÙĬØ±":2386,"ĠÙĥÙĪÙħ":2387,"ĠØ§ÙĦØ·Ø¨":2388,"ĠØ§ÙĦÙħÙĪØ§Ø¶ÙĬØ¹":2389,"ĠÙģØª":2390,"Ø³Ø§Øª":2391,"ĠØµÙĪØ±Ø©":2392,"ĠÙĬØ¹ÙħÙĦ":2393,"ĠØ§ÙĦØ§ÙĥØ«Ø±":2394,"Ø¨ÙĬØ¹Ø§Øª":2395,"Ø§ØŃØ§Øª":2396,"ÙĪÙĬØ§Øª":2397,"ĠÙĤØ¨":2398,"ĠØ±Ø¯":2399,"Ø§Ø·ÙģØ§ÙĦ":2400,"ĠÙĪÙĩÙħ":2401,"ÙĬØ¯Ø§":2402,"ĠØ§ÙĦÙĤØ¯Ùħ":2403,"ĠÙħØ´Ø§Ø±":2404,"ĠØŃÙĬÙĨ":2405,"ĠØ§ÙĥØ³":2406,"ĠØ§ÙĦÙĨØŃØ§Ø³":2407,"ĠØ§ÙĦØ§Ø¶":2408,"Ġ76":2409,"ĠÙĦÙĦÙĤ":2410,"84":2411,"Ġ2022":2412,"ĠØµÙĦÙī":2413,"ĠØ§ÙĦØ¬Ø§ÙħØ¹Ø©":2414,"ĠØµØºÙĬØ±":2415,"Ø¨ÙĬÙĨ":2416,"ĠØ§ÙĦØ®Ø¨Ø±":2417,"ĠÙĪØªÙĪ":2418,"ĠØ§ÙĦØ¨ÙĬØ§ÙĨØ§Øª":2419,"ĠÙģÙĦØ³Ø·ÙĬÙĨ":2420,"Ø§ÙĬØ¬Ø§Ø±":2421,"ĠØ§ÙĦÙĤÙĬ":2422,"ĠØ§ÙĦØ³ÙĪØ¯Ø§ÙĨ":2423,"ĠÙĥØ«ÙĬØ±":2424,"ĠØ§ÙĦÙĦÙĬ":2425,"ĠØ§ÙĦÙĬÙĩØ§":2426,"ĠÙħØ¹Ø¯":2427,"ĠØ¨ÙĬØ§ÙĨØ§Øª":2428,"ĠØ§ÙĦØªØ³Ø¬ÙĬÙĦ":2429,"ĠØ§ÙĦÙħØ«":2430,"ĠØ§ÙĦØ§ÙĤÙĦ":2431,"Ø±ÙĬØ¨Ø©":2432,"Ø³Ø§ÙĨØ©":2433,"ØªØ¨Ø§Ø·":2434,"Ø§ÙĪØ±":2435,"ĠØµØ¨Ø§ØŃ":2436,"ĠÙħØ§ÙĥÙĬÙĨØ©":2437,"ĠØ¬Ø¯Ø©":2438,"ÙĦÙĬØ¬":2439,"ĠØ´Ø¹Ø±":2440,"ĠÙĬÙĤÙĪÙħ":2441,"ĠØ§ÙĦØ§ÙĨØ¬ÙĦÙĬØ²ÙĬØ©":2442,"ĠØ§ÙĦØ´ÙħØ§ÙĦ":2443,"ĠØ§ÙĦÙħÙĦÙģ":2444,"ĠØ¯ÙĪØ±Ø©":2445,"ĠØ§Ø¯ÙĪØ§Øª":2446,"ĠØ§ÙĦÙħÙĪØ§ÙĤØ¹":2447,"ĠØ§ÙĦØ¨Ø¯":2448,"ĠØ¨ÙĪÙĦ":2449,"ĠÙĤØ±Ø§Ø±":2450,"ĠØ¯Ùħ":2451,"ĠØ§ÙĦØ§Øº":2452,"ĠØŃØ§ÙĦ":2453,"ĠÙĬÙĪØ¬Ø¯":2454,"ĠØªÙĨØ²ÙĬÙĦ":2455,"ĠØªØ¹ÙĦÙĨ":2456,"Ġ42":2457,"Ġ72":2458,"ĠØ§ÙĦØ§ÙĦÙħ":2459,"ĠØ¯Ø¹Ùħ":2460,"ĠØ¬ÙĦ":2461,"Ø§ÙĬØ¯":2462,"ĠØ§ÙĦØ³Ø¨":2463,"ÙĪÙĬÙħ":2464,"ĠÙĪØ§Ø±":2465,"ĠØ§ÙĦØ³ÙĬØ§Ø³ÙĬØ©":2466,"Ø§ÙĩÙĬØ±":2467,"Ø§Ø¬Ùħ":2468,"ÙĩØ±Ø¬Ø§ÙĨ":2469,"ÙĪØ¹Ø§Øª":2470,"Ø±ÙĬØ·":2471,"ÙģÙĤ":2472,"ÙĪØ¬Ùĩ":2473,"Ø¹Ø±ÙģØ©":2474,"ĠÙħØ³Ø¤ÙĪÙĦ":2475,"ĠØ¨Ø§ÙĦØ§Ø¶Ø§ÙģØ©":2476,"ĠØ§ÙĦØ¬ÙĪØ¯Ø©":2477,"ĠÙĦØ¯ÙĬÙĨØ§":2478,"Ġ413":2479,"ĠØ¯Ø§Ø±":2480,"ÙĬØ¶":2481,"970":2482,"ĠØ¨ÙĬØ±ÙĪØª":2483,"ĠØ§ÙĦÙĤØµ":2484,"ĠØ¨ÙĪØ±":2485,"ÙĨØ³Ø¨Ø©":2486,"ĠØ¨ØŃØ«":2487,"ĠØ¯Ø±Ø§Ø³Ø©":2488,"ĠØ§ÙĦÙħØ®Øª":2489,"ĠÙĪØ³ÙĦÙħ":2490,"Ø§ÙĥØ²":2491,"Ø¦Ø§Øª":2492,"ĠØªØº":2493,"ĠÙĦÙĦØ§ÙĬØ¬Ø§Ø±":2494,"Ø³ØªØ®Ø¯Ùħ":2495,"ÙĬÙĪØª":2496,"Ø·ÙĬ":2497,"ĠØ¨Ø§Ø¹":2498,"ĠØ¨Ø§Ø³Ùħ":2499,"ĠØ§ÙĦÙĥØ³Ø§Ø±Ø©":2500,"ĠÙĪÙĦÙħ":2501,"ĠÙħØ¤Ø³Ø³Ø©":2502,"ÙĨÙĪØ§ÙĨ":2503,"ÙĬÙħÙĬØ©":2504,"ĠØ§ÙĦØ³Ø§Ø¯":2505,"ĠØ§ÙĦØ§Ø³ØªØ±":2506,"Ø§Ø±Ø§":2507,"ĠØ§ÙĦØ¸":2508,"ÙģÙĬØ©":2509,"Ġ63":2510,"ÙĥÙħØ©":2511,"ĠØ§Ø³ØªØ±":2512,"Ø§ÙĦÙĥ":2513,"ĠÙĦØ°ÙĦÙĥ":2514,"Ø§Ø¡Ø©":2515,"ĠØ³Ùĥ":2516,"Ø¹Ø§Ø¨":2517,"ĠØ¬ÙĪØ¯Ø©":2518,"ĠÙĪÙĤØ§ÙĦ":2519,"ĠÙĤØµØ©":2520,"ĠÙĦÙĦØ¬":2521,"Ø·Ø·":2522,"ĠØ§ÙĦØ¨Ø±ÙĨØ§ÙħØ¬":2523,"ØºØ¨":2524,"ĠØªÙģØ³ÙĬØ±":2525,"ĠØ§ÙĦØ«Ø§ÙĦØ«Ø©":2526,"ĠÙħØ®ØªÙĦÙģØ©":2527,"ÙĬØ¦Ø©":2528,"Ø¹ÙĪ":2529,"ĠØ¨Ø§ÙĦÙħØ¯ÙĬÙĨØ©":2530,"ĠØ§Ø®ØªÙĬØ§Ø±":2531,"Ø§ÙģØ¶ÙĦ":2532,"ĠØ§ÙĦØ¬Ø²Ø¡":2533,"Ø±ÙĬØŃ":2534,"ĠØ§ÙĦØ¬ÙĬØ´":2535,"ĠØ§ÙĦØŃÙĬÙĪ":2536,"ĠÙĬÙĪ":2537,"ĠÙĬØ±Ø¬":2538,"ĠØªØ¤":2539,"ÙĨØ¯ÙĪÙĤ":2540,"ĠØ¨Ø§ÙĦØŃ":2541,"ĠÙģÙĬÙħØ§":2542,"ĠÙĪØªÙĨ":2543,"Ø§Ø·ÙĨ":2544,"Ġ2011":2545,"ĠØ§ÙĦÙħØ·Ø±ÙĤØ©":2546,"ÙĪØ§ØªÙģ":2547,"ĠÙħØªØ¬Ø±":2548,"ĠØ§ÙĦØ´Ø¨Ø§Ø¨":2549,"Ġ66":2550,"Ġ7970":2551,"ĠÙĩÙĬØ¦Ø©":2552,"ĠÙĦØ·":2553,"Ġ797087":2554,"ĠØ§ÙĦØ§ÙĨØªØ§Ø¬":2555,"ØªÙĬØ¨":2556,"ĠØ§ÙĦÙħØ¯Ø±":2557,"ĠÙĪØ§ÙĦÙħÙĨ":2558,"ĠØ®Ø¨Ø±":2559,"ĠØ§ÙĦØ§Ø¯Ø§Ø±Ø©":2560,"ĠØ§ÙĦØ¯ÙģØ§Ø¹":2561,"ĠØ§ÙĦØ¬ÙĨØ³":2562,"28":2563,"ĠÙĪØŃØ¯Ø©":2564,"Ø²Ø±":2565,"ĠØ§ÙĦÙĤØ¨":2566,"ĠØ§ÙĦÙħØ³ØªÙĪÙī":2567,"ØªØ®Ø¨":2568,"Ġ34":2569,"ĠÙħØ±Ø§Ø¬":2570,"ĠØ¹ÙĨÙĩ":2571,"ĠØ§ÙĦØªØ®":2572,"Ġ54":2573,"ĠØ§ÙĦÙħØ¬ØªÙħØ¹":2574,"ĠØ§Ø¶ØºØ·":2575,"ÙĪÙĦÙĩ":2576,"ĠØ¹Ø´":2577,"Ø±ÙĪØ¨":2578,"Ø¬ÙħØ©":2579,"ĠÙģØ§ÙĦ":2580,"Ø¹Ø§Ø¯Ø©":2581,"ĠÙĪØ§Ùħ":2582,"ĠØ§ÙĦØ§ÙĪØ³":2583,"ĠØ³Ø¹ÙĪØ¯":2584,"Ø§ØŃØ¨":2585,"Ø§Ø®Ø±":2586,"Ġ75":2587,"Ø·ÙĪØ§ÙĨØ©":2588,"ĠØ§ÙĦÙĬØ¯":2589,"Ø¯ÙĬÙĤ":2590,"Ø³ÙĬØ©":2591,"ĠØ§ÙĦØ³ÙĪÙĤ":2592,"ĠÙģÙĪÙĤ":2593,"Ø³Ø³Ø§Øª":2594,"ÙĨØ¯Ø§":2595,"ĠØªØŃØ¯ÙĬØ«":2596,"Ø·ÙĪÙĬØ±":2597,"ĠÙĪØ³Ø§Ø¦ÙĦ":2598,"ĠØ§ÙĦØ¬Ø³Ùħ":2599,"ĠÙĪÙģØ§Ø©":2600,"ĠØ§ÙĦÙħØ§ÙĨÙĬØ§":2601,"ĠØªØ´Ø±ÙĬÙĨ":2602,"Ø¤Ø§ÙĦ":2603,"ĠØ§ÙĦØ§Ø³Ø±Ø§Ø¦ÙĬÙĦ":2604,"ĠØªØŃÙĤÙĬÙĤ":2605,"ÙĦØ³Ø·ÙĬÙĨÙĬ":2606,"ĠØ´ÙĥÙĦ":2607,"ÙģØ§ÙĤ":2608,"ĠØ³Ùĩ":2609,"Ġ77":2610,"ĠØ§ÙĦØ§Ø®ÙĬØ±Ø©":2611,"Ġ48":2612,"ÙĨØ³Ø§":2613,"ĠØµØ§ÙĦØŃ":2614,"ÙĪØ¯ÙĬØ©":2615,"ĠØ§ÙĦØ§Ø«ÙĨÙĬÙĨ":2616,"ĠÙĪØ«":2617,"ĠÙģÙĪØ±":2618,"ĠØŃÙĪ":2619,"ĠØ§ÙĦØ§Ø¹ÙĦÙī":2620,"Ġ4737":2621,"ĠÙĪÙĬÙĨ":2622,"ĠØ§ÙĦÙĬÙħÙĨ":2623,"Ø²Ùħ":2624,"ÙĪÙĬÙĤ":2625,"ĠÙĪØ¬Ùĩ":2626,"Ø¯Ùī":2627,"Ġ58":2628,"ØªØµÙģØŃ":2629,"ĠÙĪØ§Ø¯":2630,"ĠØ¨Ø§ÙĦØ¨":2631,"ĠØ§ÙĦØ·Ø¨ÙĬØ©":2632,"Ø§Ø²Ùħ":2633,"ĠØµÙģØŃØ©":2634,"ĠØ§ÙĦÙħØ¹Ø§Ø¯ÙĨ":2635,"ĠØ§ÙĦØ§ÙĤØªØµØ§Ø¯ÙĬØ©":2636,"ĠÙĪØ§Ø¨":2637,"ÙĬØ§Ø±Ø§Øª":2638,"ØªØ©":2639,"ĠØ§ØµØ¨ØŃ":2640,"ÙĬÙĪÙħ":2641,"ĠÙĪØ§ÙĦØ±":2642,"ĠÙĤÙĨØ§Ø©":2643,"ĠØ§ØªØµÙĦ":2644,"ĠÙĥÙĪÙĨ":2645,"ĠØ§ÙĦÙħØªÙĨÙĤÙĦØ©":2646,"Ø§Ø¦ÙĦØ©":2647,"Ø¤ÙĪÙĨ":2648,"Ø§Ø¬ÙĦ":2649,"ĠØ§ÙĦØ¬ÙĦ":2650,"Ġ400":2651,"ĠØ§ÙĦØ³Ø¹ÙĪØ¯ÙĬ":2652,"ĠØ§ÙĦÙĪØ±":2653,"ĠØ§ÙĦØ¨ÙĦØ¯":2654,"Ø¬ÙĪÙħ":2655,"ĠØ§ÙĦØŃØ¨":2656,"Ø±ÙĬØ§":2657,"ĠÙģÙĬØ±ÙĪØ³":2658,"ĠØ§Ø¹ÙĦÙī":2659,"ĠØ§ÙĦÙħØ³ÙĦÙħ":2660,"ĠØ§Ø±Ø³Ø§ÙĦ":2661,"ĠØ§ÙĦÙħØ´Ø§Ø±ÙĥØ©":2662,"ĠØ§ÙĦØŃØ³":2663,"Ø¹Ø¯Ø§Øª":2664,"ĠØ¨Ø§Øª":2665,"ÙĬÙģÙĪÙĨ":2666,"Ø¶ÙĪØ±":2667,"ĠÙĦÙĦÙħÙĨ":2668,"Ø´Ø§Ø±ÙĥØ©":2669,"ĠØ§ÙĦØ®Ø¯ÙħØ©":2670,"Ø²ÙĦÙĬØ©":2671,"ĠÙħØ§ÙĨ":2672,"Ø±ÙĬØª":2673,"ĠØŃÙĬØ§Øª":2674,"ĠÙĪØ§Øµ":2675,"ĠØŃØ³ÙĬÙĨ":2676,"ĠÙĦÙĦØŃØµÙĪÙĦ":2677,"Ø§Ø±Ùĩ":2678,"ÙĬÙħØ§":2679,"ĠØ²ÙĬØ§Ø¯Ø©":2680,"Ø¹Ø§ÙĬØ©":2681,"ĠØ¹Ø±Ø¨ÙĬØ©":2682,"ĠÙĪØµÙģ":2683,"ĠØ§ÙĦÙĨØª":2684,"ĠÙĨØ·Ø§ÙĤ":2685,"ĠØ¨Ø§ÙĦØ³":2686,"Ø°ÙĩØ¨":2687,"ĠØ§ÙĦÙĪØ²Ø±Ø§Ø¡":2688,"ĠÙĦØ§Ø¨":2689,"ĠØªØ±ÙĬØ¯":2690,"ĠØ§ÙĦØ·ÙĦ":2691,"ĠØ§ÙĦÙħÙĪØ¬":2692,"Ġ64":2693,"ĠØ§Ø³Ø§Ø³":2694,"ĠÙħÙĤØ§Ø¨ÙĦ":2695,"Ġ44":2696,"ĠÙĪÙĬÙħ":2697,"Ø§Ø¹Ùħ":2698,"ĠØ§ÙĦÙħØµÙĨØ¹":2699,"Ø±ÙĪØ¬":2700,"ĠØ§ÙĪØ±ÙĪØ¨Ø§":2701,"ÙĬÙĥÙĬ":2702,"ØŃÙĬØ©":2703,"ĠØ±Ø¬ÙĦ":2704,"ĠØ³ÙĬØ§Ø±Ø©":2705,"Ø§ØµÙģØ§Øª":2706,"ĠÙĪØ¹ÙĦÙī":2707,"ĠØ´Ø±ÙĪØ·":2708,"ĠÙĤÙģ":2709,"ĠØ§ÙĦÙħØ´Ø±ÙĪØ¹":2710,"Ø¬Ø¯Ø§Øª":2711,"Ø§Ø¯Ùħ":2712,"ĠØ§ÙĦØ§Ø´ØªØ±Ø§Ùĥ":2713,"ÙĬÙĨÙĬØ§":2714,"Ø§Ø¦ØŃØ©":2715,"ĠØ§ÙĦØµØŃÙĬ":2716,"Ø§Ø¯Ùĩ":2717,"ĠØ§ÙĦÙĥÙħØ¨ÙĬÙĪØªØ±":2718,"ĠÙĤÙĪ":2719,"ĠØ§ÙĦØ§Ø±Ø¨Ø¹Ø§Ø¡":2720,"ĠØ§Ø³Ø¨ÙĪØ¹":2721,"ĠØ¨Ø§ÙĦÙĦ":2722,"Ø¨Ø§":2723,"ĠØªØ²":2724,"ĠØ§ÙĦØ§ÙĨØªØ®Ø§Ø¨Ø§Øª":2725,"ĠÙĦÙĦÙĩ":2726,"ĠØ±ÙģØ¹":2727,"ÙĩÙĬØ²":2728,"ĠØ¹ÙħÙĦÙĬØ§Øª":2729,"ÙĪÙĦØ¯":2730,"Ø§ØªÙĩ":2731,"ÙģØ´":2732,"ĠØªØºÙĬÙĬØ±":2733,"ĠØ¹ÙĤØ¯":2734,"ĠØ§ØµØ§Ø¨Ø©":2735,"ĠÙĤØ±Ø§Ø¡Ø©":2736,"ĠØ§ÙĦÙħØ¬ÙĦØ³":2737,"ĠÙĦØ¯ÙĬÙĥ":2738,"ØªÙħØ§Ùħ":2739,"ĠØŃÙĥÙħ":2740,"ĠÙĪØº":2741,"ĠØ¨Ø«":2742,"ĠØ¹Ø¯Ø©":2743,"Ġ90":2744,"ĠØªÙĦÙģ":2745,"ĠØ¯Ø±Ø¬Ø©":2746,"Ø¬ÙħÙĪØ¹Ø©":2747,"ĠØ§ÙĦØ·ÙĦØ¨":2748,"ĠÙĩØ§":2749,"ĠÙħØ®Ø±ÙĪØ·ÙĬØ©":2750,"ĠØ§ÙĦØªØ¹Ø§ÙĪÙĨ":2751,"ĠØ§ÙĦØ§Ø³Ø§Ø³ÙĬØ©":2752,"ĠÙĪØ³Ø·":2753,"60":2754,"ĠØ³Ø§Ø¹Ø§Øª":2755,"ÙĬÙĦØ§":2756,"Ø§Ø·Ø¹":2757,"ĠÙĨÙĬÙĪØ²":2758,"ÙģØ§Ø¡Ø©":2759,"ĠØ§ÙĩÙĦ":2760,"ĠØªØ´ØºÙĬÙĦ":2761,"ĠÙħØ·Ø§ØŃÙĨ":2762,"30":2763,"Ġ70":2764,"ĠØ®ØµÙħ":2765,"ĠØ§ÙĦØ§ØŃØªÙĦØ§ÙĦ":2766,"ĠØ§ÙĦØ®ÙĦ":2767,"ĠÙĦÙĨØ§":2768,"ĠÙĩÙħ":2769,"ĠÙĦÙħØ§Ø°Ø§":2770,"ÙĬØ±ÙĬØ§":2771,"ĠÙĨÙĩØ§ÙĬØ©":2772,"Ø³ÙĥØ±ÙĬØ©":2773,"ĠØ¬ÙĨÙĬÙĩ":2774,"ĠÙĪØ¨Ø±":2775,"ĠÙħØµØ§ÙĨØ¹":2776,"ÙĬØ¬ÙĬØ©":2777,"ĠØ§ÙĦØ§Ø³ØªØ®Ø¯Ø§Ùħ":2778,"ĠÙĥØ±ÙĬÙħ":2779,"ĠÙĪØ§ÙĬ":2780,"ĠØ³Ø±":2781,"ĠØªÙĪÙĨØ³":2782,"ĠÙħØ¬Ø§ÙĨÙĬ":2783,"Ġ2010":2784,"ØªØ§Ø±":2785,"ĠØ±ÙĬØ§Ø¶":2786,"ĠØ§ÙĦØ´Ø¨":2787,"ĠØ§ÙĦØ®Ø§ÙħØ³":2788,"ĠØ§ÙĦØ·Ø¨ÙĬ":2789,"ĠÙĦÙĦØ·":2790,"Ø±ÙĬØ¹Ø©":2791,"ĠØ§ÙĦÙĨØµ":2792,"Ġ55":2793,"ĠØ¯ÙĪ":2794,"Ø±Ø§Ø¡Ø§Øª":2795,"ĠÙĬÙĤØ¯Ùħ":2796,"ĠØ§ØŃØ°ÙĬØ©":2797,"Ø³ÙĪÙĨ":2798,"ĠØ¨Ø±ÙĪ":2799,"ĠØ§ÙĦØªÙī":2800,"ĠØ¨Ø§ÙĦØ´":2801,"Ø§ØµÙħØ©":2802,"ĠØ·ÙĪ":2803,"ĠØ§ÙĦÙħØ§Ø¶ÙĬ":2804,"ĠØ¹Øµ":2805,"ĠÙħØ®ØªÙĦÙģ":2806,"ĠÙĪÙĥÙĦ":2807,"ĠÙĦÙħØ¯Ø©":2808,"Ø§Ø¹Ø±":2809,"ĠÙĬÙĤÙĪÙĦ":2810,"ĠÙĥØ§Ø³":2811,"ÙģØ¶":2812,"Ø§Ø²ÙĬ":2813,"ÙĪØ´":2814,"ĠÙħÙĪØ³":2815,"ĠØ¹Ø¨Ø¯Ø§ÙĦÙĦÙĩ":2816,"ĠÙĪØ§ÙĤ":2817,"ĠØ§Ø·ÙĦØ§ÙĤ":2818,"Ø§ÙĦØ¬":2819,"ĠØ§ÙĦØ±Ø§Ø¨Ø¹":2820,"ØªØ¯Ø§Ø¡":2821,"ØŃÙĤÙĪÙĤ":2822,"ĠØ§ÙĥØª":2823,"ĠØ§ÙĦØ¬ÙĩØ§Ø²":2824,"ĠÙĪØ§ÙĦØ«":2825,"ĠØ¨Ø§ÙĦÙĨØ³Ø¨Ø©":2826,"ĠØ§ÙĦØ§ÙĬØ±":2827,"ĠØªØŃØ¯ÙĬØ¯":2828,"ĠÙħÙĪØ¹Ø¯":2829,"ĠÙĬØ¨":2830,"ĠØ³ÙĬÙĨ":2831,"ĠØ§ÙĦÙħØ¶":2832,"ĠØ§ÙĦÙĥØªØ±ÙĪÙĨÙĬ":2833,"ĠØ±ÙĪØ³ÙĬØ§":2834,"ÙģÙĬÙģ":2835,"ÙĪØ³Ùģ":2836,"ÙĦÙĬØ¨":2837,"96":2838,"Ø´Ø§Ø¡":2839,"Ø¯Øª":2840,"ĠØ§ÙĦØŃØ¬Ø§Ø±Ø©":2841,"ĠÙĦÙħØ§":2842,"ĠØ§ÙĦØ¹Ø¯Ø¯":2843,"ĠØ§ÙĦÙħÙĪØ±Ø¯ÙĬÙĨ":2844,"ÙĨÙĬØ§":2845,"Ø®Ø±":2846,"ÙĬÙĪØ§ÙĨ":2847,"ĠÙ":2848,"Ø®ÙĬØµ":2849,"ĠÙħØµØ§Ø¯Ø±":2850,"ĠÙĬØ³ØªØ®Ø¯Ùħ":2851,"ÙĬÙĬÙģ":2852,"ĠØ§ÙĦÙħØŃÙĦÙĬØ©":2853,"ĠÙĨØ¯":2854,"ĠØ³Ø¹ÙĬØ¯":2855,"ĠÙĨÙħ":2856,"ĠØ§ÙĦØ²Ø±":2857,"Ø¹ÙĦÙĨ":2858,"Ø§ÙħÙĬØ©":2859,"ĠØ§ÙĦÙħØ¨Ø§Ø±":2860,"ĠÙģÙĬØ²Ø§":2861,"Ø§ÙĪØ²":2862,"ĠØ§ÙĦØªÙĥ":2863,"ĠØ§ÙĦÙĤÙĨ":2864,"Ġ67":2865,"ĠÙģÙĥÙĬØ©":2866,"ÙĨØ¯ÙĬ":2867,"ĠØ¬Ø§ÙĨØ¨":2868,"Ġ250":2869,"Ø®ØµØµØ©":2870,"ĠØ¨Ø§ÙĦØ¹":2871,"ĠØ§ÙĦØ§Ø³ÙĦØ§ÙħÙĬ":2872,"ÙĬØŃ":2873,"ĠÙĥÙĩØ±Ø¨":2874,"ĠÙĦØ¬ÙĨØ©":2875,"ĠØ§Ø·ÙģØ§ÙĦ":2876,"ĠØ§ÙĦØ«ÙĦØ§Ø«Ø§Ø¡":2877,"ĠØ§ÙĦØ§Ø±ØªØ¨Ø§Ø·":2878,"Ø¶Ùī":2879,"ĠØ·ÙĦ":2880,"ĠØ§ÙĦÙģÙĨØ§ÙĨ":2881,"ÙĩØ§Ø±":2882,"Ø²Ø¨":2883,"Ġ510":2884,"ĠÙĪØ§ÙĦØ·":2885,"ĠÙĪÙĬØª":2886,"Ġ68":2887,"ĠÙĦÙĩÙħ":2888,"ĠØ§ÙĦÙħØ·ÙĦ":2889,"ĠØ´ÙħØ§ÙĦ":2890,"Ø§Ø¬Ø¹":2891,"ØªØ¨Ø¹":2892,"ĠÙģÙĪØ§Ø¦Ø¯":2893,"Ø´Ø±Ø§Ø¡":2894,"ĠÙĬØŃØªÙĪÙĬ":2895,"ÙĬØ±ÙĬØ©":2896,"Ø³ØªØ±":2897,"98":2898,"ĠØªØ§Ø¬":2899,"ĠØ§ÙĬØ©":2900,"ĠØ§ÙĦØ³ÙĪØ±ÙĬ":2901,"ĠÙĦÙĦØ§ÙĨ":2902,"ĠØ¬Ø§Ø¡":2903,"ĠØ§ÙĦÙħØ±ØŃÙĦØ©":2904,"ĠØ§ÙĦÙħØ±ÙĪØ±":2905,"ĠÙħØ§Ø¯Ø©":2906,"ÙģØ§Ùģ":2907,"ØªÙĦÙģ":2908,"ĠÙĦÙĦØ¹ÙħÙĦ":2909,"ĠÙħÙĦÙĥ":2910,"ĠØ¨Ø§ØŃ":2911,"ĠØºØ±ÙģØ©":2912,"ĠØ§ÙĬÙĨ":2913,"ĠÙĪØ§ÙĦÙĦ":2914,"ĠØ§Ø³ÙĦØ§Ùħ":2915,"ÙĪØ¬Ø©":2916,"ĠÙĦÙĦÙĥ":2917,"ĠØ§ÙħØ±ÙĬÙĥØ§":2918,"ĠØµÙĦØ§ØŃ":2919,"ĠØ§ÙĦØ±ÙĪ":2920,"ĠØ§ÙĦØ§Ø¹Ø¶Ø§Ø¡":2921,"Ø°Ùģ":2922,"ĠØ¬Ø¹ÙĦ":2923,"ĠØ·Ø¨ÙĬØ¹":2924,"Ø¶Ø§Øª":2925,"ĠØ¨Ø±ÙĬØ·":2926,"ÙĬØªÙĩ":2927,"ĠÙĪØ§ØªØ³Ø§Ø¨":2928,"ĠÙĬØ¹ÙĨÙĬ":2929,"ĠÙħÙĨØªØ¯ÙĬØ§Øª":2930,"Ġ57":2931,"ĠØ§Ø³ÙħØ§Ø¡":2932,"ĠØ´Ø±Ùĥ":2933,"ÙĪÙĤØ§Øª":2934,"ÙĥØ³Ø§Ø±Ø©":2935,"ĠÙħØ´ÙĥÙĦØ©":2936,"Ø±Ø¬ÙħØ©":2937,"ĠÙħØ§Ø°Ø§":2938,"ĠØŃØ²Ø¨":2939,"ĠÙĨØ¨":2940,"ĠÙħÙĪØ§Ø¯":2941,"ĠÙĬØªØŃ":2942,"ĠØ§ÙĦÙĥØªØ¨":2943,"ĠØ§ÙĦØªØ§ÙĦÙĬ":2944,"ĠØ§ÙĦØ¹ÙħÙĦØ§Ø¡":2945,"ÙģØ±Ø©":2946,"Ø§Ø¹ÙĦ":2947,"ĠÙĨØ³Ø¨Ø©":2948,"ĠØµØ§ÙĦ":2949,"ĠØ§ÙĦØ«Ø§ÙĨÙĪÙĬØ©":2950,"ĠØ§ÙĦØ¹ÙĦÙħÙĬ":2951,"ĠØ§ÙĦØ¨Ø´Ø±":2952,"ĠØ·Ø§ÙĦØ¨":2953,"ĠØ±ÙĪØ§":2954,"ĠØ§ÙĦØŃØ¬Ùħ":2955,"Ø°Ø¨":2956,"ÙĬØªÙĬ":2957,"Ø¯Ø±ÙĬØ©":2958,"ĠØ§ÙĦØ®Ø±Ø³Ø§ÙĨØ©":2959,"ĠÙĪØªÙĤ":2960,"ĠÙĪÙħØŃ":2961,"ĠØ±Ø§Ø¨Ø·":2962,"ĠÙĦÙĩØ°Ø§":2963,"ĠÙĬØ±Ø¬Ùī":2964,"ĠØ±ÙĪÙħ":2965,"Ø§Ø¨ÙĪÙĨ":2966,"ĠÙĪØ§ÙĦØ¨":2967,"ĠÙĦØ±":2968,"Ø§ÙĥØ¯":2969,"ÙĩÙĪØ¯":2970,"ĠÙĬÙĪØ³Ùģ":2971,"ĠØ¨Ø¯Ø§ÙĬØ©":2972,"ĠØ®Ø§ÙĦØ¯":2973,"ÙģØ§Ø¸":2974,"Ø§Ø´Ø§Øª":2975,"ÙĨØ¬":2976,"ĠØ§ÙĦØ¨ÙĦØ§Ø¯":2977,"Ø«Ø©":2978,"ĠØ³Ø§ÙĨ":2979,"ÙĦØ²":2980,"ĠÙĪØªÙħ":2981,"ĠÙģÙĨÙĬ":2982,"ĠÙħØŃÙħÙĪØ¯":2983,"ĠØ§ÙĦÙħÙĨØ´":2984,"ÙĦØ§ÙħØ©":2985,"ÙĬØ²ÙĬØ§":2986,"ĠØ±ØŃÙĦØ§Øª":2987,"Ø³Ø·Ø©":2988,"ĠØ§Ø±Ø¶":2989,"ĠØ§ÙĨÙĥ":2990,"Ø¸Ø¨ÙĬ":2991,"ĠÙħØ¹ÙĨØ§":2992,"ĠÙĥØ±Ø©":2993,"Ø§ÙĦØ³":2994,"71":2995,"ĠØ§ÙĦÙĦØ¬":2996,"ĠÙĤØªÙĦ":2997,"ĠØ§ÙĦÙĨÙģØ³":2998,"ĠØ§ÙĦØ§ÙĩÙĦÙĬ":2999,"ĠØ³Ø§Ùħ":3000,"ĠÙĪÙģØ±Ø§ÙĥØ³":3001,"ĠØ«ÙĦØ§Ø«Ø©":3002,"ĠØµØŃØ©":3003,"ĠÙħÙĩØ±Ø¬Ø§ÙĨ":3004,"ĠØ§ÙĤØªØµ":3005,"Ø§ÙĬØ§Øª":3006,"ĠÙĨÙħÙĪØ°Ø¬":3007,"ĠØ§ÙĦØ§Ø¬ÙĩØ²Ø©":3008,"ĠØ§ÙĦØµÙĨØ§Ø¹ÙĬØ©":3009,"Ø§Ø·ÙĨÙĬÙĨ":3010,"Ø¯Ø±Ø§Øª":3011,"ĠØŃÙĬØ§Ø©":3012,"ØªÙĪÙĨ":3013,"Ø§ÙĤØ¨Ø©":3014,"ÙĤÙī":3015,"ĠÙĨØ§Ùģ":3016,"Ġ89":3017,"ØªÙĤØ¯":3018,"ĠØ³ÙĪØ§Ø¡":3019,"ØºØ§ÙĦ":3020,"ĠØ§ÙĦØ³ÙĬØ³ÙĬ":3021,"ĠØ¯Ø®ÙĪÙĦ":3022,"ØªØŃØ§ÙĨØ§Øª":3023,"ĠØªØ±Ùħ":3024,"ĠÙħØ§ÙĥÙĬÙĨØ§Øª":3025,"Ø±Ø²":3026,"Ø°Ùĥ":3027,"ÙĨØ¯ÙĤ":3028,"ĠÙĪØªØ±":3029,"ĠØ¨Ø·Ø§ÙĤØ©":3030,"ĠØ§ÙĦØ§ÙĪØ³Ø·":3031,"ĠÙĦÙĦØº":3032,"ĠØ¹ÙĨÙĩØ§":3033,"ĠØªÙĥÙĬÙĬÙģ":3034,"ĠØ§ÙħÙĬØ±":3035,"ĠØºØ±Ø¨":3036,"ĠØ§ÙĦÙħØªØµÙģØŃ":3037,"ĠØ§ÙĦØ§Ø±ÙĩØ§Ø¨":3038,"ĠØ§ÙĦÙĪØµÙĪÙĦ":3039,"Ø§ÙĪÙħØ©":3040,"ĠØµÙĪØª":3041,"ÙĬÙĨÙĬØ©":3042,"ĠØ§Ø³Ø·":3043,"ĠØ²ÙĬØ§Ø±Ø©":3044,"ĠÙģØªØ±Ø©":3045,"10":3046,"ĠÙħØ¬ÙĦØ©":3047,"ĠØ§ÙĦÙħØ®ØªÙĦÙģØ©":3048,"Ø±ÙĬØ¶":3049,"ÙĬØ«":3050,"Ø¨Ø§ÙĨÙĬ":3051,"ĠÙĬØ²":3052,"Ø§ÙĦØº":3053,"ĠÙĪØ§ÙĦØ§ØŃ":3054,"ĠØªÙĨØ§ÙĪÙĦ":3055,"ĠÙħØ´Ø§Ø±ÙĥØ§Øª":3056,"ĠÙģØ±ÙĨØ³Ø§":3057,"ĠØ§ÙĤØ±Ø§":3058,"ĠØ¹ÙħØ§ÙĨ":3059,"ĠØ¨Ø±Ø¬":3060,"ĠØ§ÙĦØ³ÙĬØ§Ø³ÙĬ":3061,"ĠÙĪÙħÙĦ":3062,"ĠØ§ÙĦÙģÙĦ":3063,"Ø³ÙĥØ±ÙĬ":3064,"Ø§ÙĤÙĬ":3065,"ĠØ§ÙĦÙĨØ¨":3066,"ĠÙĨØªÙĬØ¬Ø©":3067,"ÙĤØ±Ø§Ø·":3068,"Ø§Ø±ÙĨØ©":3069,"Ġ46":3070,"ÙĪØ¨Ø§ÙĬÙĦ":3071,"ĠÙĬØµÙĦ":3072,"ĠÙĦÙĬÙĨ":3073,"ĠÙĪØªØ¹":3074,"ĠÙĥØ§Ùħ":3075,"Ø§Ø·Ø©":3076,"Ø¬ÙĬÙĨ":3077,"Ø±Ø¬Ø§ÙĦ":3078,"Ø¹Ø§":3079,"ĠØ´ÙĤÙĤ":3080,"ĠØ§ÙĦØ¯ÙĪ":3081,"ĠÙĪØ§ÙĦØ§Ùħ":3082,"ĠÙĨÙģØ³Ùĩ":3083,"ÙĪÙĨÙĬØ³":3084,"ÙĩÙĨ":3085,"ØªØ³":3086,"ĠØ§ÙĦØ´Ø§Ø´Ø©":3087,"ĠØ§Ø´Ø±":3088,"ĠØ¨Ø§Ùħ":3089,"ĠØ§ÙĦØ³Ø§Ø¯Ø³":3090,"ĠÙĥÙĪØ¨":3091,"ĠØ¨Ø§ÙĦÙĨ":3092,"ĠØªÙĪÙģÙĬØ±":3093,"ĠØ§ÙĦÙħØ§Ø¡":3094,"ĠÙĪØºÙĬØ±ÙĩØ§":3095,"ĠØ¬Ø²Ø¡":3096,"Ø§Ø¬ÙĩØ©":3097,"90":3098,"ĠØ§ÙĦÙħÙĦØ§Ø¨Ø³":3099,"ĠÙģÙĤ":3100,"Ġ1427":3101,"ĠÙĦÙĦØ§Ø·ÙģØ§ÙĦ":3102,"ĠÙħØ³ØªØ¬Ø¯Ø§Øª":3103,"Ġ43":3104,"ĠØ¯Ø§Ø¦":3105,"Ø¨ÙĬØª":3106,"ĠÙĪØ§ÙĦØ°ÙĬ":3107,"ĠØ§Ø¬ÙħÙĦ":3108,"ĠØ§ÙĦØ¨ØŃØ±":3109,"ĠÙĤØ·Ø§Ø¹":3110,"ĠÙĨØ¸Ø±":3111,"ĠØªÙĤÙĦ":3112,"ĠØ§ØµØ¯Ø§Ø±":3113,"ÙĪØµÙĬÙĦ":3114,"ĠØ§ÙĦØªØ¹ÙĦÙĬÙħÙĬØ©":3115,"ĠØ¯ÙĤÙĬÙĤØ©":3116,"ĠØŃØ³Ø§Ø¨Ùĥ":3117,"ĠÙĥÙĦÙħØ§Øª":3118,"ÙĪÙģØ±":3119,"Ø±ÙĬÙħØ©":3120,"ĠÙĦÙĦØµÙģ":3121,"Ø³Ø§Ø¡":3122,"ĠØ´Ø¹Ø¨":3123,"ĠØ§ÙĦÙĤØ³Ùħ":3124,"ĠÙĪØ§ÙĦØ§Ø¬":3125,"ĠØªÙĨØ¸ÙĬÙħ":3126,"ĠØ§ÙĦØªØ³ÙĪÙĤ":3127,"ĠØ§ÙĦÙĤÙĦØ¨":3128,"ĠÙĨÙĬÙĥ":3129,"ĠØªØ¹Ø§ÙĦÙī":3130,"ĠØ§ÙĦÙħØŃØ¬Ø±":3131,"ĠØ§ÙĨÙģ":3132,"ĠØ¨ÙĨØ§Øª":3133,"ĠØ³ÙĬØ¯":3134,"ĠØ²Ø±":3135,"ĠØ¸ÙĩØ±":3136,"ĠØ§ÙĦÙħÙĤØ¯":3137,"ĠØªØŃØªØ§Ø¬":3138,"ĠØ¹Ø§ÙħØ§":3139,"Ø§ÙĦÙĩ":3140,"ĠØ§ÙĦÙĪØ·ÙĨ":3141,"ĠØ§ÙĦØŃÙħÙĦ":3142,"ĠÙĪÙĩÙħÙĬØ©":3143,"ĠÙĨÙĪØ±":3144,"ĠØ§ÙĦØ·Ø±ÙĤ":3145,"ĠÙĦØªÙĨ":3146,"ÙĬÙħÙĤØ±Ø§Ø·":3147,"Ø§Ø²ÙħØ©":3148,"ÙĨØ³Ø§Ø¡":3149,"ĠÙĦÙĦØ¨ÙĨ":3150,"ĠØµØŃÙĬÙģØ©":3151,"Ø§Ø¤":3152,"ĠØ§ÙĦÙĥØ¨ÙĬØ±":3153,"ĠÛ":3154,"ĠÙĨØ§Ø¦Ø¨":3155,"ĠØ§ÙĦØ®ÙĦÙĬØ¬":3156,"Ø¦ÙĬÙĨ":3157,"ĠØ§ÙĦÙħØ³ÙĬ":3158,"ĠØ§ÙĦØŃØ±Ø¨":3159,"ĠÙħÙĬÙĥ":3160,"ĠÙģØ±ÙĬ":3161,"ĠØ¨Ø¯Ø¡":3162,"ĠØ§ÙĦØªÙħ":3163,"ĠØŃÙħØ§ÙĬØ©":3164,"ĠØ§ÙĦØ¹Ø²ÙĬØ²":3165,"ĠØ§ÙĦØ¹ÙħÙĦØ§Øª":3166,"Ø¯Ø§ÙĬØ§":3167,"ĠÙĤÙĪØ§Øª":3168,"ĠÙĪÙĬØ¹":3169,"ĠØ§ÙĦØ§Ø¨ÙĬØ¶":3170,"ĠÙĥØªØ¨Øª":3171,"ÙĬÙĦÙĬØ©":3172,"ĠØ§ÙĦØ³ÙĬØ§Ø±Ø©":3173,"ĠØ§ÙĦØ´ÙĩØ±":3174,"ÙĥÙĨØ¯Ø±ÙĬØ©":3175,"ĠØ§ÙĦØ¹ÙĬÙĨ":3176,"ĠØ§ÙĦØ±Ùħ":3177,"ĠØ¹Ø±":3178,"ĠØ¬ÙħØ§ÙĦ":3179,"Ø¬Ø§ØŃ":3180,"ĠØ§Ø³Ø¨Ø§Ø¨":3181,"ÙĪØ§ÙĨÙĬÙĨ":3182,"ĠØ§ÙĦØ³Ø¯":3183,"ĠØ§ÙĦØµÙĪØ±Ø©":3184,"ĠÙĤÙĬÙħØ©":3185,"ĠØ§Ø¨ÙĪØ¸Ø¨ÙĬ":3186,"ĠØªØ¶":3187,"ĠØ§ÙĦØ¹ÙħØ±":3188,"ĠØ§ÙĦØ±ÙĬØ§Ø¶ÙĬØ©":3189,"ĠØ§ÙĦÙĩØ§ØªÙģ":3190,"ĠØ´ÙĥØ±":3191,"Ø¦Ø§Ø³Ø©":3192,"ĠØ§ÙĦÙĪØ³":3193,"ĠÙħÙĪØ¯":3194,"Ø±Ø¨Ø§Øª":3195,"ĠØºØ³ÙĬÙĦ":3196,"Ø¨Ø±Ùī":3197,"Ø§Ø²Ø©":3198,"ĠØ¨Ø·Ø§ÙĤØ§Øª":3199,"ĠØ§ÙĦØ§Ø³Ø·ÙĪØ§ÙĨØ©":3200,"Ø´ØŃ":3201,"ĠÙģØµÙĦ":3202,"ĠØ¨Ø§ÙĬ":3203,"ĠÙħØªØ¹Ø¯":3204,"ĠÙĦÙĬØ³Øª":3205,"ĠØ§ÙĦÙĨØ³Ø§Ø¡":3206,"ĠØªØ³Ùħ":3207,"Ø´ÙĤ":3208,"ĠØªÙĪÙģØ±":3209,"ĠÙħØµØ±ÙĬ":3210,"ĠØ§ÙĦØ¨Ø±Ø§ÙħØ¬":3211,"Ø¬Ø¹":3212,"ĠÙĨØ§Ø¯ÙĬ":3213,"ĠØ±Ø³Ø§Ø¦ÙĦ":3214,"ĠØ¨Ø§ÙĦØ®":3215,"ĠØ§Ø³ØªØ´":3216,"ĠØ§ÙĦÙĦØŃ":3217,"ĠØ§ÙĦÙĪØ¬Ùĩ":3218,"ĠÙĦÙĦØ¨":3219,"ĠØµØ§ØŃØ¨":3220,"ĠØ§ÙĦØºØ°Ø§Ø¦ÙĬØ©":3221,"Ø¬ÙĪ":3222,"ÙĪÙĦÙĬØ©":3223,"ĠØ§ÙĦØ¨Ø¹":3224,"Ø·ÙĬØ·":3225,"ĠØ±Ø§":3226,"ĠØªØ³ÙĦ":3227,"ĠØ¨Ø§ÙĦØ¯":3228,"ĠØªØ¹Ø¯ÙĬÙĦ":3229,"ĠÙĦØªØµ":3230,"ÙĬÙĥÙĦ":3231,"ĠÙĬØ¹ÙĦÙĨ":3232,"Ø¹ÙĬÙħ":3233,"ĠØªØ§Ø¨Ø¹":3234,"ĠØ§ÙĦØ¹ÙĦØ§Ø¬":3235,"ÙĤØ§Øª":3236,"ĠØ§ÙĦØ¹Ø«":3237,"ĠÙĬØªÙĪ":3238,"Ø§ÙĩÙĦ":3239,"ĠØ§Ø¹Ø¶Ø§Ø¡":3240,"ĠØ§ÙĦØŃØ¯":3241,"Ø¶Ø§ÙĬØ§":3242,"Ø¯Ø§Ø¹":3243,"ĠØ¹Ø§ÙħØ©":3244,"ĠÙĥÙĪØ¯":3245,"ÙĨØ¨ÙĬØ©":3246,"ĠØ§ÙĥØ³Ø³ÙĪØ§Ø±Ø§Øª":3247,"Ø¬Ø§Ø¯":3248,"ĠÙħØ§ÙĦÙĬØ²ÙĬØ§":3249,"ĠÙĦØªØ¬":3250,"Ø§Ø¹Ø´":3251,"ĠØ§ÙĦÙĨÙĤÙĦ":3252,"Ø¹Ø§Ø¯":3253,"ĠØ§Ø¹Ø¯Ø§Ø¯":3254,"ĠØ§ÙĨØªÙĩ":3255,"ĠØ§ÙĦÙģØ±ÙĤ":3256,"ĠÙĨØŃ":3257,"ĠØ§ÙĦÙĨØ¨ÙĬ":3258,"ĠØ§ÙĦØªØ¹Ø§ÙħÙĦ":3259,"ĠØ´ÙĨØ·":3260,"ĠÙħØŃØ§ÙģØ¸":3261,"ĠØ§ÙĦØ¹ÙĦÙħÙĬØ©":3262,"ĠØ¹ÙĬÙĨ":3263,"ĠØªØ¬Ø±Ø¨Ø©":3264,"Ġ74":3265,"ĠØ§ÙĦØªÙģØ§ØµÙĬÙĦ":3266,"ØŃÙĤÙĤ":3267,"ĠÙħØ³ØªØ¹ÙħÙĦØ©":3268,"ĠØ¨Ø§ÙĦØµÙĪØ±":3269,"ĠØªØ¹ÙĦÙħ":3270,"ĠØ¯ÙĪØ±ÙĬ":3271,"ØºØ§Øª":3272,"ÙĬØªÙĩØ§":3273,"ĠØºØ±":3274,"ĠØ§ÙĦØ¯Ø¹":3275,"54":3276,"ĠØ§ÙĦØ§ÙĨØ³Ø§ÙĨÙĬØ©":3277,"Ø³Ø¬ÙĬÙĦ":3278,"ĠÙĥØ«":3279,"ÙĦØ§ÙĦØ©":3280,"ĠØ§Ø¹Ø±Ùģ":3281,"ĠØªØµÙĨÙĬÙģ":3282,"ØµØ§ÙĦØ§Øª":3283,"Ġ99":3284,"ĠÙħÙħØ§Ø±":3285,"Ø§Ø¦Ø²Ø©":3286,"ĠØ§ÙĦØ§ÙĤØªØµØ§Ø¯":3287,"ĠØ±Ø¨ÙĬØ¹":3288,"Ø¨Ø§Ø·":3289,"ĠØ§ÙĦÙħÙĨØ§Ø·ÙĤ":3290,"Ø¹ÙĪÙĨ":3291,"ĠØ§ÙĦØ¬Ø²Ø§Ø¦":3292,"ĠÙħØªØŃ":3293,"ÙĥÙĪ":3294,"ĠÙĦÙħØŃ":3295,"Ø§Ø¨ÙĦØ©":3296,"ĠØ§ÙĦØµÙĪØª":3297,"ĠÙħØ³ØªØ´ÙģÙī":3298,"ØªÙħØ§Ø¯":3299,"Ø§Ø¦Ùĩ":3300,"ĠØ§ÙĦÙĦÙĤ":3301,"ĠØºØ³ÙĦ":3302,"Ġ050":3303,"ĠØ´Ø¹":3304,"ĠÙħÙĤØªÙĦ":3305,"ĠÙĤÙģØ§Ø²Ø§Øª":3306,"ĠØ³ÙĬØªÙħ":3307,"ĠØªØ·Ø¨ÙĬÙĤØ§Øª":3308,"ĠØ§ÙĦØ¹ÙĦÙĬØ§":3309,"ĠØ§ÙģØª":3310,"ĠØ§ØŃØ¯Ùī":3311,"ØªØ±Ùģ":3312,"ĠÙĪÙĥØ§ÙĦØ©":3313,"ĠØ§ÙĦÙħÙĤØ¨":3314,"ĠÙħÙĨØ²ÙĦ":3315,"ÙĨØ¯Ø³":3316,"ĠØ§ÙĦÙģÙĦØ³Ø·ÙĬÙĨÙĬ":3317,"ÙħØ§ÙĦÙĥ":3318,"Ġ53":3319,"ĠÙħÙĦÙĬØ§Ø±":3320,"ĠØŃØ±ÙĥØ©":3321,"ĠØ§ÙĦØ¯ÙĪØ±Ø©":3322,"ĠÙĪÙĥØ°ÙĦÙĥ":3323,"ĠÙĪØµÙĦØª":3324,"ĠØ¨Ø´Ø±":3325,"ĠØ±Ø§ÙĬ":3326,"ĠÙħÙĨØµØ©":3327,"ĠØ§Ø³ØªØ±Ø§ÙĦÙĬØ§":3328,"ĠØŃÙĤÙĬ":3329,"Ø±Ø§Ø¯":3330,"ĠÙĦØ¬ÙħÙĬØ¹":3331,"ĠØ§ÙĦØ·Ø±ÙĬÙĤ":3332,"ĠÙħÙĤØ§ÙĦØ§Øª":3333,"ĠØ§ÙĦÙĨÙĪ":3334,"Ø§Ø±ÙĤ":3335,"ĠØ®Ø²":3336,"ĠØ§ÙĦØ§ØŃÙħØ±":3337,"ĠØ§Ø¶Ø§ÙģÙĬØ©":3338,"ÙĤØ§Ø¦ÙĤ":3339,"ĠØ§ÙĦØªØ§ÙĦÙĬØ©":3340,"Ø·ÙģÙī":3341,"Ø¬Ø§Ø¨":3342,"Ø¹Ø±Ø§Ø¶":3343,"Ø§ÙĦÙĬÙģ":3344,"ĠØ§Ø¬Ø±Ø§Ø¡":3345,"ÙĦØ³Ø©":3346,"ĠØ§ÙĦØ¹Øµ":3347,"ĠØ§ÙĦØ§Ø¹ÙĦØ§ÙĨ":3348,"ĠØ«Ø§ÙĨ":3349,"ØªØ±ÙĬ":3350,"ĠØ§ÙĦÙģÙĪØ±":3351,"ĠØ§ÙĦØ¬ÙħÙĩÙĪØ±ÙĬØ©":3352,"ĠØ§ÙĦØ´Ø±Ø·Ø©":3353,"Ú¯":3354,"ĠÙĦØºØ©":3355,"ĠØ¨Ø§ÙĦØ§Ø³":3356,"Ø®Ø§ÙĦ":3357,"Ø±Ø§Ø¨":3358,"ĠØ¬ÙĬ":3359,"Ø§Ø¹Ø¨":3360,"Ø·ØŃ":3361,"ĠÙĦØ§ÙĨÙĩ":3362,"ĠÙĦÙĬØ¨ÙĬØ§":3363,"ĠØ´ØŃÙĨ":3364,"ĠØ§ÙĦÙĨØ´":3365,"ĠÙĬØ³Ùħ":3366,"ĠÙħÙĦÙħ":3367,"ĠØªÙĨÙģÙĬØ°":3368,"Ø§Ø±ÙĬØ±":3369,"ÙĦØ¨ÙĬØ©":3370,"ĠØ§ÙĦØ¯Ø±Ø§Ø³Ø§Øª":3371,"Ø§ÙĥÙħ":3372,"ĠØ§ÙĦØ§ÙħÙħ":3373,"ĠÙĦÙĪØŃØ©":3374,"ĠØ¨ÙĨØ³":3375,"Ø§Ø¦ÙĨ":3376,"ĠÙħØŃÙĦ":3377,"ĠØªÙĤÙĬÙĬÙħ":3378,"Ø¸Ùģ":3379,"ĠØ§ÙĦÙħÙĪØ§ÙģÙĤ":3380,"ĠØ¨Ø§ÙĦØ§ÙĨ":3381,"ĠØ§ÙħØ³":3382,"ĠØ§ÙĦØ§ÙĪØ±ÙĪØ¨ÙĬ":3383,"ĠÙħØµØ¯Ø±":3384,"ĠØ¹Ø²":3385,"ĠØ¨ÙĪÙĥ":3386,"ĠØ¯ÙĬÙĥ":3387,"ÙĬÙĪØ±":3388,"ĠØ¯Ø§":3389,"ĠØªØµÙĦ":3390,"Ø·Ø§ÙĨ":3391,"ĠØ§ÙĦØ·ÙģÙĦ":3392,"Ġ150":3393,"ĠØ§ÙĦØ¯Ø±Ø¯Ø´Ø©":3394,"ĠØ¹Ø¶ÙĪ":3395,"ØªÙģØ¹":3396,"ĠØ¨ÙĨÙĥ":3397,"Ø§Ø±Ùģ":3398,"ĠØ§ÙĦÙĪØ§ÙĤØ¹":3399,"ĠØ§ÙĦØ¨ÙĨÙĥ":3400,"ĠØ´ÙĩØ§Ø¯Ø©":3401,"ĠÙħØ¹Ø±Ø¶":3402,"ĠØ§ÙĦÙģØ±ÙĨØ³ÙĬØ©":3403,"ĠØ§ÙĦØ¹Ø±ÙĪØ¶":3404,"Ø¬Ø±Ø¯":3405,"ĠØªØªØŃ":3406,"ĠØ§ÙĦØ·Ø¹Ø§Ùħ":3407,"ÙģÙĬØ±ÙĪØ³":3408,"ĠØ¬ÙħØ¹":3409,"ÙĪØ¨Ø§Øª":3410,"ĠØ§Ø¬Ø²Ø§Ø¡":3411,"ĠØ¬ÙħØ¹ÙĬØ©":3412,"ĠÙĪØ§ÙĦÙĩ":3413,"ĠÙĪØ¨Ø¹Ø¯":3414,"ĠÙĪÙĬÙħÙĥÙĨ":3415,"ÙĨÙĬØ§Øª":3416,"ĠÙĬØ¹Ø¯":3417,"ĠÙģØ¶":3418,"ĠÙħØ¯Ø±Ø³Ø©":3419,"ĠØŃØµØ±ÙĬØ©":3420,"ĠØ§ÙĦØ¯ÙģØ¹":3421,"ĠØ§ÙĦÙĥÙĩØ±Ø¨Ø§Ø¦ÙĬØ©":3422,"Ø§ÙĦÙĤ":3423,"Ø´Ø¨":3424,"ĠØ§ÙĦØŃÙĥÙħ":3425,"ØµØŃ":3426,"ĠØ§ÙĦØ¬Ø±Ø§ÙĨÙĬØª":3427,"ĠØ§ÙĦØ§ÙħØ±ÙĬÙĥÙĬ":3428,"ĠÙĪØ§ÙĦØ¹ÙĦ":3429,"ĠØµØŃÙĬØŃ":3430,"Ø§ØªÙĩØ§":3431,"ĠÙĪØ§ÙĦØº":3432,"ĠØŃÙģØ¸":3433,"ĠØ§ÙĦÙħÙĥØªØ¨":3434,"ĠØ§ÙĦØ±ÙĬØ§Ø¶Ø©":3435,"ĠØ§ÙĪÙĦØ§":3436,"ĠØ§ÙĦØªÙĥØ³ÙĬØ±":3437,"ĠØ§ÙĦØŃØµ":3438,"ĠØµÙĨØ¯ÙĪÙĤ":3439,"ĠØ§ÙĦØ¨ÙĬØª":3440,"ĠØ§ÙĦØ´Ø±ÙĤÙĬØ©":3441,"ÙħÙĬÙĨ":3442,"Ø·Ø±Ø©":3443,"ĠØ§ÙĦÙĥØª":3444,"ĠØªØ¹Ø±Ø¶":3445,"ĠÙĥÙĪÙĦ":3446,"ĠØ§ÙĦØ±ØŃÙħÙĨ":3447,"ĠØ§ÙĬØ±":3448,"ĠØ¬ÙĪØ¬ÙĦ":3449,"ĠØ§ÙĦÙĥØ¨":3450,"ĠÙħØŃØ§ÙģØ¸Ø©":3451,"Ø¶ÙĬØ±":3452,"ĠØ§ÙĦÙĩÙĪØ§Ø¡":3453,"ĠØ§Ø´ØªØ±":3454,"Ø·Ø¨ÙĬÙĤ":3455,"ĠØ§ÙĦØªØ¬Ø§Ø±Ø©":3456,"ĠÙħÙĥØªØ¨Ø©":3457,"ĠÙĬØ¹ØªØ¨Ø±":3458,"ĠØ¨ÙĪØª":3459,"ØªÙĤÙī":3460,"ĠÙĤØ·Ø¹Ø©":3461,"Ø²ÙĬÙĪÙĨ":3462,"ĠØ§ÙħÙĦ":3463,"ĠØ¨Ø§ÙĦØ·":3464,"ĠØ§Ø¬Ø±Ø§Ø¡Ø§Øª":3465,"ĠØ§ÙĩÙħÙĬØ©":3466,"ĠØ§ÙĦÙħÙĩÙĨÙĬØ©":3467,"ĠØ¬ÙĬØ¯":3468,"Ġ088":3469,"Ø§ÙĨÙĩ":3470,"Ø®ÙĦØµ":3471,"Ø§Ø¦ÙĩØ§":3472,"ĠÙĦÙĦØ§Ùħ":3473,"ĠÙĪÙĦÙĬØ³":3474,"ĠØ§ÙĦØ³Ø§Ø®":3475,"ĠØ§ÙĦØªØ±ÙĥÙĬØ©":3476,"ĠØ¨Ø±ÙĬØ·Ø§ÙĨÙĬØ§":3477,"ĠØ§ÙĦØ´Ø¹Ø¨ÙĬ":3478,"ĠØ¨ØªÙĨ":3479,"ĠØ³Ø¬ÙĦ":3480,"ÙĨØ§Ø¦ÙĬØ©":3481,"ĠÙħÙĪØ¬":3482,"ĠÙĪØªØ´":3483,"Ø§Ø¬Ùĩ":3484,"Ġ5293":3485,"ÙĩØ¯Ø§Ùģ":3486,"ĠØŃØ¯Ø«":3487,"ĠÙĦÙĦÙħØ±":3488,"ĠØ§Ø¨ÙĦ":3489,"ĠØªØ¨Ø¯":3490,"ĠÙĪØ§ÙĦÙħØ¹":3491,"ĠØ§ØªØŃ":3492,"ĠØ¬ÙĩØ©":3493,"Ø¦ÙĬ":3494,"Ø¯ÙĬØ¯Ø©":3495,"Ø±ÙĬØ·Ø©":3496,"ØªÙĤÙĦ":3497,"ĠÙħÙĥÙĨ":3498,"ĠÙģÙĩÙĪ":3499,"Ġ198":3500,"ĠÙħÙĨØ¸ÙħØ©":3501,"ĠØ§ÙĦØ³ÙĬØ±":3502,"ĠØ§ÙĦØ³ÙģØ±":3503,"ĠØ³Ùģ":3504,"Ø§ÙĥØ±":3505,"ĠØ§ÙĦÙĬØ§Ø¨":3506,"ĠÙĦÙħÙĪÙĤØ¹":3507,"ĠØ¯Ø±Ø¯Ø´Ø©":3508,"Ø¬ÙħÙĬÙĦ":3509,"ĠÙĪÙĥÙĬÙģ":3510,"ĠÙħÙħÙĥÙĨ":3511,"ĠÙĪØ³Øª":3512,"ĠØ§ÙĦÙĪØ²ÙĨ":3513,"ĠÙĬÙĥØ´Ùģ":3514,"ĠØŃÙħØ¯":3515,"Ø³ÙĬÙĦ":3516,"Ø§ÙĬÙĨ":3517,"ĠØ±Ø´":3518,"ĠØºØ±Ùģ":3519,"ĠÙħØ±Ø§ÙĥØ²":3520,"ĠØ§ÙĦØ§Ø³ÙĪØ¯":3521,"99":3522,"ÙĨØ³ÙĬ":3523,"Ø·Ø¹":3524,"ĠØ¨ÙĨÙĬ":3525,"ĠØ§ÙĦØ¹Ø±Ø§ÙĤÙĬØ©":3526,"ĠØŃÙĥÙĪÙħØ©":3527,"ĠØ¨ÙĦØ¯":3528,"ØŃØ§Ø«":3529,"ĠØ§ÙĨØŃ":3530,"Ø§Ø³ÙĦ":3531,"ĠØ¸ÙĦ":3532,"ÙĪÙĨÙĬØ³ÙĬØ§":3533,"ĠØ¨ØªØŃ":3534,"ĠØ§ÙĦÙħØŃØªÙĪÙī":3535,"ĠØ§ÙĦØ±Ø³ÙħÙĬ":3536,"Ġ915":3537,"Ø§ØŃÙĬ":3538,"ĠØ±Ø¤ÙĬØ©":3539,"ĠØ§ÙĦÙĦØ¬ÙĨØ©":3540,"ĠØ´Ø§Ø´Ø©":3541,"Ø§Ø±Ø¶":3542,"Ġ600":3543,"ĠØ§ÙĦØªØµÙħÙĬÙħ":3544,"Ø±ÙģØ¹":3545,"ÙĥÙĪÙĨØ§Øª":3546,"Ø±ÙĪØ©":3547,"ĠØ§ÙĦØ±ÙĬ":3548,"ÙĨØ¨ÙĬ":3549,"ĠØ¹Ø·ÙĪØ±":3550,"ĠÙĨØ²":3551,"ĠØ§ØµØŃØ§Ø¨":3552,"ĠÙĤØ¯Ø±Ø©":3553,"ÙĩÙĪÙĦØ©":3554,"Ø³Ø±":3555,"ĠÙħØ¸":3556,"ĠØ³Ø¹Ø¯":3557,"ĠÙħØ®Ø·Ø·":3558,"ĠØ¯Ø§Ø¦ÙħØ§":3559,"ĠØ§Ø³Ø¦ÙĦØ©":3560,"ĠØ§Ø±Ø¯":3561,"Ø¦ÙĬØ©":3562,"ĠØ§ÙĦØ§ÙĨØ¯":3563,"ĠØ´Ø±ÙĤ":3564,"ĠØ¨ÙĬÙĨÙħØ§":3565,"ĠØ¨Ø§ÙĦÙħÙĨ":3566,"ĠØ§ÙĦÙĤÙĪØ§Øª":3567,"ĠØ§ÙĦØªÙĥÙĨÙĪÙĦÙĪØ¬ÙĬØ§":3568,"ĠÙĪØ§ÙĦÙħØŃ":3569,"ĠØ§ÙĦØ¨ÙĪ":3570,"ĠØ§ÙĦÙĤÙĬØ§Ùħ":3571,"ÙĬØ¯ÙĬØ©":3572,"ÙĬØ¨Ø©":3573,"ĠØªÙĪØ§ØµÙĦ":3574,"ĠØ§ÙĦØ³ÙĬÙĨ":3575,"Ø§ÙĪÙĬØ©":3576,"ĠØµØ¯":3577,"ĠØ±ÙĬÙħÙĪÙĨ":3578,"Ø§Ø±Øª":3579,"ĠÙħÙĪØ§Ø¶ÙĬØ¹":3580,"ĠØ§ÙĦØ¨Ø´Ø±Ø©":3581,"ĠØ§ÙĨØ³":3582,"Ġ1584":3583,"ĠÙģÙĦØ§":3584,"ĠØ§ÙĦÙĤØ¯Ø³":3585,"ÙĨØ§Ùģ":3586,"ĠØ´Ø§Ø±Ø¹":3587,"ĠØ¬Ø±ÙĬØ¯Ø©":3588,"ÙĥÙĬÙĨ":3589,"ĠÙħØªØ±Ø¬ÙħØ©":3590,"ĠØ·Ø±Ùģ":3591,"ĠØ®Ø·Ø©":3592,"ĠØ§ÙĦØ´ØŃÙĨ":3593,"Ø§Ø¦Ø©":3594,"ĠØ§ÙĦÙĪØ¸ÙĬÙģØ©":3595,"ĠØ·ÙĪÙĬÙĦØ©":3596,"Ø®ÙĬ":3597,"ĠÙĨÙĬØ¬":3598,"ĠØµØ¨":3599,"ĠØ¨ÙĪØ§Ø¨Ø©":3600,"ĠÙĦÙĦØ§Ø¹":3601,"ĠØ³Ø¨Ø¨":3602,"ĠØªØŃÙĦÙĬÙĦ":3603,"Ġ158441":3604,"ĠÙģØ¹Ø§ÙĦ":3605,"ĠÙĬÙħÙĨ":3606,"ĠØ¹ÙĦÙĬÙĥÙħ":3607,"ĠÙħÙĪÙĦ":3608,"ĠÙĪÙĪ":3609,"ĠØªØ¹Ø±":3610,"ÙħÙĦÙĥ":3611,"ĠØ§ÙĦÙħØ±ÙĥØ²ÙĬ":3612,"ĠÙħØ´Ø§ÙĥÙĦ":3613,"ĠØ§ÙĦÙģØ±ÙĬÙĤ":3614,"17":3615,"ĠØªÙĪÙĤ":3616,"ĠØ±Ø³ÙĪÙĦ":3617,"ĠØ§Ø³ØªØ®Ø±Ø§Ø¬":3618,"Ø§Ø¯ÙĬÙħÙĬØ©":3619,"ÙĬÙģØ±":3620,"ĠØ·Ø¨Ø§Ø¹Ø©":3621,"ĠØµÙĨØ§Ø¹":3622,"ĠÙħØŃØ¬Ø±":3623,"42":3624,"36":3625,"ĠØªÙĩØªØ²":3626,"Ø§ÙģÙĤØ©":3627,"ÙĤØ³":3628,"ĠØ§ÙĦØµØ§ÙĨØ¹":3629,"Ø·Ø§ÙĦÙĬØ§":3630,"ĠØªØ¹ØªØ¨Ø±":3631,"ĠÙĥÙĬÙĦ":3632,"ĠÙħØ±Ø§Ø¬Ø¹Ø©":3633,"Ø§Ø¨Ø±":3634,"ĠØ§ÙĦØ¬ÙĪ":3635,"Ø®ÙģØ§Ø¶":3636,"ĠÙħÙĨØªØ¬":3637,"Ø±Ø±":3638,"ĠØ§ÙĨÙĬ":3639,"Ø¹ÙħØ§ÙĦ":3640,"ÙĩØ§Ø¯":3641,"Ø¹Ø²ÙĬØ²":3642,"ĠØ§ÙĦØ§Ø¯Ø§Ø±ÙĬØ©":3643,"Ø¯ÙĬÙĨ":3644,"ĠÙĦØ§Ø¬":3645,"ĠÙĥÙģ":3646,"ĠÙĥÙĪ":3647,"ĠØ§ÙĦÙħØ³Ø¤ÙĪÙĦ":3648,"ĠØ§ÙĦØ§ØµÙĦ":3649,"ĠØ§ÙĦØ¹ÙħÙĦÙĬØ©":3650,"ĠÙħØ¹Ø±ÙģØ©":3651,"ÙĪØ³Ø©":3652,"ĠÙĤÙĪØ©":3653,"Ø¹ÙĦÙĪÙħØ§Øª":3654,"ĠØ§ÙĦØµÙĬÙĨÙĬØ©":3655,"Ø¬ÙĦØ©":3656,"ĠØªØŃÙĪÙĬÙĦ":3657,"ĠØ§Ø²Ø§ÙĦØ©":3658,"Ø¹ÙĦÙĤØ©":3659,"ĠØ§ÙĦØ¨ÙĤ":3660,"ĠØ§ÙĦÙħØ§Ø¯Ø©":3661,"ĠØ§ÙĦØªØ´ØºÙĬÙĦ":3662,"Ø¯Ø±Ø§Ø³Ø§Øª":3663,"ĠÙĦØ§Øª":3664,"ĠØ¹Ø§Ø¬ÙĦ":3665,"ĠÙĩÙĨØ¯":3666,"ĠÙħØ¤ØªÙħØ±":3667,"ÙĤØ±Ø±":3668,"ĠØªØ§Ø³":3669,"ĠÙĪØ§ÙĦØ§Ø¯":3670,"ĠØªØ³Ø§Ø¹Ø¯":3671,"ĠØ§Ø¨Ø±Ø²":3672,"ĠØ§ÙĦØªÙĨÙħÙĬØ©":3673,"ĠØ§ÙĦÙĨÙĪØ¹":3674,"ĠÙĦÙĦØ±":3675,"ĠØ³ÙĤ":3676,"ĠØ§ØŃØ¯Ø§Ø«":3677,"ĠØŃØ§ÙĦØ§Øª":3678,"Ø¸Ø§Ø±":3679,"ĠØ§ÙĦØ¨Ø§Ø±":3680,"ĠØ§Ø·Ø§Ø±":3681,"ĠØ§ÙĦÙħÙĤØ¨ÙĦØ©":3682,"ĠÙĨØµØ§Ø¦ØŃ":3683,"ĠØ§ÙĦÙĨÙĬ":3684,"ØªØ§Øª":3685,"ĠØ§ÙĦÙĦØ¨ÙĨØ§ÙĨÙĬØ©":3686,"ĠØ§ÙĦÙģÙĦØ³Ø·ÙĬÙĨ":3687,"Ø¯ÙĬØ±":3688,"ĠÙħÙħØª":3689,"ĠØ§ÙĦØªÙĤÙĨÙĬØ©":3690,"ĠØ§Ø²ÙħØ©":3691,"ĠØªØ³ØªØ·ÙĬØ¹":3692,"ĠØ§ÙĦØ±Ø®Ø§Ùħ":3693,"ĠØ§ÙĦØ§Ø³Ø±Ø§Ø¦ÙĬÙĦÙĬ":3694,"ĠØ§ÙĦØ²ÙĬØª":3695,"ĠØ§ÙĦÙģÙĨÙĬØ©":3696,"ĠØ§ÙĦØ§ÙģØ¶ÙĦ":3697,"ĠÙĦØªÙĪ":3698,"ĠØ§ÙĦØ«ÙĤÙĬÙĦØ©":3699,"ĠØ§ÙĦØ·ØŃÙĨ":3700,"ĠØŃÙĦÙĤØ©":3701,"ÙĤØ±Ø§Ø±":3702,"ĠØ§ÙĦØŃÙħ":3703,"ĠØ§ÙĦØ§Ø´Ø®Ø§Øµ":3704,"ĠØŃÙħÙĦ":3705,"ÙħØŃ":3706,"ĠØ¶ØºØ·":3707,"Ġ382":3708,"ĠØªÙħØª":3709,"ÙĪØªÙĪ":3710,"ĠØ§ÙĦÙĤØ¯ÙĬÙħØ©":3711,"ĠØ§ÙĨØ¯ÙĪÙĨÙĬØ³ÙĬØ§":3712,"ĠØ§ÙĦØ§Ø³ØªØ§Ø°":3713,"ÙĨØ·ÙĨ":3714,"ĠØ§ÙĦÙħØ³ÙĦÙħÙĬÙĨ":3715,"Ø®ØµÙĪØµ":3716,"Ø±Ø§Ùģ":3717,"ĠØ§ÙĦØ§ÙĦØ¹Ø§Ø¨":3718,"ØµÙĬÙĦ":3719,"ĠØŃØµÙĦ":3720,"ĠØ¨ØºØ¯Ø§Ø¯":3721,"ĠÙħØ±Ø¨":3722,"ĠÙĦØ¹Ø§Ùħ":3723,"ĠÙĨÙĤÙĪÙħ":3724,"ĠÙģØ¶ÙĦ":3725,"ĠØ§Ø±Ø´ÙĬÙģ":3726,"ĠÙĤØµØµ":3727,"ĠØ¶Ø¹":3728,"ĠØ§ÙĦØŃØ§ÙĦÙĬ":3729,"ĠÙĪÙĬÙĤ":3730,"ĠØ§ÙĦØºØ§Ø¡":3731,"ĠØ§ÙĦØ¯Ùĩ":3732,"ÙĪÙħØ§":3733,"Ġ417":3734,"ĠØ§ÙĦØ±Ø¬ÙĦ":3735,"Ø§ÙĦØ§":3736,"ĠØ´Ø¨Ø§Ø¨":3737,"ĠØ§ÙĦØ§Ø°":3738,"ĠØ§ÙĦØ¨Ø±ÙĬØ·":3739,"ĠÙħØµØ·ÙģÙī":3740,"ĠØ§ÙĦØ³ÙĪØ±ÙĬØ©":3741,"ÙħØ±Ø§Ø¡":3742,"ĠØ§ÙĦØ§Ø¨ØªØ¯Ø§Ø¦ÙĬØ©":3743,"ĠÙħÙĨØ§Ø·ÙĤ":3744,"Ø³ÙĬØ·Ø©":3745,"ÙĥÙħØ¨ÙĬÙĪØªØ±":3746,"ÙĥØªØ¨":3747,"ĠØ§ÙĦØ§Ø³Ø±Ø©":3748,"ĠÙĩØ¯Ùģ":3749,"ĠØ§Ø³ØªØ±Ø§Øª":3750,"ĠÙĦØ¹ÙħÙĦ":3751,"ĠØ§ÙĦÙĤØ§Ø¦ÙħØ©":3752,"Ø§ÙĪÙĦØ§Øª":3753,"ĠØŃÙħÙĦØ©":3754,"Ø§ØŃØ«":3755,"ĠØªØ±Ø§ÙħØ¨":3756,"ĠØŃØ±Ø¨":3757,"ĠØªÙĦÙĤ":3758,"Ø®Ø±Ø©":3759,"ĠØ´ÙĨ":3760,"ĠØ§ÙĦØ¹Ø§ØµÙħØ©":3761,"Ø±ÙĬØ¨ÙĬØ©":3762,"ĠØ§ÙĦØ´Ø±ÙĬÙģ":3763,"ĠØºÙĬØ§Ø±":3764,"ÙĬØ²Ø±":3765,"ĠØ«ÙĦ":3766,"Ø§ÙĥÙĬØ¯":3767,"ĠØ§ÙĦÙħØ´Ø§Ø±ÙĥØ§Øª":3768,"ĠØ§Ø¡":3769,"ĠÙĦÙĦØ±Ø¬Ø§ÙĦ":3770,"Ø§Ø³ÙĬØ±":3771,"Ø§ÙĬÙĬØ±":3772,"ĠØ§ÙĦØ°Ø§Øª":3773,"ĠØ§ÙĦÙĪÙĦ":3774,"ĠØ§ÙĦØ³ÙĬÙĦ":3775,"ĠØ§ÙĦÙĪØ§ØŃ":3776,"ĠÙĦØ¨":3777,"ĠØ§ÙĦÙĩÙĬØ¦Ø©":3778,"ÙĨÙĬÙĬÙĨ":3779,"ĠØ§ÙĦØ¬ÙħÙĬØ¹":3780,"ĠØ§ÙĦÙģÙĦØ³Ø·ÙĬÙĨÙĬØ©":3781,"ĠØ§ÙĦØªØŃÙĥÙħ":3782,"Û¡":3783,"ĠÙĦØ§Ùħ":3784,"ĠÙĪØ§ÙĦØ§Ø¹":3785,"ĠØ§ÙĦØŃØ±Ø§Ø±Ø©":3786,"ØªÙĬØ§Ø¬Ø§Øª":3787,"ĠÙĦØ¹ÙĦ":3788,"ĠÙĪÙĦÙĬ":3789,"ĠØªÙĥØ´Ùģ":3790,"ĠÙħÙĪÙĨ":3791,"ÙĤØ¯Ùħ":3792,"Ø§Ø±ÙĤØ©":3793,"ĠØ§ØªØµ":3794,"ĠØ¨ÙĦØ§":3795,"ĠÙĪØ§ÙĦØªØŃ":3796,"ØªØŃØ§ÙĨ":3797,"ĠØ¹ÙģØ´":3798,"ĠØ§ÙĦØ¯ÙĬÙħÙĤØ±Ø§Ø·":3799,"ØªÙħÙĬØ²":3800,"ĠØ§ÙĦÙħÙĤØ¨ÙĦ":3801,"ĠØªØ¯Ø§ÙĪÙĦ":3802,"ĠØ¨Ø¯Ø±":3803,"Ġ341":3804,"ĠØ§ÙĦÙĨÙĪÙħ":3805,"ÙĨÙĥ":3806,"ĠÙĦÙĪÙĨ":3807,"ĠØ§ÙĦÙĤØ±ÙĨ":3808,"ĠØ§ÙĦØµÙĦØ§Ø©":3809,"ĠØ³Ø¨ÙĬÙĦ":3810,"ĠØ§ÙĦØ³ÙĦØ·Ø©":3811,"ÙĪØ±ÙĪÙĨØ§":3812,"Ø§Ø¦Ø·":3813,"ĠÙĦÙħØ³":3814,"ĠÙĦÙĤØ§Ø¡":3815,"ĠÙħØªÙĪØ³Ø·":3816,"ĠØ§ÙĦØ·Ø¨ÙĬØ¹ÙĬØ©":3817,"Ø±Ø·Ø§ÙĨ":3818,"ĠÙĬØ¬Ø¹ÙĦ":3819,"ĠÙĨÙĤØ¯Ùħ":3820,"ĠØªØªÙĪ":3821,"ĠÙĤØ¶":3822,"ĠØ§ÙĦØ¯Ø¹Ùħ":3823,"ØªØ§Ø¡":3824,"ĠØ§ÙĦÙģØªØ±Ø©":3825,"Ø±ÙĪØŃ":3826,"Ø§ÙĬÙĬÙĨ":3827,"ĠÙĬØ·":3828,"ĠØ§ÙĦØ§ÙĦØ§Øª":3829,"ĠØ¨Ø§ÙĦÙģÙĬØ¯ÙĬÙĪ":3830,"ÙĨÙģ":3831,"ĠØ¨ÙħÙĨØ§Ø³Ø¨Ø©":3832,"ĠØ§ÙĦØŃØµÙī":3833,"Ø§ÙĦØ¹":3834,"ÙĩÙĪØ©":3835,"Ø¯Ø¯Ø©":3836,"ĠØ§Ø®ØªØ¨Ø§Ø±":3837,"Ø®Ø¯ÙħØ©":3838,"ĠØ§ÙĦØ§Ø®Ø±":3839,"Ġ2009":3840,"ÙĨÙĩ":3841,"ĠÙħØ·Ø¹Ùħ":3842,"ĠØ¯ÙģØ¹":3843,"ĠØµØ§ÙĦØŃØ©":3844,"Ø´Ø§Øª":3845,"ĠØ§ÙĦÙħØ³ÙĦ":3846,"Ġ197":3847,"ĠÙĨÙĬØ¬ÙĬØ±ÙĬØ§":3848,"ĠØ§ÙĦØ¹ÙĦØ§ÙĤØ§Øª":3849,"ĠØ¨ÙħØŃ":3850,"ĠØªÙĪØ¬Ø¯":3851,"ĠÙĤÙĦØ¨":3852,"ĠØ§ÙĨÙĨØ§":3853,"ĠÙĪØ§ÙĦØªÙĪ":3854,"ĠØ§ÙĦØ³Ùģ":3855,"ĠØ§ÙĦØ±Ø¯":3856,"Ø·ÙĤ":3857,"Ø§Ø®Ø°":3858,"ĠØ§ÙĦÙĤØ§ÙĨÙĪÙĨÙĬØ©":3859,"ĠÙĨØ§ÙģØ°Ø©":3860,"ĠØ³ÙģØ±":3861,"ĠØ§ÙĦÙĪØ¶Ø¹":3862,"23":3863,"ĠÙĦÙĦØªÙĪ":3864,"ĠÙĤØ¯Ø±":3865,"ĠØªØ±ØªÙĬØ¨":3866,"ĠÙģÙĥ":3867,"ĠØ¯Ùĩ":3868,"ĠÙĪØªØµ":3869,"ĠØ§ÙĦØ§Ø³ØªØ«ÙħØ§Ø±":3870,"67":3871,"ĠÙħÙĨØŃ":3872,"ĠØ§ÙĦØ¯ÙĪØ±":3873,"ĠØ§Ø³ØªÙħØ±":3874,"ĠÙĬÙĪØª":3875,"Ø±ÙĬØ¨Ø§":3876,"ĠØ§ÙĦØ¹Ø±Ø¶":3877,"ÙĦØ§ÙĬÙĨ":3878,"361":3879,"Ø§Ø¯ÙħØ©":3880,"Ø¶ÙĪÙĬØ©":3881,"ÙĬÙĦÙĩ":3882,"ØªØ¨Ø§Ø±Ø§Øª":3883,"ĠØ§ÙĦÙĤØ·Ø§Ø¹":3884,"ĠÙĦÙĦØªØŃ":3885,"ÙĪØ²ÙĬØ¹":3886,"ĠÙĬÙĥÙĨ":3887,"ĠØ§ÙĦÙĨØ¸":3888,"ĠØªÙĤÙĨÙĬØ©":3889,"ĠØ§ÙĦØ¨Ø±ÙĦÙħØ§ÙĨ":3890,"Ø§Ø¨Ùĩ":3891,"ĠÙĥØ°ÙĦÙĥ":3892,"ĠØ¨Ø·Ø±ÙĬÙĤØ©":3893,"Ġ412":3894,"ĠÙĥÙĨØ¯Ø§":3895,"ÙħØ¹":3896,"ĠØ§Ø¨Ø·Ø§ÙĦ":3897,"ĠØ§ÙĦØ±ÙĤÙħÙĬØ©":3898,"ĠØ§ÙĦØ¶ØºØ·":3899,"ĠØ§ÙĬÙĦ":3900,"ÙĦØŃØ©":3901,"ÙĤØ¯Ø±":3902,"ĠØ§ÙĦØªØ¨":3903,"Ø¯ÙĬÙĤØ©":3904,"ĠØ§ÙĦØªØ¹ÙĦÙĬÙĤØ§Øª":3905,"ĠÙĪØ§ÙĦØ³ÙĦ":3906,"ĠÙĨÙĪ":3907,"ĠØºØ³Ø§ÙĦØ§Øª":3908,"ĠÙĦØ§Ø³ØªØ®Ø¯Ø§Ùħ":3909,"ĠØ§ÙĦÙĨØ§Ø±":3910,"ĠØ§ÙĦØªØ§Ø³":3911,"Ø±Ø§Ø¹":3912,"ĠØ´Ø§Ø±Ùĥ":3913,"ĠÙģØŃØµ":3914,"ĠÙĪØµÙĪÙĦ":3915,"ĠÙĦÙĬÙģ":3916,"ĠØ¹Ø·":3917,"ĠØ¨ÙĤÙĦ":3918,"ĠÙĨØ§":3919,"ĠÙħÙĪØ§Ø¬ÙĩØ©":3920,"ØµØ§Ø±":3921,"ĠØªØ¬ÙĩÙĬØ²":3922,"ĠØ§ÙĦÙħØ³ØªÙĤØ¨ÙĦ":3923,"ĠØ§ÙĦØ¨ÙĬØ¦Ø©":3924,"ĠÙĦÙħØ´":3925,"Ø§ÙĨÙī":3926,"ĠØ³Ø§Ø¨ÙĤ":3927,"Ø·ÙĦØ¨Ø§Øª":3928,"Ø§Ø¯Ø¦":3929,"ÙĬØ³Ø©":3930,"ÙĪØ§Ø±ØªØ²":3931,"ĠÙĪØ¸ÙĬÙģØ©":3932,"ÙĥØ§ÙĨÙĬØ©":3933,"ĠØ§ÙĦÙĤØ¶":3934,"ĠØ§ÙĦØ¯ÙĪÙĦØ§Ø±":3935,"ĠÙģÙĩÙħ":3936,"ĠØ²ÙĬØ¯":3937,"ĠØ¨Ø§ÙĦÙĥÙĪÙĬØª":3938,"ĠØ¨ÙĨØª":3939,"Ø¨ÙĬÙĩ":3940,"ĠÙħÙĨÙĩÙħ":3941,"ĠØ¨ÙĨØ³Ø¨Ø©":3942,"ĠØ§ÙħØ±Ø§Ø©":3943,"ĠÙħÙĬØ¯ÙĬØ§":3944,"ĠØ¨Ø¨":3945,"ÙĪÙĤØ©":3946,"Ġ341361":3947,"ĠØ§ÙĦØ´ÙħØ§ÙĦÙĬØ©":3948,"ĠØ§ÙĦÙĥÙĩØ±Ø¨Ø§Ø¡":3949,"ĠÙĤØ§Ø¹Ø¯Ø©":3950,"ĠØ§Ø¦":3951,"Ø¹Ùĩ":3952,"Ø¹ÙħØ©":3953,"ÙĨÙĪÙĨ":3954,"ĠÙĨØµÙģ":3955,"ĠØ¨ÙĦØº":3956,"ĠØ±ØºÙħ":3957,"ĠØ§Ø¹ÙĦØ§ÙĨØ§Øª":3958,"ÙĬØ§Ø¬":3959,"ĠØªØ«":3960,"ĠØ§Ø«Ø§Ø«":3961,"ĠØ§ÙĦØ§Ø«Ø§Ø«":3962,"ĠÙĦØ§ÙĬ":3963,"Ø®ÙģØ¶":3964,"Ø´Ø±Ùģ":3965,"ĠØ§ÙĦØ²ÙħØ§ÙĦÙĥ":3966,"ĠØ§ÙĦØ¨Ø´Ø±ÙĬØ©":3967,"ĠÙħÙĩÙħØ©":3968,"ĠØ§ÙĦØŃÙĪØ«":3969,"ÙĤÙĬÙħ":3970,"ĠØªØ¨ØŃØ«":3971,"ĠØ§ÙĦØ¬Ø¯":3972,"ĠÙħØ¹Ø¸Ùħ":3973,"ÙĬØ¯Ø±ÙĪÙĦ":3974,"11":3975,"ĠØ§ÙĦØŃØ´Ø±Ø§Øª":3976,"ĠØ§Ø³ØªØ®Ø¯Ùħ":3977,"ĠØ§ÙĦØ¬ÙĨÙĪØ¨ÙĬØ©":3978,"ĠÙĪØ³ÙĬ":3979,"ĠØªÙĬ":3980,"Ġ95":3981,"Ø¯ÙĪØ²":3982,"ĠØ§ÙĦØ±Ùĥ":3983,"ĠØªØŃØªÙĪÙĬ":3984,"Ø±ÙĪØ§":3985,"ÙĩÙĬ":3986,"ĠØ´Øº":3987,"ĠØ§ÙĦØ®Øµ":3988,"Ø®Ùħ":3989,"Ø¯ÙĪØ¯Ø©":3990,"ØµÙĨØ¹":3991,"Ø¹Ø§ÙħÙĦ":3992,"Ø¬Ø§Ùĩ":3993,"ĠØ¨Ø·ÙĪÙĦØ©":3994,"ĠØ§ÙĦØ¹ÙĨÙĪØ§ÙĨ":3995,"ĠÙĪÙĬØ±":3996,"ĠØ§ÙĦÙħØ¹Ø¯ÙĨÙĬØ©":3997,"ĠØ§ÙĦØ¹Ø§ÙĦÙĬ":3998,"ĠØ§ÙĦÙĤØ¶Ø§Ø¡":3999,"ĠØ§ÙĦØ¹Ø³ÙĥØ±ÙĬØ©":4000,"ĠØªØ¨Ø¯Ø§":4001,"ĠØ¯ÙĤØ§Ø¦ÙĤ":4002,"ĠØ§ÙĦØŃØ§ÙĦØ©":4003,"ĠØ§ÙĦÙģÙĨÙĬ":4004,"ĠØ«Ø§ÙĨÙĬØ©":4005,"25":4006,"ĠØ§ÙĦÙĦØ¨ÙĨØ§ÙĨÙĬ":4007,"ĠÚ©":4008,"Ø´ÙĦÙĪÙĨØ©":4009,"ĠÙĪØ§Ø°Ø§":4010,"ĠØ§ÙĦØ§Ø¯Ø¨":4011,"ĠØ§ÙĦØªÙĦ":4012,"ÙĪØ±ÙĪ":4013,"ĠØ§ÙĦØ§Ø³ØªÙģ":4014,"ĠØ±ÙĬØ§Ø¶ÙĬØ©":4015,"ĠØ¹Ø±Ø¨":4016,"ĠÙĪØ§ÙĦØ²":4017,"ĠÙģØ§Ø±":4018,"ØªÙĬØŃ":4019,"ĠØ§ÙĦØŃØ¯ÙĬØ«Ø©":4020,"ĠØ§ÙĦØŃÙĤÙĪÙĦ":4021,"ĠØ³ÙĪØ±Ø©":4022,"Ø°ÙĪØ±":4023,"ĠÙĤØ³":4024,"Ø§Ø¦Ø²":4025,"ØªØ±ÙĥØ©":4026,"ĠØ§ÙĦØ´Ø±Ø§Ø¡":4027,"ĠÙĬÙĪØªÙĬÙĪØ¨":4028,"ØŃØ¯":4029,"ĠÙĦØ§Ùĥ":4030,"ĠÙĪØ§ÙĦØ§Øª":4031,"ĠØ§Ø´ØªØ±Ùĥ":4032,"ĠÙĬØ³Ø§Ø¹Ø¯":4033,"ĠÙĦÙĩØ°Ùĩ":4034,"ĠÙĦÙĦØ§Ø³Øª":4035,"ĠØ§ÙĦÙĥÙĪÙĨ":4036,"ĠÙħØ§ÙĬ":4037,"ĠÙĬØ¹Ø±Ùģ":4038,"ĠÙĪØ§Ø³Øª":4039,"ÙĩØ±Ø§Øª":4040,"ĠØ§ÙĦØ§ØªÙģØ§ÙĤ":4041,"ÙĪØµØ§Øª":4042,"Ġ2008":4043,"ĠØ³Ø¯":4044,"ĠØªØŃØ³ÙĬÙĨ":4045,"ĠØ¨ÙĨÙģØ³":4046,"ĠÙħØ¯Ø¨ÙĦ":4047,"ĠÙħÙĨØµ":4048,"ĠØ§ÙĦØ®Ø¨":4049,"ĠØ¸ÙĩÙĪØ±":4050,"ĠØ§ØªØŃØ§Ø¯":4051,"ØªØ±Ø§Øª":4052,"ĠØ¨Ø§Ø±ÙĬØ³":4053,"ĠØ·Ø§Ø¦Ø±Ø©":4054,"ĠØ§ÙĦØ§ÙĤØ³Ø§Ùħ":4055,"Ø¬Ø§Ø²":4056,"Ø±Ø¬Ø§Øª":4057,"ĠØ§ÙģØªØªØ§ØŃ":4058,"ĠØŃØ§Ø¯Ø«":4059,"ĠØ§ÙĦÙĥÙĨ":4060,"ĠÙĪØ§ÙĦØ§Ø®":4061,"ĠÙĦÙĦÙĨØ³Ø§Ø¡":4062,"ĠØ§ÙĦØ±Ø³ÙħÙĬØ©":4063,"ÙĬØ¯Ø§Øª":4064,"ĠØ§ÙĦØ´ÙĬ":4065,"ĠØ³ÙĦÙĬÙħØ§ÙĨ":4066,"ÙĬÙĨÙĩ":4067,"Ø²ÙĬØ§Ø¡":4068,"ĠÙĤØ¶ÙĬØ©":4069,"ĠØ§ÙĦØªØ¯Ø§ÙĪÙĦ":4070,"ĠØ´ÙĩØ¯":4071,"ĠÙĪÙħÙĪ":4072,"ĠØªÙĪÙĤØ¹":4073,"ĠØ§ÙĦØºØ§Ø²":4074,"ĠØŃÙģÙĦ":4075,"ĠØ§ÙĦÙħÙĦÙģØ§Øª":4076,"ĠØªØŃÙħÙĦ":4077,"ÙĬÙĥØ³":4078,"ÙĦØ§Ø¹":4079,"ĠÙĬØº":4080,"ĠÙģØ¹":4081,"ĠÙĪÙĬÙĦ":4082,"Ø³ØªÙĬØ±":4083,"ĠØ§ÙĨØŃØ§Ø¡":4084,"ÙħØ¬Ø©":4085,"ĠÙĥØ§ÙĨÙĪÙĨ":4086,"ĠØªØ¯ÙģÙĤ":4087,"Ġ1443":4088,"ØŃÙĥ":4089,"ĠÙĪØ§Ø¶Ø§Ùģ":4090,"45":4091,"ØŃÙĦÙĤØ©":4092,"ĠØ§ÙĦØªÙĨØ¸ÙĬÙģ":4093,"ĠØ§ÙĦØ§Ø®ÙĬØ±":4094,"ĠÙģØ±ØµØ©":4095,"ĠÙĦÙĦØºØ§ÙĬØ©":4096,"ĠÙħÙĬØ¯":4097,"ĠÙĪØ§ÙĦØªÙĨ":4098,"ĠØªÙĥÙĨÙĪÙĦÙĪØ¬ÙĬØ§":4099,"Ø´Ø¯":4100,"ĠØ§ÙĦÙħÙĪØ§Ø·ÙĨÙĬÙĨ":4101,"ĠØ¬ÙĬØ¯Ø©":4102,"ĠØ¬Ø§Ùħ":4103,"ĠØ¶Ø¨Ø·":4104,"Ø§Ø¦ÙĨØ§":4105,"ĠØºØ²Ø©":4106,"ĠØ§Ø¯Ø§Ø¡":4107,"ĠÙĨÙĪÙħ":4108,"ĠØ§ÙĦØŃØ¯ÙĪØ¯":4109,"ĠÙĦÙĦÙħÙĪ":4110,"ĠØ¹Ø¨Ø§Ø±Ø©":4111,"ĠØ§ÙĦØ±Ø¬Ø§Ø¡":4112,"ĠÙħÙĨØ§Ø²ÙĦ":4113,"ĠØ§ÙĦØ§ÙħÙĨÙĬØ©":4114,"ĠØ¯Ø±ÙĪØ³":4115,"ĠØ§ÙĦÙħØºØ±Ø¨ÙĬ":4116,"ØºØ±Ø¨":4117,"Ø§ÙĦØµ":4118,"ĠÙĨØ§Ø±":4119,"Ġ120":4120,"ĠÙģØ³":4121,"ĠØ§ÙĦØ²ÙĪØ¬":4122,"ĠØŃÙĦÙĪÙĦ":4123,"ĠØ§Ø³Ø¨":4124,"ĠÙĩØ§Ùħ":4125,"ĠØ§ÙĦØ¹ÙĤÙĦ":4126,"ĠØµØ¯ÙĬÙĤ":4127,"ĠØ§Ø³ÙĪØ¯":4128,"ĠØ§ÙĪÙĨÙĦØ§ÙĬÙĨ":4129,"ĠØ¹ÙĦÙĬÙĩÙħ":4130,"ĠØ®Ø·ÙĪØ§Øª":4131,"ĠÙĥØ§ØªØ¨":4132,"ĠØ§ÙĦØ±ÙĪØ³":4133,"ĠØ¯Ø§Ø¹Ø´":4134,"ĠÙĦØŃÙĤÙĪÙĤ":4135,"ĠØ§ÙĦØ§ÙĬØ·":4136,"ĠÙħÙĬ":4137,"ĠØ§ÙĦØ§Ø³ÙĥÙĨØ¯Ø±ÙĬØ©":4138,"ĠÙħØªØ¹Ø¯Ø¯Ø©":4139,"ĠØ¨Ø§ÙĦØ¯Ùħ":4140,"ĠØ§ÙĦØºØ±Ø¨ÙĬØ©":4141,"ĠØ¬Ø¨":4142,"ĠÙħÙĪÙĤØ¹ÙĨØ§":4143,"ĠØ§ÙĦØ§Ø®Ø¨Ø§Ø±ÙĬØ©":4144,"ĠÙĪØ§Ø³Ø¹":4145,"ĠØ§ÙĦØ¬ÙĪÙĬØ©":4146,"ÙĤØ±Ø§Ùħ":4147,"ĠØ§Ø¹ÙĦÙĨ":4148,"ĠØªØ¬Ø§Ùĩ":4149,"Ø§Ø¯Øª":4150,"ĠØ§ÙĦÙħÙĪØ¬ÙĪØ¯Ø©":4151,"Ø¯Ø§ÙĬØ©":4152,"ĠÙĪÙĬØ¬":4153,"85":4154,"ĠÙĨØ³Ø®Ø©":4155,"ĠØ§ÙĦÙħØ¬ÙħÙĪØ¹Ø©":4156,"ÙĩÙĪÙħ":4157,"ÙĬØ§ÙĦ":4158,"ĠÙĪØ§ÙĦØ§Ø³Øª":4159,"Ø¨ÙĪ":4160,"ĠØŃÙĤÙĬÙĤØ©":4161,"ĠØ§ÙĦØ¯Ø³Øª":4162,"ĠØ§ÙĦÙħÙĨØ²ÙĦÙĬØ©":4163,"ĠÙħØ´Ø§ÙĩÙĬØ±":4164,"ĠØ§ÙĦÙĨÙĤØ¯":4165,"ĠÙħØµÙĨØ¹ÙĬ":4166,"ĠÙħØ¨Ø§Ø±ÙĬØ§Øª":4167,"ĠÙĥØªØ§Ø¨Ø©":4168,"ĠØ´Ùĥ":4169,"ÙĦØ²ÙħØ§Øª":4170,"ĠØ§ÙĦØ·Ø±ÙĬÙĤØ©":4171,"ĠÙħÙĨØ¹":4172,"ĠØ°ÙĩØ¨":4173,"ØªØ§Ø¨Ø¹Ø©":4174,"ĠÙĪØ§ÙĦØªØ¹ÙĦÙĬÙħ":4175,"ĠØ§ÙĨØ¯Ø±ÙĪÙĬØ¯":4176,"ĠØ§ÙĬØ·Ø§ÙĦÙĬØ§":4177,"Ø§ÙĦØªØ§ÙĦÙĬ":4178,"ĠØ§ÙĦØ³Ø§Ø¨ÙĤØ©":4179,"ĠØªØ´ÙĥÙĬÙĦ":4180,"ĠÙħØ±ØŃØ¨":4181,"ĠØ§ÙĦØ«ÙĤØ§ÙģØ©":4182,"Ø§Ø±Ùī":4183,"ĠØ§ÙĦÙĦÙĪÙĨ":4184,"ĠØ§ÙĦÙħØŃÙĦÙĬ":4185,"ĠÙĦÙĦÙħØ´Ø§Ø±ÙĥØ©":4186,"ĠÙĦØ§ÙĪÙĦ":4187,"ØŃÙī":4188,"ĠÙħØŃØªÙĪÙī":4189,"ĠÙĪØ§Ø´ÙĨØ·ÙĨ":4190,"ĠÙĪØŃØªÙī":4191,"ĠÙħØ§Ùĩ":4192,"ĠØ¨Ø§ÙĦÙĥØ§ÙħÙĦ":4193,"ĠØ§ÙĦØ§Ø³ÙĪØ§ÙĤ":4194,"ĠÙħØ¯Ùī":4195,"ĠØ§ÙĦØ¬ÙĪÙĨØ©":4196,"ØªÙħØ±Ø§Ø±":4197,"ÙĪÙħÙĬØª":4198,"ĠØ§Ø³ÙĬØ§":4199,"ĠÙĬØŃØ¯Ø«":4200,"91":4201,"Ùª":4202,"ĠÙĥØ±Ø¨":4203,"ÙĬØ±Ùĩ":4204,"ĠÙĦÙĦØ®":4205,"ÙĨØ¯ÙĨ":4206,"ÙħÙħ":4207,"ĠØ¨ÙĩØ°Ø§":4208,"ĠÙĬØªØ¹ÙĦÙĤ":4209,"ĠØ§Ø¹Ø±Ø¶":4210,"ĠÙĦØªØ±":4211,"ĠØ§ÙĦÙħÙĬÙĦ":4212,"ĠÙĨÙĬ":4213,"ĠØ³ÙĬÙĥÙĪÙĨ":4214,"ĠØ§ÙĦØŃÙĪØ§Ø±":4215,"ĠØŃØ¯ÙĪØ¯":4216,"Ø§Ø±Ø¨Ø©":4217,"ĠØ§ÙĦØ¹Ø±Ø§ÙĤÙĬ":4218,"ĠØ¯Ø®ÙĦ":4219,"ĠÙĪÙĬØŃ":4220,"ĠØªØ§Ø¬ÙĬØ±":4221,"ĠÙģØªØ§Ø©":4222,"ĠØ§ÙĦØ·ÙĦØ§Ø¨":4223,"ĠØ³ÙĪØ±ÙĬØ©":4224,"ĠÙħØªÙĨÙĪØ¹Ø©":4225,"ĠØ§ØµÙĦØ§ØŃ":4226,"ĠØ§ÙĨØ·ÙĦØ§ÙĤ":4227,"ĠØªØŃØ±ÙĬØ±":4228,"ÙĦÙĬØŃ":4229,"ÙĨØ§Øª":4230,"ĠÙĪÙĬÙĥ":4231,"ĠÙĪØ§ÙĦØ§":4232,"ÙĦØª":4233,"ĠÙĪØ§ÙĦØ§ÙĤ":4234,"ĠØ§ÙĦØ§Ø¹ÙĦØ§ÙĨØ§Øª":4235,"ĠÙĦØ®":4236,"ĠØ§ÙĦØµÙĬØ¯":4237,"ĠØ§ÙĦØ¨ÙĬØ¶Ø§Ø¡":4238,"ĠØ¦":4239,"ĠÙĦÙĦÙħØŃ":4240,"ÙĬÙĦÙħ":4241,"ĠÙħØ·ÙĦÙĪØ¨":4242,"ĠØ§ÙĦØ·Ø¨ÙĬØ¹ÙĬ":4243,"ĠØ§ÙĦÙĨØ§ÙĤÙĦ":4244,"Ø«ÙĦØ§Ø«":4245,"ĠØŃÙĪØ§ÙĦÙĬ":4246,"ĠØ¹ÙĪØ¯Ø©":4247,"ĠØ§ÙĦØµÙĦØ¨":4248,"Ø¶ÙħØ§ÙĨ":4249,"ĠØ§ÙĦØ±Ø§Ø¨Ø·":4250,"ÙħØ³Ø©":4251,"ĠÙĪØ§ÙĦØ§Ø±":4252,"ĠØ§ÙĦØ¹ÙĦØ§ÙħØ©":4253,"ĠØ§ÙĦÙħØ´Ø§Ø±":4254,"ĠØ§ÙĦØ¨Ø§Ø¨":4255,"ĠÙĥØ´":4256,"ĠØªØ¹ÙĦÙĬÙĤØ§Øª":4257,"ĠØ§ÙĦØ¹Ø«ÙĪØ±":4258,"ĠÙħÙĬÙĨ":4259,"ĠÙģØ§Øª":4260,"Ø±ÙģØ¶":4261,"ĠØ§ÙĦØ§Ø³ÙĨØ§ÙĨ":4262,"ĠÙħÙĪÙĤÙģ":4263,"ĠØµÙĬ":4264,"Ø´Ø·Ø©":4265,"Ø§Ø¦Øµ":4266,"ĠØ¨Ø§ÙĦÙĦØºØ©":4267,"ĠØ§ÙĦØ§ÙħÙĪØ±":4268,"ĠØ§ÙĦÙħØµØ¯Ø±":4269,"ĠØ§ÙĦØ§Ø¨ØªØ¯Ø§Ø¦ÙĬ":4270,"ĠØ§ÙĦØ³Ø¯Ø§Ø³ÙĬ":4271,"ĠØ§ÙĦØ§ÙĦÙħØ§ÙĨÙĬØ©":4272,"ÙĪØ§ÙħÙĦ":4273,"ĠÙĦÙģØ©":4274,"ĠØ§ÙĦØ§Ø®Ø±ÙĬÙĨ":4275,"ĠÙĪØ§Ùģ":4276,"ĠØ§ØŃØªØ±":4277,"ĠØ§ÙĨØ´Ø·Ø©":4278,"ĠØ§ØŃØªÙģ":4279,"ĠÙħØ³Ø§Ø¹Ø¯Ø©":4280,"ÙĤØª":4281,"ĠØ³Ø§ÙħØ³ÙĪÙĨ":4282,"ØºØ§ÙĨØ³ØªØ§ÙĨ":4283,"ĠØ§ÙĦØªÙĤÙĦ":4284,"ĠÙĪÙħØ´":4285,"ĠØ®Ø±ÙĬØ·Ø©":4286,"Ø¹Ø¯Ø¯":4287,"ĠÙĬØŃØªØ§Ø¬":4288,"ĠÙĪÙħØ³":4289,"ĠØ§Ø±Ø³ÙĦ":4290,"ĠÙĦÙĦÙĥÙħØ¨ÙĬÙĪØªØ±":4291,"Ġ79":4292,"ĠÙĪÙģÙĤØ§":4293,"ĠØ¹Ø±Ùģ":4294,"ÙĦÙħØ§Øª":4295,"ĠØ§ÙħØ±ÙĬÙĥÙĬ":4296,"Ø§ÙĬØ¨Ø±":4297,"Ø§Ø¯Ùī":4298,"ĠØ§ÙĦØ§Ø³Ø¯":4299,"ĠØ¬Ø²Ø±":4300,"ĠÙĨØ¹Ùħ":4301,"ĠÙģÙĩÙĬ":4302,"ĠØ¨Ø§ÙĦØ±":4303,"ĠØ§ÙĨÙĤØ±":4304,"ĠØ¹ÙĦØ§ÙĤØ©":4305,"ĠÙĪÙĦØ¯":4306,"ĠØ§ÙĦÙħØ§Ø¶ÙĬØ©":4307,"38":4308,"ĠØ¶Ø±":4309,"ĠÙģÙĪØ²":4310,"ĠØ§ÙĦÙĥÙĪØ§Ø±ØªØ²":4311,"ĠØ§ÙĦÙģØª":4312,"ĠØ§ÙĦØ¬Ø²ÙĬØ±Ø©":4313,"ĠÙ±":4314,"Ø¶ÙĦØ©":4315,"Ø±ÙĤØ©":4316,"ĠØ±ÙĪØ§ÙĬØ©":4317,"ĠÙĬÙĪÙħÙĬØ§":4318,"ÙĪØ±Ø¬":4319,"ĠØ§ÙĦÙħØ±Ø©":4320,"ĠØ³Ø±ÙĬØ¹":4321,"ĠØªÙģØ¹":4322,"ĠØ§ÙĦØ¯Ø±Ø§Ø³ÙĬ":4323,"ĠØ§ÙĦÙħØºØ±Ø¨ÙĬØ©":4324,"Ø±ÙĬÙĤÙĬ":4325,"ÙĪÙĤÙĬØª":4326,"Ø§Ø·Ø¦":4327,"Ø¬ÙĬØ±":4328,"ĠØ³ÙĦÙħØ§ÙĨ":4329,"ĠØ§ÙĦØ¬ÙĨØ³ÙĬØ©":4330,"Ø¸Ø§Øª":4331,"Ġ86":4332,"ÙĪÙģÙĬØ¯":4333,"ĠØ§ÙĦØ±Ø¬Ø§ÙĦ":4334,"Ġ78":4335,"ØªÙĦØ§Ùģ":4336,"Ø¨Ø¹Ø¶":4337,"ĠÙĪØ§ÙĦØ§Ø¨":4338,"ĠØ§ÙĨÙĤ":4339,"ĠØ§ÙĦÙħØ¯Ø§Ø±Ø³":4340,"Ø³ÙĬÙĤÙī":4341,"ĠØ§Ø¹ÙĦÙĨØª":4342,"ĠÙĦÙĦØªÙĨ":4343,"ĠØ§ÙĦÙĪØ¬":4344,"ĠØ±Ø§Ø¦Ø¹Ø©":4345,"ĠØ§ÙĦØ¬Ø¨Ø³":4346,"ĠØ§ÙĦÙĥØ¨Ø±Ùī":4347,"ØªÙĪØŃ":4348,"ĠØ«Ø§ÙĦØ«":4349,"ĠÙħØ±ØŃÙĦØ©":4350,"ĠÙĪØ¹ÙĨ":4351,"Ø§Ø±Ø¦":4352,"ĠÙĪÙħØ³Øª":4353,"ĠØ§ÙĦØ§ÙĦØ²Ø§Ùħ":4354,"Ġ3628":4355,"ÙĬÙħÙĨ":4356,"ĠØµÙģØŃ":4357,"ÙĦÙĪÙĦ":4358,"Ø·Ø±ÙĬØ©":4359,"ĠØ§ØªÙģØ§ÙĤÙĬØ©":4360,"ĠØ§ÙĦØ±Ø§Ø¨Ø¹Ø©":4361,"ĠØªØ³ÙĪÙĤÙĬ":4362,"ĠØ§ÙĦØ§Ø³ØªØ±Ø§Øª":4363,"ĠÙĨØ´Ø§Ø·":4364,"Ø±ÙĪÙĨ":4365,"ĠÙĬØ¨ØŃØ«":4366,"ĠÙĩÙĨ":4367,"ÙĪÙĬØ§":4368,"ĠØªØ§":4369,"ĠÙĥØ±ÙĬ":4370,"ĠØ§ÙĦØ¯Ø±Ø§Ø³Ø©":4371,"ĠØ§ÙĦÙħØªØ¹ÙĦÙĤØ©":4372,"ĠØ¨Ø±Ø´ÙĦÙĪÙĨØ©":4373,"ĠØ±Ùĥ":4374,"ĠØ§ØŃÙĥØ§Ùħ":4375,"ĠØ§ÙĦØ¬ÙħÙĬÙĦ":4376,"ĠØ§Ø³ØªÙĤ":4377,"ĠØ®ÙĬØ±":4378,"ĠØ¯Ø§Ø¦Ùħ":4379,"ĠØ·Ø¨ÙĬØ©":4380,"ÙĬÙĨÙĪ":4381,"ĠØ§ÙĦØŃÙĬÙĪØ§ÙĨØ§Øª":4382,"ĠØ§ÙĦØ§Ø¬Ø±Ø§Ø¡Ø§Øª":4383,"Ø§ÙĨØ¯Ø±ÙĪÙĬØ¯":4384,"ĠÙħÙĨØ¸":4385,"Ø¬ÙĪÙĨ":4386,"ĠÙĪØ¨ÙĬÙĨ":4387,"ĠØ§ÙĦØ¹Ø³ÙĥØ±ÙĬ":4388,"ĠÙħØ¹Ø±Ùģ":4389,"ĠØ§ØªØ®":4390,"ĠÙĪØ³ÙĦ":4391,"ĠØ§ÙĦØ±ÙĤ":4392,"ĠÙĪÙĥØ§ÙĨØª":4393,"Ø°ÙĥØ±Ø©":4394,"35":4395,"ĠØ´Ø§Ø¨":4396,"ĠØ§Ø¶Ùģ":4397,"ĠØ§ÙĦÙĥØ§ØªØ¨":4398,"ĠØ´Ø®ØµÙĬØ©":4399,"ĠÙħØ´Ø§Ø±ÙĬØ¹":4400,"ĠÙĪØ¹ÙĨÙĪØ§ÙĨ":4401,"ĠØ³Ø§Ø®":4402,"ĠØªØ¬Ø¹ÙĦ":4403,"ĠØ¬Ø§Ùĩ":4404,"ĠØ±Ø¬Ø§ÙĦ":4405,"Ø§Ø¯Ø§Ø±Ø©":4406,"ĠÙĥÙĦØ§Ùħ":4407,"ÙĪØ²Ø§Ø±Ø©":4408,"Ø±Ø·ÙĪÙħ":4409,"ĠÙĪØ§ÙĦÙħÙĪ":4410,"ĠÙħÙĬØ§Ùĩ":4411,"Ø¨Ø§ÙĤ":4412,"ĠØ±ÙħØ²":4413,"Ø§Ø¶Ø§Øª":4414,"ĠÙĨØ³Øª":4415,"ĠØ§ÙĦØ¨Øµ":4416,"Ø§ÙĥØ©":4417,"ĠØ§ÙĦÙĦØ§Ø²ÙħØ©":4418,"ĠÙħÙĦØ§ØŃ":4419,"Ġ377":4420,"ĠØ§ÙĦÙģÙĨØ§Ø¯ÙĤ":4421,"ĠÙĤÙĦÙĬÙĦ":4422,"ĠØ§ÙĦØªØŃÙĤÙĬÙĤ":4423,"Ø§Ø¨Øª":4424,"ØªØ¯ÙĬ":4425,"Ø§ÙĦØ´":4426,"ĠÙĦÙĦØ³ÙĬ":4427,"ĠØ±ØŃÙĦØ©":4428,"ĠØ¨Ø§ÙģØ¶ÙĦ":4429,"ĠØ§ÙĦØ°ÙĥÙĬØ©":4430,"ĠÙĪØ§ÙĦØ¨Ø±":4431,"ĠØ§Ùī":4432,"ĠØ¨Ø§ÙĦÙĤØ±Ø¨":4433,"ĠÙħØ¯Ø±ÙĬØ¯":4434,"Ġ96":4435,"ĠØ¨Ø§ÙĥØ³ØªØ§ÙĨ":4436,"ĠØ¨Ø§ÙĦØ¨Ø´Ø±Ø©":4437,"ĠØ§ÙĦÙħØ¤ØªÙħØ±":4438,"ĠØªØ¬Ø§Ø±ÙĬØ©":4439,"ĠØµÙĨ":4440,"ĠØ§ÙĦØ¹ÙħØ§ÙĦ":4441,"ĠÙħØ¹Ø¯ÙĦ":4442,"ĠÙĬØ¶":4443,"ĠØ¯Ø§Ø®":4444,"ĠØ´ÙĥØ±Ø§":4445,"Ø«ÙħØ±":4446,"ØºÙĦÙĬÙģ":4447,"ĠØ§ÙĨØ®ÙģØ§Ø¶":4448,"ĠØ§ÙĦÙĥØ¨ÙĬØ±Ø©":4449,"ĠØ§ÙĦÙĪØŃØ¯Ø©":4450,"ĠØªØªØ±":4451,"ĠÙĩØ¯Ø§ÙĬØ§":4452,"ĠØ§ÙĦØªØ¹Ø¨":4453,"ÙĬØ¬Ø§":4454,"ĠØŃØ§ÙĦÙĬØ§":4455,"ĠÙħØ·Ø§Ø±":4456,"ĠÙĪÙħØ¯":4457,"ĠØªÙĪÙĥ":4458,"ĠÙĪØ§ÙĦÙħØ³":4459,"ĠØ§ÙĦØ³ÙĦØ·Ø§Øª":4460,"ĠØ§ÙĦØ´Ø®ØµÙĬ":4461,"ĠØ§ÙĦØ§ÙħØ±Ø§Ø¶":4462,"ĠØªØ±ØºØ¨":4463,"ÙĪÙĬØ¯":4464,"ĠØ§ÙĦØ§Ø®ÙĪØ§ÙĨ":4465,"ĠØ§ÙĦÙĬÙĪÙħÙĬØ©":4466,"Ø§ÙħÙĬÙħ":4467,"ĠØ§ÙĦÙĩØ¬Ø±Ø©":4468,"ĠØªØ¹Ø²ÙĬØ²":4469,"ĠØ§ÙĦÙĥØªØ±ÙĪÙĨÙĬØ©":4470,"ĠØ§ÙĦÙħÙĤØ§ÙĦ":4471,"ĠØ¹Ø²ÙĦ":4472,"ĠÙĦÙĥØ±Ø©":4473,"ĠØ§ÙĦØ§ÙĤØªØµØ§Ø¯ÙĬ":4474,"ÙĦÙĦ":4475,"ĠØ§ÙĦØŃØ¶":4476,"ĠØ§ÙĦÙħØŃØ§Ø¬Ø±":4477,"ĠØ§ÙĦØ¹Ø§ÙħÙĦ":4478,"ĠØ·Ùģ":4479,"ĠØ·Ø¨ÙĬØ¨":4480,"ĠÙģÙĨØ§Ø¯ÙĤ":4481,"Ø³Ø¯":4482,"ĠØªØ¸ÙĩØ±":4483,"Ø·ÙĦØ¹":4484,"ĠØ§ÙĦØ®Ø¶":4485,"ĠØ§ÙĦØ²ÙĪØ§Ø¬":4486,"ĠÙĦØªØ´":4487,"ĠØ³Ø¤Ø§ÙĦ":4488,"ĠØµØŃÙĬØ©":4489,"ĠÙĪÙĬØ¨":4490,"12":4491,"ĠØ«Ø§ÙĨÙĬ":4492,"ĠØ§ÙĦØªÙĨÙģÙĬ":4493,"ĠØ§ÙĦÙĨØªØ§Ø¦Ø¬":4494,"ĠÙĬØ¬ÙĪØ²":4495,"ĠÙĦØ°Ø§":4496,"ĠÙĪÙħÙĤ":4497,"ĠÙħÙĨÙĥ":4498,"ĠØŃØ²ÙĬØ±Ø§ÙĨ":4499,"ĠØ§ÙĦØ§ÙĪ":4500,"ĠØ²ÙĬÙĨ":4501,"ĠÙĪØ§Ø«":4502,"ØªØ§ÙĦ":4503,"ĠØ§ÙĦØµÙĨØ§Ø¹Ø©":4504,"ĠØ§ÙĦÙĨÙĪØ§Ø¨":4505,"ĠÙĬØ±ÙĬØ¯":4506,"ĠØŃØµØ§ÙĨ":4507,"Ø§ÙĤØ´Ø©":4508,"ĠØ§ØªÙģØ§ÙĤ":4509,"ĠØ§ÙĩØ¯Ø§Ùģ":4510,"ĠÙħÙĤØ±":4511,"ĠØ§ÙĦØ§Ø³ÙĩÙħ":4512,"ĠØ§ÙĦØ¨ÙĬØ¹":4513,"ĠØ§ÙĦØ§Ø±Ø´ÙĬÙģ":4514,"Ø§Ø³Ø¨Ø§Øª":4515,"Ø·ÙĦØ§Ø¨":4516,"Ø³ÙĬÙħ":4517,"ĠØ¨ÙĥØ±":4518,"Ø§Ø²ÙĨ":4519,"ĠØ§ÙĦØ§ÙĦØ²Ø§ÙħÙĬØ©":4520,"ĠÙĨØ¬Ø§ØŃ":4521,"ÙĩØ§Ùħ":4522,"ØµØ§Øµ":4523,"ÙĪØ¬ÙĬÙĩ":4524,"ĠÙħÙĤØ§Ø±ÙĨØ©":4525,"ĠØ§ÙĦØŃØ³Ø§Ø¨":4526,"ĠØ±Ø§Ø¦Ø¹":4527,"ÙĤØ±Ø§Ø¡":4528,"ĠØ¨Ø°ÙĦÙĥ":4529,"ĠØ·ÙĪÙĬÙĦ":4530,"ĠÙħØ¹Ùĩ":4531,"ÙĦØ¨ÙĬÙĨ":4532,"ÙĥÙĬØ±":4533,"ĠØ¹Ø§ÙħÙĦ":4534,"ÙĪØ§Ùħ":4535,"Ø±ÙĬØŃØ©":4536,"ĠØµØŃÙĬ":4537,"ĠØŃÙĤÙĬØ¨Ø©":4538,"ĠÙĪØªØ¨":4539,"ĠÙĦÙĨØ¯ÙĨ":4540,"ĠØ´Ùģ":4541,"ĠØ¨Ø§Ø®":4542,"ÙĦØ§Ùĥ":4543,"ĠØ§ÙĦØªØŃØ±ÙĬØ±":4544,"ØºØ°ÙĬØ©":4545,"ĠØµØ¯Ø±":4546,"ØŃØ«":4547,"Ø§ÙģØ¹":4548,"ĠÙĦÙĦØ¨ÙĨØ§Øª":4549,"ØŃØ±":4550,"Ø§ÙĩØ¯Ø§Øª":4551,"ĠØ§ÙĦÙĤØ¨Ø¶":4552,"ÙĥØ°Ø§":4553,"ĠØ§ÙĦÙģØ¶":4554,"ĠØªÙĪØµÙĬÙĦ":4555,"ĠØ§ÙĨØªØ´Ø§Ø±":4556,"ĠØ±ÙĪØŃ":4557,"ÙĨØ§Ø·":4558,"ĠØ§ÙĦØºØ³ÙĬÙĦ":4559,"ĠÙĨØµØ±":4560,"ĠØ§ÙĦÙĪØ³Ø·":4561,"ĠØ§ÙĦØµÙĨØ§Ø¹ÙĬ":4562,"Ø§ÙĤÙĦØ©":4563,"ÙĬØ³Ùī":4564,"ĠÙĪØ±ÙĤ":4565,"Ø§ÙĤØ´":4566,"ĠØ§ÙĦØ§Ø³ØªØ´":4567,"ÙĩØ±Ø©":4568,"Ø´ÙģÙĬØ§Øª":4569,"ĠØ§ÙĦÙģØ±Ø¯":4570,"ĠÙħØ¯Ø§Ø±Ø³":4571,"ĠÙħØ±Ø¶":4572,"ĠÙĪØ§ÙĦÙħØ±":4573,"ĠÙħØ³Ø§Ø¹Ø¯":4574,"ĠØ§ÙĦØŃÙĥÙĪÙħÙĬØ©":4575,"Ø¨ÙĪÙĨ":4576,"ĠØ´ÙħØ³":4577,"ĠÙħÙĪØ§ØµÙģØ§Øª":4578,"ĠØ§ÙĦØ±Ø³Ø§Ø¦ÙĦ":4579,"Ø´Ø§Ø¨":4580,"Ø§ÙħÙĬÙĥ":4581,"Ø²ÙĨ":4582,"31":4583,"ĠÙĦØ´Ø±ÙĥØ©":4584,"ĠÙĬØ¤Ø¯ÙĬ":4585,"Ø®ØµØ©":4586,"ĠØ¹ÙħØ±ÙĪ":4587,"Ø²ÙĦÙĬ":4588,"Ø§Ø¬Ø³ØªÙĬØ±":4589,"ĠØ§ÙĦØŃØ³ÙĨ":4590,"ÙĬÙĤØ©":4591,"ĠØ§ÙĦØ§ÙĬØ§Ùħ":4592,"ĠØ§ÙĦÙģÙĪØ±ÙĥØ³":4593,"ÙĬØ§Ø¨":4594,"ĠÙĦØ§Ø³Øª":4595,"ĠØ±ÙħÙĦ":4596,"ĠÙĪØ§Ø·":4597,"ĠØºØ¶":4598,"Ø¨Ø±Ø©":4599,"ĠØ¬ÙħÙĩÙĪØ±ÙĬØ©":4600,"ĠØ§ÙĦÙħØ¤Ø³Ø³Ø§Øª":4601,"ĠÙĦÙĤØ§ØŃ":4602,"Ø§ÙĥØ±Ø©":4603,"ĠÙĪØ¨Ø§ÙĦ":4604,"ĠØªØ¨Ø¯ÙĬÙĦ":4605,"ØªÙĬÙĦ":4606,"ĠÙħØ³ÙĦ":4607,"ĠØ§ÙĦØ§ÙĦÙĬ":4608,"ĠØ¨Ø§ÙĨÙĩ":4609,"ĠØ§ÙĦØŃÙħØ§Ùħ":4610,"ĠØ§ÙĦØ±ÙĬØ§Ø¶ÙĬØ§Øª":4611,"ĠÙħÙĩÙħ":4612,"ĠØ¨Ø²ÙĬ":4613,"ĠØªÙĪØ²ÙĬØ¹":4614,"ĠØ§Ø®Ø°":4615,"Ø§Ø¦ÙĤØ©":4616,"ĠØ§ÙĦÙĪØ¸Ø§Ø¦Ùģ":4617,"ĠØ§ÙĦÙħØªÙĪØ³Ø·":4618,"ĠÙĦÙĥÙĬ":4619,"ĠØ§ÙĦØ³ÙĬÙĦÙĬÙĥØ§":4620,"ĠÙĨØ§ØµØ±":4621,"ĠÙģÙĪÙĦ":4622,"Ø§Ø¹ÙĬØ¯":4623,"ĠØ¹ÙĦØ§ÙħØ©":4624,"ĠÙħÙĪØ¨Ø§ÙĬÙĦ":4625,"ĠØ®Ø±":4626,"ÙĬÙĨØº":4627,"ĠØ§Ø¨Ø¯Ø§":4628,"ĠÙĪÙĩØ°Ùĩ":4629,"ĠØ¨ÙĬÙĥ":4630,"ĠØ§ÙĦØµÙĬÙģ":4631,"ØªÙĩÙĬ":4632,"ÙģÙĬØ¯":4633,"ĠÙĤÙĪØ§Ø¹Ø¯":4634,"ĠØªØ¬Ø¯":4635,"ĠØ§ÙĦØªØ§Ø¨Ø¹Ø©":4636,"Ø±ÙĪØ¨Ø§Øª":4637,"ĠÙģØŃÙĪØµØ§Øª":4638,"ĠØ³Ø§ÙħØ³ÙĪÙĨØ¬":4639,"ĠÚ":4640,"ĠÙĨÙĤØ·Ø©":4641,"ĠØ§ÙĦÙħØµÙĨØ¹ÙĬÙĨ":4642,"ĠÙĥØ§ÙĦ":4643,"ĠØ§ÙĦÙģÙĬØ³":4644,"ÙĪØ±Ø§":4645,"Ø§ÙĪÙħ":4646,"ĠØ¬Ø¯Ø§Ø±Ø§":4647,"ĠÙĪÙĨØŃÙĨ":4648,"ĠØ§ÙĦØ¬ÙħØ¹ÙĬØ©":4649,"ĠÙĦØ§Ø®":4650,"ĠØ§ÙĬÙĤ":4651,"ĠØ²ÙħÙĨ":4652,"ĠØ§ÙĦØªØ¬Ø§Ø±ÙĬ":4653,"ĠÙħØªØ®ØµØµ":4654,"Ø¨ÙĦÙĪÙħ":4655,"ĠØªØ·ÙĦÙĤ":4656,"ĠØ§Ø¯Ø®Ø§ÙĦ":4657,"ĠØ§ÙĦÙħÙĪØ³":4658,"ĠØªØ³Ø±Ø¨Ø§Øª":4659,"ĠØ§ÙĦØ§ØµØ§Ø¨Ø©":4660,"ĠÙħØ§Øª":4661,"ĠØ§ÙĦØ´Ø±ÙĪØ·":4662,"Ø¨ÙĬØ¹Ø©":4663,"Ø§Ø¹ÙĬÙĦ":4664,"ĠØ§ÙĨÙĩÙħ":4665,"ĠÙħØ³Ø§ØŃØ©":4666,"ĠØ§ÙĤÙĪÙī":4667,"ĠØ§ÙĦØªÙĪÙĨ":4668,"Ġ84":4669,"ĠØ¨Ø§ÙĦØµ":4670,"ĠØ¨Ø¹ÙħÙĦ":4671,"ĠØ§Ø¹Ø±Ø§Ø¶":4672,"ĠÙĪÙĬØ³":4673,"Ġ2007":4674,"ĠØ§ÙĦØ³Ø¨Ø¨":4675,"ÙĬØ§Ø¯":4676,"ĠØ¨ØªÙĪ":4677,"ĠØµÙĬØ¯":4678,"ØªÙĪØŃØ©":4679,"ĠØ·ÙĦØ¨Ø§Øª":4680,"ØŃØ¶":4681,"ĠØ§ÙĦØŃØ²Ø§Ùħ":4682,"Ø¨ÙĪØ¨":4683,"ĠØ¨ÙĥÙħ":4684,"ĠØ¨Ø³Ø±Ø¹Ø©":4685,"Ø¨Ø¯ÙĪ":4686,"ĠØ§ÙĦÙĤÙĬÙħØ©":4687,"ĠØ§ÙĦØ§ÙĬØ±Ø§ÙĨÙĬ":4688,"Ø§Ø°Ø¬":4689,"ĠÙħØ§Ø³ØªØ±":4690,"ĠØ¨ÙģÙĬØ±ÙĪØ³":4691,"ĠØ¨Ø§ÙĦØ¶":4692,"Ø«ÙħØ§ÙĨ":4693,"ĠØ§ÙĦÙģÙĦØ³":4694,"ĠÙĪØ§Ø³Ø¹Ø©":4695,"Ġ2321":4696,"Ø±ÙĬØŃØ§Øª":4697,"ĠØ´ØºØ§ÙĦØ©":4698,"ĠÙĪØªØ±Ùĥ":4699,"Ø¨Ø±ÙĨØ§ÙħØ¬":4700,"Ø¹Ø¯Ø§Ø¯":4701,"ĠØ§ÙĦØ§Ø³Ø¦ÙĦØ©":4702,"ĠØ¬ÙħÙĬÙĦØ©":4703,"ĠØ§ÙĦØ±ØºÙħ":4704,"ĠÙĪØ§ØŃØµÙĦ":4705,"ĠØ§Ø·ÙĦÙĤ":4706,"ĠØ§ÙĦÙĤÙĪ":4707,"Ø§ÙĤØ¯":4708,"ĠØ§ÙĦØ§Ø®Ø¶Ø±":4709,"ĠØªØŃØ¯Ø«":4710,"ĠØ¨ÙĤÙĦÙħ":4711,"ĠØ§ÙĦØ¹ÙĨØ§ØµØ±":4712,"ĠØ§ÙĦØ¨Ø¹Ø¶":4713,"ĠØ§ÙĦÙĥØ§ÙħÙĦ":4714,"ĠÙĪÙħØ±":4715,"ĠØ¨ØŃÙĬØ«":4716,"ĠØŃÙĦÙħ":4717,"ĠÙĪØ±Ø¯":4718,"ĠØ§ÙĦØŃØ³ÙĬÙĨ":4719,"ĠØ§ÙĦÙħØ¬Ø§ÙĦ":4720,"ĠØ§ÙĦØ«ÙĪØ±Ø©":4721,"ĠØ§ÙĦÙĨØ¨Ø§ØªØ§Øª":4722,"ĠÙħÙĪØ±Ø¯":4723,"Ø¸ÙģÙĬÙĨ":4724,"ĠÙħØªØ§Ø¨Ø¹Ø©":4725,"ĠØ§ÙĦÙħÙĨØªØ¯ÙĬØ§Øª":4726,"ĠØ§ÙĦØ¬Ø§ÙħØ¹Ø§Øª":4727,"ĠØ§ÙĦØŃØ±Ø©":4728,"ĠØ¨ÙĨÙĩØ§":4729,"Ø§Ø¦Ùĥ":4730,"ÙĦÙĤØ§Øª":4731,"ØªØ¸Ø±":4732,"ĠØ§ÙģÙĥØ§Ø±":4733,"ĠÙħØ¹ÙĨÙī":4734,"ĠØ§ÙĦÙħØŃÙĥÙħØ©":4735,"ĠÙĬÙĦÙĬ":4736,"Ø¬ÙĦØ§Øª":4737,"Ø¬ÙħØ§Øª":4738,"ĠØ§ÙĦØ§Ø¬ÙĨØ¨ÙĬØ©":4739,"ĠØ§ÙĦÙħÙĦÙĥÙĬØ©":4740,"ĠØ§ÙĦØ²ÙħÙĨ":4741,"ÙĨØ§Ø¦ÙĬ":4742,"ÙĤØ·Ø§Ø¹":4743,"ĠØ±Ø³ÙĪÙħ":4744,"ØªÙħØ§ÙĨ":4745,"ĠØ§ÙħØªØŃØ§ÙĨØ§Øª":4746,"Ġ62":4747,"ĠØªÙĩÙĨ":4748,"ĠØ³ÙĪØ¨Ø±":4749,"Ø¨Ø§ÙĨ":4750,"ĠØªØ±Ø¬ÙħØ©":4751,"ĠØ§ÙĦØ§ØªØµØ§ÙĦØ§Øª":4752,"ĠØ§ÙĦÙħØ³ØªØ¹ÙħÙĦØ©":4753,"ĠØ§ÙĦØµØŃØ§ÙģØ©":4754,"ĠØ¨Ø§ÙĦØ¯ÙħØ§Ùħ":4755,"ĠØ§ÙĦÙħØ±Ø¬":4756,"ĠÙħØ¨ÙĬØ¹Ø§Øª":4757,"ĠÙĪØ§ÙĦØ³ÙĬ":4758,"ĠØ§ÙĦÙħØ¯ÙĨÙĬØ©":4759,"ĠØ§ÙĦÙħØ³Ø§Ø¹Ø¯Ø©":4760,"Ø·ÙĨØ§Ø¹":4761,"ĠÙĪØ§ÙĦØªØ±":4762,"ĠØ§ÙĦÙĪÙĬØ¨":4763,"ĠÙħØ²Ø¯":4764,"ÙĩØ¬":4765,"ĠØ§ÙĦÙħÙĥØ§ÙĨ":4766,"Ø§ÙħÙĬÙĨØ§Øª":4767,"ĠØ§ÙĦØ§ØµÙĦÙĬ":4768,"ĠÙĥÙĪÙĥ":4769,"ÙĤØ§":4770,"ĠØ¬ÙĬÙĨ":4771,"Ø§ÙĥÙħØ©":4772,"ÙĥÙĪÙħØ©":4773,"ĠØ¨Ø¬ÙĪØ¯Ø©":4774,"Ø¨Ùĥ":4775,"ĠÙĬØ²ÙĬØ¯":4776,"ĠØ³ÙĩÙĦØ©":4777,"ØªØ§ÙĨ":4778,"ĠØ§ÙĦÙĥÙĪÙĥ":4779,"ĠÙĬØ¤ÙĥØ¯":4780,"ĠØ¨ÙĩØ°Ùĩ":4781,"ĠÙĪÙĦÙĪ":4782,"ĠØªÙĦÙģÙĪÙĨ":4783,"ĠØ¬Ø¯ÙĬØ¯ÙĨØ§":4784,"ĠØ±ÙģØ¶":4785,"ĠØ§ÙĦØªØ·Ø¨ÙĬÙĤØ§Øª":4786,"ĠÙģÙĨØ¯ÙĤ":4787,"ĠØ§ÙĦÙģØ¹ÙĦ":4788,"Ø§Ø®Ø±Ø©":4789,"ĠØ§ÙĦØ±Ø§Ø³":4790,"ĠØ§ÙĦÙħØ¯Ø±Ø³Ø©":4791,"ĠÙĦØ§Øµ":4792,"ĠÙħÙĨØ´":4793,"ĠØ§ÙĦØ±Ø¦ÙĬØ³ÙĬ":4794,"ĠØµØ¨Ø§ØŃØ§":4795,"ĠØ§Ø´Ø®Ø§Øµ":4796,"ĠØ§ÙĦÙĦØ¹Ø¨Ø©":4797,"Ġ97":4798,"ĠØ§ÙĦÙĦØŃÙĪÙħ":4799,"ĠØ§ÙĦÙĨØ¸Ø±":4800,"ĠØ§Ø³ÙħÙĬ":4801,"ĠÙģØ±Øµ":4802,"ĠØªØ¹ÙĬÙĬÙĨ":4803,"ĠØ¹Ø¨Ø§Ø³":4804,"ÙĩØ§ÙĬ":4805,"ĠÙģÙĤØ§ÙĦ":4806,"Ø§Ø¦Ùī":4807,"ĠØ§Ø¬Ùħ":4808,"ĠØ§ÙĤØªØµØ§Ø¯":4809,"ĠÙĪØ±Ø§Ø¡":4810,"ÙĪÙĨÙĩ":4811,"ĠÙħØ¯Ø¨ÙĦØ¬":4812,"ĠØ§ÙĦØ¬Ø¨":4813,"ÙĨØ²":4814,"ĠØ§ÙĦØ§ÙģØªØ±":4815,"Ġ900":4816,"ÙĨØ¨ÙĪÙĦ":4817,"ĠØ§ÙĦÙħØ¨Ø§Ø´Ø±":4818,"ĠØ±Øº":4819,"ĠÙĥÙĬ":4820,"ĠØ§ÙħÙĥØ§ÙĨÙĬØ©":4821,"ĠØ§ÙĦÙĤÙĬØ§Ø¯Ø©":4822,"Ø¤ÙĦØ§Ø¡":4823,"ĠØªØ¬ÙħØ¹":4824,"ĠØ§ÙħÙĬÙĨ":4825,"ĠØ±ØŃÙħ":4826,"ĠØ§ÙĦØ§ÙħØ©":4827,"ĠÙģØ§":4828,"ĠØ§ÙĦÙħØ·Ø§ØŃÙĨ":4829,"ĠÙģØ¹Ø§ÙĦÙĬØ§Øª":4830,"ĠØ§ÙĦØ±ÙĪØ³ÙĬØ©":4831,"Ø¯ÙĬØ§Øª":4832,"ĠØ¨ÙħØ±":4833,"Ø§Ø±Ø¶Ø©":4834,"ĠØ¬ÙĦØ³Ø©":4835,"ĠØ±ÙĤ":4836,"ØªØ±Ø§":4837,"ĠÙħÙĤØ¯ÙħØ©":4838,"ØªØµØ±":4839,"ĠØ§ÙĦØ¨Ø§ØŃØ«":4840,"ĠØ§ÙĦØ§ÙħÙĪØ§ÙĦ":4841,"ĠØ§ÙĦØ§ÙģÙĦØ§Ùħ":4842,"ĠÙħØªÙĨÙĤÙĦ":4843,"Ø¨ÙĨÙī":4844,"Ø¸ÙħØ§Øª":4845,"ĠØ§ÙĦØ¹ÙħÙĪØ¯ÙĬØ©":4846,"ĠÙĬØ§ØªÙĬ":4847,"ĠÙħÙħÙĬØ²Ø©":4848,"ĠØ§ÙĦØ³ÙĥØ±":4849,"ĠØ§ÙĦØ¨Ø±Ø§Ø²":4850,"ĠØ²ÙĪØ§Ø¬":4851,"ĠÙħØ³ÙĦØ³ÙĦØ§Øª":4852,"ĠØ§ÙĦÙĥØ§ÙħÙĦØ©":4853,"Ø§Ø±ÙĬÙĨ":4854,"Ø«ÙĦØ©":4855,"Ø¶Ø§ÙģØ©":4856,"ĠØ§ÙĦØªØ³ÙĪÙĬÙĤ":4857,"ĠØ§ÙĦÙģØ±ÙĨØ³ÙĬ":4858,"ĠØªÙģØ¹ÙĬÙĦ":4859,"ÙĨØ¬Ø±":4860,"Ġ81":4861,"ĠØ¨ÙĬÙĦ":4862,"ĠØ§ÙĦØªØ¹ÙĦÙħ":4863,"ĠØ·Ø±ØŃ":4864,"ĠØ¬ÙĨØ³":4865,"ĠÙħØŃØ§ÙĪÙĦØ©":4866,"ÙĪØ§Ø¬ÙĩØ©":4867,"ĠÙĦÙĦØ§Øª":4868,"ĠÙĬØ§Ø³":4869,"ĠØ§ÙĦÙħØ·Ø¨Ø®":4870,"ĠØ§ÙĦØŃØ±ÙĥØ©":4871,"ØªØ´Ø§Ùģ":4872,"ÙĥØªØ¨Ø©":4873,"ĠØ§ÙĤØªØ±":4874,"ĠØ§ÙĦØ¹ÙĪØ¯Ø©":4875,"ĠØ§ÙĦØ³Ø¤Ø§ÙĦ":4876,"Ø§Ø·ÙĬ":4877,"ĠØ¨ÙĩØ¯Ùģ":4878,"ĠÙĥØ§Ø´":4879,"ĠØ§ÙĦØ³ÙĬØ§ØŃØ©":4880,"ĠØ¹Ø²ÙĬØ²":4881,"ĠØ§ÙħØ±Ø§Ø¶":4882,"ÙĬÙģØ§":4883,"ĠÙħÙĪØ³Ùħ":4884,"ĠÙħÙĨÙĩØ¬":4885,"ÙģÙĪØ±":4886,"ĠØ§ÙĦÙĬÙĪÙĨ":4887,"Ġ477":4888,"ĠØ§ÙĨØ³Øª":4889,"ĠØ¯ÙĦ":4890,"ĠØ¹ÙĨØ§ØµØ±":4891,"ĠØ§ÙĦØ¯Ø§Ø®ÙĦÙĬ":4892,"ĠØ§Ø¹ÙĦØ§Ùħ":4893,"ĠØ§ÙĦØªØ±ÙĥÙĬ":4894,"ĠØ³ÙĥÙĨ":4895,"ĠØ§ØŃÙģØ¸":4896,"ĠÙĦÙĦÙħØ³":4897,"Ø²Ø§Ø²":4898,"Ø¯Ø§Ø±Ø§Øª":4899,"ĠØ§ÙĦØ¬Ø²Ø§Ø¦Ø±ÙĬ":4900,"ĠÙħØ±Ø¨Ø¹":4901,"ĠÙħØ¯Ø§Ø±":4902,"ĠØ§ÙĦØ±Ø³Ø§ÙĦØ©":4903,"Ø¨ÙĪÙĥ":4904,"ĠÙħÙĦÙħÙĪØ³Ø©":4905,"ØŃÙĬØ§Ø©":4906,"ĠØªØ¯Ø®ÙĦ":4907,"ĠØ§ÙĦÙĤØ¯Ø±Ø©":4908,"ĠØ®ØµÙĪØµ":4909,"ĠÙĪÙĤÙģ":4910,"ĠØ®Ø·ÙĪØ·":4911,"ĠØ§Ø¨ØªØ¯":4912,"ĠØ§ÙĦÙħØ¤Ø³Ø³Ø©":4913,"ĠØ§ÙĦÙĤØ±Ø§Ø¡Ø©":4914,"ĠÙĪØ§ÙĪ":4915,"ĠØ§ÙĦØ±Ø·Ø¨":4916,"Ø±ÙĬØ¬":4917,"ĠØ§ÙĦØªÙĦÙģ":4918,"ĠØªÙĪØ¸ÙĬÙģ":4919,"24":4920,"ÛĮÙĨ":4921,"ĠØ§Ø³ÙĦØ§ÙħÙĬØ©":4922,"ĠØ±ÙĬØ§Ø¶Ø©":4923,"ĠØ°ÙĥØ±Ùī":4924,"ÙĦØµ":4925,"ØªÙħÙĦ":4926,"ĠØ¹Ø§ÙĦÙħÙĬØ©":4927,"Ø§Ø¦ÙĬØ§Øª":4928,"ĠØªØŃÙĤÙĤ":4929,"828":4930,"ĠØ´ÙĪ":4931,"ĠÙħØ±ØŃØ¨Ø§":4932,"ĠØ§ÙĦØ³Ùĥ":4933,"Ø±ÙģÙĬÙĩ":4934,"ĠØ§ÙĦÙħØ¹Ø±ÙģØ©":4935,"ĠØ§ÙĦØ§Ø³Ø¨Ø§Ø¨":4936,"ĠØ§ÙĦÙħØ·ÙĦÙĪØ¨Ø©":4937,"ĠØ§Ø¨ÙĨØ§Ø¡":4938,"ĠÙĨÙĤØ§Ø·":4939,"ØºØ±Ø©":4940,"65":4941,"ĠØ´ÙĬØ±":4942,"ĠØŃØ²Ø§Ùħ":4943,"ĠØ§ÙĦØªÙħÙĪ":4944,"Ġ1271":4945,"ĠØ§Ø«Ø§Ø±":4946,"ĠØ§ÙĦÙħÙĪØ§Ø±Ø¯":4947,"ĠØªÙĤØ§Ø±ÙĬØ±":4948,"ĠÙħØ§ÙĦÙĬØ©":4949,"Ø²Ø¹":4950,"ĠØ§ÙĦÙģÙĬØ±":4951,"ĠØ§ÙĦÙģÙĦØ¨ÙĬÙĨ":4952,"ĠØ·Ø¨ÙĤ":4953,"ĠÙĦØ§ÙĨÙĩØ§":4954,"ĠØ§Ø³ØªØ¹ÙħØ§ÙĦ":4955,"ĠØ§ÙĦØªØ±Ø¨":4956,"ĠØªÙĪÙĦ":4957,"ĠØ§ÙĦØ¬ÙħØ§ÙĦ":4958,"ĠØ§ÙĦÙĤÙĪØ©":4959,"ĠÙĦÙĦØ§ÙĨØ¯Ø±ÙĪÙĬØ¯":4960,"ĠØ§ÙĦØ§ØŃØªØ±":4961,"Ġ5937":4962,"ĠÙħØ¯Ø©":4963,"ĠØ¯ÙħØ´ÙĤ":4964,"Ġ88":4965,"ĠØ§ÙĦÙħØ¯ÙĨÙĬ":4966,"ĠØ§ÙĦØ¹Ø¶ÙĪ":4967,"Ø¹ÙĨ":4968,"ĠØªÙĥÙĨ":4969,"Ø¶ÙĬÙģ":4970,"ĠÙĪØ§ÙĨØ§":4971,"ĠØ§ÙĦØ³Ø§Ø¨Ø¹":4972,"ÙĦÙĬÙĨ":4973,"ĠØ·ÙĪÙĦ":4974,"ĠØ³Ø§ÙĦÙħ":4975,"ĠØ®Ø³":4976,"ĠØ§Ø²ÙĬØ§Ø¡":4977,"ĠØŃÙħØ§Ùħ":4978,"Ø¹Ø¯ÙĬÙĦ":4979,"Ø¦ÙĪÙĨ":4980,"ĠØ§Ø¯Ø®ÙĦ":4981,"ĠØªÙħÙĨ":4982,"ĠØ³ÙĬØ§Ø³ÙĬØ©":4983,"ÙĪØªÙĬ":4984,"ÙĪØªÙĬÙĨ":4985,"ĠØ§ÙĦØ·Ø¨ÙĬØ¨":4986,"19":4987,"ĠÙħÙĨØ²ÙĦÙĬØ©":4988,"ĠÙĬÙĪÙģØ±":4989,"ĠØ¨ÙĪØµ":4990,"ĠØµØ§Ø±":4991,"ĠØµØ®Ø±Ø©":4992,"ÙģÙĬÙģØ©":4993,"ĠØ§ÙĦÙģÙĪÙĦ":4994,"ĠØ§ÙĦØ´Ø±Ø¹ÙĬØ©":4995,"Ø§Ø¦Ø±Ø§Øª":4996,"ĠØ§ÙħØ§ÙĥÙĨ":4997,"ĠÙĨØ¹":4998,"ĠØªØ¯ÙĪÙĬØ±":4999,"ÙģØ§":5000,"ĠØ§Ø±ÙĩØ§Ø¨":5001,"ĠØ§Ø±Ø¨Ø¹Ø©":5002,"ÙĪØ§ÙĨÙĬ":5003,"ĠØ¨ÙĪØ¯":5004,"ĠØªØ®ØµØµ":5005,"ĠÙĬØ¹ÙĪØ¯":5006,"ĠØ§ÙĦÙĨØ²":5007,"ĠØ§ÙĥØ¯":5008,"ĠÙĥÙĪÙģÙĬØ¯":5009,"ĠØ§ÙĦØªØ±Ø¬ÙħØ©":5010,"ĠØ§ÙĦØŃØ§ÙĦØ§Øª":5011,"ØªØ¬Ø§Ø±Ø©":5012,"Ø±Ø§Ø¦Ùħ":5013,"ĠØ§ÙĦØ§ÙħÙĬÙĨ":5014,"ĠØ§ÙĦÙħØ¯ÙĬØ±":5015,"ĠØ¨Ø¯Ø§Øª":5016,"Ø±Ø¨ÙĪÙĦ":5017,"ĠØ§ÙĦØ³ÙĬØ§Ø³Ø©":5018,"ĠØ§Ø³ÙħØ§Ø¹ÙĬÙĦ":5019,"ĠØ¨Ø³ÙĩÙĪÙĦØ©":5020,"ĠÙĤÙĬÙħ":5021,"ĠØ´Ø§ÙĦ":5022,"Ø±ÙĬÙĤÙĬØ©":5023,"ØªÙĤÙĬ":5024,"Ø®ÙĬØµØ©":5025,"ĠØ¯ÙĥØªÙĪØ±":5026,"ĠØ§ÙĦÙĥÙĦÙħØ§Øª":5027,"ĠØªÙĬÙĦ":5028,"ĠØ§ÙĦØªÙģØ³ÙĬØ±":5029,"ĠØ§Ø³Ø¨Ø§ÙĨÙĬØ§":5030,"ĠÙħØ³ØªÙĤØ¨ÙĦ":5031,"ĠÙĦØ§Ø¹Ø¨":5032,"ĠØ¨ØªØµ":5033,"ĠØ§ÙĪØª":5034,"ĠØ§ÙĦÙĤØ¯ÙĬÙħ":5035,"ĠÙĨØ¬ÙĪÙħ":5036,"ĠØ§ÙĦØ§ØŃØ¯Ø§Ø«":5037,"Ø±ÙĪØŃØ§Øª":5038,"ØºÙĨ":5039,"ĠØ§ÙĦÙģÙĤÙĩ":5040,"ĠØ§ÙĦØ§ÙĪØ±ÙĪØ¨ÙĬØ©":5041,"ĠÙĬØ¨Ø¯Ø§":5042,"ĠØªÙĪØ³":5043,"ĠÙĦÙħÙĪ":5044,"ĠØ§ÙĦÙħÙĪØª":5045,"ĠØ¨Ø§Ø¬":5046,"Ø¨Ø±Ø§":5047,"ĠÙĪØ¨Ø§ÙĦØªØ§ÙĦÙĬ":5048,"ĠØ¹Ø§Ø¯Ø©":5049,"Ø·Ø±ØŃ":5050,"ĠØ§ØµØ¨ØŃØª":5051,"ØŃØ¶Ø±Ø§Øª":5052,"ÙĤÙĬÙĤÙĬØ©":5053,"ĠÙĪØ§ÙĦØ¹ÙħÙĦ":5054,"14":5055,"ĠØªÙħØ§Ùħ":5056,"ĠÙħÙĤØ§Ø·Ø¹":5057,"ĠØ§Ø³Ø·ÙĨØ¨ÙĪÙĦ":5058,"ĠÙĦØºØ±Ø¶":5059,"ĠÙĩÙĬÙĦ":5060,"ĠÙħØªØ§Ø¨Ø¹":5061,"ĠØ§ÙĦÙħØ´Ø§Ø±ÙĬØ¹":5062,"ÙĤØ§ÙģØ©":5063,"ĠØ§ÙĦÙħÙħØª":5064,"Ø¹Ø§Ø¡":5065,"ĠØ§ÙĦØ¯ÙĬÙĥ":5066,"ĠØ§ÙĦÙħÙĨØªØ®Ø¨":5067,"ĠÙĥØ«ÙĬØ±Ø§":5068,"Ø¬Ø§Ø¹":5069,"ĠØ³Ø±Ø¹Ø©":5070,"ĠØ§ÙĦØ³Ø±":5071,"ĠÙĪØ¨Ø¯":5072,"Ġ199":5073,"ĠØ§ÙĦÙħÙħÙĬØ²Ø©":5074,"ØºÙĪ":5075,"ÙħÙĦØ§Øª":5076,"ĠØ§Ø¸":5077,"ĠØ§ÙĦÙħÙĨØ§Ø³Ø¨Ø©":5078,"ĠÙħØ¬ØªÙħØ¹":5079,"Ø§Ø²Ø§ÙĦØ©":5080,"ĠØ§ÙĦÙħÙĨØ§Ø²ÙĦ":5081,"ĠØŃØ°Ùģ":5082,"ĠÙħØ¯ÙĪÙĨØ©":5083,"ĠØ§ÙĦØ¹ØµØ±":5084,"ĠÙĩØ§Ø´":5085,"ĠØ§ÙĦØ§ÙĨÙģ":5086,"ĠØ§ÙĦØŃÙģØ§Ø¸":5087,"ĠØªØŃØµÙĦ":5088,"ĠØ§ÙĦØ§Ø¯ÙĪÙĬØ©":5089,"ĠÙĦÙĦØ§Ø¬":5090,"ĠÙħØ±ÙĪØ±":5091,"ĠØ§ÙĨØ¸ÙħØ©":5092,"ØªØ¨Ø·":5093,"ĠØ§ÙĦÙħØ®Ø±ÙĪØ·":5094,"ĠØ§ÙĦÙħÙĤØ¯ÙħØ©":5095,"ØŃØ§ÙĨ":5096,"ĠÙħÙħØ§Ø±Ø³Ø©":5097,"ĠØ§ÙĦØ¹ÙĩØ¯":5098,"ĠØ¨Ø§ÙĤ":5099,"ØºØ§Ùħ":5100,"ĠÙĥØ«ÙĬØ±Ø©":5101,"ĠÙĥØ±ÙĪ":5102,"ĠØ§ÙĦÙĤÙĩÙĪØ©":5103,"ĠÙĤØ§ÙħØª":5104,"ĠÙħØ¨Ø¯Ø§":5105,"Ø²Ø§Ø¨":5106,"Ø§Ø³ØªÙĬÙĥ":5107,"ĠØ¨Ø¹ÙĬØ¯":5108,"ĠÙĩØ¬ÙĪÙħ":5109,"ĠÙħØŃØ§Ø¶":5110,"Ø±ÙģÙĬØ©":5111,"ØŃØª":5112,"Ġ800":5113,"ĠØ§Ø³ØªØ®Ø¯Ø§ÙħÙĩØ§":5114,"ĠÙģØ§ÙĨÙĩ":5115,"ĠØ§ÙĦÙĩÙĪØ§ØªÙģ":5116,"Ø¬Ø§":5117,"ØºØ·ÙĬØ©":5118,"ĠØ·ÙģÙĦ":5119,"ĠÙĪØ§ÙĦØ¹Ø§ÙĦÙħ":5120,"Ġ8051":5121,"ĠÙħØ±ÙĪ":5122,"ĠÙĥÙĬÙĨÙĬØ§":5123,"ĠØ§ÙĦØ¹ÙħÙĬÙĦ":5124,"ØªÙĬØ´":5125,"ĠØ³Ø±ÙĬ":5126,"Ø§Ø¦ÙĬØ§":5127,"Ø¬ÙĦÙĬØ²ÙĬØ©":5128,"ÙĪÙĦÙĬÙĨ":5129,"ĠØ§ÙģØºØ§ÙĨØ³ØªØ§ÙĨ":5130,"ĠÙĪÙĬØªÙħ":5131,"ĠØ¨Ø³ÙĬØ·Ø©":5132,"ĠØ§ØºÙĨÙĬØ©":5133,"Ġ477828":5134,"ĠØ§ÙĦÙĥØ´Ùģ":5135,"ĠØ§ÙĦØ®ÙĬØ±":5136,"ĠØ´ÙĬØ®":5137,"ÙĤØ¯ÙĬØ±":5138,"ĠÙģÙħÙĨ":5139,"ÙĬÙħÙĬØ§Ø¦ÙĬØ©":5140,"ÙĥÙĬÙĦØ©":5141,"ÙĩØ§ÙĨ":5142,"ÙĬØ³Ø§ÙĨ":5143,"ĠØ§ÙĦØ¹ÙĦØ§ÙĤØ©":5144,"ĠØ§ÙĦÙħØªÙĪØ³Ø·Ø©":5145,"ĠÙĪØ§ÙĤØ¹":5146,"ĠØ¹ÙĦØ§ÙħØ§Øª":5147,"ÙĬÙĥØ§ÙĨ":5148,"ĠØ§ÙĦØªØŃÙħÙĬÙĦ":5149,"ĠÙĤØµÙĬØ±Ø©":5150,"ĠÙĥØ§ÙĨÙĪØ§":5151,"ĠÙĦØ¯ÙĬÙĩØ§":5152,"ĠØ§ÙĦØŃÙħØ§ÙĬØ©":5153,"ĠØ§ÙĦØ§ØµÙĦÙĬØ©":5154,"ĠØ§ÙħÙĪØ§ÙĦ":5155,"ĠÙĥÙģØ±":5156,"ĠÙĦØ¹Ø¨":5157,"ĠØ³ÙĤÙĪØ·":5158,"Ø§ØµØ±Ø©":5159,"ÙĥØªØ§Ø¨":5160,"ĠØ¹ÙĦÙĬÙĨØ§":5161,"ĠÙħÙĦØªÙĤÙī":5162,"ĠÙħÙĪØ¯ÙĬÙĦ":5163,"Ø¦Ø§":5164,"ĠØ§ÙĦØ±Ø§ÙĬ":5165,"ĠØªÙĥØ±":5166,"ĠØ¨Ø§ÙĦØº":5167,"ĠØ§ÙĦÙħÙĨØ§Ø³Ø¨":5168,"ĠØ§ÙĦÙĤÙĦ":5169,"ĠØªØŃÙĥÙħ":5170,"ĠÙĪØ§ÙĦÙħÙĪÙĤØ¹":5171,"ĠØ§ÙĦÙĤÙĨÙĪØ§Øª":5172,"ĠÙģØ±Ø¹":5173,"ĠØ§Ø¨ÙĬØ¶":5174,"ĠØ¨Ø§ÙĦØªØ¹":5175,"ĠÙħØ³ØªØ®Ø¯Ùħ":5176,"ĠØ§ÙĦÙĤØ±Ø§Ø±":5177,"ÙĪØ¯Ø§ÙĨ":5178,"ĠÙĬØŃØµÙĦ":5179,"ĠØ¬Ø¯ÙĪÙĦ":5180,"ĠØ³ÙĬÙĦ":5181,"ĠÙĪØ§ÙĦÙĨØ´Ø±":5182,"ĠØ±Ø¨ÙħØ§":5183,"Ûķ":5184,"Ø§Ø¯ÙħÙĬØ©":5185,"ĠØ§ÙĦØ§ÙĨØ¬ÙĦÙĬØ²ÙĬ":5186,"ĠØ§ÙĦØªØ®ÙĦØµ":5187,"ĠØ§ÙĦØ´Ø§Ø±ÙĤØ©":5188,"ĠÙħØŃØ·Ø§Øª":5189,"ÙĪØºØ§ÙĨ":5190,"ĠÙħÙĥØ©":5191,"Ù«":5192,"ĠØ§ÙĦØµÙĬØ§ÙĨØ©":5193,"ĠØ§ÙĬÙģÙĪÙĨ":5194,"ĠØ®ÙĦØ§ÙĦÙĩØ§":5195,"ØªØ¬Ø§ÙĪØ²":5196,"ĠØ±ÙĥÙĨ":5197,"Ø³ÙĦÙĬÙħ":5198,"ĠØ¯Ø±Ø§Ø³Ø§Øª":5199,"ĠØ®Ø²Ø§ÙĨØ§Øª":5200,"ĠØ§ÙĦÙħÙĤØ§ÙĦØ§Øª":5201,"ĠØ§ÙĦØªÙĩ":5202,"ĠØŃØ´Ø±Ø§Øª":5203,"ĠÙĦØ¹ÙĦØ§Ø¬":5204,"ĠØªØ´ÙħÙĦ":5205,"ĠÙĪØ§ÙĦÙħÙĤ":5206,"Ø³ÙĬÙĬØ±":5207,"ĠÙĥÙĬØ±":5208,"ØµÙģØŃ":5209,"ÙĬÙģØ§Øª":5210,"ĠØ§Ø³ØªØ§Ø°":5211,"Ø³ÙĦØ³ÙĦØ§Øª":5212,"ĠØ§Ø«Ø±Ø§Ø¡":5213,"ÙĪØ§ØŃ":5214,"ĠØ¨Ø§ÙĬØ¯":5215,"ĠØ§ÙĬØ§Ø±":5216,"ĠÙĦÙĬÙĦØ©":5217,"ĠØªØŃØ¶ÙĬØ±":5218,"ĠØ®Ø·Ø±":5219,"ĠÙĪØªØ³":5220,"ĠØ³ØŃØ¨":5221,"ĠØ§ÙĦØ§Ø¹ÙĦØ§ÙħÙĬØ©":5222,"ĠØ§ÙĦØªØ®ØµØµ":5223,"ĠØ§ÙĦÙĨÙĬÙĦ":5224,"ĠØ§ÙĦÙħØ§Ø³":5225,"ĠØ§ÙĦØ®ÙĬÙħØ©":5226,"ĠØ§ÙĦØ¹ÙĦÙħØ§Ø¡":5227,"ÙĥØ§ÙģØŃØ©":5228,"ĠØ§ÙĦØ·ÙĪØ¨":5229,"ĠØ®ÙĦÙģÙĬØ§Øª":5230,"ĠØ¬ÙħÙĬÙĦ":5231,"ĠØ¨Ø±ÙĬØ¯ÙĬ":5232,"ĠØ¯Ø§Ø¦Ø±Ø©":5233,"Ø§Ø¬ÙĬ":5234,"ĠØ§ØªØ¬":5235,"ĠÙĦØ§Ùģ":5236,"ĠØ§ÙĦÙĨØµØ±":5237,"ÙĤÙĦØ§Ø¨":5238,"ĠØºØ³Ø§ÙĦØ©":5239,"Ø°ÙĦ":5240,"ĠØ§ÙĦÙĪØ²ÙĬØ±":5241,"ĠØ§ÙĦØ®ÙĦÙģ":5242,"ĠØ¨Ø³Ø¹Ø±":5243,"ĠØ§ÙĦØŃÙĤÙĬÙĤØ©":5244,"ĠØ§ÙĦÙħØ¨ÙĬØ¹Ø§Øª":5245,"ĠØºØ°":5246,"ØªØ²Ùħ":5247,"ĠÙħÙĨØ§Ø³Ø¨Ø©":5248,"ĠÙĪØªØ®":5249,"79":5250,"ĠÙģÙĥØ±Ø©":5251,"Ø·Ø§":5252,"ĠÙħØ±Ø§ÙĤØ¨Ø©":5253,"ĠØ§ÙĦØªØ¯Ø±ÙĬØ¨":5254,"ĠÙĥÙĬÙĦÙĪ":5255,"ĠØ§ÙĦÙĩÙĦØ§ÙĦ":5256,"ĠÙĪØ§ØŃØ©":5257,"Ø¬Ø§Øª":5258,"ĠØ¬ÙĪØ±Ø¬":5259,"ĠØ§ÙĦØ¹Ø¯ÙĦ":5260,"ĠØ§Ø¯Ø§Ø©":5261,"ĠØ§Ø¯ÙĨØ§Ùĩ":5262,"ĠÙĬÙĥØªØ¨":5263,"Ø³Ø§ØªÙĬÙĨ":5264,"ĠØŃØ§Ø±":5265,"ĠØ§ØŃØªØ¬":5266,"ĠØ§ÙĦÙħØ«Ø§ÙĦ":5267,"ĠØ§ÙĦØ¹Ø¨Ø¯":5268,"ĠØ³Ø§Øª":5269,"Ø§ÙģÙĬØ§":5270,"ĠØ±Ùģ":5271,"ĠØ§ÙĦØ¬ÙĪØ§ÙĦ":5272,"ĠØ¬Ø¹":5273,"ØªØµØ§Øµ":5274,"ĠØµØ±Ùģ":5275,"ĠØ§ÙĦÙħÙĪØ§Ø·ÙĨ":5276,"ĠØ§ÙĦÙħÙģØ¶ÙĦØ©":5277,"Ø§ÙģØ¸Ø§Øª":5278,"ÙĬÙĥÙĪ":5279,"ĠÙĪØªØ¬":5280,"ØªÙĤØ¯Ùħ":5281,"ĠØ§ÙĦØ®Ø²":5282,"ØªØµØ§Ø±":5283,"ĠÙĤØ±ÙĬØ©":5284,"Ø§Ø«Ø©":5285,"ĠØ§ÙĦØºØ±ÙģØ©":5286,"ĠØªÙĪÙĤÙģ":5287,"ĠØ±Ø§Ùħ":5288,"ÙĨØªÙĬÙĨ":5289,"ĠØ§ÙĦØ¯ÙĬÙĨÙĬØ©":5290,"Ø±ÙĪØ¡":5291,"ĠØ§ÙĦØ§Ø¦":5292,"Ø§ÙĤØ¨":5293,"ØŃÙĬØ¯":5294,"ĠØ§ÙĦØ²Ø¬Ø§Ø¬":5295,"ÙħØ±Ø©":5296,"ĠØ§ÙĦØ´Ø¨ÙĥØ©":5297,"ĠÙĤÙĪÙĬØ©":5298,"ĠÙħØ¹ÙĩØ§":5299,"ĠØ§ÙĦØ§ØµØ·ÙĨØ§Ø¹":5300,"ĠØ§ÙĦÙĨØ´Ø§Ø·":5301,"ĠÙĦÙĦØ§Ø´":5302,"ĠØ¶ÙħØ§ÙĨ":5303,"ÙĪÙħÙĨÙĬ":5304,"ĠØªØµØ¯Ø±":5305,"ĠÙħØ±Ø§Øª":5306,"ĠØ§ÙĦØ¯ÙĬÙħÙĤØ±Ø§Ø·ÙĬØ©":5307,"ĠÙĩÙĪÙĦ":5308,"ĠØºØ¯Ø§":5309,"ĠÙĦØ¯ÙĬÙĩ":5310,"Ø§ÙħÙĦØ§Øª":5311,"ÙĩÙĬØ±":5312,"ĠØ§ÙĦØ³ÙĪØ¯Ø§Ø¡":5313,"Ø¤ÙĬØ©":5314,"Ø§ØµÙĦØ©":5315,"ĠØ§ÙĦÙĩÙĨØ¯Ø³Ø©":5316,"ĠØ§Ø¯Ø±":5317,"ÙĤÙĦØ©":5318,"ĠØ¬Ø§Ø¦Ø²Ø©":5319,"ĠØ§ÙĦØ¨Ø¯Ø§ÙĬØ©":5320,"ĠÙĥÙģØ§Ø¡Ø©":5321,"ĠÙĪØ§ÙĦØ®Ø¯ÙħØ§Øª":5322,"ÙĬÙħÙĬØ§Ø¡":5323,"ĠÙĬØ¯Ø¹ÙĪ":5324,"ĠÙħØµÙĨØ¹ÙĬÙĨ":5325,"ĠØ´Ø¨Ùĩ":5326,"ĠØ¯ÙĬÙĨØ§Ø±":5327,"ĠÙĦÙĬÙģØ±Ø¨ÙĪÙĦ":5328,"ĠÙħØ¹ÙĩØ¯":5329,"ĠØªÙħØ§ÙħØ§":5330,"ĠÙĦØ³ÙĨØ©":5331,"ØªØ²Ø§Ùħ":5332,"ĠØ§ÙĨØªØ®Ø§Ø¨Ø§Øª":5333,"ĠØªØ³ÙĪÙĤÙĪØ§":5334,"ĠØ§ÙĦØ§ÙĬØ¬":5335,"ĠØ§ÙĦØ§ØŃØªÙģ":5336,"ÙģØ§ØªÙĬØŃ":5337,"ĠØ§ÙĦØ¬Ø§ÙħØ¹ÙĬ":5338,"ĠÙĦØ§Ø³ØªØ®Ø¯Ø§ÙħÙĩØ§":5339,"ĠØ°ÙĪ":5340,"ĠØ§ÙĦØªØŃÙĤÙĤ":5341,"ÙģÙĬØ§Øª":5342,"ÙĬØ§ÙĨØ§":5343,"Ø·ÙĬØ¨":5344,"ØŃÙĬÙĨ":5345,"ĠØ§ÙĦØ³ÙĪÙĬØ³":5346,"ÙģØ°":5347,"ĠØ§ÙĦÙĥØ§Ø´":5348,"ĠØ¨ÙĨØ´Ø±":5349,"ĠØ³Ø¨ÙĪØ±Øª":5350,"ĠØ§ÙĦØ¬ÙĬÙĦ":5351,"ĠØ¨Ø®ØµÙĪØµ":5352,"16":5353,"ĠØ§ÙĦØŃÙĤÙĬ":5354,"ĠØ§ÙĦØ´Ø¹Ø¨ÙĬØ©":5355,"ĠØ¨ÙħØ¯ÙĬÙĨØ©":5356,"ĠØ§ÙĦØ§Ø²ÙħØ©":5357,"ÙĪØ±ÙĬÙĨ":5358,"ĠØ¯Ø±Ø¬Ø§Øª":5359,"ÙĬÙĪÙĬØ©":5360,"ĠØ¨ÙħØ³":5361,"ĠØ§ÙĦÙģÙĬØ²":5362,"ĠØ§ÙĬØ¬":5363,"ØªØ²Ø§Ø²":5364,"ĠØ§ÙĦÙĤØ§Ø¯ÙħØ©":5365,"ÙĪØ±Ùĩ":5366,"ĠØ¨Ø§Ø´":5367,"ĠÙħÙĨØ§Ùģ":5368,"ĠØ®ÙħØ³":5369,"Ø¸ÙĦ":5370,"ĠØ´Ø±Ø·Ø©":5371,"ĠØ³Ø·ØŃ":5372,"ĠØ§ÙĦÙĨØªØ±ÙĬÙĦ":5373,"ĠØ¨Ø§":5374,"ĠØ¨Ø§Ø·":5375,"ĠØ´Ø§ÙĨ":5376,"ĠØ§ÙĦØºÙĬØ±":5377,"ĠÙħØ¨Ø§Ø±Ùĥ":5378,"ÙĬÙĪÙģ":5379,"ĠØ§ÙĦØ¨ØŃØ±ÙĬØ©":5380,"ĠØ§Ø³ØªÙħØ±Ø§Ø±":5381,"ĠÙģÙĬØª":5382,"ĠØµÙĦØ§Ø©":5383,"ĠØ¬Ø³Ùħ":5384,"ĠÙĬØªØ±":5385,"ĠØ§Ø³ØªØ±Ø§ØªÙĬØ¬ÙĬØ©":5386,"Ø¹Ø§ÙĦØ¬Ø©":5387,"Ø°ÙĬØ¨":5388,"ĠØ«ÙĤØ§ÙģØ©":5389,"ĠÙĬØ³ØªØ·ÙĬØ¹":5390,"ĠØ§ÙĦØ§ÙĤØµÙī":5391,"ĠØ§ÙĦÙħØ§ÙĦÙĥÙĬ":5392,"48":5393,"18":5394,"ØªÙħØ¯Ø©":5395,"ÙĤØ¨":5396,"Ø¯ÙĤØ§Ø¡":5397,"ĠØ³ÙĬÙģ":5398,"ØŃØ§ÙĬØ§":5399,"ĠØ¯Ùģ":5400,"ĠØ¨ÙħØ¹":5401,"ĠØ§ÙĦÙĨØ³Ø®Ø©":5402,"ĠÙĦÙĬÙĨÙĥØ¯":5403,"ĠØ§Ø¯Ùħ":5404,"ÙĬØ¯Ø±ÙĪÙĦÙĬÙĥÙĬØ©":5405,"ÙĤÙĪÙĦ":5406,"ĠØ®Ø·ÙĪØ©":5407,"Ø´ÙĬØ±":5408,"ĠØ¹Ø¨Ø¯Ø§ÙĦØ¹Ø²ÙĬØ²":5409,"ĠÙħØ±Ùģ":5410,"ĠÙĪØ¹Ø¯Ùħ":5411,"ĠØ§ÙĦÙħÙĥØ³":5412,"Ø§Ø¨Ø·Ø©":5413,"ĠØ§ÙĦØ·Ø§ÙĦØ¨":5414,"ĠØ§ÙĦÙĬØ§Ø¨Ø§ÙĨ":5415,"ÙĪÙħÙĨÙĬÙĪÙħ":5416,"ĠÙĨØ§Ø³":5417,"ĠÙĬØŃÙĬ":5418,"ĠÙĦØªØŃÙĤÙĬÙĤ":5419,"ĠØ§ÙĦÙħØ´ØªØ±ÙĥØ©":5420,"ĠÙħØŃØ±Ùĥ":5421,"ĠØ§ÙĦØºÙĬØ§Ø±":5422,"ĠØ§ÙĦÙĪØ²Ø§Ø±Ø©":5423,"ĠØ§ÙĦØªØµÙĨÙĬØ¹":5424,"ĠÙħØ«ÙĬØ±":5425,"ÙĤÙĬØ¨":5426,"ĠÙĨÙģØ³ÙĩØ§":5427,"ÙħØ¬":5428,"ĠØ·Ø¨Ø¹":5429,"ĠÙħØ¹Ø§":5430,"ĠÙħØ±Ø³":5431,"ĠØ§ÙĦÙĥØ§Ùħ":5432,"ĠÙĤÙĪÙĦ":5433,"ĠØ§ÙĦÙĨØ§Ø¦Ø¨":5434,"ĠØªÙģØ§Ø³ÙĬØ±":5435,"ĠØªØªØ¨Ø¹":5436,"ĠØ°Ùĥ":5437,"ĠØªØµÙĪÙĬØ±":5438,"ĠÙħØŃÙĥÙħØ©":5439,"ĠÙĪÙĦÙĨ":5440,"ĠÙĬØ¨Ø¯ÙĪ":5441,"Ø§Ø¯ÙĪ":5442,"ĠÙĪØ¶":5443,"ÙĦØ§ÙĦØ§Øª":5444,"ĠÙħÙĬØ±":5445,"ĠÙħØ³Ø¤ÙĪÙĦÙĬØ©":5446,"ĠØ¶ÙĪØ¡":5447,"ĠØ§ÙĦÙħÙĤØ§ÙĪÙħØ©":5448,"ĠÙĤØ±Ø¨":5449,"ĠØ§ÙĦØ§Ø´ÙĬØ§Ø¡":5450,"ĠÙħØ¬ÙħÙĪØ¹":5451,"Ø·ØŃÙĨØ©":5452,"ĠÙĬØ¸ÙĩØ±":5453,"ĠÙĪØ¹ÙħÙĦ":5454,"ĠØ§ÙĦØŃÙħØ¯":5455,"ĠØ§ÙĦÙĥØ±Ø¨":5456,"ĠØ¨Ø§ÙĦØ§Ùħ":5457,"ĠØ§ÙĦØ§ÙĨØªÙĤ":5458,"Ø´Ø±ÙĤ":5459,"ÙĩÙĦÙĥ":5460,"Ø§ÙĦØ³ÙĬ":5461,"ØªÙĥÙĪÙĬÙĨ":5462,"ĠØ§ÙĦØµØŃÙģÙĬ":5463,"ĠÙĪØ§ÙĬØª":5464,"ĠÙĪØ§ÙĦÙħÙĦ":5465,"ĠØ¨ØŃÙĤ":5466,"ĠÙĪÙģØ¯":5467,"ĠØ¨ØµÙĪØ±Ø©":5468,"ØºØ§Ø±":5469,"ĠÙĩØ¤ÙĦØ§Ø¡":5470,"ĠØ§ÙĦØ®Ø§ÙħØ³Ø©":5471,"ÛĮØ©":5472,"Ø³ØªÙĩØ§":5473,"ĠØ°ÙĬ":5474,"ĠØ§ÙĦØ±Ø¹Ø§ÙĬØ©":5475,"ĠØ§ÙĦÙħØ¤ÙĦÙģ":5476,"ĠØ§ÙĦÙħØ³ØªØ®Ø¯ÙħÙĬÙĨ":5477,"ĠØ§ÙĦØ±ÙĪÙħ":5478,"ĠØ§ÙĦØ°Ùĥ":5479,"ĠØªÙĦÙħ":5480,"ÙĬØ±Ø§Ø¯":5481,"ĠØ§ÙĦØ¹Ø§ÙĦÙĬØ©":5482,"ĠØ§ÙĦØªÙĨØ¸ÙĬÙħ":5483,"875":5484,"ĠØ§ÙĦÙĨØ¨ÙĪÙĬ":5485,"ĠØ¯Ø±Ø³":5486,"Ø²ÙĪÙĨ":5487,"ĠØ§Ø³ÙĪØ§ÙĤ":5488,"ĠØ§ÙĦÙħØ¯ÙĨ":5489,"32":5490,"ĠÙĪØ§ÙĦÙĦÙĩ":5491,"ĠØ§ÙĦÙĨØ§Øª":5492,"Ø§Ø«Ø±":5493,"ĠØ§Ø¹ØªÙħØ§Ø¯":5494,"ĠØ§ÙĦÙħØ¬Ùħ":5495,"ĠØ§ÙĦÙģÙĬÙĦÙħ":5496,"ĠÙĦØ¯Ø¹Ùħ":5497,"ĠØ´ÙĤØ©":5498,"ĠØ§ÙĦØ³ÙĪØ¯Ø§ÙĨÙĬ":5499,"ĠØ·Ø¨ÙĬØ¹ÙĬØ©":5500,"ĠÙģÙħ":5501,"ĠØ·Ø¨ÙĬØ¹ÙĬ":5502,"ĠØ³ÙĪÙī":5503,"Ø§ÙģÙĩ":5504,"ĠØŃÙĪØ§Ø±":5505,"ĠÙĦÙĦØ¹ÙĦ":5506,"ĠØ§ÙĦÙħØ³ÙĦØŃØ©":5507,"ĠØ§ÙĪØ±Ø§ÙĤ":5508,"ĠØ§ÙĦÙĬØ³":5509,"ĠØŃØ¯ÙĪØ«":5510,"ÙĪÙĨØº":5511,"ĠØ§ÙĦØ§Ø¯Ø§Ø¡":5512,"ĠØ§ÙĦØ³ÙĥÙĨ":5513,"ĠØ§ÙĦØ³ÙĬØ§ØŃÙĬØ©":5514,"ĠÙħØ¨Ø§Ø¯Ø±Ø©":5515,"ĠØ§ÙĦÙħØ§ÙĦÙĬ":5516,"ĠÙĪØ§ÙĬØ¶Ø§":5517,"ĠØ§ÙĦØ®Ø±Ø·ÙĪÙħ":5518,"Ø¨ÙĪÙĦ":5519,"ĠØ§ÙĦØ§ÙħØ§ÙĥÙĨ":5520,"ĠÙħÙħÙĨ":5521,"ĠØ´Ø§Ø´Ø§Øª":5522,"75":5523,"Ġ82":5524,"ĠØ¨Ø§ÙĤÙĦ":5525,"ÙħÙĨØ©":5526,"ĠÙĪØ±ÙĤØ©":5527,"ĠØ¬Ø²ÙĬØ±Ø©":5528,"ĠØ§ÙĦØ§Ø³Ø§Ø³ÙĬ":5529,"ÙĪØ¬Ø¨":5530,"Ø§ÙĦÙĬØ¯":5531,"Ø§Ø±Ùħ":5532,"ĠØ¬ÙĩÙĪØ¯":5533,"ĠØ§ÙĦÙĤØ§Ø¯Ùħ":5534,"ĠÙĨÙĨ":5535,"ØªÙĪØ¨":5536,"ÙĪØµÙĪÙĦ":5537,"ĠÙĬÙĤÙĦ":5538,"ĠØ§ÙĦØ¬Ø§ÙĨØ¨":5539,"ĠØ¯Ø¹ÙĪØ©":5540,"ĠØ§ÙĦØ§Ø¹ÙĦØ§ÙħÙĬ":5541,"ĠØ³ÙĥØ§ÙĨ":5542,"ĠØ¨ØŃØ³Ø¨":5543,"Ø²ÙĬØ¹":5544,"ĠÙĥÙħÙĬØ©":5545,"ĠÙħÙĬÙĦØ§Ø¯":5546,"Ø§Ø·Ùģ":5547,"ÙĬÙĤÙĬ":5548,"ÙĤØ±Ø§Ø¡Ø©":5549,"Ġ234":5550,"ĠØ¨Ø§ÙĦÙģØ¹ÙĦ":5551,"Ø¬Ø±ÙĬ":5552,"ĠØ§Ø¹ØªÙĤØ§ÙĦ":5553,"ĠØ§ÙĦØªØ´Ø±ÙĬØ¹":5554,"Ø§ØªÙĦ":5555,"ĠÙĪØ§ÙĦÙħØ³Øª":5556,"ĠØ§Ø¨ÙĪØ§Ø¨":5557,"ĠØ§ÙĦØ«ÙĤØ§ÙģÙĬØ©":5558,"Ø±ÙĪØ¡Ø©":5559,"ĠØ¯Ø±ÙĩÙħ":5560,"ĠÙĨØ¬Ùħ":5561,"ĠØ§ÙĦØ§ÙĤØ§ÙħØ©":5562,"ĠØ§ÙĦØ³ÙĦØ¹":5563,"ĠØ§ÙĦØ¬ÙĦØ¯":5564,"Ø§Ø¨ÙĬÙĨ":5565,"ĠØ§ÙĦÙħØŃØ¯ÙĪØ¯Ø©":5566,"ĠØ¹Ø«ÙħØ§ÙĨ":5567,"Ø´ÙĪ":5568,"ÙĪØ¹ÙĬØ©":5569,"ĠØ§ÙĬÙĦÙĪÙĦ":5570,"ĠØ±Ø®ÙĬØµØ©":5571,"ĠØ§ÙĦÙħÙĨØ§Ùħ":5572,"ØªÙĬØ§ÙĦ":5573,"ĠÙħØ±Ùĥ":5574,"Ø¹ÙĪØ¯ÙĬØ©":5575,"ĠÙĤØ§ÙĦØª":5576,"ĠÙĤÙĬØ§Ø¯Ø©":5577,"ÙĬÙĪØ¨ÙĬØ§":5578,"ĠØªØºÙĬØ±":5579,"ÙĪØ¬ÙĪØ¯":5580,"ĠØ¬Ø±ÙĬÙħØ©":5581,"ĠÙĤÙĬØ§Ø³":5582,"ĠØªØµÙĦÙĬØŃ":5583,"ĠØ±ÙĬÙħÙĪÙĨØ¯":5584,"ĠØ§ÙģØ±":5585,"ĠØ§ÙĦØ±ÙĬØ§Ø¶ÙĬ":5586,"ØºÙĩØ§ÙĬ":5587,"ĠØ·ÙĬØ±Ø§ÙĨ":5588,"ØµÙĬØ¯":5589,"Ø§ÙģØ§":5590,"ĠØ§Ø´ÙĥØ§ÙĦ":5591,"ĠØ«Ø§ÙĨÙĪÙĬ":5592,"Ø§Ø¨ØªØ©":5593,"ĠÙĪØ§ÙĦÙħØ´":5594,"ĠØ§ÙĦÙģÙĬØ±ÙĪØ³":5595,"ÙĦÙĨØ¯Ø§":5596,"Ø§Ø·Ø¹Ø©":5597,"ĠØ§ÙĦÙħØªØ±":5598,"ĠØ§ÙĦØ¹ÙĬØ¯":5599,"ĠØ§ÙĦØ·ÙĤØ³":5600,"ĠÙĪØ§ÙĦØ¬Ùħ":5601,"ĠØ§ÙĤØ§ÙħØ©":5602,"ĠÙĬØ¯Ø®ÙĦ":5603,"ĠØ§ÙĦØ¹ÙĬÙĪÙĨ":5604,"ÙĪØ®":5605,"ĠÙĨÙĤØ¯":5606,"ĠØ§ÙĦØ´ÙħØ³ÙĬØ©":5607,"ĠØ§ÙĨØªÙĩØ§Ø¡":5608,"ĠÙĪÙĬÙĨØ¯ÙĪØ²":5609,"ĠÙħØµÙĨ":5610,"ÙĩØ±Ø§ÙĨ":5611,"ĠÙħÙĦØ®Øµ":5612,"ĠØ§ÙĦØ§Ø¯Ø§Ø¨":5613,"ĠÙĦØ·ØŃÙĨ":5614,"ĠØ§ÙĦÙħØ´ØªØ±Ùĥ":5615,"ĠØªØ¹Ø§ÙĪÙĨ":5616,"ĠØªÙĬÙĦÙĤØ±Ø§Ùħ":5617,"ÙĨØ¯ÙĬØ©":5618,"ĠØŃØ³Ø§Ø¨Ø§Øª":5619,"ĠÙħÙģÙĩÙĪÙħ":5620,"ĠÙĦÙĬØ³Ø§ÙĨØ³":5621,"ĠÙħÙĨØ§":5622,"ĠÙħÙħÙĬØ²Ø§Øª":5623,"ÙĦÙĬØº":5624,"ĠÙĪØªÙģ":5625,"ĠØªØ¹Ø¨Ø±":5626,"ĠÙĪÙĥÙĬÙĦ":5627,"ĠÙĤÙĪÙĦÙĩ":5628,"ÙĬÙħÙĬÙĦ":5629,"ĠÙħÙĪØª":5630,"ĠÙĩÙĪØ§ØªÙģ":5631,"ĠÙĦÙħØ¹Ø±ÙģØ©":5632,"ĠÙĪØªØ·ÙĪÙĬØ±":5633,"ĠØ§ÙĦØ´Ø§Ø±Ø¹":5634,"ĠÙĦÙĦÙħÙĤ":5635,"ĠØ¨Ø¹ÙĨÙĪØ§ÙĨ":5636,"ĠÙħØ¤Ø´Ø±":5637,"ĠÙĦÙĪØ§Ø²Ùħ":5638,"ĠØ³Ø¹ÙĪØ¯ÙĬ":5639,"ĠØ«ÙĦØ§Ø¬Ø§Øª":5640,"ĠØ§ÙĦØ±Ø¨ÙĬØ¹":5641,"ĠØ§ÙĦÙĤÙĬØ§Ø³":5642,"Ø¨ØºÙĬ":5643,"Ø§ØªÙħ":5644,"Ø§Ø¯Ø±Ø§Øª":5645,"ĠÙĦØ²ÙĬ":5646,"ĠÙĦØ§ÙĨØªØ§Ø¬":5647,"Ø¶ÙĦØ§Øª":5648,"ĠØ§ÙĦØ§ÙĬØ±Ø§ÙĨÙĬØ©":5649,"ĠØ§ÙĦØ¹ÙħÙĦÙĬØ§Øª":5650,"ĠØ§ÙĨÙģØ¬Ø§Ø±":5651,"Ø§ÙĦÙĬØ¨":5652,"ĠÙĬØ·ÙĦÙĤ":5653,"ĠÙĬÙĤØ¹":5654,"Ġ110":5655,"ĠØ¹ÙĤÙĪØ¯":5656,"Ġ68875":5657,"ĠØ¹Ø§Ø¦":5658,"ĠÙħØ¬Ø¯":5659,"ØªÙĥØ§Ø±":5660,"ĠØ§ÙĦÙħÙĩÙĨØ¯Ø³":5661,"Ø¯Ø§Ø¡":5662,"ĠØ¹Ø§Ø¯ÙĦ":5663,"ØªØ¯Ø±ÙĬØ¨":5664,"ĠØ§ÙĦÙħØ±Ø§Ùĩ":5665,"ĠØ§ÙĦØŃÙħØ±Ø§Ø¡":5666,"ÙĨØ¯Ø§Øª":5667,"ĠÙĩÙĬØ±":5668,"ÙĦÙħØ§ÙĨÙĬØ©":5669,"ÙĤØ·Ø¹":5670,"Ġ195":5671,"ĠØ§ÙĪÙĦÙī":5672,"ĠØ§ÙĦØ§ÙĥØ¨Ø±":5673,"ĠØ§ÙĦØ§ÙĨØ¯Ø±ÙĪÙĬØ¯":5674,"ĠØ§ÙĦØ§ÙĪÙĦÙĬØ©":5675,"ÙĬÙĪØ±Ùĥ":5676,"ĠØ¯ÙĬØ±":5677,"ĠØ§ÙĦØ¯ÙĨÙĬØ§":5678,"ĠØ¨Ø¬Ø§ÙħØ¹Ø©":5679,"Ø¶Ø§Ø¹":5680,"ĠÙħÙĪØ³Ùī":5681,"ĠØ§Ø³ØªÙĥ":5682,"ĠØ§ÙĦÙħØªÙĨ":5683,"ĠØ³Ø¨ÙĤ":5684,"ĠÙĬÙĪÙħØ§":5685,"ĠØ§ØªØ¨":5686,"ĠÙĪØ§ÙĦØ§ÙĦ":5687,"Ø§ÙĩÙĬÙĦ":5688,"Ù¬":5689,"ĠÙĤÙĨÙĪØ§Øª":5690,"ĠÙĦÙĬÙĪÙħ":5691,"39":5692,"ĠÙĥØ§Ø¨":5693,"ĠØ³ÙĬØªÙĬ":5694,"Ø®ÙħØ©":5695,"Ø§ÙĤÙģ":5696,"ĠØ¬Ø§ÙĨ":5697,"ĠØ§Ø±Ø®Øµ":5698,"ĠØªÙĤØ¹":5699,"ØŃÙĩ":5700,"ĠØ¨Ø§Ø¯":5701,"ĠØ§ÙĦÙĥÙģØ§Ø¡Ø©":5702,"ĠÙĥÙĪØ±ÙĬØ§":5703,"ĠØ¨ÙĥÙĪØ±ÙĪÙĨØ§":5704,"ĠØªØ¹ÙĦÙĬÙĤÙĬ":5705,"ĠØ·ÙĦØ§Ø¨":5706,"ĠÙģØ§Ø³":5707,"ĠØ§ÙĦÙĤØ±ÙĬØ¨Ø©":5708,"ĠÙħÙĩØ§Ø±Ø§Øª":5709,"ĠØªÙħØ±":5710,"ĠØ®ÙħØ³Ø©":5711,"44":5712,"ĠÙħÙĪØ±":5713,"ĠØ§ÙĦØ¯ÙĤÙĬÙĤØ©":5714,"ĠØ§ÙĦØ¨ÙĪØ±":5715,"ĠØ§ÙĥØ§Ø¯ÙĬÙħÙĬØ©":5716,"ĠØ§ÙĦØ«ÙĦ":5717,"ĠØ§ÙĦÙģØ·Ø±":5718,"ĠØ®ÙĦÙĤ":5719,"ĠØªØµØ§Ø¯ÙħÙĬØ©":5720,"ĠØ¨ÙĬÙĨÙĩÙħ":5721,"ĠØ¨ÙĤÙĬ":5722,"ĠØ§Ø³ØªØ¹Ø§Ø¯Ø©":5723,"ĠØ§ÙĦÙħÙĤØ¯Ø³":5724,"ØªØ±ÙĬØ§Øª":5725,"ĠØªÙħÙĥÙĨ":5726,"ĠØªÙĪØ§ÙģÙĤ":5727,"ĠÙĦÙĦØªØ®":5728,"ĠÙĤØ§ÙĨÙĪÙĨÙĬØ©":5729,"ĠØ§Ø³Ø±Ø¹":5730,"ĠÙĪÙĦÙĩ":5731,"ÙĪÙĬØ¶":5732,"ĠØ§ÙĦØ§ÙģØ±ÙĬÙĤÙĬ":5733,"ĠÙĪØ±Ø´Ø©":5734,"ĠÙĪÙĬØ´":5735,"ĠÙģÙħØ§":5736,"ĠØªÙĩÙĨØ¦Ø©":5737,"ĠØ¨ÙĬØ¯":5738,"ØªØ±ÙĪÙĦ":5739,"ĠØ¨Ø§ÙĦØ¬ÙħÙĦØ©":5740,"ĠØ¹ÙħØ§ÙĦ":5741,"Ġ130":5742,"ĠØ§ÙĦÙħØ±Ùģ":5743,"ĠØªØºØ°ÙĬØ©":5744,"ĠØ³ÙĦÙħ":5745,"Ø±ÙĬØ¯Ø©":5746,"ĠØ§ÙĤØ¯Ùħ":5747,"ĠØŃØ§Øµ":5748,"ĠÙħÙħÙĬØ²":5749,"ĠØ§ÙĦÙĪØ§ØŃØ¯":5750,"ĠÙħÙģØ§Ø¬":5751,"ĠØ§ÙĦØ²Ø¨":5752,"ĠØ§ÙĦÙĨÙģØ³ÙĬØ©":5753,"Ø¹ÙĤ":5754,"ĠØ§ÙĦÙħØ´Ø§ÙĥÙĦ":5755,"ĠØ§ÙĦØŃØ±ÙĬØ©":5756,"ĠØ§ÙĦÙħØ¨Ø§Ø±Ùĥ":5757,"66":5758,"ĠØ§ÙĦÙħØ¨Ø§Ø±Ø§Ø©":5759,"ØŃÙĦ":5760,"ĠØ§ÙĦÙĥÙĦÙĬØ©":5761,"ĠÙħØ§Ø±ÙĥØª":5762,"ĠÙĨØ§ÙĤÙĦ":5763,"ĠØ§ÙĦÙĪØ«":5764,"ĠØªØ¬Ø§Ø±":5765,"ĠØ³Ø®":5766,"ĠÙĪØ³ÙĪÙģ":5767,"ĠØ§ÙĦØ¨Ø±ÙĬØ·Ø§ÙĨÙĬØ©":5768,"Ø±ÙĬØ¨Ø§Øª":5769,"Ø±Ø§Ø¦Ø¨":5770,"ĠØ§ÙĦØ§Ø³ØªØ«Ùħ":5771,"ĠÙĨØ¸Ùħ":5772,"ĠÙģÛĮ":5773,"ĠØ§ÙĦÙĤÙĪÙĦ":5774,"ĠÙĪØ°":5775,"ĠØ§ÙĦØ§ÙĨØª":5776,"ĠØ§ÙĦØ°ÙĥØ±":5777,"ĠØ§Ø¬ÙĨØ¨ÙĬ":5778,"ĠØ§ÙĦÙħØ¤ÙħÙĨ":5779,"ĠÙħÙĪØ§Ø·ÙĨ":5780,"ØªØµÙģ":5781,"ĠØ§ÙĬØ¯":5782,"ĠÙħØ¹ÙĦÙħ":5783,"ĠØ§Ø¯ÙĪÙĬØ©":5784,"ĠÙĥØ±Ø§Øª":5785,"ĠØ´Ùħ":5786,"ĠØ§ÙĦÙĩØ¯Ùģ":5787,"ĠØ§ÙĦÙħØ´Ø§ÙĩØ¯Ø§Øª":5788,"ÙĥØªØ§Ø¨Ø©":5789,"ĠÙħØ·Ø¨Ø®":5790,"ĠÙĪØ§ÙĦÙħØ¤":5791,"ĠÙħÙĤØ±ÙĪØ¡Ø©":5792,"ĠØ§ÙĦØ¬ÙĬØ²Ø©":5793,"ĠØ§ÙĦØ±Ø³ÙĪÙħ":5794,"ĠØ¹ÙĬØ§Ø¯Ø©":5795,"ÙĪØ§Ø±Ø¨":5796,"ĠØ§Ø±ÙĬ":5797,"ĠÙħØ°ÙĥØ±Ø©":5798,"ĠÙħÙĦØ§ÙĬÙĬÙĨ":5799,"Ø²ÙĪØ¬":5800,"ĠÙĪØ§ÙĦØªØµ":5801,"ĠØ§ÙĦØ§Ø¹Ø¯Ø§Ø¯":5802,"ĠØ¬Ø¨ÙĦ":5803,"ĠÙĤØ¶Ø§ÙĬØ§":5804,"ĠØ§ÙĦØ§Ø³Ø¨ÙĪØ¹ÙĬØ©":5805,"ĠØ§ÙĦØµØ¨Ø§ØŃ":5806,"ĠØ§Ø®Øª":5807,"ĠØ§ÙĦØ¹Ø¸ÙĬÙħ":5808,"ĠØ§ÙĥØ³Ø¨":5809,"ÙĦØ§ÙĬØ§":5810,"ĠØ§ÙĦÙĨÙĩØ¶Ø©":5811,"ĠÙħÙĨØ¬Ùħ":5812,"ĠÙħØµØ±ÙĬØ©":5813,"ĠÙĦØ§Ø¹Ø§Ø¯Ø©":5814,"ĠØ§ÙĦØ±Ø¦":5815,"ĠÙĨØ®":5816,"ĠØ§ÙĦØŃØ§Ø¬Ø©":5817,"ĠØ§ÙĦØªØºÙĬÙĬØ±":5818,"ĠØ·Ø§ÙĦ":5819,"ĠÙħØ²ÙĬØ¯":5820,"Ġ459":5821,"ĠÙģÙĬØµÙĦ":5822,"ĠØ³ÙĦÙĬÙħ":5823,"ĠØ§ÙĦÙħØ§Ø¦Ø©":5824,"ĠØ§ÙĦØ·ÙĬØ±Ø§ÙĨ":5825,"ĠØ°Ø§":5826,"ĠÙĪØ¬Ø¯":5827,"ĠØªÙĪØ±":5828,"ĠØ§ÙĦØµØ¯":5829,"ĠØ´Ø§ÙħÙĦ":5830,"Ø§ÙĩØ¨":5831,"Ø¯ÙĪÙĨ":5832,"ĠØŃØ§Ø¬Ø©":5833,"ØªÙģÙĦ":5834,"ĠÙĨÙģØ³Ùĥ":5835,"ĠÙħØ´ØªØ±Ùĥ":5836,"ĠÙĪØ§ÙĥØ«Ø±":5837,"ĠØ§ÙĦØªØ¬ÙħÙĬÙĦ":5838,"ĠØ¬Ø§Ùĥ":5839,"ĠÙħÙĨØ§Ø³Ø¨":5840,"ĠÙĤÙĨØ§Ø¹":5841,"ĠØ§ÙĦÙģÙĪ":5842,"ĠØ¨ØŃØ§Ø¬Ø©":5843,"ĠØ¯ÙĪÙĦÙĬØ©":5844,"ĠØ§ÙĦØ¨Ø±ÙĬØ¯ÙĬØ©":5845,"ĠÙĪØªØ¯":5846,"ĠÙĥÙĪØ¨ÙĪÙĨ":5847,"ĠØªØµØ±ÙĬØŃ":5848,"ĠØ§ØºÙĦØ§ÙĤ":5849,"ÙĪØ³Øª":5850,"ĠØŃÙģØ±":5851,"ĠØ§ÙĦÙĤØ§Ø±Ø¦":5852,"ĠØ§ÙĦØ®ÙĬØ§Ø±Ø§Øª":5853,"ĠØºØ§ÙĦØ¨":5854,"ĠØ®Ø§Ø±Ø¬ÙĬØ©":5855,"ĠØ§ÙĨÙħÙĬ":5856,"ĠØ®ÙĬØ§Ø±Ø§Øª":5857,"ĠØ¹ØµØ±":5858,"ĠÙĦØŃÙħØ§ÙĬØ©":5859,"ĠØŃØ¶":5860,"ĠÙĪØµÙģØ§Øª":5861,"Ø±ÙĪÙģØ©":5862,"ĠØµØ±":5863,"ĠØ§Ø±Ø§Ø¶ÙĬ":5864,"ĠØ§ÙĦØ³Ø§Ø®ÙĨ":5865,"ÙĨÙĥØ±":5866,"Ø«Ø§ÙĦ":5867,"ĠØ¨Ø§ÙĦØ§ØŃ":5868,"ĠØ§ÙĦØ§ÙĨØªØ®":5869,"Ø¹Ø§ÙĪÙĨ":5870,"ĠØ¬ÙĬØ±":5871,"ĠÙĥØªÙĦØ©":5872,"ĠØ¯ÙĬØ¨":5873,"ĠØ§ÙĦØ±Ø§Ø¦Ø¯Ø©":5874,"ĠØ§ÙĦØ°Ùĩ":5875,"ĠØ§Ø±Ø¯ÙĪØºØ§ÙĨ":5876,"ĠÙĦÙħÙĪØ§Ø¬ÙĩØ©":5877,"ĠØ§ÙĦØ§Ø³ØªØ±Ø§ØªÙĬØ¬ÙĬØ©":5878,"Ø¶ÙħØ§Ùħ":5879,"ÙĬÙĪØ³":5880,"Ø§Ø±Ø³Ø§ÙĦ":5881,"ĠØ¨ÙĤÙĬÙħØ©":5882,"ĠØ§ÙĦÙĪÙĤØ§ÙĬØ©":5883,"Ø§Ø¯Ø§":5884,"ĠØ¯ÙĬÙĪØ§ÙĨ":5885,"ĠÙĪØ§ÙĦØ§Ùĥ":5886,"Ø¯Ø±Ø§Ø³Ø©":5887,"ĠØ®Ø·Ø§":5888,"ĠØ¨ÙĩÙħ":5889,"ĠØŃØ§ÙĪÙĦ":5890,"ÙĪÙħÙĬÙĨ":5891,"ĠØ§ÙĦØ°Ø§ØªÙĬØ©":5892,"ĠØ§ÙĦØ¨ÙĬØ§ÙĨÙĬ":5893,"ĠÙĪØ§ÙĨØª":5894,"ĠØ§ÙĦÙħØ¬ØªÙħ":5895,"ĠÙĦØ³ØŃÙĤ":5896,"ĠÙĦØªØŃØ³ÙĬÙĨ":5897,"ĠÙĨØ³Ø®":5898,"Ø±Øµ":5899,"Ø²Ø²":5900,"Ø³ØªØ§ÙĨÙĬ":5901,"ĠØµÙģØ±":5902,"ĠØ§ÙĬÙĩ":5903,"ØªØ¨Ø·Ø©":5904,"ĠØ§ÙĦÙĥØªØ§Ø¨Ø©":5905,"ĠØ§ÙĦØŃÙĤÙĬÙĤÙĬ":5906,"Ø³ÙĥØ±":5907,"ĠØ§ÙĦØŃØ§ÙĦÙĬØ©":5908,"Ø§ÙĥÙĩ":5909,"ĠÙħØ¬ÙħØ¹":5910,"ĠØ§Ø³ÙģÙĦ":5911,"ĠØ§ØªØ¬Ø§Ùĩ":5912,"Ø¬ØªÙħØ¹":5913,"ĠØ³ÙĪØ¯":5914,"ÙĩØ§Ø¬":5915,"ĠØ±ÙĬØª":5916,"ĠØ§ÙĦØ«Ø¯ÙĬ":5917,"ĠØ§ÙĦÙħØªØ·":5918,"ĠØ³ØªØ±":5919,"ĠØ§ØŃØµ":5920,"ĠØ§ÙĦØ§Ø¬Ø§Ø¨Ø©":5921,"ĠØªØ¯Ø±ÙĬØ¨":5922,"ĠØ³Ø±ÙĬØ¹Ø©":5923,"ĠØ¬ÙĪÙĨ":5924,"ĠÙħÙħØ«ÙĦ":5925,"ĠØ§ÙĦØªÙĤÙĪÙĬÙħ":5926,"ĠÙĪØ§ÙĦØ¨ÙĬ":5927,"ĠØ§ÙĦÙģÙĬØª":5928,"ĠØªØ¹Ø¨":5929,"ĠØ§ÙĦØ¨ÙĨÙĪÙĥ":5930,"ĠØ§ÙĦØ±Ø¨ØŃ":5931,"ĠØ±ÙĪÙĨ":5932,"ĠØŃÙģØ§Ø¶Ø§Øª":5933,"ĠØ§ÙĥØªØ´Ùģ":5934,"ĠØ®ÙĬØ§Ø±":5935,"ĠØªØ±Ø§Ø¬Ø¹":5936,"ĠØªØ§Ø³ÙĬØ³":5937,"ĠØªØ¬Ø¯ÙĬØ¯":5938,"ĠØ²Ø¨":5939,"Ġ2006":5940,"ĠØ§Ø³ØªÙģØ³":5941,"ĠØ§ÙģØ±Ø§Ø¯":5942,"ĠØ§ÙĦÙħÙħÙĥÙĨ":5943,"ĠØ§ÙĦØ±ÙĤÙħÙĬ":5944,"ĠÙħÙĬØª":5945,"ĠØªØ³Ø¨Ø¨":5946,"Ø§ØµÙĦØ§ØŃ":5947,"ĠØ§ÙĦØ¯Ø±Ø§Ø³ÙĬØ©":5948,"ĠÙĨÙĪØ¹ÙĬØ©":5949,"ĠÙĨÙĬØ³Ø§ÙĨ":5950,"ĠØªØ³ÙĦÙĬÙħ":5951,"ĠØ¬ÙĪØ²":5952,"ĠÙģØ§Ø°Ø§":5953,"ĠØ§ÙĦÙĦÙĬÙĦ":5954,"ĠØ§ÙĦØ¨ÙĬØ§ÙĨ":5955,"Ø§Ø¹Ùĩ":5956,"ĠØ¬ÙħØ§Ø¹Ø©":5957,"Ġ91":5958,"ĠØªÙĪØ§Ø¬Ùĩ":5959,"ĠØŃØ§ØµØ¨Ø§ÙĨÙĬ":5960,"ØµØ§Øª":5961,"Ø¸Ø§Ùĩ":5962,"ĠØ§ÙĦØ¨ÙĪÙĦ":5963,"ĠØ§ÙĦØªØŃÙĦÙĬÙĦ":5964,"ĠØ¹Ø´Ø±Ø©":5965,"Ġ92":5966,"ĠØ¶Ø±ÙĪØ±Ø©":5967,"ĠØ¹Ø§ÙĦÙĬ":5968,"ĠØ§ÙĦØ±Ø´":5969,"ĠØ§ÙĦØ§Ø±Ø§Ø¶ÙĬ":5970,"ĠÙħØ³Ø§Ø¨ÙĤØ©":5971,"ĠØ¨ÙĤÙĪØ©":5972,"ÙĪÙĨÙĬØ§":5973,"ĠØ§ÙĦÙħØªÙĤ":5974,"Ġ94":5975,"ĠØ§Ø¹ØªØ¨Ø§Ø±":5976,"ĠÙĨØ¨Ø§Øª":5977,"ĠÙĥÙħØ¨ÙĬÙĪØªØ±":5978,"ĠØ·Ø§Ø±ÙĤ":5979,"ÙĬØ²Ø§ÙĨ":5980,"ĠØ§ÙĤÙĦÙĬÙħ":5981,"ĠØ§ÙĦØ«Ø§ÙĨÙĪÙĬ":5982,"ĠØ§Ø±ÙĬØ¯":5983,"ĠØ¨Ø§ÙĬØ¯ÙĨ":5984,"ĠØ¹ÙĦØ§ÙĤØ§Øª":5985,"34":5986,"ĠØŃÙĬØ¯Ø±":5987,"ĠÙĤÙħØª":5988,"ÙħØ§ÙĦÙĬØ©":5989,"ĠÙĨÙĩØ§Ø¦ÙĬ":5990,"ĠØ¹Ø³ÙĥØ±ÙĬØ©":5991,"89":5992,"ĠØ§ÙĦØªÙĪØµÙĬÙĦ":5993,"ĠØ§ÙĦØ§Ø¯ÙĪØ§Øª":5994,"ÙĪØ¯Ø§":5995,"ĠØªØ§Ùħ":5996,"ØºÙĦØ§ÙĦ":5997,"ĠÙħÙĤØ§ÙĦ":5998,"ĠØ¬Ùĩ":5999,"ĠÙĦÙĦÙħØ´":6000,"Ø±Ø³":6001,"ĠØ¹ÙĬØ³Ùī":6002,"ĠÙĦØŃØ¸Ø©":6003,"Ø§ÙĪÙĦØ§Ø¯":6004,"ĠØ§ÙĦÙħØ®Ø±ÙĪØ·ÙĬØ©":6005,"ĠÙĦÙĦØ§ØŃ":6006,"ĠØ§ÙĦØ°Ùī":6007,"ÙĬØ¨ÙĬØ©":6008,"ĠØ«ÙĤÙĬÙĦØ©":6009,"ĠØ§ÙĦÙĤØ§Ø¶ÙĬ":6010,"ĠÙħØ³ØªÙĦØ²ÙħØ§Øª":6011,"ĠØ§Ø¨ØªØ¯Ø§Ø¦ÙĬ":6012,"ĠØ§ÙĦÙĥÙĦØ§Ùħ":6013,"ØªÙħÙĨÙī":6014,"ĠØ§ÙĦØ³ÙĬØ·Ø±Ø©":6015,"ĠØ§ÙĦÙħÙĬÙĦØ§Ø¯":6016,"ÙħÙī":6017,"ĠØªÙĦÙĤÙĬ":6018,"ØªÙĦÙĥ":6019,"ĠØ§Ø³ÙħÙĨØª":6020,"ĠÙĦÙĦÙħØ³Øª":6021,"ĠØ§ÙĦØ±Ø³ÙĪÙĦ":6022,"ĠÙħØ³ÙĦÙħ":6023,"ĠÙħØ¹ÙĬÙĨØ©":6024,"ĠØ§ØªØµØ§ÙĦ":6025,"ĠØ³ÙĦØ§Ùħ":6026,"ĠØ¨ÙĦØ§Ø¯":6027,"ĠØ§ÙĦØ§Ø«Ø§Ø±":6028,"ĠØ§Ø¬ÙħØ§ÙĦÙĬ":6029,"ĠÙĦØªÙĤØ¯ÙĬÙħ":6030,"Ø§ÙĨØª":6031,"ĠØ§ÙĦÙĥÙĦÙĬ":6032,"ØªØ¨Ø§Ùĥ":6033,"ĠÙĪØ¬ÙĩØ©":6034,"ĠÙģÙĬØ¯ÙĬÙĪÙĩØ§Øª":6035,"Ø§Ø³ÙĪØ¨":6036,"Ø±ÙĤÙĬØ©":6037,"ĠØ¨ØªÙĪÙĤÙĬØª":6038,"ĠØ§ÙĦÙħØ·ØŃÙĨØ©":6039,"ĠÙģÙĦÙĦ":6040,"ĠØ§ÙĦØ¯ÙĩÙĪÙĨ":6041,"ĠØ´ÙĨØºÙĩØ§ÙĬ":6042,"ĠØ§ÙĦÙħØ±Ùĥ":6043,"ÙĥÙĦÙħ":6044,"Ø±Ø§Ùħ":6045,"ĠØ¨ÙĪØ³":6046,"ĠØªØ®Øµ":6047,"ĠØ§ÙĦÙħÙĥØ±":6048,"ĠØªØ¹ØªÙħØ¯":6049,"ĠØ®Ø·Ø§Ø¨":6050,"ĠØ§ØŃÙħØ±":6051,"ĠÙģØ±ÙĤ":6052,"Ø§Ø±ÙĬÙĪ":6053,"ĠØ§ÙĦØªÙĤØ±ÙĬØ±":6054,"ĠØ§ÙĦØµØ§Ø¨ÙĪÙĨ":6055,"ĠØ§Ø°ÙĨ":6056,"ÙĪØ¯Ùĩ":6057,"ÙĨÙĬØ¹":6058,"Ø±Ø¨Øª":6059,"ĠÙĪÙĩÙĨØ§Ùĥ":6060,"ĠØ±Ø¶ÙĬ":6061,"ĠØ§ÙĦÙĦØºØ§Øª":6062,"ĠØ§ÙĦØ±ÙĪØŃ":6063,"ĠØ§ÙĦØ§ÙħÙĬØ±ÙĥÙĬØ©":6064,"ÙĬÙģÙĬ":6065,"ĠÙĤÙĪÙĬ":6066,"Ø±ÙĪØ±ÙĬ":6067,"ĠØ§ÙĦØ§ÙĨØªÙĤØ§ÙĦ":6068,"ĠØ§ÙĦÙĤÙħØ±":6069,"ĠÙħØµØºØ±Ø©":6070,"ĠØ³ÙĦØ§ÙħØ©":6071,"ĠØµØ¹":6072,"ĠØ§ÙĦÙĨØ¬":6073,"Ø§Ø´Ø¯":6074,"Ø´Ø±ÙĪÙĨ":6075,"ØªÙħÙĥÙĨ":6076,"ĠÙħÙħØ§Ø±Ø³ØªÙĩØ§":6077,"ĠØ§ÙĦØµØ±Ùģ":6078,"ĠØ§ÙĦØ¹ÙĤØ§Ø±ÙĬ":6079,"ĠØ¹Ø¨Ø¯Ø§ÙĦØ±ØŃ":6080,"ĠÙħÙĬØ³ÙĬ":6081,"Ø¬ÙħØ§ÙĨ":6082,"ĠØ§ÙĦØ§Ø¨Ø§ØŃÙĬØ©":6083,"ĠÙĪØ±ØŃ":6084,"Ø§ÙģÙĦ":6085,"ĠØ§ÙĦÙĨØ¬Ø§ØŃ":6086,"ĠØ§ÙĦØ§ÙĦÙĪØ§ÙĨ":6087,"Ø§ÙĪÙĬÙĨ":6088,"ĠÙĦÙĦØ´Ø¹Ø±":6089,"ĠÙĦÙĬÙĨÙĥØ¯Ø§ÙĨ":6090,"ÙĨØ¯Ø³ÙĬÙĨ":6091,"Ø¹ÙĪØ¯Ø©":6092,"ĠØ§ÙħØ±ÙĬÙĥÙĬØ©":6093,"ĠÙĪØ§ÙĦÙħØ¯":6094,"ĠÙĪØ§ÙĦÙģØ±":6095,"Ø¨Ø¹Ø©":6096,"ĠØ§ÙĦØŃØ±Ø§Ø±ÙĬØ©":6097,"ĠØ¯Ø§ÙĪØ¯":6098,"ĠÙħØ¨Ø±":6099,"ĠØ´Ø§ÙħÙĦØ©":6100,"Ġ1482":6101,"Ø³ÙĥÙĪ":6102,"ĠÙĦÙĦØ¯Ø±Ø§Ø³Ø§Øª":6103,"ĠØ§Ø³ØªÙĤØ¨Ø§ÙĦ":6104,"ØŃÙģ":6105,"Ø·Ø§Ø¹":6106,"ĠØ±Ø§ÙĬØª":6107,"Ø§Ø¨ÙĤØ§Øª":6108,"ĠØ§ÙĦÙĩÙĨØ¯ÙĬ":6109,"ĠØ³Ø¨Øª":6110,"ĠØ§ÙĦØ§Ø¶Ø§ÙģØ©":6111,"ĠØ§ÙĦØ³ÙĨÙĪØ§Øª":6112,"ĠÙĨÙĩØ±":6113,"ĠØ§ÙĦØ¹Ø¶ÙĪÙĬØ©":6114,"ĠØ§ÙĦØ´Ø§Ø¹Ø±":6115,"ĠÙĪÙħØµ":6116,"ĠÙģÙĦÙħ":6117,"ÙĤÙģ":6118,"ÙĬØ±ÙĪ":6119,"Ġ71":6120,"ĠØ§ÙĦÙĩÙĬØ¯":6121,"ÙĪÙģØ©":6122,"ĠØ¨Ø¯ÙĦØ§":6123,"ĠØ§ÙĦØ³Ø§Ø®ÙĨØ©":6124,"ĠØ³ØªØŃ":6125,"ĠØ¯Ùī":6126,"ĠØ§ÙĦØ¯ÙħØ§Ùħ":6127,"ĠØ§ÙĦØ«Ø§ÙĨÙī":6128,"ĠØ§ÙĦØŃØ§Ø³Ø¨":6129,"ØªÙģØ³":6130,"ĠØ§ÙĦØ¯ÙĪÙĦÙĪÙħÙĬØª":6131,"Ø§ÙģØª":6132,"ĠØ§ÙĦØºØ±Ø¨":6133,"Ø§ÙĥÙĬ":6134,"ÙĥÙĦØ§Øª":6135,"ĠÙħØ¬Ø±Ø¯":6136,"Ø§Ø¯ÙĦØ©":6137,"ĠØ¹Ø§Ø´":6138,"ĠØ¨Ø±Ø§Ø¨Ø·":6139,"ĠØªÙĪÙĤÙĬØ¹":6140,"ĠØ§ÙĦØªÙĪÙĨØ³ÙĬ":6141,"ĠØªÙħÙĪÙĬÙĦ":6142,"Ġ7694":6143,"ĠØ±Ø³ÙħÙĬ":6144,"ĠØ³ÙĬØª":6145,"ĠØŃØ¯ÙĬØ¯":6146,"ĠÙħØªÙī":6147,"ĠÙħØ³ØªØ¹ÙħÙĦ":6148,"ĠØ§ÙĦØ§Ø±Ø²":6149,"ĠØ§ÙĦÙħØ´ÙĥÙĦØ©":6150,"ĠØ§ÙĦÙħÙĥØªØ¨Ø©":6151,"ĠØªØ¬Ø±Ø¨":6152,"ĠÙħØ§Ø³ÙĨØ¬Ø±":6153,"ĠÙĩÙī":6154,"ĠÙĤØ§Ø¨ÙĦ":6155,"ĠÙĦØªØ³":6156,"Ġ2004":6157,"ĠØ§ÙĦØ¹ÙĨÙģ":6158,"ĠÙħÙĪØ³ÙĪØ¹Ø©":6159,"Ø²Ø§Øª":6160,"ĠÙĪØªØŃÙħÙĬÙĦ":6161,"ĠØ¨Ø§Ø³Øª":6162,"ĠÙħØ³Ø¬Ø¯":6163,"Ø·ÙĪØ·":6164,"ÙĦÙģÙĦ":6165,"ĠÙĤØ±Ø§Ø±Ø§Øª":6166,"ĠØ§ÙĦØ§ÙĦÙĪÙħÙĨÙĬÙĪÙħ":6167,"ĠÙĪØŃØ¯Ø§Øª":6168,"ĠØ§Ø¨ØŃØ«":6169,"ÙĪØ§Ø¬Ùĩ":6170,"Ø§ÙĦØ³ÙĬÙĪÙħ":6171,"Ø«ÙĬÙĤ":6172,"ĠÙĩÙĥØ°Ø§":6173,"ĠØ§ÙĦØ³Ø±Ø¹Ø©":6174,"ĠØ§ÙĦØ³ÙĬÙĨÙħ":6175,"ĠØ¬Ø°":6176,"ĠÙĩØ´":6177,"ĠØ§ÙĦØ§Ø³ØªØŃ":6178,"ĠÙĪÙħÙĨØªØ¬Ø§Øª":6179,"Ø§ÙĩÙħØ©":6180,"ĠØ§ÙĦØµØºÙĬØ±":6181,"ĠØ§ÙĦØ¬Ùĩ":6182,"ØªØ±ØŃ":6183,"Ø¹Ø¯Ø©":6184,"Ø¯ÙĬÙĩ":6185,"Ø¶Ø±ÙĪØ±Ø©":6186,"ĠØ§Ø³Ø§Ø³ÙĬØ§Øª":6187,"ĠØ§ÙĦØªØºØ°ÙĬØ©":6188,"ĠÙĬÙĪØ±ÙĪ":6189,"ĠØ§ÙĦÙħØŃØ±Ùĥ":6190,"ĠØªØªØ¶ÙħÙĨ":6191,"ĠØµØ¯ÙĪØ±":6192,"ĠØ¹Ø§Ø¦ÙĦØ©":6193,"ĠØ§ÙĦØ´ÙĥÙĦ":6194,"ĠØªÙĨÙħÙĬØ©":6195,"ĠÙĥØ§ÙħÙĬØ±Ø§Øª":6196,"ĠÙĥØ¨Ø§Ø±":6197,"ĠØ§ÙĦÙģØ³":6198,"ĠÙĨÙħØ§Ø°Ø¬":6199,"ĠÙĤÙĪØ§ÙĨÙĬÙĨ":6200,"ĠÙĥØ³Ø§Ø±Ùĩ":6201,"ĠØ§ÙĦÙħØ³Ùħ":6202,"ĠØ§ÙĦØªØŃØ§ÙĦÙģ":6203,"ĠØ§ÙĦÙħØªÙħ":6204,"ĠÙĪØ§ÙĦØ¹ÙĦÙĪÙħ":6205,"Ø±ÙĪÙĬØ¬":6206,"Ø§Ø¶ÙĦ":6207,"ĠÙĬØŃÙħÙĦ":6208,"Ø§ØºØ±Ø©":6209,"ĠØ§ÙĦÙħØ¬Ø§ÙĦØ§Øª":6210,"22":6211,"ĠÙĪØ§ÙĦÙħØµ":6212,"ĠÙĬØ¨ÙĦØº":6213,"ĠØ§Ø«ÙĨÙĬÙĨ":6214,"Ø±Øª":6215,"ĠØŃØ¬Ø²":6216,"ĠØ¬ÙĬØ¯Ø§":6217,"ĠÙĤØ§Ø¦Ø¯":6218,"ĠØ¨ÙĦØ§Øº":6219,"Ø·ÙĬÙĨ":6220,"ĠÙĪØ§ÙĦØªÙĤ":6221,"ĠØ§ÙĦØªØ¯Ø±ÙĬØ³":6222,"ĠÙĬÙĦØ§":6223,"ĠÙħÙĤØ¯":6224,"ĠØ¹Ø¶":6225,"ĠØŃØ¶ÙĪØ±":6226,"ĠÙĨÙĬÙĪÙĬÙĪØ±Ùĥ":6227,"ĠØ§Ø±Ø¨Ø¹":6228,"Ø§ÙĥØ¨":6229,"ØªØ¨Ùĩ":6230,"ĠÙĦØ§ÙĤ":6231,"Ø§ÙĩØ¯Ø§Ùģ":6232,"ÙħÙĬØ±ÙĬ":6233,"ĠÙħÙĨØªØ®Ø¨":6234,"ĠØ§ØªØ®Ø§Ø°":6235,"ĠÙħÙĥÙĬØ§Ø¬":6236,"ĠØ§ÙĦØ¬ÙĩØ§Øª":6237,"ĠØ¹Ø·Ø±":6238,"Ø°Ø§Ø¡":6239,"Ø±Ø§Ø²":6240,"ÙĪÙĬÙĩ":6241,"ĠØªÙĨØ³ÙĬÙĤ":6242,"Ø·ÙĨØ©":6243,"ĠØ§ÙĦØ´Ø¤ÙĪÙĨ":6244,"ÙĪØ§Ø±Ø¹":6245,"ĠØµØŃÙģÙĬ":6246,"ÙĪØº":6247,"Ø§Ø¨ÙĬØ¹":6248,"ĠØ§ÙĦÙĥØ§ÙĦØ³ÙĬÙĪÙħ":6249,"ĠÙĬÙĪÙħÙĬ":6250,"ĠÙħØªÙĥ":6251,"ĠØ§ÙĦØ±ÙĪØ§":6252,"ĠØ§ÙĦØµØ¯Ø±":6253,"ĠÙĬØ·Ø§ÙĦØ¨":6254,"ĠÙħØŃØ±ÙĥØ§Øª":6255,"ĠØ§ØµÙĪÙĦ":6256,"ĠÙĨØ³Ø§Ø¦ÙĬØ©":6257,"ĠÙģØ³Ø§ØªÙĬÙĨ":6258,"ĠØ«ÙĪØ±Ø©":6259,"ĠÙħØ§Ø±ÙĥØ§Øª":6260,"ÙĨØ§Ø·ÙĬØ³ÙĬ":6261,"ĠØ§ÙĦÙĤÙĨØ¨":6262,"ĠØ§ÙĦØ±ÙĪØ³ÙĬ":6263,"ØªØ±Ø¶":6264,"ÙĪØ§Ø±Ø¦":6265,"ĠØ³ØªÙĥÙĪÙĨ":6266,"ĠØ§ÙĦØªØ§Ø±ÙĬØ®ÙĬØ©":6267,"ĠØ¨Ø·ÙĦ":6268,"ĠØ§ÙĦÙĪØ§ÙĨ":6269,"ĠÙĦØ§ÙĬÙģ":6270,"ÙĪÙĦÙī":6271,"ĠØ§ÙĦÙĨØ§Ø¯ÙĬ":6272,"ĠÙĪØ§Ø³ØªØ®Ø¯Ø§Ùħ":6273,"ĠØŃØ±ÙĬÙĤ":6274,"ĠØªØ®Ø·ÙĬØ·":6275,"ÙģØª":6276,"ĠØ§ÙĦÙĤÙħ":6277,"ĠÙģØ¦Ø©":6278,"Ġ180":6279,"Ø°Ø§Ø±":6280,"ĠÙĬÙĨØ¨ØºÙĬ":6281,"ĠØ·ÙĪØ§ÙĦ":6282,"ĠØ²ÙĬØ§Ø±":6283,"ĠØ°ÙĪÙĬ":6284,"ĠØ±ÙĪØ¨":6285,"ĠØ§ÙĦØ¬ÙĨÙĪØ¨":6286,"ĠØ§ÙĦØµÙĨØ§Ø¹Ø§Øª":6287,"ÙģØ±Ø¯":6288,"ĠØ§ÙĦØ§Ø³Ø±Ø§Ø¦ÙĬÙĦÙĬØ©":6289,"ĠÙĨØ§Ø¬":6290,"ĠØ§Ø¬Ø¹ÙĦ":6291,"Ġ2554":6292,"ĠØ§ÙĦØ§Ø²ÙĩØ±":6293,"ĠØŃÙĦÙĤØ§Øª":6294,"ĠØ§ÙĦØ³ÙĬØ±Ø©":6295,"ĠØ¯ÙĤÙĬÙĤ":6296,"ĠØ¯ÙĪØ±Ø§Øª":6297,"ÙĦÙĪ":6298,"ĠØ§ÙĦÙĪØŃÙĬØ¯":6299,"ĠØ§ÙĦØ§Ø±Ø¯ÙĨÙĬØ©":6300,"Ø¹Ø¯ÙĬØ¯":6301,"Ø§ÙĩÙĬØ©":6302,"ĠØ§ÙĦÙĬØ©":6303,"Ø¹Ø±Ø§ÙĤ":6304,"ÙĬØªÙĥ":6305,"Ø«Ø±Ø©":6306,"Ø¦ÙĨØ§Ùģ":6307,"ĠØ§ÙĦØ§Ø·Ø¨Ø§Ø¡":6308,"ĠÙħØ²ÙĪØ¯":6309,"ĠØ§ÙĦØ§Ø®ØªÙĬØ§Ø±":6310,"ØªÙĤØ¨Ø§ÙĦ":6311,"ĠØ§ÙĦÙĥØ±ÙĪÙħ":6312,"ĠÙĬØ³ÙħØŃ":6313,"ĠØ§ÙĦÙħØ³Ø¬Ø¯":6314,"ĠØ±ÙĪØ¶Ø©":6315,"ĠØ§ÙĦØ²ÙĬØªÙĪÙĨ":6316,"ĠØ§ÙĦØ¹Ø§ÙħÙĦÙĬÙĨ":6317,"ÙģØ§ÙĨ":6318,"ĠØ§ÙĦØ·Ø§Ø¦Ø±Ø©":6319,"ĠÙĬØ¹ÙĬØ´":6320,"ĠØ§ÙĦÙĬÙħÙĨÙĬ":6321,"ÙĥÙĬÙĥ":6322,"ĠØ¨Ø§Ø³Ø¹Ø§Ø±":6323,"ĠÙĦØ§Øº":6324,"ĠÙĦÙĦØªØµ":6325,"ĠØ§ÙĥØªØ´Ø§Ùģ":6326,"ĠØ§Ø·Ø¨Ø§ÙĤ":6327,"ĠØ§ÙĩÙĦØ§":6328,"ĠØ§ÙĦÙĨÙģØ·ÙĬØ©":6329,"ĠØ§ÙĦÙħØ°Ùĥ":6330,"ĠØ§ÙĦØŃØ§ÙĦ":6331,"ĠÙĦØŃÙħ":6332,"ÙĬÙħØ§Øª":6333,"ĠØ§ÙĦÙģÙĤ":6334,"ĠÙĨØ³ØªØ®Ø¯Ùħ":6335,"ĠØ§ÙĦÙħØ¯ÙĪÙĨØ©":6336,"ĠØ§ÙĦÙģÙĥØ±":6337,"ĠÙģØ´ÙĦ":6338,"Ø·ÙĬÙĦ":6339,"ĠØ§ÙĦØµØŃÙģ":6340,"ĠÙĪØ®Ø§ØµØ©":6341,"Ø§ÙĩØ§":6342,"ĠØ§ÙĦÙħØªØ§Ø¬Ø±":6343,"ĠØ§ÙĦØ«ÙĤØ§ÙģÙĬ":6344,"ĠØªØ¬Ø§Ø±ÙĬ":6345,"ĠØ§ÙĦØ§ÙģØ±ÙĬÙĤÙĬØ©":6346,"ĠÙĬØ®Øµ":6347,"ĠØ§ÙĦØµØŃÙĬØŃ":6348,"ĠØ®ÙĬ":6349,"ĠØªÙħØ«ÙĦ":6350,"ĠØ§ÙĦØµÙĬÙĨÙĬ":6351,"ØªÙħØª":6352,"ĠØ§ÙĦØªÙĨÙģÙĬØ°ÙĬ":6353,"ĠÙģÙĬØ³":6354,"ĠÙĨÙħÙĪ":6355,"ĠØ§ÙĨØ¬ÙĦ":6356,"ĠØ§ÙĦÙĨÙħÙĪØ°Ø¬":6357,"ĠØ¨Ø§Øµ":6358,"ĠÙģØ±Ø¶":6359,"ĠØ®Ø¨Ø±Ø§Ø¡":6360,"Ø±ÙĬØ¨ÙĬ":6361,"ĠØŃÙĤÙĤ":6362,"ĠØ§ÙĦÙĥÙĬÙħÙĬØ§Ø¦ÙĬØ©":6363,"Ø§Ø¹Ø¯Ø§Øª":6364,"ĠØµØ§Ø¨ÙĪÙĨ":6365,"ĠØªØ¹ÙĪØ¯":6366,"ĠØªØ¬Ø§ÙĪØ²":6367,"64":6368,"Ø§Ø²ÙĬØ©":6369,"ØŃØµ":6370,"ĠÙĦÙĪÙĥ":6371,"ĠØ§ÙĨØªÙĤ":6372,"ĠÙĪÙĦÙĦ":6373,"ĠÙħØ³ØªÙĪÙĬØ§Øª":6374,"Ø¦ÙĪÙĦÙĬØ©":6375,"ĠÙħØ¸ÙĦØ§Øª":6376,"ĠØ§ÙĦÙħØ¬Ø§ÙĨÙĬØ©":6377,"ĠØ´Ø¹Ø¨ÙĬØ©":6378,"ĠØ§ÙĦØªÙĦÙĤ":6379,"ĠØ§ÙĦÙħÙĦÙĥÙĬ":6380,"ĠØ¹Ø¯ÙĬØ¯Ø©":6381,"ĠØªØ®ÙģÙĬ":6382,"Ø§ÙħÙĨØ©":6383,"ĠØ§ÙĦØ§Ø¯ÙĨÙī":6384,"Ø«ÙĬÙĦ":6385,"ĠØ¯Ø¹Ø§Ø¡":6386,"ĠØ§ÙĦØ¹ÙĦØ§Ùħ":6387,"ĠÙĤØ±ÙĬØ¨Ø§":6388,"ĠØ§ÙĦØ¯ÙĤÙĬÙĤ":6389,"Ø¬Ø±Ø§Ùħ":6390,"ĠØ§ÙĦØ§ÙĩÙĦÙĬØ©":6391,"Ø§ÙħØ¨ÙĪ":6392,"ĠØ§ØªØ¨Ø§Ø¹":6393,"ĠØªØ§ÙħÙĬÙĨ":6394,"Ø§ÙĬÙģ":6395,"ĠØ¹Ø§ÙĦ":6396,"ĠÙħØ¹Ø§ÙĬÙĬØ±":6397,"ĠØ§ÙĦØ±Øº":6398,"ĠØ²Ø§Ø¦Ø±":6399,"Ø§Ø¨ÙĬØ¨":6400,"ĠØ§ÙĦØ®Ø´Ø¨":6401,"ĠØ§ÙĦØ§ÙħÙĦ":6402,"ĠØ§ÙĦØ§ÙħØªØŃØ§ÙĨ":6403,"ĠØ§ÙĦØ¨Ø±Ø§Ø²ÙĬÙĦ":6404,"ĠÙĬØªÙģ":6405,"ĠÙĦÙĦØ¹Ø§Ùħ":6406,"Ø®ÙģØ¶Ø©":6407,"ĠØ¨Ø¶":6408,"ĠØªØ±Ø¨ÙĬØ©":6409,"ĠØ§Ø³Ø±Ø©":6410,"Ø¨ÙĬØ§ÙĨ":6411,"ÙĪÙģÙĬ":6412,"ĠØªØ¶Ùħ":6413,"Ø±ÙĬØ´":6414,"ĠØ§ÙĦØ·Ø¨ÙĬØ¹Ø©":6415,"ĠØ§ÙĦØ²Ø±Ø§Ø¹ÙĬØ©":6416,"ĠÙģØ¶ÙĦØ§":6417,"ĠØ§ÙĦØªØ¶":6418,"ĠØ§ÙĦØŃÙĪ":6419,"ĠØ§ÙĦÙĦØ§Ø¬":6420,"ĠØ§ÙĦØ§ÙĬÙħØ§ÙĨ":6421,"ØªÙĩØ§Ø¡":6422,"ĠØ§ÙĦÙħØ®ØªØµ":6423,"ĠØªÙĪØ¬ÙĬÙĩ":6424,"ØªØ§Ø¨Ø¹":6425,"ĠØªÙĪØ¶ÙĬ":6426,"Ø²Ùĩ":6427,"Ø§ØŃÙĩ":6428,"ĠØ§ÙĦØ¬Ø§Ø±ÙĬ":6429,"ĠØºØ§ÙĨØ§":6430,"ĠØ§ÙĦØ²Ø±Ø§Ø¹Ø©":6431,"Ø¯Ø±Ø§ÙĨ":6432,"ĠØ§ÙĦØªØ±Ùħ":6433,"ĠØªØ¬Ø§Ø±Ø©":6434,"ĠÙĪØ§ÙĦØ§Ø¬ØªÙħØ§Ø¹":6435,"ĠØ§ÙĦÙħÙĨØ§Ø®":6436,"ĠØ§ÙĦÙħØªØ¬Ø±":6437,"ĠØ§ÙĦÙĨÙĩØ§Ø¦ÙĬ":6438,"ĠÙĪØ²ÙĨ":6439,"ĠØŃØ¨ÙĪØ¨":6440,"ĠØ§ÙĦØŃØ§Ø¬":6441,"Ø±Ø§ÙĦ":6442,"Ø§ÙĦÙģØ©":6443,"Ø¯Ø§Ø¯ÙĬ":6444,"ĠÙĦÙĬÙĦ":6445,"ĠØ´Ø¹Ø§Ø±":6446,"ĠØ¹ÙħÙĦØ§Ø¡":6447,"ĠØ§ÙĦØ§ÙĥØ³":6448,"ÙĩÙĪÙĦ":6449,"ĠÙĪØ§ÙĦØ¬Ø±":6450,"70":6451,"ÙĨÙĪØ¨":6452,"ĠØµÙģØŃØ§Øª":6453,"ĠØ§ÙĤØ±Ø¨":6454,"ÙĬØ¨ÙĬØ¯ÙĬØ§":6455,"ĠØ§ÙĦØ³Ø¹ÙĬØ¯":6456,"ØªØ±ÙģÙĬÙĨ":6457,"ĠØ§ÙĦØ¬ÙħÙĬÙĦØ©":6458,"ĠÙģÙĦØ§Ø´":6459,"ĠÙħØ§ÙĦÙĥ":6460,"ĠØ´Ø§Ø¡":6461,"ĠØ§ÙĦÙģÙĥØ±ÙĬØ©":6462,"ĠØ¨ÙĬÙĨÙĩØ§":6463,"ĠÙģÙĩØ°Ø§":6464,"Ø®ÙĬÙĨ":6465,"ĠÙĪØ§ÙĦØªÙħ":6466,"ØŃÙĤØ§Øª":6467,"ĠØ§ÙĦØ®Ø·ÙĪØ·":6468,"ĠÙĦØ¯ÙĬÙĩÙħ":6469,"ĠÙħÙĩÙħØ§":6470,"ĠØ§ÙĦØ§ØªØ¬Ø§Ùĩ":6471,"ĠØªØ²ÙĬØ¯":6472,"ĠÙĪÙħÙħ":6473,"ĠØ¨Ø§ÙĦÙĤØ§ÙĩØ±Ø©":6474,"ĠÙħØªÙħ":6475,"ĠÙħØŃÙĦÙĬØ©":6476,"ĠØ¨ÙĨØ¯Ùĩ":6477,"ÙĪÙģÙĬØ©":6478,"ÙģÙĪØ¶ÙĬØ©":6479,"ĠØ±ØŃÙħÙĩ":6480,"ĠØ³ÙĦØ©":6481,"Ġ190":6482,"ØªØ§Ùħ":6483,"ĠÙħØ§Ø±Ø¨":6484,"ĠØ§ÙĦÙħÙĩÙħ":6485,"Ø´Ø³ØªØ±":6486,"ĠØ§ÙĦÙħØŃØ§ÙģØ¸Ø©":6487,"ÙĤÙĪÙħ":6488,"ĠÙĥØ§Ùģ":6489,"ĠÙĩØ¯":6490,"Ø§Ø²ÙĪÙĨ":6491,"ĠÙĤÙħØ©":6492,"ĠØ±Ø©":6493,"ĠØ§ÙĦÙħØ·ÙĦÙĪØ¨":6494,"ĠØ§ÙĦÙħÙĩØ¯ÙĬ":6495,"ĠØªØ´Ø§Ø±Ùĥ":6496,"ĠØ§ÙĦÙģÙĪØ²":6497,"ĠØ¹ÙĦÙħØ§Ø¡":6498,"ĠØ¨Ø§ÙħÙĥØ§ÙĨ":6499,"ÙĩØ¯Ø§Ø¡":6500,"ĠØ§ÙĦØ³ÙĬØ¯Ø©":6501,"ÙĪØ²ÙĬØ±":6502,"ĠØ§ØªØ´":6503,"ÙĪÙĩØ§":6504,"ĠØ§ÙĤØ³Ø§Ùħ":6505,"ĠÙĥÙĩØ±Ø¨Ø§Ø¡":6506,"ĠØ¨Ø¬ÙħÙĬØ¹":6507,"ĠØ¨Ø§ÙĦÙĦÙĩ":6508,"ĠÙĦØ¨ÙĬØ¹":6509,"ĠØ§ÙĦÙģØ¦Ø©":6510,"Ø±ÙĪØ§Øª":6511,"ÙĤÙĬØ§Ø³":6512,"ĠÙħØ´Ø§ÙĩØ¯":6513,"ØŃØ§":6514,"ĠØ±ÙĬÙģ":6515,"ĠÙĪÙħØ¹Ø¯Ø§Øª":6516,"ĠØ§ÙĦØŃÙģ":6517,"ĠØ§ØŃØ¨":6518,"ĠØ§ÙĦÙħØ³ØªØ´ÙģÙī":6519,"ĠØ§ØºØ§ÙĨÙĬ":6520,"ĠØ´Ø±ÙĥØªÙĨØ§":6521,"ĠÙħØ§Ø¡":6522,"Ø³ÙĪÙĤ":6523,"ĠÙĪØ¬Ø±":6524,"ĠØ¬ÙĪÙĦ":6525,"ĠØªÙĤÙĨÙĬØ§Øª":6526,"ĠØ§ÙĦØ³ÙĬØ±Ø§ÙħÙĬÙĥ":6527,"68":6528,"ĠØ¹Ø¨Ø¯Ø§ÙĦØ±ØŃÙħÙĨ":6529,"ÙĬÙĥÙħ":6530,"ÙģÙī":6531,"ĠÙĥÙĪØ±Ø©":6532,"ĠØ§ÙĦØªÙĤÙĬÙĬÙħ":6533,"Ø±ÙĬÙĩ":6534,"ĠÙĪØ¨Ø¹":6535,"Ø§Ø¯ÙĬÙĤ":6536,"ĠØ¨Ø§Ø±Ùĥ":6537,"ĠÙĦØ¶ÙħØ§ÙĨ":6538,"ĠØ¹ÙĪ":6539,"ĠØ§ÙĦØ´Ùģ":6540,"ĠÙĪØ¨ØŃ":6541,"ĠØŃØ¨ÙĬØ¨":6542,"ĠØ¶ØŃØ§ÙĬØ§":6543,"ĠØªØ®Ø²ÙĬÙĨ":6544,"ĠØ±Ø¶Ø§":6545,"ĠØ§ÙĦØ¬Ø¯Ø¯":6546,"ÙĬØ²Ø§ÙĨÙĬØ©":6547,"Ø§Ø±Ø¯Ø©":6548,"Ø¬Ø§Ùħ":6549,"ØºØ±Ø§Ùħ":6550,"ØºÙĨÙĬØ²":6551,"Ø¦Ø§Ø¨":6552,"ĠØ§ÙĦØ§Ø³Ø¨":6553,"ĠÙĬØ³ØªÙĤØ¨ÙĦ":6554,"ĠÙĦÙĪÙĦ":6555,"ĠÙĦÙĦØ§Ø®":6556,"ĠØ®ØµØ§Ø¦Øµ":6557,"ĠØªØªÙħÙĥÙĨ":6558,"Ø§ÙĦØ±":6559,"ĠØ§ÙĦØ§ØŃÙĥØ§Ùħ":6560,"ĠØ§ÙĦØ±ØŃÙĦØ§Øª":6561,"ĠÙĪØ§ÙĦØ§ÙĤØªØµ":6562,"ĠØ®Ø§ÙĦÙĬØ©":6563,"ĠØ§ÙĦØ§Ø³ØªÙģØ§Ø¯Ø©":6564,"Ø³ÙĪ":6565,"ĠØ§ÙĦØ¯Ø±Ø¬Ø©":6566,"ĠÙħØŃÙħÙĪÙĦØ©":6567,"Ġ679":6568,"ĠØ§ÙĦØªÙĩØ§Ø¨":6569,"ĠØ§ÙĦÙħÙĨØ²ÙĦÙĬ":6570,"ĠÙħØ¯Ø±Ø¨":6571,"ĠØ§ÙĦÙħØªØ§ØŃØ©":6572,"ĠØ§ÙĦØ§ÙĪØ±Ø§ÙĤ":6573,"ĠØ§ÙĦÙĨØ§ÙĤÙĦØ©":6574,"ÙĪØ±ÙĬÙĪØ³":6575,"ĠÙĦÙĨÙĤÙĦ":6576,"ĠÙħÙĨØ²":6577,"ĠØ¹ÙĤØ¨":6578,"ÙħØ§ÙĦÙĬ":6579,"ĠÙĬØ±Ø¯":6580,"ĠØ§ÙĦØ§ÙħÙĬØ±ÙĥÙĬ":6581,"ĠØ§ÙĦØªØ³Ùħ":6582,"ĠØ§ÙĦØ¬Ø§Ùĩ":6583,"ĠØ§ÙĦØ§ØµØ·ÙĨØ§Ø¹ÙĬ":6584,"ÙĬÙĩØ§":6585,"ĠØªØµØ±ÙĬØŃØ§Øª":6586,"ĠÙħÙĤØ§ÙĪÙħØ©":6587,"Ø¬ØŃ":6588,"ĠØ¨ØŃØ¶ÙĪØ±":6589,"ĠØ³ÙħÙĬØ±":6590,"Ġ98":6591,"ĠØ§ÙĦÙħÙĨØ¸":6592,"ĠØªÙĤÙĪÙĦ":6593,"ĠØªØ·ÙĪØ±":6594,"ĠØ§ÙĦÙħØ¹ÙĦØ¨Ø©":6595,"ĠÙĨØ¹ÙħÙĦ":6596,"ĠØ¨ÙĬÙĨØª":6597,"ĠØ§ÙĦØ¹ÙĦØ§ÙħØ§Øª":6598,"ĠÙħÙĨØ§ÙĤØ´Ø©":6599,"ĠØ§ÙĦØ§ØŃØ¬Ø§Ø±":6600,"ĠÙĪÙĬÙĥÙĬØ¨ÙĬØ¯ÙĬØ§":6601,"ĠÙħØªØ¬":6602,"ĠØªØ¯Ø¹ÙĪ":6603,"ĠÙĥÙĩØ±Ø¨Ø§Ø¦ÙĬØ©":6604,"ĠØ¹ÙĩØ¯":6605,"ĠØ§ÙĦÙģØ§Øª":6606,"ĠØ§ÙĦÙħØ³Ø¤ÙĪÙĦÙĬØ©":6607,"ÙħØ§Ø·":6608,"ĠØªÙĪØ¨":6609,"ĠØ¬Ø±Ø§Ø¡":6610,"ĠØ±Ø¹Ø§ÙĬØ©":6611,"Ġ700":6612,"ĠØ¤":6613,"ĠØ¹ÙĨØ§ÙĪÙĬÙĨ":6614,"ĠØ§ÙĦØ³ÙĪÙĬØ¯":6615,"ĠÙģÙĩØ¯":6616,"ĠÙĥÙĦÙĩØ§":6617,"ĠÙĦØ§ØŃØ¯":6618,"ĠØ§Ø³Ø±Ø§Ø±":6619,"ĠØ§ÙĦØªØ§ÙħÙĬÙĨ":6620,"ĠÙĦÙĦØªØ±":6621,"ĠØ·Ø±Ø§Ø¨":6622,"ĠØ§ÙĦØªØ·ÙĪÙĬØ±":6623,"ĠØ§ÙĦØ³ÙĦØ§ÙħØ©":6624,"ĠÙĬØµØ¯Ø±":6625,"ĠÙħØ¶Ùħ":6626,"Ø±Ø§ÙĨ":6627,"ĠØ§ÙĦÙĨØ´Ø±Ø©":6628,"ÙĪØªØ³":6629,"ĠØ§Ø¶Ø·Ø±":6630,"ĠÙĪØ§ÙĩÙħ":6631,"ÙĪÙĩØ±Ø§Øª":6632,"Ø¹Ø±Ø¨ÙĬ":6633,"ĠØ§ÙĦØªÙĤØ¯Ùħ":6634,"ĠØ¯ÙĬÙĥÙĪØ±":6635,"ĠÙĪÙĥÙĬÙģÙĬØ©":6636,"ĠÙĪÙĤØ¹":6637,"ØªÙĩØ§ÙĥØ§Øª":6638,"ĠÙĪØ§ÙĨÙĩ":6639,"ĠØ§ÙĦØªÙĥÙĦÙģØ©":6640,"ĠØ³Ø§Ø®ÙĨ":6641,"ĠØ´Ø§Ùĩ":6642,"Ø§Ø°ÙĨ":6643,"ĠØªÙĥÙĪÙĬÙĨ":6644,"ĠØ³ÙĬÙĨØ§Ø¡":6645,"ĠØ³Ø§Ø¹Ø¯":6646,"ĠÙħØ·Ø§ÙĦ":6647,"ĠØ®Ø·Ø·":6648,"Ġ320":6649,"ĠØ§ÙĦÙĨÙģØ³ÙĬ":6650,"ĠØ§ÙĦÙģØ¶Ø§Ø¡":6651,"Ø§ÙĪØ¶Ø§Øª":6652,"Ġ350":6653,"ĠØªÙĪÙĤØ¹Ø§Øª":6654,"ØµØ§ÙĨ":6655,"ĠØŃØ¶Ø±":6656,"Ø¬ÙĦØ¯":6657,"ĠØªØ«Ø¨ÙĬØª":6658,"ĠØ§ÙĦØ·ÙĬ":6659,"Ø§Ø²ÙĦØª":6660,"ĠØ§ÙĥØªØ¨":6661,"ĠØŃØ±Ùģ":6662,"ĠØ§ÙĦØ«Ø§ÙħÙĨ":6663,"ĠØ§Ø«ÙĬÙĪØ¨ÙĬØ§":6664,"ĠØªÙĪÙĥÙĬÙĦ":6665,"Ø±Ùĩ":6666,"ĠÙħÙĥÙĪÙĨØ§Øª":6667,"ĠØ§ÙĦØ¨Ø®":6668,"ĠØ§ÙĦÙĨØ§Ø´":6669,"ĠØ§ÙĦØ±Ø¨":6670,"ĠÙĪÙĬÙĪ":6671,"ØªØ±Ø§Ùģ":6672,"ĠØ§Ø¯Ø§Ø±ÙĬØ©":6673,"ĠØªØ³Ø¬ÙĦ":6674,"Ø¬ÙĦÙĬØ²ÙĬ":6675,"ĠØ§ÙĦÙħØ³ÙĬØŃ":6676,"ĠØ§Ø±Ùħ":6677,"Ø¯Ø§ÙħØ©":6678,"Ø§ÙĨØ³ÙĬØ©":6679,"Ø´Ø§Ø¯":6680,"ĠÙħØ¯ÙĬØ±ÙĬØ©":6681,"ÙģØ§Ø±":6682,"ĠØ§ÙĦÙĨÙĪØ±":6683,"ĠØ§Ø³ØªØ®Ø¯Ø§ÙħÙĩ":6684,"ĠÙĪØ§ØªØ³":6685,"ĠØ§ÙĦÙĦÙĩÙħ":6686,"ĠØ§ÙĦØ«ÙĤØ©":6687,"ĠØ§ÙĦØªØ¹Ø±ÙĬÙģ":6688,"Ø¶Ùģ":6689,"ĠÙĬÙħØ«ÙĦ":6690,"ÙħØªØ¹":6691,"ĠÙĤØ¨ÙĪÙĦ":6692,"ĠØ§ÙĨÙģØ³":6693,"Ø§ÙĤÙħ":6694,"ĠØ³Ø¨ÙĦ":6695,"ĠØ´Ø¤ÙĪÙĨ":6696,"Ġ2005":6697,"ĠÛĮ":6698,"ĠØ§ÙĦØ¯ÙĪØ§Ø¡":6699,"ĠØŃØ¸":6700,"ĠØ§ÙĦÙħÙĪØ¸ÙģÙĬÙĨ":6701,"ĠØ§ÙĦÙĥÙĨÙĬØ³Ø©":6702,"ĠÙĪØ±Ø¨":6703,"ÙĪØ±ÙĬØ¯":6704,"ĠØ§Ø®Ø±ÙĬÙĨ":6705,"ĠØ¨ØªÙĤØ¯ÙĬÙħ":6706,"ĠØ§ÙĦØ¬Ø²Ø§Ø¦Ø±ÙĬØ©":6707,"ĠÙĪØ§ÙĦØ°":6708,"ĠØ§ÙĦØªÙĪØ¸ÙĬÙģ":6709,"Ø§ÙħÙĩ":6710,"ĠÙĪØ§ÙĦØ±ÙĬØ§Ø¶":6711,"ĠØ§ØŃÙĦÙī":6712,"ĠÙħÙĩÙĨØ¯Ø³":6713,"ĠØ§ØŃÙĬØ§Ø¡":6714,"ĠØ§ÙĦØ§ØµØ¯Ø§Ø±":6715,"ĠÙħØ¬Ø§ÙĦØ³":6716,"ĠØ±Ø³ÙħÙĬØ§":6717,"ĠØ§ÙĦØŃÙĪØ«ÙĬ":6718,"ĠØ¨Ø²":6719,"Ø·Ùī":6720,"ĠØ§ÙĦØ§Ø²Ø±ÙĤ":6721,"ĠÙĦØ§ÙĦ":6722,"ĠØªØ§ÙĬÙĦ":6723,"ĠØ²Ø§ÙĬØ¯":6724,"ĠØ¨ÙĦØ³":6725,"ĠØªØªÙħÙĬØ²":6726,"ĠØ±Ø¶":6727,"ĠØ§ÙĦÙĨÙĪÙĪÙĬ":6728,"ĠÙ±ÙĦ":6729,"Ø³ÙĬØ³":6730,"ĠØ§ØµØ¯Ø§Ø±Ø§Øª":6731,"ĠØ§ÙĦÙħØ§Ùĥ":6732,"ÙģØ±Ø§Øª":6733,"ĠÙħØ±Ø§ØŃÙĦ":6734,"ĠÙĪÙĬØ³Øª":6735,"ĠØ§ÙĦÙĬÙħÙĨÙĬØ©":6736,"ĠÙĪØ§ÙĦØ§Ø´":6737,"ĠØ´Ø§Ø±":6738,"55":6739,"ĠØ§ÙĨØ¨ÙĪØ¨":6740,"Ø§ÙĩÙĬ":6741,"ĠØªØ§ØªÙĬ":6742,"Ø§ÙģÙĦØ©":6743,"ĠØ§ÙĦÙĤØµØ©":6744,"ĠØ§ÙĦØ·Ø±Ùģ":6745,"Ø¨Ø¯Ø§ÙĦ":6746,"ÙĬØ°":6747,"ĠØ§ÙĦØ¹ÙģØ´":6748,"Ø§Ø¦ÙĩÙħ":6749,"ĠØ®Ø±ÙĪØ¬":6750,"ĠØ§ÙĦÙħØ±ÙĥØ²ÙĬØ©":6751,"ĠØ®Ø¨Ø±Ø©":6752,"ĠØ§ÙĦÙħÙĪÙĦØ¯":6753,"ĠØ§ÙĦØ®Ø·ÙĪØ©":6754,"ĠÙģØ§ØµÙĦ":6755,"ĠØ§Ø®Ø¨Ø±":6756,"ĠÙĦÙħÙĥØ§ÙģØŃØ©":6757,"ĠØ§ÙĦÙģÙĨØ§ÙĨØ©":6758,"Ø§ØºØ©":6759,"ĠÙĪØ§ÙĪØ¶ØŃ":6760,"ĠÙĦØ§Ø±":6761,"ĠØ§ÙĦØ´Ùħ":6762,"ĠØ§ÙĦÙĤÙĪÙħÙĬ":6763,"ĠÙħØ§ÙĬÙĥ":6764,"ĠØ³ÙĬØ§Ø³ÙĬ":6765,"ĠÙĪÙĤØ§ÙĦØª":6766,"ĠÙĦÙĦÙĨØ´Ø±":6767,"ĠØ¬Ø±Ø§Ø¦Ùħ":6768,"Ġ83":6769,"ĠØ§ØºØ³":6770,"ĠØ§ÙĦØªØµÙĪÙĬØ±":6771,"ÙĬÙĩØ§Øª":6772,"ĠÙĪØ²ÙĬØ±Ø©":6773,"ĠÙħØ±ÙĬÙħ":6774,"ĠØŃØ¬":6775,"ĠØ§ÙĦÙħØ³Ø§Ø±":6776,"ĠÙĩÙĪØ§":6777,"ĠØ§ÙĦØ§Ø¬Ø§ÙĨØ¨":6778,"ĠØ§Ø¨Ø¯":6779,"Ø§ÙĪØŃ":6780,"Ø²ÙĤ":6781,"ĠØ§ÙĦÙĨÙĩØ§Ø¦ÙĬØ©":6782,"ĠÙĦÙĦØ§ÙĦ":6783,"ĠÙĤØ§Ø¨ÙĦØ©":6784,"ÙĬÙĪØ§ÙĨØ§Øª":6785,"ĠØ§ØŃØªÙĬØ§Ø¬Ø§Øª":6786,"ĠÙĨØ§ØŃÙĬØ©":6787,"Ġ160":6788,"ĠÙĪØ¬ÙĦ":6789,"ĠØ¶Ùħ":6790,"ĠÙĬØ¹ØªÙħØ¯":6791,"ĠØ§ÙĦØªÙĤÙĦÙĬØ¯ÙĬØ©":6792,"ĠÙħÙĦØ§ØŃØ¸Ø©":6793,"ĠÙĪÙħØ¤":6794,"Ø¨Ø±Ø§Ø·":6795,"ĠØ§Ø³ØªØ«":6796,"ĠÙĪÙħÙĨÙĩØ§":6797,"ĠÙħØªÙĪØ³Ø·Ø©":6798,"ĠØ¨Ø§ÙĦØªØ¹Ø§ÙĪÙĨ":6799,"ĠÙĨÙĥ":6800,"ĠØ§ÙĦØ§ÙĤØªØ±":6801,"ĠØ§ÙĦÙĦÙĤØ§Ø¡":6802,"ĠØ§ÙĦÙĤØ³":6803,"ĠÙĪÙĬØ¯":6804,"ĠØ¨ØªØ±":6805,"ĠÙĦÙĦØ«":6806,"ĠØ§ÙĦØ§ÙĨØ´Ø·Ø©":6807,"ĠØ§ÙĦØ¯Ø§Ø±":6808,"ĠÙĦÙĦØ²":6809,"ĠØ²Ø§Ø¯":6810,"ĠÙĪØ§ÙĨÙħØ§":6811,"ĠØ§ÙĦØ®Ø¨Ø«":6812,"ĠÙĦØ´Ø±Ø§Ø¡":6813,"ĠÙĪØ§ÙĦØ¨ØŃ":6814,"ĠØ§ÙĦØŃØ²Ø¨":6815,"ĠØªØµØ¨ØŃ":6816,"ÙĬØ´Ø©":6817,"ĠØ§ÙĦÙħÙĨØºÙĨÙĬØ²":6818,"ĠÙħÙĪØ«":6819,"Ġ765":6820,"ĠØ§ÙĦØ§ØªØŃ":6821,"ĠØ§ØºÙĦØ¨":6822,"ĠØ§ÙĦÙĦØ¹Ø¨":6823,"ĠÙĬÙĦØªÙĤÙĬ":6824,"ĠØ³Ø§Ø¦ÙĤ":6825,"ĠØ´Ø¯ÙĬØ¯":6826,"ĠØ§ÙĦÙĤÙĪÙī":6827,"ÙĬØªÙĬÙĨ":6828,"ĠÙĦÙĪØŃØ§Øª":6829,"ÙĪÙĬÙģ":6830,"ĠØ¹Ø§Ø¦ÙĦ":6831,"ĠÙħØŃÙĦØ§Øª":6832,"ÙĨÙĪ":6833,"ÙĬØªØ¯":6834,"ĠØ§ÙĦÙħÙĪØ§ÙģÙĤØ©":6835,"ĠØ·ÙĨØ¬Ø©":6836,"ĠØ§ÙĦÙĨÙĬØ§Ø¨Ø©":6837,"ÙģÙģ":6838,"ĠØ®Ø±Ø¬":6839,"ĠÙħØ³Ø§Ø±":6840,"ĠØ´Ø®ØµØ§":6841,"ĠØªØ³ÙħØŃ":6842,"ĠØ§ÙĦØ¨ÙĦØ¯Ø§ÙĨ":6843,"Ø¶Ø¨":6844,"ĠÙĤØµØ±":6845,"ĠØ§ÙĦØ§Ø³Ø¨Ø§ÙĨÙĬ":6846,"ĠØ³ÙħÙĪ":6847,"ÙħÙĬÙĪÙħ":6848,"ĠØ§ÙĦÙĨØ®":6849,"ĠØªØ±Ø¯":6850,"ĠÙĬØŃØ¨":6851,"ĠÙħØ²Ø§ÙĬØ§":6852,"ØºØ§":6853,"Ø¹ÙĦØ§Ùħ":6854,"ĠÙĦÙĦØ¬ÙħÙĬØ¹":6855,"Ø§Ø·Ø§Øª":6856,"ĠØªØªØ®":6857,"ØµÙĬ":6858,"ĠÙĪØ§ÙĦØªØ®":6859,"ĠØªØ®ØªÙĦÙģ":6860,"ĠÙĦÙĥÙĨÙĩ":6861,"ĠÙĨØ¸Ø±Ø©":6862,"ĠÙĦÙĦØ§Ø¨":6863,"ĠØ§ÙĦØ¬ÙħÙĦØ©":6864,"ĠØ§ÙĦÙĦÙĪ":6865,"ĠØ§Ø®ØªØ¨Ø§Ø±Ø§Øª":6866,"ĠÙħØªØ®ØµØµØ©":6867,"Ø§ÙĨÙĪ":6868,"ØªØ¯Ø¦ÙĬÙĨ":6869,"ĠØ§ÙĦØ§ÙĦØºØ§Ùħ":6870,"Ġ125":6871,"ĠÙĪÙħØ®":6872,"ĠÙģØ§ÙĬØ±":6873,"ĠØ§ÙĦÙĤØ¶ÙĬØ©":6874,"ÙħÙĨÙĬ":6875,"ĠØ±ÙĪØ§Ø¨Ø·":6876,"ÙĤÙĬÙĨ":6877,"ĠÙģÙĤÙĩ":6878,"ĠÙ¾":6879,"ĠÙĤÙĬØ§Ùħ":6880,"ĠÙĪØ§ÙĦØªØ´":6881,"ĠØªØ¤ÙĥØ¯":6882,"ĠØ§ÙĦØªØ®Ø·ÙĬØ·":6883,"ĠÙħÙĨØ³":6884,"ÙĤÙĦØ§ÙĦ":6885,"ĠØ®ÙĦÙĬÙģØ©":6886,"ĠØªÙĪØµ":6887,"ĠØ§ÙĦÙħØ§Ø±ÙĥØ§Øª":6888,"ĠØ¨Ø±ÙħØ¬Ø©":6889,"ĠØ§ÙĦØ§Ø²ÙĬØ§Ø¡":6890,"ĠÙĪØ§ÙĦØªØ·ÙĪÙĬØ±":6891,"ÙģÙĬÙĤ":6892,"ĠØªÙħÙĪØ²":6893,"ĠÙĬØŃÙĬÙī":6894,"ĠÙĤÙĬØ¯":6895,"ĠØ§ÙĦØ¶ÙĪØ¡":6896,"ĠÙĬÙħÙĥÙĨÙĨÙĬ":6897,"ĠØ§ÙĦØ§Ø¯Ø¨ÙĬØ©":6898,"ĠØ§ÙĦØ®Ø¨Ø±Ø©":6899,"ĠÙħØ±Ø§Ø¬Ø¹Ø§Øª":6900,"ĠØ§ÙĦØ§Ø¯Ø§Ø±ÙĬ":6901,"ĠØ¨Ø§ÙĦØ§Ø¹":6902,"ĠØ§ÙĦÙĪÙĤÙĪØ¯":6903,"ĠØ§ÙĦÙĪÙĦØ§Ø¯Ø©":6904,"ĠØ¨ÙĪØµØ©":6905,"ĠØ§ÙĦØ¨Ø·ÙĪÙĦØ©":6906,"ĠØ¨Ø²ÙĬØ§Ø±Ø©":6907,"ĠØ§Ø¯ÙĬØ¯":6908,"ĠÙħØ·Ø§ÙĦØ¨":6909,"ĠÙĤØ±ÙĬØ¨":6910,"ĠØ§ÙĦØ¬ÙħØ¹":6911,"ØªØ§ÙĪÙī":6912,"Ø§ÙĪÙī":6913,"ĠØ§ÙĦØ§Ø¨Ø¹Ø§Ø¯":6914,"ĠØ§ÙĦÙħØ®Ø¯Ø±Ø§Øª":6915,"ĠØ¶Ø¹Ùģ":6916,"ĠØ§ÙĦØ´ØªØ§Ø¡":6917,"ĠØ§ÙĦØ§Ø³ÙħØ§Ø¡":6918,"ĠØ§Ø¯ÙĬØ¯Ø§Ø³":6919,"ĠÙĪØ§Ø¦ÙĦ":6920,"ĠÙħÙĨØª":6921,"ĠØ§ÙĦØ·ÙĪ":6922,"ĠÙħØ·Ø±ÙĤØ©":6923,"ĠÙģØ§Ø¹":6924,"ĠÙĦÙĦÙħØ²ÙĬØ¯":6925,"ĠØ¨ØŃØ±":6926,"ĠØ§ÙĦØ§Ø·ÙĦØ§ÙĤ":6927,"ĠØªØ¨ÙĦØº":6928,"ĠØ¹ÙĦÙħÙĬØ©":6929,"ĠØ§ÙĦØ§ØŃÙĬØ§ÙĨ":6930,"ĠØŃØ§Ø¬":6931,"ĠØ§ÙĦÙĪÙĥ":6932,"Ø§Ø´ÙĬ":6933,"ĠØ§ÙĬÙĤØ§Ùģ":6934,"13":6935,"ĠÙĪØ¨ÙĦ":6936,"ĠØ§ÙĨØ¬Ø§Ø²":6937,"ĠØ§ÙĦØªØ§Ø³Ø¹":6938,"Ø§ÙĪØ©":6939,"ĠØ§ÙĦÙħÙĩÙħØ©":6940,"ĠØ³ÙĦØ·Ø§ÙĨ":6941,"62":6942,"ÙĩÙĬÙĦ":6943,"ĠÙĤØ¯ÙĬÙħ":6944,"Ø·ÙĬÙģ":6945,"Ø°ÙĬØ±":6946,"ĠØ§ÙĦØ¹ÙĤØ¯":6947,"ĠØ§ÙĦØ³ÙģÙĬØ±":6948,"ĠØ§ÙĦÙĪØ³ÙĬØ·":6949,"ĠØ§ÙĦØ·Ø¨Ø¹":6950,"ĠÙĪØ§ØµØ§Ø¨Ø©":6951,"ĠØªØŃØ§ÙĪÙĦ":6952,"ĠØ§ÙĦÙħØ³ØªØ¬Ø¯":6953,"ĠÙħØ¹ÙĬÙĨ":6954,"ĠØ§Ø³ØªÙĩÙĦ":6955,"ĠØ§ÙĦØªÙĬØ§Ø±":6956,"ĠØ§ÙĦØŃÙĬÙĪÙĬØ©":6957,"ĠØ±ÙĪØ§ÙĬØ§Øª":6958,"ĠÙĪØ§ÙĦØªØ¬":6959,"ĠÙĨØ¯ÙĪØ©":6960,"ĠÙĪÙĪÙģ":6961,"ĠÙħØ¬Ø§ÙĦØ§Øª":6962,"ĠØ·Ø§ÙĦØ¨Ø§ÙĨ":6963,"ĠØ§ÙĦØ´Ø§Ùħ":6964,"ĠØ§ÙĦÙħØŃØª":6965,"ĠÙħØªÙģØ±":6966,"ĠØ§ÙĦØ¨ÙĪÙĥØ³":6967,"ĠØ·Ø¹Ø§Ùħ":6968,"ĠØ´Ø¨ÙĥØ§Øª":6969,"ĠØ®Ø¨":6970,"ĠØ§ÙĦÙħØªÙĤØ¯Ùħ":6971,"ĠÙħÙĦØ¹Ø¨":6972,"ĠØ³Ø¹Ø©":6973,"ĠØ§ÙĦØ³Ø§ØŃÙĦ":6974,"ĠØ§ÙĦØ¬ÙĬØ±":6975,"ĠØ§Ø®Øµ":6976,"ĠØ§Ø³ØªØ¶Ø§ÙģØ©":6977,"ĠØ±Ø³ÙħÙĬØ©":6978,"ÙĦÙĥÙĬØ©":6979,"ĠØ²ÙĬØ¯ÙĪÙĨ":6980,"Ø¨ÙĤÙī":6981,"ĠØ§ÙĦÙĦØ§Ø¬Ø¦ÙĬÙĨ":6982,"Ø²ÙĪ":6983,"ĠØ¯Ø¨":6984,"ĠÙĥÙĦØ§":6985,"ĠÙĨÙĤØµ":6986,"ĠØ§ÙĦØ§ÙĬØ·Ø§ÙĦÙĬØ©":6987,"ÙĪØ±Ùī":6988,"ĠØ¯ÙĪØª":6989,"ĠÙħØ¯ÙĨ":6990,"ĠÙĦØªØ¬ÙĩÙĬØ²":6991,"ÙĨÙħ":6992,"ÙĬÙĨØ¬":6993,"Ø§Ø¨Ø®":6994,"ĠÙĬØªØŃØ¯Ø«":6995,"ĠØ§ÙĦØ®Ø¶Ø±Ø§Ø¡":6996,"ĠÙĦÙĬØª":6997,"ĠØªØ±Ø¨":6998,"ĠØ§ÙĦÙħØ§Ø±ÙĥØ©":6999,"ĠÙĬØ¹ÙĦÙħ":7000,"ĠÙħØ³Ø±ØŃ":7001,"ĠØ¹ÙĤØ§Ø±Ø§Øª":7002,"ÙĬØ±ÙĬØ³Øª":7003,"ĠÙĦÙĦØ¨Ø´Ø±Ø©":7004,"ĠØ§ÙĦØªØ³ÙĬÙĬØ±":7005,"ĠØ§ÙĦØ§Ø³Ø§Ø³":7006,"ØªØ¨Ø¯":7007,"ĠØ§ÙĦØ¨Ø±ÙĬØ·Ø§ÙĨÙĬ":7008,"ĠÙģÙĨÙĬØ©":7009,"ÙĤÙĬØ§Ùħ":7010,"ÙĪØ°":7011,"Ø´Ø§":7012,"ĠÙħÙĨØ§Ø¬Ùħ":7013,"ĠØ§ÙĦÙħÙĤØ±":7014,"ĠØ³ÙĥØ±":7015,"ĠØ³ÙĩÙĦ":7016,"ĠÙħØªØ·ÙĦØ¨Ø§Øª":7017,"ĠÙħØ³ÙĬØ±Ø©":7018,"ĠØªØ±Ùī":7019,"ĠØ§ÙĦØ°ÙĩØ¨ÙĬØ©":7020,"ÙħÙĪØ±":7021,"ĠÙĬÙħÙĥÙĨÙĥÙħ":7022,"ĠÙħÙĪØ¸Ùģ":7023,"ĠØ§ØµØ§Ø¨Ø§Øª":7024,"Ø·Ø¨Ø§Ø¹Ø©":7025,"ĠØ§ÙĦØ¬ÙĪÙĦØ©":7026,"ĠÙĥØªØ¨ÙĩØ§":7027,"ĠØ§ÙĦÙĦØ§Ø¹Ø¨":7028,"ĠÙĥØ§ÙħÙĬØ±Ø§":7029,"ÙĬÙĨØª":7030,"ĠØªØ±ÙĥÙĬ":7031,"ĠØ§ÙĦØ´ÙĩÙĬØ¯":7032,"ÙģØ±Ø¶":7033,"ĠØ§ÙĦØºØ±":7034,"ĠØ§Ø·Ø¨Ø§Ø¡":7035,"ĠØµØŃÙģÙĬØ©":7036,"Ø§Ø¹Ø¯Ø§Ø¯":7037,"ĠØ§ÙĦÙĤÙĪØ§ÙĨÙĬÙĨ":7038,"ĠÙĪÙĩÙĦ":7039,"ĠØ§ÙĤØµÙī":7040,"ĠØ§ÙĦØ³Ø§Ø¯Ø³Ø©":7041,"ĠØ§ÙĦÙģÙĬØ³Ø¨ÙĪÙĥ":7042,"ØªÙĥÙħ":7043,"ĠÙħÙĥÙĪÙĨ":7044,"ĠÙĦÙĦÙħØ±Ø©":7045,"ĠØ§Ø³ØªÙĦØ§Ùħ":7046,"ĠØ§ÙĦÙĩÙĪ":7047,"ĠØ§ÙĦØ§ÙĦÙħØ§ÙĨÙĬ":7048,"ØµØ¨":7049,"ĠØ§ÙĦØ§Ø·Ø¹ÙħØ©":7050,"Ø§ÙĦÙĨ":7051,"ĠØªØ±ÙĥÙĬØ©":7052,"ĠØ¨Ø§ÙĦØªÙģ":7053,"ĠØ§ÙĦØ´Ø§ÙħÙĦØ©":7054,"ĠØªÙĨÙģÙĬ":7055,"ÙħÙĤ":7056,"Ø²ÙħØ©":7057,"ĠØ¨Ø§ÙĦÙħÙĪ":7058,"ĠØ¹ÙħÙĪØ¯ÙĬØ©":7059,"ĠÙĨÙĪÙĨ":7060,"ĠØ§ÙĦØ¯Ø§Ø®ÙĦ":7061,"ÙĦÙĬÙĩ":7062,"ĠÙħÙĪØ§Ø¹ÙĬØ¯":7063,"Ø§Ø²Ø§ÙĨ":7064,"ĠØ§Ø®ÙĬ":7065,"ĠÙħØ¬ÙħÙĪØ¹Ø§Øª":7066,"ĠØ¨Ø±ÙĬÙħÙĬÙĪÙħ":7067,"ĠØ§ÙħÙĨÙĬØ©":7068,"ĠØŃØ¯ÙĬØ«Ø©":7069,"ĠØ¨Ø§ÙĦØ¶ØºØ·":7070,"ĠØ§ÙĦØ¹ÙĤØ§Ø±ÙĬØ©":7071,"ĠØ§ÙĦØ¹ÙħÙĪÙħÙĬØ©":7072,"ĠØ§ÙĦØ°ÙĩØ¨ÙĬ":7073,"ÙģÙĨ":7074,"ĠØŃØ¯Ø¯":7075,"ĠØ³ÙĨÚ¯":7076,"ĠØ¬Ø¯ÙĪÙī":7077,"ĠØ§ÙĦØ¯Ø¹ÙĪØ©":7078,"Ø«ÙħØ±ÙĬÙĨ":7079,"ĠÙĦÙĦØ§":7080,"ØºÙĪØ·":7081,"ĠØ±Ø¦ÙĬØ³ÙĬ":7082,"ĠØ§ÙĦÙħØ³ØªØ´ÙģÙĬØ§Øª":7083,"ĠÙĦØªØ¶Ùģ":7084,"ĠÙĪÙĥØ°Ø§":7085,"ĠØ§ÙĦØ§Ø¨Ø¯Ø§Ø¹":7086,"ĠÙĩØ±":7087,"ÙĬØ¨Ø§":7088,"ĠÙĬØ²Ø§ÙĦ":7089,"ĠØ¨ÙĬÙĨØªÙĬØ±ÙĬØ³Øª":7090,"ĠØ§ÙĦÙħÙĦØŃ":7091,"ĠÙĨÙģØ³ÙĬ":7092,"ĠØŃØ±Ø§Ø±Ø©":7093,"ĠÙħØ³Ø¬ÙĦ":7094,"ĠØ¨Ø¬Ø¯Ø©":7095,"ĠØ§ÙĦØµÙĦØ¨Ø©":7096,"Ø§ÙĦÙĬØ§Øª":7097,"ĠØ§ÙĦÙĦÙĬØ²Ø±":7098,"ĠØªÙĤØ¯ÙħÙĩØ§":7099,"ĠØ´Ø§ØºØ±Ø©":7100,"47":7101,"ĠØ§ÙĦØªØ²Ø§Ùħ":7102,"Ġ1496":7103,"ĠØ§ÙĦØ¹Ø¯Ø§ÙĦØ©":7104,"ĠÙĪØ§ÙĦØªÙĨÙħÙĬØ©":7105,"Ø¨ÙĬØ¨Ø©":7106,"ĠØ§ÙĦØµØ§ÙĦØŃ":7107,"ĠØ§ÙĦÙĨØ³Ø§Ø¦ÙĬØ©":7108,"ĠØ¨ÙģØ¶ÙĦ":7109,"Ø§Ø·ÙĬÙĦ":7110,"ĠØ§ÙĦØ§Ø·Ø±Ø§Ùģ":7111,"ĠÙħØ¨ÙĦØº":7112,"ĠÙĬÙĨØ§":7113,"ĠØ§ÙĦØ¨ØŃÙĪØ«":7114,"ĠÙĪØ®Ø¯ÙħØ§Øª":7115,"ĠØ¨ÙħØ¯":7116,"ĠØ§Ø²ÙĩØ±":7117,"Ø³ÙĪÙħ":7118,"ĠØ§ÙĦØ¬Ø§ÙħØ¹ÙĬØ©":7119,"ĠØ²ÙĪØ¬ØªÙĩ":7120,"ĠØºÙĬØ§Ø¨":7121,"ĠÙĦÙĦØªØ¹ÙĦÙĬÙħ":7122,"ĠÙĩÙĨØ¯Ø³Ø©":7123,"Ø§Ø¯ÙĬØ±":7124,"ĠØªÙģÙĤØ¯":7125,"ĠØ¨ÙħÙĨØ·ÙĤØ©":7126,"ĠØ§ÙĦÙĪØ³Ø·Ùī":7127,"ĠØ¨Ø³ÙĬØ·":7128,"ĠØ¨Ø§ÙĦÙħØºØ±Ø¨":7129,"Ø§ÙĦØ§Ø³":7130,"ĠÙħÙĤØ¯Ùħ":7131,"ĠØ§ÙĦØ¹Ø§Ø´Ø±":7132,"ĠØ§Ø³Ø±":7133,"ĠÙħÙĨØªØµÙģ":7134,"ĠØ§ÙĦØ³Ø¬":7135,"ĠØªØ±Ø¯Ø¯":7136,"ĠØ§Ø¶Ø±Ø§Ø±":7137,"Ø¹Ø§Ùģ":7138,"ĠÙģÙĬÙħ":7139,"ĠØ§ÙĦÙģØ¬":7140,"ĠØ³ØªØ§Ø±":7141,"ÙĩÙĬÙĪÙĨ":7142,"ÙĪÙģØª":7143,"ĠÙĦÙĦÙħØ¨":7144,"ĠØ±Ø§Ùģ":7145,"ĠØ§ÙĦØªÙģÙĥÙĬØ±":7146,"ĠØ¨Ø°ÙĪØ±":7147,"ĠÙĩØ¯ÙĬØ©":7148,"ĠØ®Ø·ÙĬØ±Ø©":7149,"ÙĬÙĪØªÙĬÙĪØ¨":7150,"ĠØ§ÙĦØµØŃØ±Ø§Ø¡":7151,"ĠÙĪØ§ÙģØ¶ÙĦ":7152,"ĠØ§ÙĦØ¯Ø³ØªÙĪØ±":7153,"ĠØ§ÙĦØŃØ±ÙħÙĬÙĨ":7154,"ĠÙĦÙĦØ´ÙĬØ®":7155,"ĠØ®ÙĦÙĬÙĦ":7156,"ĠØ§ÙĦØŃÙĥÙĪÙħÙĬ":7157,"ĠÙħÙħØªØ§Ø²":7158,"ĠÙħØ§Ø²":7159,"ĠØ§ÙĦÙĨÙĩØ§ÙĬØ©":7160,"ĠØ§ÙĦÙħÙĨØª":7161,"ÙĬØ¬ÙĬ":7162,"ĠÙĬØ¯Ø¹Ùħ":7163,"ĠØ§ÙĦØ¯Ø±Ø³":7164,"ØªÙĬØ±":7165,"ÙĤÙĬÙĩ":7166,"ĠØ¨Ø¹Ø¯ÙħØ§":7167,"ĠØªØ¹ÙĦÙĬÙħÙĬØ©":7168,"ĠØ¯Ø§Ø®ÙĦÙĬØ©":7169,"ĠÙĥÙĩØ±Ø¨Ø§Ø¦ÙĬ":7170,"ØŃÙĬÙģØ©":7171,"ĠÙģÙĬØªØ§ÙħÙĬÙĨ":7172,"ĠØ§ÙĦØ·ÙĦØ¨Ø©":7173,"ĠØ³Ø§ØŃØ©":7174,"ĠØ§ÙĦØªÙĦÙĤØ§Ø¦ÙĬ":7175,"ÙĦÙģØ§Øª":7176,"33":7177,"ĠØ§Ø³Ø§Ø³ÙĬ":7178,"ĠØ§Ø³ØªØ¹Ø¯Ø§Ø¯":7179,"ĠØ¨Ø§ÙĨÙĥ":7180,"ĠØ³ÙĩÙĪÙĦØ©":7181,"ĠØ¨Ø§ÙĦØªÙĪ":7182,"Ø±ÙĪÙĥ":7183,"ĠÙĪÙĦØ°ÙĦÙĥ":7184,"Ø§ÙĦØ®":7185,"ĠÙħØ²Ø¯ÙĪØ¬Ø©":7186,"ĠØ§ÙĦÙħØŃÙĬØ·":7187,"ĠØ§ÙĦØ´Ø¨ÙĥØ§Øª":7188,"ĠØ¯ÙĬÙĥÙĪØ±Ø§Øª":7189,"ĠÙĬØ©":7190,"ĠØ§ÙĦØªÙĤØ¯ÙĬÙħ":7191,"ĠÙħØ®ØªØµ":7192,"ĠÙħØ§Ø¬Ø³ØªÙĬØ±":7193,"ØµÙĦØ©":7194,"ĠÙĪØ§ÙĦØ§Ø«":7195,"ĠØ§ÙĦØ¹ÙĤØ§Ø±Ø§Øª":7196,"8779":7197,"ĠØ´ÙĬØ¦Ø§":7198,"ĠÙĨØ³Ø¨":7199,"ĠØ§Ø³ØªÙģ":7200,"ĠØ§ÙĦØ§Ø®ÙĦØ§ÙĤ":7201,"Ġ140":7202,"ĠØ§ÙĦÙģÙĬØªØ§ÙħÙĬÙĨØ§Øª":7203,"ĠØ§ÙĬØ³":7204,"ĠØ§ÙĦØ´Ø§ÙħÙĦ":7205,"ØªØ¨Ø§Ùĩ":7206,"ĠÙħØ®ØªØ¨Ø±":7207,"ĠÙĪÙģÙĬØ§Øª":7208,"ĠÙĪØ§Ø¯ÙĬ":7209,"ĠØ®Ø´":7210,"ĠØ§ÙĦØªÙģØªÙĬØ´":7211,"ĠØ§ÙĩØªÙħØ§Ùħ":7212,"ĠØ§ÙĦØµÙĪØªÙĬØ©":7213,"ØºØ±ÙĤ":7214,"ÙĬÙħØ¨Ø§Ø¨":7215,"Ġ512":7216,"ÙĪÙĤØª":7217,"ĠØ§ÙĦÙħØ¹ÙĩØ¯":7218,"ĠØªØªØ¹ÙĦÙĤ":7219,"ĠØ§ÙĦØ¬ØºØ±":7220,"998779":7221,"ĠØ¨ÙħØŃØ§ÙģØ¸Ø©":7222,"ĠØ§ÙĦØ§ÙĬØ·Ø§ÙĦÙĬ":7223,"Ġ1200":7224,"ĠØ§Ø°Ø§Ø±":7225,"ĠØ§ÙĦØ·Ùģ":7226,"ĠÙĨÙĪÙģØ±":7227,"ĠÙģÙĬÙĨ":7228,"ØªÙħØ§ÙĦ":7229,"ĠØŃÙħØ§Ø³":7230,"ĠÙģØ§Ø·":7231,"Ø´Ø±ØŃ":7232,"ĠØ§ÙĦÙĤÙĬÙħ":7233,"ĠØ¹ÙĨØµØ±":7234,"ĠÙħØ¨ÙĨÙī":7235,"Ø¨ÙĬØ§Ø¡":7236,"ĠØ§ÙĦÙĤØ·Ø±ÙĬØ©":7237,"ĠØ§ÙĦØ®Ø±ÙĪØ¬":7238,"ĠØºÙĦ":7239,"ĠØ§ÙĦÙħÙĨØ§Ùģ":7240,"ĠÙĪØŃØ¯":7241,"ĠØ§ÙĦÙģÙĬØ²ÙĬØ§Ø¡":7242,"ĠØ§ÙĦÙģØ³Ø§Ø¯":7243,"ĠÙĬØ«":7244,"ĠÙĦÙĦØªØ¬Ø§Ø±Ø©":7245,"ĠÙĪÙħØª":7246,"ØµÙĪØ±Ø©":7247,"Ø§ÙħØ±Ø©":7248,"Ø§ÙĥØ´":7249,"ĠÙħÙĥØ§ØªØ¨":7250,"ĠÙĪØ¨ÙĬ":7251,"ĠØ§Ø¬ÙĨØ¨ÙĬØ©":7252,"ĠØ§ÙĦÙĨÙģØ§ÙĬØ§Øª":7253,"ĠØ§ÙĦÙħØ¹Ø±ÙĪÙģ":7254,"ĠÙĦÙħØ¬ÙĦØ³":7255,"ĠÙĥÙĦÙĬÙĨ":7256,"Ġ66998779":7257,"49":7258,"ÙĤÙĪÙĦØ©":7259,"ĠÙģØ±ÙĬØ¯":7260,"ĠÙħØ§ÙĨØ´Ø³ØªØ±":7261,"ĠÙħÙģØ±":7262,"ĠØ§ÙĦÙħÙĥÙĪÙĨØ§Øª":7263,"ĠØ¨ÙĦØ¯ÙĬØ©":7264,"ĠØµÙģÙĤØ©":7265,"ĠÙħÙĨÙĬ":7266,"ĠØ§ÙĦØ²ÙĬÙĪØª":7267,"ÙĤÙĪØ¯":7268,"ĠÙĬÙĪÙħÙĬØ§Øª":7269,"ĠØŃØµÙĦØª":7270,"ĠØºØ¶ÙĪÙĨ":7271,"ĠÙĦÙħÙĦ":7272,"ĠÙģÙĥØ±":7273,"ĠÙĨØ§Øª":7274,"ĠØ³Ø¹":7275,"ĠØ§ÙĦØªØ¹ÙĪÙĬÙħ":7276,"ĠØªÙĥØ³":7277,"ĠØ§ÙĦÙħÙĦÙĬ":7278,"ĠÙĪØ§ÙĦØ¨ÙĨ":7279,"ĠØ§ÙĦÙĦØ§Øª":7280,"ĠØªØ·Ø§ÙĦØ¨":7281,"ØªØ¨Ø§Ø³":7282,"ĠÙĬÙħÙĥÙĨÙĨØ§":7283,"ĠØ§ÙĦØ§Ø¨Ø¯":7284,"ĠØ±ÙĪØ§Ø¯":7285,"ĠØ§ÙĦØ§Ø±ÙĤØ§Ùħ":7286,"ØªÙģØ¸":7287,"ĠÙĦÙĦÙħØ¹Ø¯Ø§Øª":7288,"ĠØ§ÙĦØ§Ø·ÙĦØ§Ø¹":7289,"ĠÙĦØ§Ø·":7290,"ĠØªØŃÙĪÙĦ":7291,"ĠØ§ØŃØ³ÙĨ":7292,"Ø³Ø§Ø³":7293,"ØªØ±Ø¨":7294,"ĠØ§ÙĦÙħØ³Ø±ØŃ":7295,"ĠØŃÙĬØ§ØªÙĥ":7296,"Ø±Ø¨ÙĬÙĨ":7297,"ĠÙģÙĬÙĦØ§":7298,"ĠÙĪØ±ØŃÙħØ©":7299,"ĠØ§ÙĦØ´Ø§Ø¦Ø¹Ø©":7300,"ĠÙĦÙĦÙħØ±Ø§Ø©":7301,"ĠÙĪØ§ÙĦØ§Ùģ":7302,"ĠÙĦÙĦÙħØ¤":7303,"ĠØ§ÙĪÙĦØ§Ø¯":7304,"ÙĬØ§Ø©":7305,"ĠÙħÙĬØ³":7306,"ĠØ¹Ø¬":7307,"ĠØ¹Ø§ÙĦÙħÙĬ":7308,"ÙĬØ§Ø³":7309,"ÙģÙĬØ²":7310,"ĠØ§Ø®ØªÙĬ":7311,"ĠØ§ÙĦÙĬÙĪÙħÙĬ":7312,"29":7313,"ØµØ§Ø¯":7314,"ĠØ§ÙĦØºØ°Ø§Ø¦ÙĬ":7315,"ĠÙĪÙĬÙĥÙĪÙĨ":7316,"ĠØ§ÙĦØ´Ø§Ø¨":7317,"ÙĬÙĥØ§Øª":7318,"ĠÙĪØ§ÙĥØ¯":7319,"ĠØ§ÙĦÙĥØ±ÙĬÙħØ©":7320,"ĠÙĩØ§ÙĬØ¨Ø±":7321,"ØªØµØ§Ø¨":7322,"ĠØ§ÙĦØ°Ø±Ø©":7323,"ĠØ§ÙĦØ¨ÙĬØ¶":7324,"ĠØ®ÙĦÙģÙĬØ©":7325,"ĠÙĥØ±Ø¨ÙĪÙĨØ§Øª":7326,"Ø´Ø§Ùģ":7327,"ĠØ§ÙĦØ´Ø±Ùĥ":7328,"Ø§ÙĨÙĬÙĩ":7329,"ĠØ²ÙĪØ¬ÙĩØ§":7330,"ĠØºØ±Ø§ÙħØ©":7331,"Ġ220":7332,"Ø¬ÙĬØ¹":7333,"ĠØ±Ø¦Ø§Ø³Ø©":7334,"ĠØ§ÙĦØ§ØµÙĦØ§ØŃ":7335,"ĠØ¹ÙĦØ§Ø¡":7336,"ĠØ§ÙĦØ¨ÙĪÙħ":7337,"ĠØ§ÙĦØ§ÙħÙĬØ±Ø©":7338,"ĠØ§ÙĦÙĤÙħØŃ":7339,"ĠØ§ÙĦÙħÙĨØ´ÙĪØ±Ø©":7340,"Ø§Ø®ÙĬØµ":7341,"ĠØ§ÙĦÙĦÙĬØ¨ÙĬ":7342,"ĠÙĪØ§ÙĦÙĦØºØ§Øª":7343,"ĠØ§ÙĦØ¹Ø°":7344,"ĠÙĦÙĦÙħØ¯":7345,"ĠØ§Ø¹Ø¯Ø§Ø¯ÙĬ":7346,"ĠØ§ÙĦØ·ÙĬÙĪÙĨØ©":7347,"ĠØ§ÙĨØªØ®":7348,"ĠØ´Ø±Ø·":7349,"ØªÙĪÙĥ":7350,"ØªÙĩÙĦØ§Ùĥ":7351,"ĠØ§ÙĦÙħÙĪØ¶ÙĪØ¹Ø§Øª":7352,"ĠØ²Ø±Ø§Ø¹Ø©":7353,"ĠÙĤØ§Ø¯Ø±":7354,"ĠÙĪØ¬Ø¯Øª":7355,"ĠØ§ÙĦÙĪØ¯":7356,"ĠÙħØ¨ÙĬØ¹":7357,"ĠØ§ÙĦÙĤØ¶Ø§ÙĬØ§":7358,"ĠØ§ÙĦØªÙħÙĪÙĬÙĦ":7359,"ĠÙħÙĨØ·ÙĤ":7360,"ĠÙĥØ±Ø¯":7361,"ĠØ§ÙĦØ³ÙĦÙħ":7362,"ĠÙħØ¤Ø³Ø³Ø§Øª":7363,"ĠØ§ÙĦØ³ÙħØ§ØŃ":7364,"ĠØŃØ¸Ø±":7365,"ĠØ§ÙĦÙĤØµØµ":7366,"ĠØ§ÙĦØ§Ø¹Ø±Ø§Ø¶":7367,"ÙĪØ§Ø·Ø±":7368,"ĠØ§ÙĦÙħØµØ±Ùī":7369,"ĠÙĬÙĨÙĬÙĥ":7370,"ĠØ§Ø³ØªÙĩÙĦØ§Ùĥ":7371,"ĠØªÙĦÙģØ²ÙĬÙĪÙĨ":7372,"Ø´Ø±ÙĬ":7373,"ĠØ§ÙĦØªØ±ÙģÙĬÙĩ":7374,"ĠØ§ÙĦÙħÙĨÙĩØ¬":7375,"Ø·ÙĦØ§Ø¹":7376,"ĠØ¨ÙĬØ¦Ø©":7377,"ÙĥØªÙĪØ±Ø©":7378,"ĠØ¹Ø¬ÙħØ§ÙĨ":7379,"ĠØ³ÙĪØ±ÙĬ":7380,"ĠÙĦÙĦØŃØ¯":7381,"ĠØ§ÙĦØªØ±Ø§Ø«":7382,"ÙĤØ§Ø¡":7383,"ÙĪÙĨØ¯":7384,"ĠÙĦØºØ§Øª":7385,"ĠÙĪØ§Øº":7386,"ĠØ±Ø§Ø¯":7387,"ĠØ§ÙĦÙħØ¹Ø¯Ø©":7388,"ØªØªØŃ":7389,"ĠØ§ÙĨÙħØ§":7390,"ĠÙħÙĬØ²Ø©":7391,"Ø¨ÙĥØ©":7392,"ĠØ§ÙĦØµØ±":7393,"ĠØ§ÙĦØ§ØŃÙĪØ§ÙĦ":7394,"ĠÙħÙĥØ¹Ø¨":7395,"ÙĪÙĨØ§ÙĬØªØ¯":7396,"ĠØ§ÙĦÙħÙĨØ¸ÙħØ©":7397,"ĠØ§ÙĦÙħØ¹Ø§Ø±Ø¶Ø©":7398,"ĠØ§ÙĦØ¨ÙĦØ§Ø³ØªÙĬÙĥ":7399,"ĠØ®ÙĦØ·":7400,"Ø¯ÙĬØ§ÙĦ":7401,"ĠÙģØ±ÙĪØ¹":7402,"ĠÙħÙĨØµÙĪØ±":7403,"ĠØ§ÙĦØªÙħØ±":7404,"ĠØ±Ø¨Ø·":7405,"ĠÙĥÙĦÙĩ":7406,"ĠØ§ÙĦÙħØ±Ø¶":7407,"Ø§Ø¹ÙħØ©":7408,"ĠØ§ÙĦØªØŃØ¯ÙĬØ«":7409,"ĠÙĪØ¨Ø±ÙĥØ§Øª":7410,"ĠØ²ÙģØ§Ùģ":7411,"ĠØ§ØµØ¯Ø±":7412,"Ø§Ø±Ø¯ÙĨ":7413,"26":7414,"ÙĤØ§Ø°":7415,"ĠØ§ÙĦÙħØªØ¨":7416,"Ø§ÙĪÙĦÙĬÙĨ":7417,"Ø§Ø¹Ø¨ÙĬÙĨ":7418,"ĠØ§ÙĦØ§ÙħØªØŃØ§ÙĨØ§Øª":7419,"ĠØ§ÙĦÙħÙĪØ§ØµÙģØ§Øª":7420,"ĠØ§ÙĦØ¬ÙħÙĩÙĪØ±":7421,"ĠÙĪØ¨Ø¹Ø¶":7422,"ĠÙĥØ³Ø±":7423,"ĠØ§ÙģØªØ±":7424,"ĠØ¨Ø§ÙĦØ´Ø¹Ø±":7425,"ĠØ¨ÙħÙĪØ¬Ø¨":7426,"ĠØ§ÙĦØ§Ø´Ø§Ø±Ø©":7427,"ÙĦØ§ÙĨ":7428,"ĠÙĦØ§Ø¯Ø§Ø±Ø©":7429,"ĠØ§ÙĦØªÙĪÙĨØ³":7430,"ĠØ§ÙĦØµÙĦØ©":7431,"Ø§Ø¨ÙĬØ±":7432,"Ø§ØŃÙĨØ©":7433,"ĠØ§ÙĦØ§ÙĩØªÙħØ§Ùħ":7434,"ĠÙĪØ¹Ø¯":7435,"ĠÙģÙĦØ³":7436,"ĠØºØ§Ø²":7437,"ĠØ§ÙĨØªÙĤÙĦ":7438,"Ø§ÙĦÙĬØª":7439,"ĠÙĪØ·Ø±ÙĤ":7440,"ĠØ¬Ø§Ø¨Ø±":7441,"ĠØ§Ø¨Ø§Ø¯":7442,"ĠØªÙĪØ¬Ùĩ":7443,"ĠØµØ®ÙĪØ±":7444,"ĠØ§ÙĦÙħØªØ®ØµØµØ©":7445,"ĠØ§ÙĦÙħØ¹ÙĦÙħ":7446,"ĠØ§ÙĦØ¹ÙĤÙĪØ¯":7447,"ĠÙĨØ¬Ø¯":7448,"ĠØ¬ÙĪÙĦØ©":7449,"Ø§ÙĤØ·":7450,"ĠØ¨Ø±Ø¦Ø§Ø³Ø©":7451,"ĠØ¹ÙĬ":7452,"Ø®ØªÙĦÙģ":7453,"ĠØ´Ø±ÙĬÙĥ":7454,"ĠÙħÙĪÙĤØ¹Ùĥ":7455,"ĠØªØ´ÙĥÙĬÙĦØ©":7456,"ĠØ§ÙĦÙħØ®Ø§Ø·Ø±":7457,"ĠÙĪØ°ÙĥØ±":7458,"ĠØªØ¶Ø¹":7459,"ĠÙħÙĨÙģ":7460,"ĠØ¨ÙħØ¬Ø±Ø¯":7461,"ĠÙģØ§Ø±Ø³":7462,"ĠØ§ÙĦØ§ÙĦØªØ²Ø§Ùħ":7463,"ØºÙĬØ±Ø§Øª":7464,"ĠØ³ÙĪÙĬÙģ":7465,"ĠÙĬØµØ¨ØŃ":7466,"Ø§Ø¹ÙĦØ§ÙĨ":7467,"ĠÙĬØ¶Ùħ":7468,"ĠÙħØ·ÙĦ":7469,"ĠØ¨ÙĬØ³":7470,"ĠØ§ÙĪÙĤØ§Øª":7471,"ĠÙĬÙĪØ§Ø¬Ùĩ":7472,"ÙĪØ±Ùĥ":7473,"ÙĬÙĪØ¨ÙĬØ©":7474,"200":7475,"ØªÙĬØ©":7476,"ĠØ³ØŃ":7477,"ĠÙĤØ§Ø³Ùħ":7478,"ĠØ§ÙĦÙĥÙĪ":7479,"ĠÙħØ³ØªØŃØ¶Ø±Ø§Øª":7480,"ĠÙģØ±ÙĬØ²Ø±":7481,"ÙĬÙħÙĬÙĨ":7482,"ĠØ¨ÙĥØ§ÙĦ":7483,"ĠÙĦÙĦØ³ÙĬØ§Ø±Ø§Øª":7484,"ØªÙĪØ³":7485,"ĠØ§ÙĦØ³ÙĬÙĨÙħØ§Ø¦ÙĬ":7486,"ĠÙĩØ§ØªÙģÙĥ":7487,"ĠØ¯ÙĬØ§Ø¨":7488,"ĠØ§ÙĦÙĥÙĦÙħØ©":7489,"ĠÙħØ§ÙĦÙĬ":7490,"ĠÙĦØºÙĬØ±":7491,"ĠØ§ÙĦÙħØ³ØªØ´Ø§Ø±":7492,"ĠØ§ÙĦØºØ°Ø§Ø¡":7493,"ĠØ§ÙĦØ³ÙĦÙģ":7494,"ĠØ§ÙĦÙħØŃØ§Ø¶":7495,"Ø³ÙĬØ¬":7496,"ĠØ§ÙĦØŃØ¨ÙĬØ¨":7497,"ĠØ§ÙĦØ¨Ø±ÙĬ":7498,"ÙĬÙģÙĬØ©":7499,"ĠØªØ³Ø¹Ùī":7500,"ĠÙĥØ¨ÙĬØ±Ø§":7501,"ĠÙĦØ§Ø¨ÙĨ":7502,"ĠÙĪØ²Ø±Ø§Ø¡":7503,"ĠÙħØ·Ø§Ø¹Ùħ":7504,"ĠØ§ÙĦØ§ØŃØªÙĬØ§Ø¬Ø§Øª":7505,"ĠØ§Ø¦ØªÙħØ§ÙĨ":7506,"ĠØ§ÙĬØª":7507,"Ø·Ø¨Ø©":7508,"ĠÙĬØ·ÙĦØ¨":7509,"ĠØ§ÙĦØªØ¬ÙħØ¹":7510,"Ø±Ø¨ÙĪÙĨØ§Øª":7511,"ØªÙĪÙĬØ§Øª":7512,"ĠÙħÙĪØ¸":7513,"Ø®ÙĦÙĤ":7514,"ĠÙĦØµØ§ÙĦØŃ":7515,"ĠÙĬÙħÙĨØ¹":7516,"ÙĥØ±Ø±":7517,"ĠÙĪØ§ÙĦØªÙĥÙĨÙĪÙĦÙĪØ¬ÙĬØ§":7518,"ÙĩÙĦØ©":7519,"ĠØ³Ø¬ÙĨ":7520,"ĠØ§ÙĨØªØ±ÙĨØª":7521,"Ġ93":7522,"ĠØ¨Ø±Ø³":7523,"ĠÙĦØµÙĨØ§Ø¹Ø©":7524,"76":7525,"ĠÙħØ¹Ùĥ":7526,"ĠØ§ÙĦÙĨÙħÙĦ":7527,"ĠÙħØ³ØªÙħØ±":7528,"ĠØ²ÙĪØ¬Ø©":7529,"ĠÙĤØ§Ø±":7530,"ĠØ§Ø³Ø·ÙĪØ§ÙĨØ©":7531,"ĠÙĪØªÙĥ":7532,"ĠØ§ØµØ¯ÙĤ":7533,"ĠØ§ÙĤØªØµØ§Ø¯ÙĬØ©":7534,"ĠØ§ÙĦÙģÙħ":7535,"ĠÙħØ³Ø¨":7536,"ĠØ§ÙĦÙħØªÙĪÙĤØ¹":7537,"ĠÙĪØ·ØŃÙĨ":7538,"ĠØ§ÙĦØ³Ø¬ÙĨ":7539,"ĠØ¨Ø±Ø§":7540,"ĠÙĬØ¬Ø±ÙĬ":7541,"ĠÙĬØ´Ø§Ø±Ùĥ":7542,"ÙħØ§Ø±Ø³Ø©":7543,"ĠØ³Ø§Ùĥ":7544,"Ø§ÙģØ¹ÙĬ":7545,"ĠÙħØ¹Ø±ÙĥØ©":7546,"ĠØ¨ÙħÙĪ":7547,"ÙĪÙĦÙĪØ¬ÙĬ":7548,"ĠØ§ÙĦØªØ¹Ø±Ùģ":7549,"ĠØ§ÙħØ§Ø²ÙĪÙĨ":7550,"ĠÙĦØªØ·ÙĪÙĬØ±":7551,"ĠÙĪØ¬ÙħÙĬØ¹":7552,"Ø´Ùī":7553,"ĠØ§ÙĦÙĨÙħ":7554,"ĠØ§ØŃÙĦØ§Ùħ":7555,"Ġ165":7556,"ĠØ§ÙĦØ§Ø³Ø¨Ø§ÙĨÙĬØ©":7557,"ĠÙģØŃÙħ":7558,"ĠØ¹Ø´Ø±Ø§Øª":7559,"ĠØ§ÙĦØªØ§Ø¨Ø¹":7560,"Ø§ØªÙģØ§ÙĤ":7561,"ĠØ§ÙĦØ¶ÙħØ§ÙĨ":7562,"ĠØ´Ø±ÙĥÙĩ":7563,"Ø®Ø±Ø§":7564,"ĠÙĥÙħØ§ÙĦ":7565,"Ø¤Ø§Ø¯":7566,"ĠØ§ÙĬØ¬Ø§Ø¯":7567,"ÙĤÙĦØ¨":7568,"ĠÙĦØªØ®":7569,"ĠØªÙĪÙħÙĬ":7570,"ĠØ§Ø¯ÙĨÙī":7571,"ĠØ§ÙĦØªØŃÙĪÙĬÙĦ":7572,"ĠØ§ÙĦØ®Ø¨Ø²":7573,"ĠÙĦØ§Ø¯":7574,"ĠØ§ÙĦÙħØ³ÙĦØ³ÙĦ":7575,"ĠØ§ÙĦÙħÙĤØ§ÙĦØ©":7576,"ĠÙĦØ§ÙĨØ´Ø§Ø¡":7577,"ĠÙĥØ±ØªÙĪÙĨ":7578,"ĠØ§ÙĦØ¸ÙĩØ±":7579,"ĠÙĬØªØ¹Ø±Ø¶":7580,"ĠÙĦØ¨Ø¹Ø¶":7581,"ĠØ§ÙĨØ¬":7582,"ĠØ²Ø¬Ø§Ø¬":7583,"ÙĩØ±Ø³":7584,"ĠØ¨Ø¹Ø¯ÙĩØ§":7585,"ĠØ§ÙĦÙĬØ¯ÙĬÙĨ":7586,"Ø¨ÙĪØ±":7587,"Ø·ÙĪØ±Ø©":7588,"ĠØ³ÙĬØ¯ÙĬ":7589,"ĠØµØ§ØŃ":7590,"ĠØ§ÙĦÙĥÙĬÙħÙĬØ§Ø¡":7591,"ĠØ§ÙħØªØŃØ§ÙĨ":7592,"ĠØ§ÙĦØ¨ØŃØ±ÙĬ":7593,"ĠÙĦÙĦØ§Ø³ØªØ®Ø¯Ø§Ùħ":7594,"ĠØ§ÙĦØ°ÙĥØ±Ùī":7595,"ĠØ¹ÙĪØ¯":7596,"ĠÙĦÙĬØµ":7597,"Ø±Ø´":7598,"ĠÙĦÙĦØ®Ø¯ÙħØ§Øª":7599,"Ø³ØªÙĪÙĨ":7600,"ÙĪÙĤØ§Ùģ":7601,"ĠØºØ±ÙĬØ¨":7602,"ĠØªÙħØªÙĦÙĥ":7603,"Ø§ØŃÙģ":7604,"ĠØ¨ÙĨØ§Ø·ÙĬÙĦ":7605,"ĠÙħØ¯Ùģ":7606,"ĠØ§ÙĦÙħØ¶Ø§ÙģØ©":7607,"ĠØ§ÙĦØ®Ø·ÙĪØ§Øª":7608,"ĠØ§Ø¬ØªÙħØ§Ø¹ÙĬØ©":7609,"ĠØ§Ø®Ø·Ø§Ø¡":7610,"ĠÙĪÙĬØ¬Ø¨":7611,"Ø§ÙĦÙĦÙĩ":7612,"ĠÙĪØ§ÙĦÙĬ":7613,"ĠÙħØ³ØªØ´Ø§Ø±":7614,"ĠØ¨ÙħØ´":7615,"ĠÙĪØ§ÙĦØ¯ÙĥØªÙĪØ±":7616,"ĠØ¬Ø±Ø§Ùħ":7617,"Ø³Ùī":7618,"ĠÙĪÙĥÙĨ":7619,"ĠØ§ÙĦÙģØ¶Ø©":7620,"ĠØ§ÙĦØ¹Ø§ÙħÙĦØ©":7621,"ĠÙħØ«ÙĦØ§":7622,"ĠÙĦÙĦØ¨Ø±":7623,"ĠØ¨Ø§ÙĦØªØŃ":7624,"ĠØªÙĬØ´":7625,"ĠØ§ÙĦÙĦÙĪØ§Ø¡":7626,"ĠÙĤØ§Ø¦ÙĦ":7627,"ÙĪØ¹Ùĩ":7628,"ĠÙħØ®ØµØµ":7629,"ĠØ§ÙĦØªØ§ÙĥØ¯":7630,"Ø°Ø§Ø°":7631,"ĠÙĦÙĦØ¨ÙĬ":7632,"ÙĬÙĪÙĬ":7633,"ĠÙĪØ§ÙĦØ¹ÙĨØ§ÙĬØ©":7634,"ĠØ§ÙĦØªÙĪÙĨØ³ÙĬØ©":7635,"Ø¬Ø§ÙĦ":7636,"ĠØŃØ§Ùħ":7637,"ĠØ§Ø±Ø§Ø¯":7638,"ÙģØ²":7639,"ĠÙĥØ´ÙħÙĬØ±ÙĬ":7640,"ĠÙģØ§Ø¦ÙĤØ©":7641,"ĠØ§ÙĦØ§ÙĪÙĤØ§Øª":7642,"ÙĤÙĬØŃ":7643,"ĠÙĦÙĦØ§Ø³ÙħÙĨØª":7644,"ĠØ¬Ø§Ø¦ØŃØ©":7645,"ĠÙħØ±Ø´ØŃ":7646,"ĠØ§ÙĦÙħÙĩÙĨÙĬ":7647,"ĠØ§ÙĦØŃØ¨ÙĪØ¨":7648,"ĠØºØ±Ø¨Ø§ÙĦ":7649,"ÙĪÙĤØ¹Ø©":7650,"ĠØ§ÙĦÙħÙĬØ¯":7651,"ĠØ³ÙĨØª":7652,"ĠØ³ÙĬØ¯Ø©":7653,"Ø±ÙĬØº":7654,"ĠÙĦÙĦØ³ÙĦ":7655,"ĠÙħØŃØ§ÙħÙĬ":7656,"ÙĪØ§ÙĬ":7657,"ĠØ§ÙĨØªØ±":7658,"ĠØ¯Ø©":7659,"ĠØ§ÙĦØªØ±Ø¨ÙĪÙĬØ©":7660,"ÙĬÙħØ¨Ø§Ø¨ÙĪÙĬ":7661,"ĠØ³ÙĦØ·Ø©":7662,"ĠÙĦØ®Ø§Ùħ":7663,"ĠØ§ÙĦÙħØ±ÙĬØ¶":7664,"ĠÙĩØ§ÙħØ©":7665,"ĠØ§ÙĦÙĨØ§Ø¬":7666,"ĠØ§ÙĦØ§ÙĩÙħ":7667,"ÙĥØ±Ùħ":7668,"ĠØªØ¬ÙĨØ¨":7669,"Ø§Ø¯ÙĬØ´":7670,"ĠÙĪØ±Ø¦ÙĬØ³":7671,"ĠÙħÙĪØ¬ÙĪØ¯":7672,"ĠØ§ÙĦØ¹Ø³ÙĦ":7673,"ĠØ§ÙĦØ¹Ø§Ø¦ÙĦØ©":7674,"ĠÙĦÙĦÙĪØµÙĪÙĦ":7675,"ĠØ§Ø±Ø§Ø¡":7676,"ÙĪÙĦÙĪØ¬ÙĬØ§":7677,"ÙĬØ¬ÙĬØ§Øª":7678,"ĠÙĬØ³Ø¨Ø¨":7679,"ĠØ§ÙĦØŃØ±Ø§Ùħ":7680,"ĠÙħÙĨÙĪØ¹Ø§Øª":7681,"ĠÙģÙĪØ±ÙĬ":7682,"ĠÙĥÙĦØ§Ø³":7683,"ÙĤØ±Ø§":7684,"ĠØ§ÙĦØªØ±ÙĥÙĬØ²":7685,"ĠØªØ¯Ùħ":7686,"Ø§ÙĨÙĬÙĬÙĨ":7687,"ĠØ§ÙĦÙĪÙĥØ§ÙĦØ©":7688,"ĠØ¡":7689,"ÙĨØ§Ø³":7690,"ĠØªØ¤Ø¯ÙĬ":7691,"95":7692,"ĠØ§ÙĦØ¨Ø§ÙĦØº":7693,"ĠØ§ÙĦØ§ÙĦÙĬÙģØ©":7694,"ĠÙĬØ²ÙĪØ±":7695,"Ø§Ø²ÙĨØ©":7696,"ØµØ±ÙĬ":7697,"ĠØ§ÙĦØ«ÙĨØ§Ø¦ÙĬØ©":7698,"ĠØªØ³ÙĪÙĬÙĤ":7699,"ĠØ±ÙĪÙĥ":7700,"ĠØ´ÙĤØ±Ø§Ø¡":7701,"ÙĪÙħÙĩ":7702,"ØªÙħÙĬ":7703,"ĠÙĨÙĤØ§Ø¨Ø©":7704,"ĠØ§ÙĦØ¯ÙħØ§Øº":7705,"ĠØ¬ÙĬØ¨":7706,"Ø§Ø¯ÙĬØ«":7707,"ĠÙħÙģØªÙĪØŃØ©":7708,"ĠØ§ÙĦØ±ÙħØ²":7709,"ĠØ§ÙĨØ³Ø§ÙĨ":7710,"ĠØ´Ø±Ø§Ø¦":7711,"ĠØ§ÙĦØ§ÙĨØªÙĩØ§Ø¡":7712,"ĠØ§ÙĦÙĤØ·Ø¹":7713,"ĠØªØ¤Ø«Ø±":7714,"ĠØ§ÙĦØ³Ø§Ø¨Ø¹Ø©":7715,"ĠØ§ÙĦØ§ÙģØªØ±Ø§Ø¶ÙĬØ©":7716,"ØŃÙĪÙĦ":7717,"ĠØ´Ø¨Ø§Ø·":7718,"ĠØ§ÙĦØµØŃÙĬØŃØ©":7719,"ĠÙħØ°Ùĩ":7720,"ĠØ¹ÙĪÙĨ":7721,"ĠØ§ÙĦØ²ÙĩØ±":7722,"Ø±Ø¬ÙĬ":7723,"ĠÙĪØ¨Ø±ÙĥØ§ØªÙĩ":7724,"ĠÙĬØ¹Ø±Ø¶":7725,"ĠÙħÙģØ§ØªÙĬØŃ":7726,"ĠØ§ÙĦÙħØ¯Ùģ":7727,"ĠØ¨Ø§ÙĨÙĩØ§":7728,"ĠØ§ÙĦØ§ÙĬØ©":7729,"ĠÙħØ±Øª":7730,"ĠØ¨Ø¹Ø¯Ùħ":7731,"ĠÙĩÙĬÙĥÙĦ":7732,"ĠØ¯ÙĬÙģ":7733,"ĠØ§ÙĦØ§ÙĨÙĪØ§Ø¹":7734,"ĠØ§ÙĦØ¶ÙĪ":7735,"ĠÙĪØ·ÙĨÙĬØ©":7736,"ĠÙĬÙĪØ§ØµÙĦ":7737,"ĠØ§ÙĦØ¬ÙĦØ³Ø©":7738,"ĠØ§ÙĦÙħÙĪØ¶Ø©":7739,"ĠÙĬØ¹Ø¨Ø±":7740,"ĠØ¨Ø®Ø·":7741,"ĠØ§ØªÙħØ§Ùħ":7742,"ĠØ§ÙĦØ¹Ø§Ø¯ÙĬØ©":7743,"ĠØ§ÙĦÙħØ³ØªÙħØ±":7744,"ĠØªÙĤØ±ÙĬØ¨Ø§":7745,"ĠØ±Ø¬Ø§ÙĦÙĬ":7746,"ĠØ§ÙĦØ®Ø¨Ø±Ø§Ø¡":7747,"ĠÙĦÙĦØ·Ø§ÙĤØ©":7748,"ĠØ§ÙĦØ´ÙĬØ¹Ø©":7749,"ĠØ§ÙĦÙĩØ¬ÙĪÙħ":7750,"ĠØ§ÙĦØ·Ø§Ø¦Ùģ":7751,"ĠØ§ÙĦØªØ³ÙĦÙĬÙħ":7752,"ĠØµØ§Ø¯ÙĤ":7753,"ĠÙĦÙħØ¹":7754,"ĠØ§ÙĦØ§ØŃØ²Ø§Ø¨":7755,"ÙĬØ·Ø§ÙĨ":7756,"ĠÙĬØ´Ø§ÙĩØ¯":7757,"ĠØ¹Ø³ÙĥØ±ÙĬ":7758,"Ø¸Ø§ÙĩØ±":7759,"ĠÙħØ¬Ø¯Ø¯Ø§":7760,"ĠÙĥØ§Øª":7761,"ĠØŃØ§ÙħÙĦ":7762,"ĠÙĤØ§ÙĦØ¨":7763,"ĠÙħØŃØ¯Ø¯":7764,"ĠØ«Ø§Ø¨Øª":7765,"ĠØŃÙĬØ§ØªÙĩ":7766,"ĠØªØ¨Ø±":7767,"ĠØ·Ø¨ÙĬ":7768,"ĠØ§ÙĦØ±Ø§Ø¦Ø¹Ø©":7769,"ĠØ§ÙĦÙħØŃØ§ÙģØ¸Ø§Øª":7770,"ĠÙĪØ§ÙĦÙħØª":7771,"ĠØ±Ø³ÙĬÙģØ±":7772,"ĠÙĪØ§Ø¶ØŃ":7773,"Ø§Ø¬ÙĦØ©":7774,"ĠØ§ÙĦÙĤØ§Ø¨":7775,"ĠØ§ÙĦØºØ±Ø¨ÙĬ":7776,"ĠØ§ÙĦØ§ØŃØªÙĬ":7777,"ĠØªØ¯Ø¹Ùħ":7778,"ĠÙĨØ¸Ø§ÙģØ©":7779,"Ø§ÙĪÙģ":7780,"Ø§Ø±Ø³Ø§Øª":7781,"ĠØªØ±ÙĬ":7782,"ĠÙħØŃØ§Ø±Ùħ":7783,"Ø¹ÙĤØ©":7784,"ĠØ§Ø¯Ùī":7785,"ĠÙĪØ³Ùħ":7786,"ĠØ¯ÙĪØ§Ø¡":7787,"ĠØªØ®ÙģÙĬÙģ":7788,"ØªÙħØªØ§Ø¹":7789,"ĠØ§ÙĦØ¬Ø§ÙĨ":7790,"Ø¨Ø·ÙĬØ©":7791,"ĠÙĦÙĦØ¬Ùħ":7792,"ÙĬØ²ÙĦ":7793,"ĠØ§ÙĦØ±ÙħÙĦÙĬ":7794,"ĠÙĦØªÙĤ":7795,"ĠØ¨Ø³Ùħ":7796,"ĠØŃØ±ÙĬØ©":7797,"ĠØ±ÙĬØ¨":7798,"Ø¨ÙĬØ§Øª":7799,"ĠÙĪØ§ÙĦÙħÙĥ":7800,"ĠØ§ÙĦØ§ØŃÙĬØ§Ø¡":7801,"ĠÙĪÙĨÙĤÙĦ":7802,"ÙĤØ§Ø·":7803,"ĠØ§ÙĦÙħÙģØ±":7804,"ĠÙħÙĨØ®ÙģØ¶Ø©":7805,"ĠØ§ÙĦÙĩØ±Ùħ":7806,"ĠØªÙĬØ´ÙĬØ±":7807,"Ø¨Ø§Ø±Ùĥ":7808,"ĠØ§ÙĦØ³ÙĦÙĪÙĥ":7809,"ĠØ§ÙĦØµÙĨØ¯ÙĪÙĤ":7810,"ĠØ§ÙĬØ¬Ø§Ø±":7811,"ĠÙħÙģØªÙĪØŃ":7812,"ĠÙĦÙħØ¯":7813,"ĠÙħØªÙĪÙģØ±":7814,"ĠØ§ÙĦÙħÙĪØ¬ÙĪØ¯":7815,"Ø´ÙĬÙĨ":7816,"ĠØ±Ø¨Ø¹":7817,"Ø§ÙĦØ¯ÙĪ":7818,"ĠØ§ÙĦØ®Ø§Ø±Ø¬ÙĬ":7819,"ĠÙĤÙĦÙĤ":7820,"ÙĦÙĥÙĬ":7821,"ÙĨØ¯ÙĦ":7822,"Ġ1420":7823,"ĠØ§ÙĦØ§Ø¶ØŃÙī":7824,"ĠØ§ÙĦÙĬÙĪØªÙĬÙĪØ¨":7825,"Ø§ÙħØ¨ÙĬØ§":7826,"ĠØ§ÙĦØ³ÙĬÙĨÙħØ§":7827,"ĠØµÙĨØ§Ø¹ÙĬØ©":7828,"ĠØ§ÙĦØ¹ÙĪ":7829,"Ø§ØŃÙĬÙĨ":7830,"ĠÙħØ®Ø§Ø·Ø±":7831,"ĠØ¨Ø¬Ø§ÙĨØ¨":7832,"ĠØ³ÙĪÙĬØ³":7833,"ĠØ§ÙĦØ¸Ø±ÙĪÙģ":7834,"ÙħÙĩ":7835,"ĠÙĦØ§Ø´":7836,"ĠØ§Ø¸ÙĩØ§Ø±":7837,"ĠØ§ÙĦØ¨Ø±Øª":7838,"ĠØ¨Ø§ÙĦØ¨Ø±ÙĬØ¯":7839,"ĠØ§ÙĦÙĪØ§Ø¬":7840,"ĠÙĪØ§ÙĦÙħÙĩ":7841,"ĠÙĪØºØ±Ø¨":7842,"ĠÙħÙĥØ³":7843,"ĠØ³ÙģÙĬØ±":7844,"Ø§Ø¨Ø§":7845,"ĠØ·Ø§ÙĤØ©":7846,"ĠØ§ÙĦÙĤØ§Ø¦Ùħ":7847,"ĠÙĪØ§ÙĦØ¹Ø´Ø±ÙĪÙĨ":7848,"ĠÙĦÙħØ´Ø§ÙĩØ¯Ø©":7849,"81":7850,"ØŃÙĬÙĦ":7851,"ĠØªØ°":7852,"ĠØ®ÙģÙĬÙģØ©":7853,"ĠØµØ¹Ø¨":7854,"ĠØ§ÙĦØ§ÙģØ±Ø§Ø¯":7855,"ĠØ§ÙĦØ¹Ø·":7856,"ĠØ®Ø°":7857,"Ø§ÙĦÙģØ§Øª":7858,"ØµÙĬØ¨":7859,"ĠØ¸Ø±ÙĪÙģ":7860,"ĠØ³Ø¹ÙĪØ¯ÙĬØ©":7861,"ĠÙĦÙĦØ§Ø±":7862,"ĠØ§ÙĦÙģØ¦Ø§Øª":7863,"ĠØ§ÙĦØ«Ø§ÙħÙĨØ©":7864,"Ø§ÙĪÙĬØ§Øª":7865,"ĠÙģØ§ÙĨØª":7866,"ĠØŃØªÙĬ":7867,"ĠÙħØ³Ø¨ÙĤ":7868,"ĠØªØ¨Ø§Ø¯ÙĦ":7869,"ĠÙĦØ¨ÙĨØ§Ø¡":7870,"ĠÙĪØ¬Ùħ":7871,"Ø§Ø±ÙĬØ§Øª":7872,"ĠØ¬ÙĪØ§ÙĦ":7873,"ĠØ§ÙĦØ«ÙĦØ§Ø«Ø©":7874,"ĠØ¬Ø¹ÙģØ±":7875,"ĠÙħÙĨØ¯":7876,"ĠÙĪØ§ÙĦØ¶":7877,"ĠØ§ÙĦØ±ØµØ§Øµ":7878,"ĠØ§ÙĦØ·Ø§ØŃÙĨ":7879,"ĠØ§ÙĦÙħØªÙĩÙħ":7880,"ĠØ§ÙĦÙĬÙĥÙħ":7881,"ĠØ§ÙĦÙĤÙĪØ§Ø¹Ø¯":7882,"ĠØ§ÙĦØªÙĦÙģØ²ÙĬÙĪÙĨ":7883,"ĠØŃÙĦØ¨":7884,"ĠÙĬØªØ¶ÙħÙĨ":7885,"ĠØ§ÙĦÙĥÙĪÙĬØªÙĬØ©":7886,"ÙĨÙĬÙģ":7887,"ØªÙģØ§Ø¡":7888,"Ġ1441":7889,"Ø²Ø¦Ø©":7890,"ÙĪÙĨÙĩØ§":7891,"Ø§ÙģÙĬÙĥ":7892,"Ø·ÙĦØ¨Ø©":7893,"ĠØ§ÙĦÙħØªÙĪØ§Ø¬Ø¯":7894,"ĠØ§ÙĦÙĤÙĨØ§Ø©":7895,"ÙħØ¨ÙĬ":7896,"ĠØ±Ùĩ":7897,"ĠØ§ÙĦÙģÙĪØªÙĪ":7898,"Ø¨Ø±Øª":7899,"ĠØ§ÙĦÙĦØº":7900,"ĠØ§Ø³ÙĦÙĪØ¨":7901,"ĠØ§ÙĦÙĪÙģ":7902,"ĠÙĬØªÙħÙĬØ²":7903,"ĠØ±Ø¤ÙĬØ§":7904,"ĠØ§ÙĦØ³ÙħØ§Ø¡":7905,"ĠØ§ÙĦØ¨Ø¯Ø¡":7906,"ĠØ¬ÙĬØ´":7907,"Ø¨ÙĬØ³":7908,"ĠØ§ÙĦÙĨØ§Ø·ÙĤ":7909,"ĠØ§ÙĦØ²ÙģØ§Ùģ":7910,"ĠØ§ÙĬÙħØ§ÙĨ":7911,"Ø´Ø§ÙĨ":7912,"ÙħØ§Ø¡":7913,"ĠØªÙĨØ´Ø±":7914,"Ġ2003":7915,"ĠØ§ÙĦÙĥØ±Ø¨ÙĪÙĨ":7916,"ĠÙĨØ§Ø´":7917,"ĠØ§ÙĦØ¨Ø§Ø²ÙĦØª":7918,"ĠØ§ÙĦØ®ÙĦÙĬ":7919,"ĠØŃÙħØ¯ÙĪÙĥ":7920,"ĠØ§ÙĦØªØ§Ø³Ø¹Ø©":7921,"ĠÚ¤":7922,"Ø«Ø¨ÙĬØª":7923,"ĠØ¬ÙħØ¹Ø©":7924,"ĠØ§ÙĦØ§ØµØ§Ø¨Ø§Øª":7925,"ĠÙĨØ¸Ø±Ø§":7926,"Ø¨ÙĬÙĦ":7927,"ÙĩØ±ÙĬ":7928,"Ø²Ø§ÙĦ":7929,"ĠØ§ÙĦØ®ÙĬ":7930,"ĠØ§ÙĦØ¹ÙħÙĦØ©":7931,"ĠØ§ÙĦÙģØ¶Ø§Ø¦ÙĬØ©":7932,"ĠØ§ÙĦÙĥÙģ":7933,"Ġ1442":7934,"ĠØ§ÙĦÙħØºÙĨØ§Ø·ÙĬØ³ÙĬ":7935,"Ø§Ø¸Ø§ÙģØ±":7936,"ĠÙģØ®":7937,"ĠØ§ÙĦÙĨØµÙĪØµ":7938,"ĠØ§ÙĦØ¯Ø¬Ø§Ø¬":7939,"ĠÙĦØªØ¹Ø²ÙĬØ²":7940,"ĠØ§ÙĦÙħØ¯Ùī":7941,"ĠÙħØ¨Ø§Ø¯Ø¦":7942,"ĠØªÙĩÙħ":7943,"ĠÙĤØª":7944,"ĠØ§ÙĦØ³Ø§Ø¦ÙĦ":7945,"Ø§ÙĤÙĩ":7946,"ĠØªØµØ§ÙħÙĬÙħ":7947,"ÙĪØ§ÙĨØ¨":7948,"Ø·Ø¨ÙĬÙĤØ§Øª":7949,"ĠÙħÙħØªØ§Ø²Ø©":7950,"ĠÙģØ¬":7951,"ĠØ¹Ø§Ø¯":7952,"ĠÙĦÙħØ¹Ø§ÙĦØ¬Ø©":7953,"ÙĪÙģØ§":7954,"ĠØºÙĬØ±ÙĩØ§":7955,"ĠÙĨØ³ÙĬØª":7956,"ĠØ³Ø§":7957,"ĠØ§ÙĦØ¯ÙĦÙĬÙĦ":7958,"ĠØ§ÙĦÙĪØµÙģ":7959,"ĠØªÙħØ§Ø±ÙĬÙĨ":7960,"ĠØ§ÙĨØµØ§Ø±":7961,"ĠØ§ÙĦØ¯Ø¨ÙĦÙĪÙħ":7962,"ĠØ§ÙĦÙĦØ§Ø¹Ø¨ÙĬÙĨ":7963,"Ø°ÙĥØ±Ùī":7964,"ĠØ§ÙĦÙĪØ³Ø§Ø¦Ø·":7965,"ÙĩÙī":7966,"ĠØ§Ø¯ÙĦØ¨":7967,"ĠØ§ÙĦØ§Ø¨ØŃØ§Ø«":7968,"ĠÙĤÙĦÙĬÙĦØ§":7969,"ÙĥÙĬÙħ":7970,"Ø§ÙĦØ·":7971,"ĠÙĬØªØµ":7972,"ĠØ®Ø¨ÙĬØ±":7973,"ĠØ¨ÙħØ³Øª":7974,"ĠØ¨Ø¯ÙĤØ©":7975,"ĠØªØ®Ø±Ø¬":7976,"ĠØ¬Ø§Ø±":7977,"ĠØ§ÙĦÙĩÙĬØ¯Ø±ÙĪÙĦÙĬÙĥÙĬØ©":7978,"ĠÙĪØ§ÙĦÙħØ®":7979,"ĠØ§ÙĦØ§ÙģÙĥØ§Ø±":7980,"ĠÙĬØ¶Ø¹":7981,"Ø±ÙģÙĬ":7982,"ĠÙħØ±Ø¬Ø¹":7983,"ØªÙĦÙĤÙī":7984,"ĠØªÙĥÙĬÙĬÙģØ§Øª":7985,"ĠØ§ÙĦÙĤØ¶Ø§Ø¦ÙĬØ©":7986,"ĠØ±Ø®Ø§Ùħ":7987,"ĠØ§ÙĦÙĪØ§Ø±Ø¯Ø©":7988,"ĠØ¨Ø¯ÙĦ":7989,"ĠØ§ÙĦÙħØªØŃØ±ÙĥØ©":7990,"ĠØªØ§Ø±ÙĬØ®ÙĬØ©":7991,"ĠÙĪØ§ÙĦØ³ÙĦØ§Ùħ":7992,"ĠÙĦØ§Ø¦ØŃØ©":7993,"ĠØ¯Ø³Øª":7994,"Ø§Ø¶Ø±":7995,"ĠØ§ÙĦØ·ÙĪØ§Ø±Ø¦":7996,"ĠØ§Ø´ÙĬØ§Ø¡":7997,"63":7998,"ĠØ³ØªØ¬":7999,"ĠØ§Ø³ÙĬÙĪØ·":8000,"ĠØ§ÙĦÙħÙģØªÙĪØŃØ©":8001,"ĠØ§Ø³Ø¨ÙĪØ¹ÙĬÙĨ":8002,"ĠÙĦØ²":8003,"ĠÙĪØ§ÙĦØªØ³":8004,"ĠØ¨ÙĦØ§ÙĬ":8005,"ĠØªØ¬Ø§Ø±Ø¨":8006,"ÙĨØ§Ø¹Ø§Øª":8007,"ĠØ§ÙĦÙĤØ¨ÙĪÙĦ":8008,"ĠØ§ÙĦØ®Ø´":8009,"ĠÙĦÙħØ³Øª":8010,"ĠÙĦØ§Ø¨Ø¯":8011,"ĠÙĩØ´Ø§Ùħ":8012,"ĠÙĬØ°ÙĥØ±":8013,"ĠØ§Ø³Ø§Ø¨ÙĬØ¹":8014,"ĠØ§ÙĦØ¬Ø§ÙģØ©":8015,"ĠØªØ®ØªØ§Ø±":8016,"ĠÙħØ³ÙĬ":8017,"ĠØªØ§ÙĥÙĬØ¯":8018,"ĠØ§ÙĦØ¨ÙĥØ§ÙĦ":8019,"ĠÙħØªØµÙģØŃ":8020,"ĠÙĪØµÙĬØ§ÙĨØ©":8021,"ĠØ§ÙĦØŃÙĦÙĪÙĦ":8022,"ĠÙĦØ²ÙĬØ§Ø¯Ø©":8023,"ĠÙħÙĬØ²Ø§Øª":8024,"ĠØŃÙĤÙĬÙĤÙĬØ©":8025,"Ø§Ø¯ÙĬÙĦ":8026,"ĠØ¨ÙĨØ¸Ø§Ùħ":8027,"ĠØ¬ÙħÙĬØ¹Ø§":8028,"ĠØ±Ø®ØµØ©":8029,"ĠØ§ÙĦØ§ÙĨØ¸ÙħØ©":8030,"ĠØ§ÙĦÙħØµØ±ÙĬÙĬÙĨ":8031,"ĠÙĬÙĪÙĨØ§ÙĬØªØ¯":8032,"ĠØ¨ÙĨØ¬Ø§ØŃ":8033,"ĠØ§ÙĦÙħØ³Ø¦ÙĪÙĦÙĬØ©":8034,"ĠØ¹Ø¯ÙĨ":8035,"ÙħØ´":8036,"ĠØ¨Ø§ÙĤÙĬ":8037,"ĠØ§ÙĦÙĨØ§Ùģ":8038,"ĠØ§Ø±ØªØ¯Ø§Ø¡":8039,"ÙĦØ§ÙĪØ©":8040,"ĠÙĬØ¤Ø«Ø±":8041,"ĠØ§ÙĦØ´Ø¹ÙĪØ±":8042,"ĠÙĥØ±ÙĬØ³Øª":8043,"ĠØ¨ÙħÙĦ":8044,"ĠØ§ÙĦÙħØ§Ø¦ÙĬØ©":8045,"ĠØ¹ÙĬÙĪÙĨ":8046,"ĠØ³Ø¬":8047,"ĠØ§ÙĦÙĪØµ":8048,"ĠØ§ÙĦÙħØ¬Ø§ÙĨÙĬ":8049,"ĠØªØªÙĬØŃ":8050,"Ø§Ø·ÙĬØ©":8051,"ĠØ¨ÙĦØ¬":8052,"Ø§ÙĦØ²":8053,"ĠØ³Ø§Ø¦ÙĦ":8054,"ĠÙĪØ§ÙĦÙī":8055,"ĠØ§ÙĦØŃÙħÙĦØ©":8056,"ĠÙħÙĪØ±ÙĬØª":8057,"Ø±ÙĪØ´":8058,"ĠØ§ÙĦØªÙĨÙģÙĬØ°":8059,"ĠØ§ÙĦÙģÙĦØ³Ø·ÙĬÙĨÙĬÙĬÙĨ":8060,"ĠÙĬØ³ÙħÙī":8061,"ĠØ§ÙĦÙħØªÙĤØ¯ÙħØ©":8062,"ĠØ§Ø±Ùĥ":8063,"ĠÙĦØ°":8064,"Ø±ÙĪÙĬ":8065,"ĠØ§ÙĦØ§ÙĪÙĦÙĬ":8066,"ĠØ³ØªØ©":8067,"ĠØŃØ¯Ø§Ø¦ÙĤ":8068,"ĠØ§ÙĦØ¹Ø¯ÙĪ":8069,"ĠØ§ÙĦØ³ÙĨÙĪÙĬ":8070,"ĠØ§ÙĦÙħØ³ÙĬØŃÙĬ":8071,"ĠÙĦÙĦÙħÙĦ":8072,"ĠÙĦÙĦÙħÙĨØªØ¯Ùī":8073,"ĠØªÙĪÙĦÙĬØ¯":8074,"ĠÙħÙĨØ²ÙĦÙĥ":8075,"Ø·ÙĨ":8076,"ĠØ§ÙĦÙĨÙħØ³":8077,"Ø¹ÙĦÙĩ":8078,"ĠÙĦØŃÙĦ":8079,"Ø§Ø¸Ùħ":8080,"Ġ360":8081,"ĠÙģÙĦØ³Ø·ÙĬÙĨÙĬ":8082,"ĠØ¨ÙħØ´Ø§Ø±ÙĥØ©":8083,"Ø§ÙĦÙģÙĨ":8084,"ĠÙĪØ§ÙĦØ§Ø¹ÙĦØ§Ùħ":8085,"ĠÙĦØ¹Ø±Ø¶":8086,"ĠØ¨Ø§ÙĦÙħØ¯":8087,"Ø§Ø®Ø¨Ø§Ø±":8088,"ĠØ§ÙĦØ§ÙħØ§ÙĨØ©":8089,"ĠÙħØ³ØªÙĤÙĦØ©":8090,"ĠØ§ÙĦØ®ÙĬØ±ÙĬØ©":8091,"ĠØ§ÙĨÙĩØ§Ø¡":8092,"ĠÙĪØ§Ø¹Ø§Ø¯Ø©":8093,"ĠØ§ÙĦÙĬÙĨØ§":8094,"ĠÙģØ§ÙĬ":8095,"ĠÙĪØ³ÙĬÙĦØ©":8096,"ÙĨØ§ÙĩÙĬØ©":8097,"Ø¹Ø¯Ø¯Ø©":8098,"Ġ1780":8099,"ĠØ§ÙĦØ§ÙĥØ§Ø¯ÙĬÙħÙĬØ©":8100,"ÙĬØ§ØªÙĬ":8101,"ĠÙĪØªÙĤØ¯ÙĬÙħ":8102,"ĠØ¶Ø±ÙĬØ¨Ø©":8103,"ĠØ§ÙĦØ²ÙĪØ§Ø±":8104,"ĠÙħØ¨Ø§ÙĦØº":8105,"Ø³Ø§Ø±Ø©":8106,"ĠØ²ÙĬÙħØ¨Ø§Ø¨ÙĪÙĬ":8107,"ÙĪØ§Ø±ÙĬØ®":8108,"ĠÙĪÙĤÙĦ":8109,"Ø²ÙĬÙħØ©":8110,"ĠØ§ÙĦØ³ÙĥØ§ÙĨ":8111,"ĠØ§ÙĦØ§Ø³ÙģÙĦ":8112,"ĠØªØŃØ¨":8113,"Ġ3060":8114,"ĠØ¨Ø¹Ø¶ÙĩØ§":8115,"ĠÙħÙģØªØ§ØŃ":8116,"ĠÙħØ«ÙĬØ±Ø©":8117,"ĠØ§ÙĦÙħØ´Ø±":8118,"ĠØ§ÙĦØµØ±Ø§Ø¹":8119,"ĠØªØ§Ø¬ÙĬÙĦ":8120,"Ø§ÙĦØªÙĩ":8121,"ĠØ³ÙĬÙħØ§":8122,"ĠØ§ÙĦØ§ØµÙĪÙĦ":8123,"ĠØ§ÙĦØ¹Ø«Ùħ":8124,"ĠØ§ÙĦÙĦÙĬØ¨ÙĬØ©":8125,"ĠØªØ¹Ø§ÙĨÙĬ":8126,"ĠØ§ÙĦØ¨Ø·ÙĨ":8127,"Ø´ÙĪØ¨":8128,"ĠÙħÙĪØ³ÙĥÙĪ":8129,"ĠÙħØ³Ø§ÙĦØ©":8130,"ĠØ§Ø´ØªØ±ÙĬ":8131,"ĠØ§ÙĦÙħØ¨Ø§Ø´Ø±Ø©":8132,"ĠÙĤÙĦÙĬÙĦØ©":8133,"ĠÙĪÙħÙĦØ§Ø¨Ø³":8134,"ĠÙĥØ§Ø±ÙĬ":8135,"ĠØ§ÙĦØ´ÙĬÙĪ":8136,"ĠØ§ÙĦÙĤØ§Ø¹Ø¯Ø©":8137,"ĠÙħØ¯Ø®ÙĦ":8138,"ĠØ¨ÙĬØªÙĥ":8139,"ĠØ³Ø¯ÙĬÙħ":8140,"Ø¬Ø²Ø§Ø¦Ø±":8141,"ÙĤØ§ÙĨ":8142,"Ø§Ø®ÙĬØ±":8143,"Ġ2480":8144,"ĠÙĦÙĥÙĨÙĩØ§":8145,"ØªØ¦Ø§Ø¨":8146,"Ø·Ø§ÙĦØ¨":8147,"ĠØ´Ø§Øª":8148,"ĠØ´ÙĬÙĪ":8149,"ĠØªÙĨØ¸Ùħ":8150,"ĠØ³ÙĬÙĪ":8151,"ĠÙħØ¤Ùĥ":8152,"ĠÙĬØ¯ÙĦ":8153,"69":8154,"ĠÙħØŃØ§ÙĥÙħØ©":8155,"ÙĪØ¶Ø§Ø¹":8156,"ĠØ¨Ø§ÙĪØ±":8157,"ĠØ´ÙĩÙĪØ±":8158,"ĠØ²Ùĥ":8159,"Ø¯Ø±Ø³":8160,"ĠØŃÙĪØ§Ø¯Ø«":8161,"ĠØªØ²Ø§ÙĦ":8162,"ĠØ§ÙĦÙħÙĪÙĤÙģ":8163,"ĠÙĥØ§Ø±ÙģÙĪØ±":8164,"ĠØ¨Ø§Ø¹ØªØ¨Ø§Ø±":8165,"ĠØ¨ØªÙĨØ³ÙĬÙĤ":8166,"ĠØ³Ø±Ø·Ø§ÙĨ":8167,"ĠØ§Ø±Ø¨Ø§ØŃ":8168,"ĠØ¹ÙĤØ§Ø±":8169,"ĠÙĥØ§Ø²":8170,"ĠØ·ÙĩØ±Ø§ÙĨ":8171,"ØªÙĪØ¨Ø©":8172,"ĠÙĦÙħØ¤":8173,"ÛĮØ¯":8174,"ĠØ§ÙĦØ§ÙĤÙĦÙĬÙħÙĬ":8175,"ĠØ§ØªÙĩ":8176,"ĠØ¹ÙħØ§":8177,"ĠØ§ÙĦØ¨Ùĩ":8178,"ĠÙĪØ§ÙĦØ¨ØŃØ«":8179,"ĠØ§ÙĨÙĨÙĬ":8180,"ĠØªÙģØªØŃ":8181,"ĠØ¨ØªÙĤ":8182,"ĠØ§ÙĦÙĥÙĩØ±Ø¨Ø§Ø¦ÙĬ":8183,"ĠØ®ØµÙĪØµØ§":8184,"ĠÙħÙĪØªÙĪØ±":8185,"ĠØªØ¬ÙħÙĬÙĦ":8186,"ĠØ§ÙĦØ¯ÙĬÙĨÙĬ":8187,"ĠØ§ÙĦØ§Ø±Ø¶ÙĬØ©":8188,"ĠØ§ÙĦØ§ÙĥØ³Ø¬ÙĬÙĨ":8189,"ĠØ§ÙĦÙĥÙĪÙħ":8190,"ĠØªØ´ÙĥÙĦ":8191,"ĠÙĦÙĦØªØ§ÙħÙĬÙĨ":8192,"ĠØ±ØµØ¯":8193,"ĠØ§ÙĦÙĦÙĬÙħÙĪÙĨ":8194,"ĠØ§ÙĦØ·ÙĬÙĨ":8195,"ĠÙĨØ³Ø§Ø¡":8196,"ĠØ¹ÙĦÙħÙĬ":8197,"ĠØ§ÙĦØ³Ø±ÙĬØ¹Ø©":8198,"ĠØ§Ø´Øª":8199,"ĠØ¬ÙĦØ¯":8200,"Ġ178094":8201,"ĠÙħÙĬÙĪÙĨ":8202,"Ø§ÙĦØ§ÙĨ":8203,"ĠØ§ÙĦØ²ÙĪØ¬ÙĬØ©":8204,"ĠØ¬Ø±Ø§ØŃØ©":8205,"ĠØ§ÙĦØŃØ³Ø§Ø¨Ø§Øª":8206,"ĠØ§ÙĦÙĨØ¨ÙĪÙĬØ©":8207,"ĠÙħÙĬÙĥØ§ÙĨ":8208,"ĠØ´Ø±ÙĬØ·":8209,"ĠØ¨Ø§ÙĦØ¹ÙħÙĦ":8210,"ĠÙħØµÙĦØŃØ©":8211,"ĠØ§ÙĦÙĩÙĪÙĬØ©":8212,"ĠØ¬Ø§ÙĩØ²Ø©":8213,"Ġ306098":8214,"Ġ248085":8215,"ĠÙĦÙħØµÙĨØ¹":8216,"ĠØ¬ÙĪØ§Ø²":8217,"ĠØ§ÙĦØªØ¯Ø®ÙĦ":8218,"ĠÙĦÙĦØ¨ØŃØ«":8219,"ĠØ§ÙĦØ³ØŃ":8220,"ĠØ§ÙĦØ´ÙĩØ¯Ø§Ø¡":8221,"Ø´ÙĬØ·":8222,"ĠØ§ÙĦØºØ¨Ø§Ø±":8223,"ĠØ¨Ø§Ø³ØªÙħØ±Ø§Ø±":8224,"Ø·Ùĩ":8225,"ĠØ§ÙĦØ¬Ø¨ÙĦ":8226,"ĠØ¨ÙħØ«":8227,"ĠØ§ÙĦØ´Ø±ÙĬØ¹Ø©":8228,"ĠØ§ÙĦØ§ÙĨØ¨ÙĬØ§Ø¡":8229,"ĠÙĪÙĦÙĬØ¯":8230,"ĠÙĪØ«ÙĬÙĤØ©":8231,"ĠØ§ÙĦØªØ§Ø«ÙĬØ±":8232,"ĠØ§ÙĦØ¬Ø§Ùģ":8233,"ĠÙĬØ¹Ø§ÙĨÙĬ":8234,"ĠÙģØ¤Ø§Ø¯":8235,"ĠØ§ÙĦØ¹Ø¬":8236,"ĠÙĦÙĦØ¹ÙĨØ§ÙĬØ©":8237,"ĠØ§ÙĦÙħÙĪØ³ÙĪØ¹Ø©":8238,"Ø¤ÙĥØ¯":8239,"ØªØ¯Ø®ÙĦ":8240,"ĠØ§ØµØ§Ø¨":8241,"Ø§ØŃÙĨØ§Øª":8242,"ĠØ§ÙħÙĨØ©":8243,"ĠØ§ÙĦØ®ØµÙħ":8244,"ĠØ§ÙĦÙĨØ§ØªØ¬":8245,"ĠÙĬØªØ¬":8246,"ĠØŃØ±Ø§Ø¬":8247,"Ø§ØŃØ¸":8248,"ĠØ§ÙĦÙĨÙħÙĪ":8249,"ĠØ§ÙĦØ°Ø§ÙĥØ±Ø©":8250,"ĠØ§ÙĦÙħØ·Ø§Ø±":8251,"ĠÙĪØ«Ø§Ø¦ÙĤ":8252,"ĠØ§ÙĦÙģÙĦØ³ÙģØ©":8253,"ĠØ§ÙĦØ³Ø¹Ø§Ø¯Ø©":8254,"ĠØ§ÙĦÙģÙĨØ¯ÙĤ":8255,"ĠØ§ÙĦØ§Ø³ÙĥØ§ÙĨ":8256,"ĠØ§Ø´Ø±Ø§ÙĤ":8257,"ĠØµÙĦØ©":8258,"ĠÙĪÙĨØ´":8259,"ĠÙĬØ´ÙħÙĦ":8260,"ĠØ§ÙĦØ´ÙħØ§ÙĦÙĬ":8261,"ĠÙĦÙĥØ³Ø§Ø±Ø©":8262,"ĠØ§ÙĦØ¬ÙĪÙĬ":8263,"ĠØ§ÙĦÙĨØŃÙĪ":8264,"ĠØ§ÙĦØµØ¹Ø¨":8265,"ĠÙĦÙĦÙħØ¨ØªØ¯Ø¦ÙĬÙĨ":8266,"ĠØ§ÙĦØªÙĤÙĨÙĬØ§Øª":8267,"ĠÙĦÙħÙĨØ¹":8268,"ĠØ§ÙĦØ´ÙĬØ¡":8269,"ĠÙĦØªÙģ":8270,"ĠÙħÙĪØ§ÙģÙĤ":8271,"ĠØ§ÙĦØ³Ø±Ø·Ø§ÙĨ":8272,"ĠØ§ÙĦØµØ¨":8273,"ĠØ§ÙĦØ§ÙĪØ¶Ø§Ø¹":8274,"ĠØªÙħÙĦÙĥ":8275,"ØºØ§Ùģ":8276,"Ø¦ÙĬØ§Øª":8277,"ĠØ§Ø³ØªØ¨Ø¯Ø§ÙĦ":8278,"ĠØ§ÙĦÙģÙĥÙĬØ©":8279,"ĠØ§ÙĦÙģØ§Ø±":8280,"ÙĤØ±Ø§ÙĨ":8281,"ĠÙĬÙĪÙħÙĬÙĨ":8282,"ĠØ§ÙĦØŃØ±ÙĬØ±ÙĬ":8283,"ĠØ§ÙĦØ§Ø³ØªØŃÙħØ§Ùħ":8284,"ĠØ§ÙĦÙĨÙĪÙĪÙĬØ©":8285,"Ø§ØªÙĩÙħ":8286,"ĠÙĬØ±Ùī":8287,"ÙĪØ§Ø¹Ø¯":8288,"ĠØªØªØ¬Ø§ÙĪØ²":8289,"Ø§Ø¯ÙĬÙħÙĬ":8290,"ĠØ§ÙĦØŃØ§Ø³ÙĪØ¨":8291,"ÙĪØªØ´":8292,"ĠØ§ÙĦÙħØ¹Ùħ":8293,"ĠØªØ¨Ø¹":8294,"ĠØ§ÙĦØ§Ø±Ø¯ÙĨÙĬ":8295,"ĠÙħÙĤØ§Ø³":8296,"ĠØ§ÙĦØªÙĪØ§ÙĦÙĬ":8297,"ĠØ´Ø®ØµÙĬØ§Øª":8298,"ĠÙĨØ¸Ø±ÙĬØ©":8299,"ĠØ§ÙĦÙģÙĨÙĪÙĨ":8300,"ĠØ§ÙĦØ¨ÙĪÙĥØ³ÙĬØª":8301,"ĠÙħØ¨ÙĬØ¹Ø§":8302,"ĠØ§ÙĦØ¬Ø±ÙĬÙħØ©":8303,"ĠØ§ÙĦÙģØªØ§Ø©":8304,"ĠÙģØ§Ø·ÙħØ©":8305,"ĠÙĬØŃÙĤÙĤ":8306,"ĠÙĦÙĦØŃÙģØ§Ø¸":8307,"Ø§ÙĦÙĪØ¬":8308,"Ø§ÙĪØ¶":8309,"ĠÙħØªØŃØ±ÙĥØ©":8310,"ĠØ§ÙĦØ§ÙĨØªØ®Ø§Ø¨ÙĬØ©":8311,"ĠÙĤÙĪÙī":8312,"ĠÙĥÙĦØ§ÙĬÙĨ":8313,"ĠØ§ÙĦÙĨÙĩØ§Ø±":8314,"ĠØ¨ÙĨÙģØ³Ùĥ":8315,"ĠØ§ÙĦÙĥÙĪÙĥÙĬØ²":8316,"ĠØ·Ø±Ø§Ø¨ÙĦØ³":8317,"ĠÙģÙĤØ¯Ø§ÙĨ":8318,"ĠÙħÙĬØ¯Ø§ÙĨ":8319,"ÙĨØ§ÙĩØ¬":8320,"Ġ301":8321,"ĠÙĤÙĦØª":8322,"ĠÙĦØ§ØµØŃØ§Ø¨":8323,"Ø³Ø¹":8324,"ĠÙĪØ§ÙĦØ¨ÙĦ":8325,"ĠÙħØ¹ÙĩÙħ":8326,"ĠÙĪÙĦÙĥÙĨÙĩ":8327,"ĠØ¨Ø§ÙĦÙĩ":8328,"ØªØ±Ø§Ùħ":8329,"ÙĬÙħØ²":8330,"ĠØ¸Ø§ÙĩØ±Ø©":8331,"ÙĪØ¸Ø§Ø¦Ùģ":8332,"ÙĪØ¯Ø¹":8333,"ĠØ§ÙĦØµÙĩÙĬÙĪÙĨ":8334,"ĠÙĬØŃØ¯Ø¯":8335,"ĠØ±ÙĬØ§Ø¶ÙĬØ§Øª":8336,"ĠÙģØ§Ø®Ø±Ø©":8337,"ĠØ¹ÙĤÙĦ":8338,"ĠØ§ÙĦØ¨Ø«":8339,"ĠÙĪØªØ³Øª":8340,"ĠÙħÙģÙĬØ¯Ø©":8341,"ĠÙħÙĨØ¸ÙĪÙħØ©":8342,"ĠÙħØ³Ùħ":8343,"ĠØ§ÙĦØ³Øª":8344,"ĠØ¨ÙĬÙĨÙĩÙħØ§":8345,"ĠØ§ÙĦÙħÙģØªÙĪØŃ":8346,"ĠØ¹Ø³":8347,"ĠØ§ÙĦØŃÙĦÙħ":8348,"ĠØ§ÙĤÙĪÙĦ":8349,"ĠØ¹Ø§Øµ":8350,"ĠØ¬ÙĩØ¯":8351,"ĠØ¶Ø±Ø¨":8352,"ÙĪÙĨØ¯Ø§":8353,"ĠØ§ÙĦØ§Ø±Ø«":8354,"ĠÙģÙĩÙĦ":8355,"ĠØ§ÙĦÙħØªØ§Ø¨Ø¹Ø©":8356,"ĠØ§ÙĩØ§ÙĦÙĬ":8357,"ĠØ§ÙĦÙĦÙĤØ§ØŃ":8358,"ØªØ§Ø¯":8359,"ĠÙĪØªØª":8360,"ĠØªÙĪÙģÙĬÙĤ":8361,"ĠÙĦÙģØªØ±Ø©":8362,"ĠØ§ÙĦØªØ¹Ø¨ÙĬØ±":8363,"ĠØ§ÙĦÙģÙĪÙĦØ§Ø°":8364,"ĠØ§ÙĦØ´Ø§ÙĬ":8365,"ĠØ§ÙĦØ¯ÙĤØ©":8366,"Ø§ÙĩØªÙħØ§Ùħ":8367,"ĠØºÙĬÙĨÙĬØ§":8368,"ĠÙĦÙħØ±":8369,"Ø±Ø¬ÙĪ":8370,"ĠØ§Ø´Ø±Ùģ":8371,"ĠÙĥØ±Ø§Ø¬":8372,"Ø¦ÙĪÙĦ":8373,"ĠÙħØµÙħÙħ":8374,"ĠØ§Ø³ØªØ«Ùħ":8375,"ÙĬØªØ´":8376,"ĠØ§Ø¨Øª":8377,"ĠÙĦÙĦØªÙĨÙħÙĬØ©":8378,"ĠØ§ÙĦÙģØ§":8379,"ĠØ§ÙĦØ²ÙĬ":8380,"ĠØ§ØªØµØ§ÙĦØ§Øª":8381,"ØªØ¨Ø§ÙĥØ§Øª":8382,"ĠØ³ÙĬØ±Ø©":8383,"Ø§Ø¨ÙĦØ§Øª":8384,"ĠÙĤØ±Ø·":8385,"ĠØ§ÙĦØ±Ø¤ÙĬØ©":8386,"ĠÙħØ¬Ø§ÙĨ":8387,"ĠØ³Ø¨Ø§ØŃØ©":8388,"Ø¨ÙĪØ·":8389,"ĠÙĪÙĥØ³Ø§Ø±Ø©":8390,"ĠÙģÙĥØ§ÙĨ":8391,"Ø§Ø¶Ø©":8392,"ĠÙĬØŃØ°Ø±":8393,"ĠÙħØ¤Ø®Ø±Ø§":8394,"ĠØ¹Ø¨Ø§Ø±Ø§Øª":8395,"Ø³ÙĪÙĦ":8396,"Ġ105":8397,"ĠØ§ÙĦØŃØ§Ø±":8398,"ĠÙĦÙħØ²ÙĬØ¯":8399,"ÙĨØ¯Ø³Ø©":8400,"ĠØ´Ø±ÙĬÙģ":8401,"ĠØ¨Ø±ÙĦÙħØ§ÙĨÙĬØ©":8402,"ĠØªÙģØ¬ÙĬØ±":8403,"ĠÙĬØªØ·ÙĦØ¨":8404,"ÙĬØ¯Ø²":8405,"ĠØ¯ÙĪÙĦÙĬ":8406,"ĠÙĤØªÙĦÙī":8407,"ĠØ§ÙĦØŃÙħÙĬØ¯":8408,"ØªÙĩØ¯":8409,"ĠÙħÙĥØ§Ùģ":8410,"Ø¹ÙĬÙĬÙĨ":8411,"ĠØ§ÙĦÙĤØ·Ø±ÙĬ":8412,"ĠØ§ÙĦØ¨ÙĪØ§Ø¨Ø©":8413,"ĠÙĨØ²ÙĦ":8414,"ĠÙħØ«Ø§ÙĦ":8415,"ĠØ¨ØªØ¬":8416,"ĠÙĦØ¬Ùħ":8417,"Ø§ÙģØ±ÙĬÙĨ":8418,"ĠØ§ÙĦØµÙĨØ¹":8419,"ĠØ§ÙĦÙħØ±Ø¶Ùī":8420,"ĠØªØ´ÙĬØ±":8421,"ĠÙģØ±Ø¯":8422,"Ø¬Ø¨Ùĥ":8423,"ĠØ§ÙĦÙģØªØŃ":8424,"ĠØ§ÙĦÙħØ±ØªØ¨Ø·Ø©":8425,"ĠØ¨ÙħÙĤ":8426,"ĠØ³Ø¨Ø§ÙĤ":8427,"ĠØ§ÙĥØ³ÙĬØ¯":8428,"ĠÙĪÙĦÙĩØ°Ø§":8429,"ĠÙħØ§Ø¯":8430,"ĠØ¬ÙĬÙĦ":8431,"Ø§Ø¬ÙĬØ©":8432,"ĠØ§ÙĦØ®ÙĬØ§Ø±":8433,"ĠØ§ÙĦÙĩØ§Ø´":8434,"ĠØ§ÙĦÙħÙĤØ§ÙĪÙħ":8435,"ĠØ³ÙĦØ·ÙĨØ©":8436,"ĠØ§ÙĦØ¬Ø¯ÙĪÙĦ":8437,"Ø§ÙħØ¹Ø§Øª":8438,"ĠØ§ÙĦØ°ÙĥÙĬ":8439,"ĠÙĬÙĤØªÙĦ":8440,"ĠÙĪØ§Ø´Ø§Ø±":8441,"ĠÙĪØ¨Ø±Ø§ÙħØ¬":8442,"ĠØ¨ÙħØ«Ø§Ø¨Ø©":8443,"ĠØ§Ø·Ø±":8444,"ĠÙĤØ¶Ø§Ø¡":8445,"ĠØ±Ø§ØŃ":8446,"ĠØ§Ø¨ØªØ¯Ø§Ø¡":8447,"Ø¨Ø®Ø§Ø±":8448,"ĠØ§ÙĦØ´ÙĩØ§Ø¯Ø©":8449,"ĠÙĪØªØ±ÙĥÙĬØ¨":8450,"ĠØ§ÙĦÙħØ±ØŃ":8451,"ĠÙĦØªÙĥÙĪÙĨ":8452,"ĠÙĪØ§Ø³Ø¹Ø§Ø±":8453,"ĠØ§ÙĦÙĬØ§Ø¨Ø§ÙĨÙĬØ©":8454,"ĠØ±Ø¨ØŃ":8455,"ĠØ§ÙĦØ±Ø§Ùģ":8456,"ĠØ§Ø³ØªÙĬØ±Ø§Ø¯":8457,"ĠØªØ¹ÙĨÙĬ":8458,"ĠÙģØ±Ø´":8459,"ĠØ§ÙĦÙħØ³ÙĬØŃÙĬØ©":8460,"ĠÙĦÙĦØ§Ø³ØªØ«ÙħØ§Ø±":8461,"ĠØ§Ø¹Ø¯Ø§Ø¯Ø§Øª":8462,"ĠÙħÙĨØŃØ©":8463,"ĠØ§ÙĦÙħØ³ØªÙĩÙĦÙĥ":8464,"ĠØªÙĬØ´ÙĬØ±ØªØ§Øª":8465,"ĠØ§ÙĦÙĥÙĪØ¯":8466,"ÙĥØ³Ø±":8467,"ĠØªÙĥØ§ÙĦÙĬÙģ":8468,"ĠÙĬÙĪÙĨØ³":8469,"ĠÙĥØ´ÙģØª":8470,"ĠÙĪÙĪØ¶Ø¹":8471,"ĠØ§ÙĦÙħÙĥØ³ÙĬÙĥ":8472,"ĠØ³Ø§ÙĨØª":8473,"ĠØ§ÙĦÙĩÙħ":8474,"ĠØ§ÙĦØŃØ¯Ø«":8475,"ĠØ³ÙĬØ§Ø±":8476,"ĠÙĬØ´Ø¹Ø±":8477,"ĠÙĥÙĪÙĦÙĪÙħ":8478,"ĠØ§Ø¯ÙĬ":8479,"ÙĬÙĥØ©":8480,"ĠØ§ÙħÙĪØ±":8481,"ĠØªÙĨØ§Ø³Ø¨":8482,"ĠØ§Ø´ØªØ±Ø§Ùĥ":8483,"ĠØ§ÙĦØªØ¬Ø§Ø±":8484,"ĠÙĦÙĤØ¨":8485,"ĠØŃØ¯ÙĬØ«Ø§":8486,"Ġ101":8487,"ĠØªØ³ÙĦÙĬÙĥ":8488,"ĠØªØ°ÙĥØ±":8489,"Ø§ÙĨÙĥ":8490,"ĠØ¨Ø¹ÙĬØ¯Ø§":8491,"ĠØªØ®ØµÙĬØµ":8492,"ÙĨØ§Ø©":8493,"ĠÙĬÙĪØ¬Ùĩ":8494,"Ø¶Ø§Ø±":8495,"ĠÙĪØ§ÙĦØªÙģ":8496,"ĠØ«ÙħÙĨ":8497,"Ø¨Ø¯Ø¡":8498,"ĠØ§ÙĦØ§Ø¹ØªÙħØ§Ø¯":8499,"ĠÙĦÙĨØ¸Ø§Ùħ":8500,"ĠØ¨Ø³ÙĦ":8501,"Ø§ØªÙĥ":8502,"Ø§ÙĨÙħ":8503,"ĠÙĬÙĪÙģ":8504,"ĠÙħØ¹ÙħÙĦ":8505,"ĠØ§ÙĦØ¨ÙĨØª":8506,"ĠÙĦÙĦÙħØ¹":8507,"ĠØªØ´ÙĩØ¯":8508,"ĠØ§Ø®Ø¨Ø§Ø±ÙĬØ©":8509,"ĠÙĪØµÙģØ©":8510,"ĠØ§ÙĦÙĥØ±Ø§Ùħ":8511,"ÙĪØ³ÙĬ":8512,"ÙĥØ¨":8513,"ĠÙĬØªØ®":8514,"Ø§Ø¬Ø¹Ø©":8515,"ĠØ§ÙĦØ¯Ø±ÙĪØ³":8516,"ĠØ§ÙĦØ§Ø´ØªØ±Ø§ÙĥØ§Øª":8517,"ĠÙĦÙĬÙħ":8518,"ĠØ¬ÙĨØ±Ø§ÙĦ":8519,"ĠØ§ÙĦØªÙĥÙĪÙĬÙĨ":8520,"ĠÙĪØ´Ø±Ø§Ø¡":8521,"Ø§Ø´Ùī":8522,"ĠÙĬÙħØ§Ø±Ø³":8523,"ĠÙħÙĤØ·Ø¹":8524,"ĠØªØ³Ø¹":8525,"ĠØ¬ÙĪØ±Ø¬ÙĬØ§":8526,"ÙĪÙĬØ¨":8527,"ĠÙĩÙĪÙĦÙĨØ¯Ø§":8528,"ĠØ¯Ø§Ø®ÙĦÙĬ":8529,"ĠØ¹ÙĬØ§Ø±":8530,"ĠØ³ÙĬÙħ":8531,"ÙĪÙĨÙĬØ©":8532,"ĠÙĩÙĪØ¯":8533,"ĠØ±ØµÙĬØ¯":8534,"ĠØ§ÙĦØ·Ø¨Ø§Ø¹Ø©":8535,"ĠÙĦÙħØ³Ø§Ø¹Ø¯":8536,"ĠØ³Ø§Ø¨ÙĤØ§":8537,"ĠØ§ÙĬÙģ":8538,"ĠØ³ÙĪØ§Ø±":8539,"ĠØ´Ø§ÙĩÙĬÙĨ":8540,"ĠØªØ§ÙĬÙĦØ§ÙĨØ¯":8541,"ĠÙĦØ®Ø¯ÙħØ§Øª":8542,"ĠØ¬ÙĦØ§ÙĦ":8543,"ĠØ¨ÙĦØ¯Ø©":8544,"ÙħÙĬÙħÙĬ":8545,"ĠØ¨Ø§ÙĦÙħÙħÙĦÙĥØ©":8546,"ĠØ§ÙĦÙĨÙĤØ¯ÙĬ":8547,"ĠØ´ÙĪØª":8548,"ĠØ§ÙĦÙĪØ§Øª":8549,"Ø§Ø´ÙĬØ±Ø©":8550,"Ø¶ÙĪØŃ":8551,"ĠØ§ÙĦÙģØ±Ø¯ÙĪØ³":8552,"ĠØ§Ø¸ÙĩØ±":8553,"ĠØ§Ø°ÙĩØ¨":8554,"ĠÙĪØ¹Ø¯Ø¯":8555,"ĠÙĨØ±":8556,"ĠØµÙĬØ¯ÙĦÙĬØ©":8557,"ĠØªØ¬ÙħÙĬØ¹":8558,"ĠØªÙĩØ¯Ùģ":8559,"ĠØ¬Ø³":8560,"ĠØ§Ø±ØªÙĥ":8561,"ĠØªØ±Ø§Ø®ÙĬØµ":8562,"ĠØ¨ÙĪØ¶Ø¹":8563,"ĠØ¹Ø¯Ø¯Ø§":8564,"ĠÙĬØªØŃÙħÙĦ":8565,"ĠØŃÙĤÙĬÙĤÙĬ":8566,"ĠØ§ÙĦØªØ¹Ø¨Ø¦Ø©":8567,"ĠØ§ÙĦÙħØ±Ø§ÙĩÙĤØ©":8568,"ĠØ§ÙĦØŃØ´Ø¯":8569,"ĠØ§ÙĦØ´Ø±Ø¨":8570,"ĠØ§ÙĦØ§ÙĨØ¨Ø§Ø¡":8571,"ĠØªÙħÙĥÙĬÙĨ":8572,"Ġ1500":8573,"ĠØ±Ø§Ø´Ø¯":8574,"ĠØ§ÙĦØ´Ø®ØµÙĬØ§Øª":8575,"ĠØ§ÙĦØ³ÙģØ§Ø±Ø©":8576,"ĠØ§ÙĦØ¨ØµØ±Ø©":8577,"ĠÙĬØ±ÙģØ¶":8578,"ĠØ³Ø§Ø¹":8579,"ĠØ§ÙĦØ§ØŃÙĦØ§Ùħ":8580,"ĠØ§ÙĦØ§ÙħØ§Ø±Ø§ØªÙĬ":8581,"ĠØ§ÙĦØ¹ÙĪØ§ÙħÙĦ":8582,"ĠØ§ÙĥØ³Ø¨ÙĪ":8583,"Ø´Ø§Ø¯Ø§Øª":8584,"ĠØ§ÙĦØ¬ÙĨØ©":8585,"ĠØ§ÙĦÙħØ¤ÙħÙĨÙĬÙĨ":8586,"ĠÙĦÙĦØªØ¹Ø¯ÙĬÙĨ":8587,"Ø§ÙħØª":8588,"ĠÙĬØ¬ÙħØ¹":8589,"ĠØ§ÙĪØ¨":8590,"ĠØ§Ø¹ÙĦÙħ":8591,"ĠØ§ÙĦØ®Ø·Ø§Ø¨":8592,"ĠÙħÙĨØµØ§Øª":8593,"ĠØ§ÙĦÙħØ³ØŃÙĪÙĤ":8594,"ĠÙĬÙĤÙĪØ¯":8595,"ÙĬØºØ©":8596,"ĠØªÙĦÙħÙĬØ¹":8597,"ÙĥÙĦÙĬ":8598,"ĠØ¨ÙĬÙĪ":8599,"ĠØ¬ÙħÙĦØ©":8600,"ĠØ§ÙĦÙĤØ¯Ø±Ø§Øª":8601,"ĠØ³ÙĨØªØ±":8602,"ĠÙĦØªÙħ":8603,"ĠØ³Ø§Ø±Ø©":8604,"ĠÙħÙĪØ§ÙĤÙģ":8605,"ÙĪØ±Ø¯ÙĬÙĨ":8606,"ĠÙĤØ§ÙĨÙĪÙĨÙĬ":8607,"ĠØ§ÙĦÙħØ°ÙĥÙĪØ±Ø©":8608,"ĠØ¨Ø³Øª":8609,"ĠØ§ÙĦÙħØ³Ø§ÙģØ±":8610,"ĠØªØ¯ÙĦ":8611,"ĠÙĬØªÙĬØŃ":8612,"ĠØ§ÙĦÙģØ¹Ø§ÙĦ":8613,"ÙĪØ³ÙģØ§Øª":8614,"ĠØ§ÙĦÙħÙĬÙĥØ§ÙĨ":8615,"ĠØ¬Ø§ÙĦ":8616,"ĠØ²ÙĩØ±Ø©":8617,"Ø²Ø§ÙĬØ¯":8618,"ĠÙĪØ§ÙħØ§":8619,"Ø§ØŃÙħØ¯":8620,"ĠØ·Ø¨ÙĬØ¹Ø©":8621,"ĠØ§ÙĦØ±Ø¨Ø§Ø·":8622,"ÙĬØªØ§Øª":8623,"ĠØ§ÙĦÙĩÙĬ":8624,"ÙĪÙĦÙĪØ¬ÙĬØ©":8625,"ĠØ§ÙĪÙģ":8626,"Ø§ØªØ°Ø©":8627,"ĠØ³Ø¹Ø§Ø¯Ø©":8628,"ĠØ§ÙĦØ§Ø³Ø±Ùī":8629,"ĠØ§ÙĦØµØ¯Ùħ":8630,"ĠØ§ÙĦØªÙĪØŃÙĬØ¯":8631,"ĠÙģÙĨØŃÙĨ":8632,"ĠØ¹Ø±Ø¨Ùī":8633,"ÙĪÙĥÙĪÙĦØ§Øª":8634,"ĠØ§ÙĦØ¶Ø¹":8635,"ĠØ§ÙĦØ°ÙĩØ§Ø¨":8636,"ĠÙħØ¤Ø´Ø±Ø§Øª":8637,"ĠØ¨ÙĪØªØ§Ø¬":8638,"ĠØ¨Ø§ÙĦÙħØ±":8639,"Ġ750":8640,"ĠØ§ÙĦÙħÙĪØŃØ¯":8641,"ĠØ§ÙĦÙĩØ¯Ø§ÙĬØ§":8642,"ĠØªØµÙĨØ¹":8643,"ĠØ¨ÙĦÙĪ":8644,"ØºØ·ÙĬ":8645,"ĠØŃØµØ±ÙĬ":8646,"ĠÙĪØ§ÙĦØ´Ø±":8647,"ĠÙħØµØ·ÙĦ":8648,"ĠØ¨Ø§ÙĦÙħØŃ":8649,"ĠØ¹Ø§ÙĦÙħÙĬØ§":8650,"ĠØ¨ÙĦØ¯Ø§ÙĨ":8651,"ĠØªØ§Ø³Ø³Øª":8652,"ĠØ§ÙĨØ¬ÙĦÙĬØ²ÙĬØ©":8653,"Ġ115":8654,"ĠÙĦÙĦØªÙĪØ§ØµÙĦ":8655,"ĠÙĦÙĦØ§ÙĪÙĦØ§Ø¯":8656,"ĠÙĩØ§Ø±":8657,"ĠØ§ÙĦÙħØ´Ø§Ø±Ùĥ":8658,"Ø±ÙĪØ³ÙĪÙģØª":8659,"ĠØ§ÙĦØ¹ÙĤÙĪØ¨Ø§Øª":8660,"ĠØ±ÙĬØ¯":8661,"ĠÙħØ¹Ø±ÙĪÙģ":8662,"ĠØ§ÙĦÙĤØªÙĦ":8663,"ĠØ§ÙĦØ±ØŃÙĬÙħ":8664,"ĠØªÙĤÙĦÙĬÙĦ":8665,"ĠØ§ÙĦØ¯ÙĬÙħÙĤØ±Ø§Ø·ÙĬ":8666,"ĠØ§ÙĦÙĩÙĬØ¯Ø±ÙĪÙĥ":8667,"ØŃÙĪÙĨ":8668,"ĠØªÙĤØ¯":8669,"ĠØ§ÙĦØªÙĨØ³ÙĬÙĤ":8670,"ĠØ§ÙĦØ§ÙĤÙĦÙĬÙħÙĬØ©":8671,"ĠØ³ÙĥÙĨÙĬØ©":8672,"ĠØŃØ¯ÙĬÙĤØ©":8673,"ĠØ¨Ø§ÙĦØ¹Ø±Ø¨ÙĬ":8674,"ĠØ³ÙĦØ§ØŃ":8675,"ĠØ§ÙĦÙħØµØ§Ø¯Ø±":8676,"ĠØ®ÙĦØ§ÙĦÙĩ":8677,"ĠØ«ÙĦØ§Ø«ÙĬØ©":8678,"ĠÙĤØ§Ø¯":8679,"ĠØŃØµÙĪÙĦ":8680,"ĠÙĨØ§Ø¨":8681,"ĠØ§ÙĦØ´ÙĪ":8682,"ĠØ§ÙĦÙħØªØŃØ¯Ø«":8683,"ĠØ§ÙĦÙħÙĪØ¨Ø§ÙĬÙĦ":8684,"ĠØ§ÙĦÙħØ§Ø¬Ø³ØªÙĬØ±":8685,"ĠØ³ÙĬØ³":8686,"ĠÙħØŃØ§Ø¬Ø±":8687,"ĠØ§ÙĦÙĪØ¸ÙĬÙģ":8688,"ĠØªØŃØ¯Ø¯":8689,"ĠØ§ÙĬØ¬ÙĬ":8690,"ĠÙĬØŃØ§ÙĪÙĦ":8691,"ĠØ³ØªØ§ÙĬÙĦ":8692,"ĠÙĦØ¹Ø¯Ùħ":8693,"ĠÙĬÙĦØ²Ùħ":8694,"ĠØ§ÙĦÙĬØ¯ÙĪÙĬØ©":8695,"ĠØ§Ø³Ø³":8696,"ĠØ§ÙĦØ§ØŃØ³Ø§Ø¡":8697,"ĠØ§ÙĦÙħØªØ¹Ø¯Ø¯Ø©":8698,"ĠØ§ÙĦÙģØ¬ÙĬØ±Ø©":8699,"Ø¨Ø§ÙĬ":8700,"ĠÙģÙģÙĬ":8701,"ĠÙĦÙĦØªÙģ":8702,"ĠØ²ÙĪØ§Ø±":8703,"ĠÙħØ´ÙĩØ¯":8704,"ĠØªØ¯ÙĪØ±":8705,"ĠØµÙĦØ§ØŃÙĬØ©":8706,"ĠØ§ÙĦØ¨Ø§Ø±ÙĬØª":8707,"ĠØ§ØªØ±Ùĥ":8708,"ĠØ§ÙĦÙħØµÙĦ":8709,"ĠØ§ÙĦØµØ§Ø¯Ø±Ø©":8710,"Ø±ÙĬÙĥØ§":8711,"ĠØ§ÙĦØªØ¹ÙĦÙĬÙħÙĬ":8712,"ĠØ¹Ø¬ÙĦØ©":8713,"ĠØ§ÙĦØµØºØ±":8714,"ĠØ±Ø¬Ø§ÙĦÙĬØ©":8715,"ĠØªØ¹ÙĦÙĬÙħØ§Øª":8716,"46":8717,"ĠØªØ§Ø¬Ø±":8718,"Ø´Ø§Ø±ÙĬØ¹":8719,"ĠÙĪØ§ÙĥØ³Ø³ÙĪØ§Ø±Ø§Øª":8720,"Ø²Ø±Ø§Ø¹Ø©":8721,"ĠÙĥÙģÙĪØ±ÙĬ":8722,"Ø·Ø¨ÙĤ":8723,"ĠØ´ÙĤÙĬÙĤ":8724,"Ø¬Ø±Ø§ÙĨ":8725,"ĠÙĦÙĦÙħÙĪØ§Ø¯":8726,"ĠØ§Ø·ÙĪÙĦ":8727,"ĠØ§ÙĨÙĤÙĦØ§Ø¨":8728,"ĠØ§ÙĦØ§ØŃØµ":8729,"ÙħÙĪØ®":8730,"ĠØ§ÙĦÙģØ±ÙĨ":8731,"ĠØ¨ÙħØ¹ÙĨÙī":8732,"ĠØ±ÙĪÙĨØ§ÙĦØ¯ÙĪ":8733,"ĠØ¨ÙĬÙĪØª":8734,"ĠÙĦÙĪØ²Ø§Ø±Ø©":8735,"ĠØ§ÙĦÙħÙĪØ¯":8736,"ĠØ§ÙĦØ§Ø³ÙĬØ±":8737,"ĠØ§Ø³ØªÙĩØ¯Ø§Ùģ":8738,"ĠØªÙħØ¯ÙĬØ¯":8739,"ĠÙģÙĬÙĥ":8740,"Ø«Ùģ":8741,"ÙĤÙĦÙĬÙĦ":8742,"ĠØ§ÙĦØ§Ø¹Ø´Ø§Ø¨":8743,"ÙĨØªØ§Ø¦Ø¬":8744,"ĠØªØ´Ø¹Ø±":8745,"Ø§Ø¯Ø«Ø§Øª":8746,"ĠØ§ÙĦØ±ÙĤØ§Ø¨Ø©":8747,"ĠØ§ÙĦØ·Ø¨Ø®":8748,"ĠØ§ÙĦÙħÙĪØµÙĦ":8749,"Ġ2001":8750,"ĠØ§ÙĦÙĩÙĨØ¯Ø³ÙĬØ©":8751,"ĠÙħØªØ¹Ø¯Ø¯":8752,"ĠØ§ÙĦØ®ÙĦØ§ÙĬØ§":8753,"ĠÙħØ¯ÙĨÙĬ":8754,"ĠØ§ÙĦÙħØ¹Ø§ÙĦØ¬Ø©":8755,"ĠØ§Ø³ÙħÙĩ":8756,"ÙĥØ§ÙĨÙĬØ§Øª":8757,"ĠØ®ÙĦØ§Ùģ":8758,"ĠØ¨Ø§Ùģ":8759,"ĠÙĦÙĦØ§Ø¯":8760,"ĠÛ©":8761,"ĠØ°Ø±ÙĪØ©":8762,"Ø¨Ø§Ø±Ø§Ø©":8763,"ĠÙĪØ¨ÙĨØ§Ø¡":8764,"ĠØ§ØŃÙĬØ§ÙĨØ§":8765,"ĠØ¨ÙĪØ±ØµØ©":8766,"ĠÙħØªØ§ØŃ":8767,"ĠØ§ÙĦØ§Ø¨ÙĦ":8768,"Ø±ØŃØ¨":8769,"ĠØ§ÙĦØ±Ø¶Ø¹":8770,"Ø¨Ø§ØŃØ«":8771,"ĠÙĬØ±ØºØ¨":8772,"Ø§Ø³ÙħÙĬÙĨ":8773,"Ø³Ø§ÙĨÙĬØ©":8774,"ĠØ·Ùĩ":8775,"ĠØ§ÙĦÙģØ±Ø²":8776,"ÙĬØŃØ©":8777,"ĠØŃÙĨ":8778,"ĠÙĦÙĦØ·Ø¨Ø§Ø¹Ø©":8779,"ĠØ§ÙĦØ´ÙĩØ±ÙĬØ©":8780,"ĠÙģØ¶ÙĦÙĥ":8781,"Ø³ÙĦØ©":8782,"ĠØ¹ÙĥØ³":8783,"ĠØ¬ÙĦØ¨":8784,"Ø§ÙĩØ©":8785,"ĠØ§Ø¬Ø§Ø¨Ø©":8786,"ĠØ§Ø·ÙĤÙħ":8787,"ĠÙĥÙĨØ§":8788,"ĠØ§ÙĦØªÙħÙĬÙħÙĬ":8789,"ĠØ§ÙĦØ±Ø¯ÙĪØ¯":8790,"ĠØ§ÙĦØŃØµØ±ÙĬØ©":8791,"ÙĨÙĪØ§Øª":8792,"ĠÙĥØ§ÙĦÙģÙĨ":8793,"ĠØ§Ø³ØªØ«ÙħØ§Ø±":8794,"ĠÙĪØ·ÙĨ":8795,"ĠØ§ÙĦØªØ±ØªÙĬØ¨":8796,"ĠØ§ÙĦØ§Ø³ØªÙģØ³":8797,"ĠØ§ÙĦÙĬÙĪÙĨØ§ÙĨ":8798,"ĠØ§ÙĦÙĥØªØ±ÙĪÙĨÙĬØ§":8799,"ĠØ§ÙĦÙħÙĬØª":8800,"ĠØ§ÙĦÙĩÙĨØ¯ÙĬØ©":8801,"ÙħØ¬ÙĬØ§Øª":8802,"ĠØ¹ÙħÙĦÙĩ":8803,"ĠØ§ÙĦÙħØ¹ØªÙħØ¯Ø©":8804,"ĠØ§ÙĦØŃØ±Ø³":8805,"ĠÙĪØªØŃÙĤÙĬÙĤ":8806,"ĠÙĪØ§Ø¶ØŃØ©":8807,"ĠØ¹Ø§":8808,"ĠØ§ÙħØ¨ÙĬØ±":8809,"ĠØ§ÙĦØ§Ø¨Ø±Ø§Ø¬":8810,"ĠØªÙģØ¶ÙĦ":8811,"ĠØ¨ØªØ´":8812,"ĠØ±Ø¦ÙĬØ³ÙĬØ©":8813,"ÙĨÙĬØ§Ùĩ":8814,"ĠØ§ÙĦØ³Ø§Ø¹Ø§Øª":8815,"ĠØ§Ø²Ø±ÙĤ":8816,"ĠÙĨØ¯Ø§Ø¡":8817,"ĠØ§ÙĦÙĥØ§ÙħÙĬØ±Ø§":8818,"ĠÙĥØ¬Ùħ":8819,"ĠØ§ÙĦØ³Ø¬Ø§Ø¯":8820,"ÙĪÙĤÙĬØ¹":8821,"ĠÙĬØªØ¹ÙĬÙĨ":8822,"ĠØ§ÙĦØ¶Ø±":8823,"ĠØªØ±Ø®ÙĬØµ":8824,"ĠØ§ÙĦØ¨ÙĬØ¦ÙĬØ©":8825,"ĠÙĦØ®Ø¯ÙħØ©":8826,"ĠÙĨØ´Ø±Ø©":8827,"ĠØ´Ø±Ùģ":8828,"ĠØ§ÙĦØ§Ø±Ø¬":8829,"ĠØ±ÙħØŃ":8830,"ĠÙħØŃÙħÙĪÙĦ":8831,"ĠÙģØ¹ÙĦØ§":8832,"ÙĨÙĬÙĩ":8833,"ĠÙħØªÙħÙĬØ²":8834,"Ø·ÙĪ":8835,"ĠØµÙĬÙĨÙĬØ©":8836,"Ø§ÙĥÙĩØ©":8837,"Ø¯Ø§ÙĨ":8838,"ĠÙĤØ§Ø¯Ø©":8839,"ĠØµØ§Ø¯Ø±":8840,"ĠÙħÙĪØ¬ÙĪØ¯Ø©":8841,"ĠØ§ÙĦØ§Ø·Ø§Ø±":8842,"ĠØ´Ø¦":8843,"ÙĪØ¨ÙĦ":8844,"ĠÙĬØ´ÙĬØ±":8845,"ĠØ§ÙĦÙħÙĪØ±":8846,"ØªØ±Ùħ":8847,"ÙĪØ§ØªØ±":8848,"ĠØ§ÙĦÙħØ¹ØªÙħØ¯":8849,"ĠÙĪØ¹ÙĨØ¯":8850,"Ġ170":8851,"ĠØ§ÙĦÙĩÙĬØ¯Ø±ÙĪÙĥØ±Ø¨ÙĪÙĨØ§Øª":8852,"ĠØ§ÙĦÙħØ«ÙĦ":8853,"ĠÙħØŃØ¯Ø¯Ø©":8854,"ĠØ§ÙĦÙħØ·Ø§Ø¹Ùħ":8855,"Ø¦ÙĪÙĬØ©":8856,"ĠØ§ÙĦØ·ÙĬØ¨":8857,"ĠØ§ÙĦÙħØ´ÙĩØ¯":8858,"Ø§Ø³ØªÙĬÙĥÙĬØ©":8859,"Ġ585":8860,"88":8861,"ĠØ¨Ø°":8862,"ĠØ§ÙĦØ¹Ø²ÙĦ":8863,"ĠØ¨Ø§ÙĦØ¨Ø®Ø§Ø±":8864,"ĠÙħÙģØ§Ø¬Ø§Ø©":8865,"ĠÙĥØ§Ø±ÙĬÙĬØ±":8866,"Ø²Ø§ÙĨ":8867,"ĠØ§ÙĦØŃÙĤÙĬÙĤÙĬØ©":8868,"ĠØ§ÙĦØ®ÙĦÙĬÙĦ":8869,"ĠÙĬØªØ¹":8870,"ÙĪÙĤØ§ÙĬØ©":8871,"ĠØ§ÙĦÙĩÙĪÙĦ":8872,"ĠØŃÙĥÙĪÙħÙĬØ©":8873,"ĠØ§ÙĦÙĨØ¨Ø§ØªÙĬØ©":8874,"ĠÙĥÙĨØ¨":8875,"ĠØ§ÙĦÙħÙĪØ³ÙĬÙĤÙī":8876,"ĠÙĪØ§ÙĦØ§Ø¬ØªÙħØ§Ø¹ÙĬØ©":8877,"ĠØ§ÙĦÙĨØ¬Ùħ":8878,"ĠØ«ÙĨØ§Ø¦ÙĬØ©":8879,"ĠØ§ÙĦØªÙģØ§ØŃ":8880,"ĠØ§ÙĦØŃÙĨ":8881,"ĠØ·ÙĦØ§Ø¡":8882,"ĠØ§Ø³ØªØºÙĦØ§ÙĦ":8883,"Ø³ÙĥÙĬ":8884,"ĠØ§ÙĦÙħØªØ¹":8885,"ĠØªØ¯Ø±ÙĬØ¨ÙĬØ©":8886,"Ø§ÙħÙĬØ±":8887,"ĠØ§ÙĦØ¯Ø§Ø¦Ø±Ø©":8888,"ĠØ§ÙĦØºØ±Ùģ":8889,"ĠØ¹Ø¨ÙĬØ¯":8890,"ĠØ§ÙĬÙħ":8891,"ĠØ¨Ø¹ÙĦ":8892,"ĠÙĩØ²Ø§Ø²":8893,"ĠØ§ÙĦØŃÙģØ±":8894,"ĠØ¯Ø¨ÙĦ":8895,"ĠØ§ÙĦÙģØ¬Ø±":8896,"Ġ599":8897,"ĠÙĪØ§ÙĦØ§ÙĨØªØ§Ø¬":8898,"ĠÙĪØ§Ø¯Ø§Ø±Ø©":8899,"ĠØ¨Ø¯ÙĪØ±":8900,"ĠØ¨Ø·Ø§Ø±ÙĬØ©":8901,"ĠØ§ÙĦØ³ÙĨÙĪÙĬØ©":8902,"ĠØ§ÙĦØ³ÙĪØ±ÙĬÙĬÙĨ":8903,"ĠØ§ÙĬØ¬Ø§Ø¨ÙĬØ©":8904,"ĠØŃØ¯Ø§Ø¯":8905,"Ø±Ø§Ø¦ÙĤ":8906,"ĠØ§ÙĦÙħÙģØ¶ÙĦ":8907,"ĠØ§ÙĦØ¨Ø¯ÙĬÙĦ":8908,"ĠØ§ÙĦÙħØ¬Ø±":8909,"ĠØ§ÙĦÙĤÙĦÙĤ":8910,"ĠØ±Ø¦ÙĬØ³Ø§":8911,"ĠØ§ÙĦØ§ØºØ°ÙĬØ©":8912,"ĠØ¸ÙĩØ±Øª":8913,"ĠØ³Ø¬Ø§Ø¯":8914,"ÙĪÙĨØ¬":8915,"ĠØ§ÙĦÙĤÙģ":8916,"ĠØ§ÙĦÙĨØµØ§Ø¦ØŃ":8917,"ĠØ¹Ø°":8918,"Ø¯Ø±Ø¬Ø©":8919,"ĠÙħØ§Ø³Ùĥ":8920,"ØŃØ¯Ø©":8921,"ĠØµÙĨØ¹Ø§Ø¡":8922,"ĠØ§ÙĦÙĥÙĦØ§Ø³":8923,"ĠØ¨Ø¨Ø¹Ø¶":8924,"ĠØ²ÙħØ§ÙĨ":8925,"ĠØ³ØªØ®Ø¯Ùħ":8926,"ĠØ¬Ø§Ø¡Øª":8927,"ĠØ§ÙĦÙĬØ§Øª":8928,"ĠØªØ§Ø¨Ø¹Ø©":8929,"ĠØºØ¯":8930,"ĠØ§Ø®ÙĦØ§ÙĤ":8931,"ÙĪØ§Ø±Ø¯":8932,"ĠÙĨØ¬ÙĦ":8933,"ÙĥØªÙĬØ±ÙĬØ§":8934,"ĠØ´Ø®ØµÙĬ":8935,"ĠÙĬØ®Ø±Ø¬":8936,"ĠØ§ÙĦØ§Ø³ÙħØ§Ø¹":8937,"ĠØ§ÙĦØªÙĪÙģ":8938,"ĠØ§ÙĦØªÙĥÙĨÙĪÙĦÙĪØ¬":8939,"Ø«ÙĨØ§Ø¡":8940,"ĠØ§ÙĦØ³Ø¹Ø¯":8941,"ĠÙħØŃÙĪØ±":8942,"ÙĬØ²ÙĬ":8943,"ĠÙĥØ¨Ø³":8944,"ĠØ§ÙĦÙĤØ±Ø§Ø±Ø§Øª":8945,"ĠØ³ÙĦÙĪÙĥ":8946,"ĠØ³ÙħØ¹":8947,"ĠÙħØºØ±Ø¨ÙĬØ©":8948,"Ø³Ø§":8949,"ĠØ§ÙĦØ±ØŃÙĦØ©":8950,"ĠØ§Ø³Ø§Ø³ÙĬØ©":8951,"ĠØ«ÙĨØ§Ø¦ÙĬ":8952,"ĠÙħÙĦØ¹ÙĤØ©":8953,"ĠØ¨ÙĥØ«ÙĬØ±":8954,"ĠØ¨Ø±Ø¨":8955,"ĠÙĥØ§ÙģÙĬØ©":8956,"ØªÙĬØ§Ø²":8957,"ĠØ§ÙĦÙħØ±Ø´ØŃ":8958,"ĠØ§ÙĦÙĤØ§ÙĨÙĪÙĨÙĬ":8959,"ĠÙĤÙĦØ¨ÙĬ":8960,"ĠØ§ÙĦÙħØ¯Ø±Ø³ÙĬØ©":8961,"ĠÙĪØ§ÙĦØ§ØŃÙĥØ§Ùħ":8962,"ĠÙħÙĬÙĥØ±ÙĪ":8963,"ĠØ§ÙĦØªØ®ØµØµØ§Øª":8964,"ĠØ§ÙĨÙĩÙĬØ§Ø±":8965,"ĠØªØ¨ÙĦÙĬØº":8966,"ĠÙĬÙĪØ¶ØŃ":8967,"ĠØ±Ø§Ø¨Ø·Ø©":8968,"ĠÙĪØ§ÙĦÙħØ¹Ø¯Ø§Øª":8969,"ĠØ§ÙĦØ³ÙĦØ§ØŃ":8970,"ĠØ¹Ø¨Ø§Ø¯":8971,"ĠÙģØ¹Ø§ÙĦÙĬØ©":8972,"Ø³Ø¹ÙĬØ¯":8973,"ĠØ¨Ø§Øº":8974,"ØªÙģØ§Ø¯Ø©":8975,"ĠØ¨ØŃØ¬Ùħ":8976,"ĠØ§ÙĦØ§Ø´ÙĥØ§ÙĦ":8977,"ĠØªØ¶ÙħÙĨ":8978,"ĠØ¨ØªØ³Ø¬ÙĬÙĦ":8979,"ÙĨØ§Ø¯":8980,"ĠØ§ÙĦÙħÙĤØ±Ø±":8981,"ĠØ§ÙĦØ¹Ø´Ø±ÙĬÙĨ":8982,"ĠØ²Ø§ÙĪÙĬØ©":8983,"ĠØ§Ø¨ØŃØ§Ø«":8984,"ĠØªØµØ±Ùģ":8985,"ĠØ§ÙĦÙħØ³ØªØ¯Ø§ÙħØ©":8986,"ĠØ§ÙĦØ¨Ø¯ÙĨÙĬØ©":8987,"ĠØ§ÙħÙĬØ±ÙĥØ§":8988,"ÙĦÙĬØ§Øª":8989,"Ø§ÙĨØ³ÙĬ":8990,"ĠØ§ÙĦØ±Ø¨Ø¹":8991,"ĠØŃØ³Ø§Ùħ":8992,"ĠØ§ÙĦÙĬÙĩÙĪØ¯":8993,"ĠØ§Ø³ØªØ´ÙĩØ§Ø¯":8994,"ĠØ§ÙĦÙħÙħØªØ§Ø²":8995,"ĠØ§ÙĦÙħØŃØ§Ø³Ø¨Ø©":8996,"ÙĪØ§Ø¬ÙĨ":8997,"ĠÙĪØ¯Ø¹Ùħ":8998,"ĠÙĬÙģØªØŃ":8999,"ĠØºÙĬØ±Ùĩ":9000,"ĠÙħÙĩØ¯ÙĬ":9001,"ĠÙģØµ":9002,"ĠØ§Ø³ØªØ±Ø¯":9003,"ĠÙĦÙĦØ´Ø±ÙĥØ§Øª":9004,"ĠØ§ÙĦØ¯Ø³ØªÙĪØ±ÙĬØ©":9005,"ĠØªØ§ÙĬÙĪØ§ÙĨ":9006,"ÙĤØµ":9007,"ĠÙĬØ¨ÙĤÙī":9008,"ĠÙĦÙĦÙĪØ¬Ùĩ":9009,"ĠØ§ÙĦØ³ÙĦØ©":9010,"ĠÙħØ¹Ø§ÙĦØ¬":9011,"ĠØªØ¹Ø·ÙĬÙĦ":9012,"ĠØ¬Ø¯ÙĬØ¯Ø§":9013,"Ø·ÙĪØ§ÙĨØ§Øª":9014,"ĠØ§ÙĦØ§ÙĩØ¯Ø§Ùģ":9015,"ĠØ¬Ø±Ø¹Ø©":9016,"ĠØ§ÙĦÙħÙħÙĬØ²":9017,"ĠØ§ÙĦØ°ÙĥØ§Ø¡":9018,"ĠØµØ¹ÙĪØ¨Ø©":9019,"ĠØ§ÙĦÙħØ°":9020,"ĠØ§ÙĦÙģØ§Ø¦Ø¯Ø©":9021,"ĠØªØ¨ÙĤÙī":9022,"ĠØ§ÙĦØ´ÙĩÙĬØ±Ø©":9023,"ĠÙĨÙħØ·":9024,"ĠØ§ÙĦØ¯ÙĬÙĥÙĪØ±":9025,"ĠØ§ÙĦÙĪØ«Ø§Ø¦ÙĤ":9026,"ĠÙĦÙħØ¬ÙħÙĪØ¹Ø©":9027,"ĠØ¬Ø¨ÙĩØ©":9028,"ĠØ§ÙĬØ¯ÙĬ":9029,"ĠØ§ÙĦØ³Ø¨Ø¹":9030,"ĠØ§ÙĦØ¯Ùģ":9031,"ĠØ§ÙĦØ¯ÙĥØªÙĪØ±Ø©":9032,"ĠØ§Ø³ÙĩÙĦ":9033,"ĠØ§ÙĦØŃØ¯ÙĬØ¯ÙĬØ©":9034,"ĠÙĦÙĦØ³ÙģØ±":9035,"ĠÙĤØ¨Ø±":9036,"ĠÙĪØ§ÙĦÙħØ·":9037,"ĠØªØ¹ÙĬØ´":9038,"ĠÙĬØ¹ØªÙĤØ¯":9039,"Ø§Ø¦Ø±ÙĬ":9040,"ĠØ§Ø¹ØªÙĤØ¯":9041,"Ø¬Ø²Ø±":9042,"ĠÙħÙĨØ®ÙģØ¶":9043,"ĠÙĪØ§ÙĦØ¯Ø±Ø§Ø³Ø§Øª":9044,"ĠØ§ÙĦØŃÙģØ¸":9045,"ĠÙĦÙħØªØ§Ø¨Ø¹Ø©":9046,"ĠÙĬØ¯ÙģØ¹":9047,"ĠØ§ÙĦØ±ÙĪØ§Ø¨Ø·":9048,"Ø´ÙĥÙĦ":9049,"ĠØ§ÙĦØ§ÙĤØµØ±":9050,"ÙģÙĦÙĪÙĨ":9051,"ĠØ³ÙĤØ·":9052,"ĠØ§ØŃØªÙĬ":9053,"ĠÙĪØ§ÙĦÙħØ¹ÙĦÙĪÙħØ§Øª":9054,"Ø±ÙĪØ¶Ø©":9055,"ĠÙĤØµÙĬØ¯Ø©":9056,"ĠÙĬÙģÙĪØ²":9057,"ĠÙħØ¶ÙħÙĪÙĨØ©":9058,"ØªØ³Ø§Ø¨":9059,"ĠØ§ÙĦÙĤÙĪÙħÙĬØ©":9060,"ĠØ¨ÙħØµØ±":9061,"ĠØ§ØºØ±Ø§Ø¶":9062,"ĠØ§Ø±ÙĪØ¹":9063,"Ø§ÙĨØº":9064,"ĠØ·ÙĬØ¨":9065,"ĠÙħØ´ØªØ±ÙĥØ©":9066,"ĠØ§ÙĦÙħÙĨØµØ©":9067,"ĠØ§Ø¶Ø§Ùģ":9068,"ĠØ§ÙĦØµØŃØ±Ø§":9069,"ĠØ§ÙĦÙĨÙĤØ§Ø·":9070,"57":9071,"ĠØ§Ø®ØªÙĦØ§Ùģ":9072,"Ú©ÙĨ":9073,"ĠØ§ÙĦÙĨØŃÙĦ":9074,"ĠØ¹Ø¶ÙĪÙĬØ©":9075,"ÙĬØ²ÙĪ":9076,"ĠÙħØªØ§Ø¬Ø±":9077,"ĠØªØ±ÙĥÙĬØ²":9078,"ĠÙħØµØ§ÙĦØŃ":9079,"ĠØ§ÙĦØ·Ø§Ø¦Ø±Ø§Øª":9080,"ĠØ§ÙĦØ§ÙħØ§ÙĨ":9081,"ĠØ§ÙĦØ«Ø§Ø¨ØªØ©":9082,"ĠÙĦØ±Ø¦ÙĬØ³":9083,"ĠÙħØ§ÙĩÙĪ":9084,"ĠØ§ÙĦØ§ØŃØªÙģØ§ÙĦ":9085,"ÙĦÙĬÙĨÙĬ":9086,"ĠØªØŃØ¯ÙĬ":9087,"ĠØ²Ø§ÙħØ¨ÙĬØ§":9088,"ĠØ§Ø¹ÙĦØ§Ùĩ":9089,"ĠÙĪØ§ÙĦØ¹ÙĨÙĪØ§ÙĨ":9090,"Ġ396":9091,"ĠØ§Ø§Ùħ":9092,"Ø¨Ø¶":9093,"ĠÙĪØ§ÙĦÙħÙĪØ§Ø¯":9094,"ĠÙĬÙħØªÙĦÙĥ":9095,"ĠØ§ÙĦØªØ¯Ø±ÙĬØ¨ÙĬØ©":9096,"ĠÙĩÙĬØª":9097,"ĠØ§ÙĦØ´ÙĬØ¹":9098,"ĠÙĪØªÙĦ":9099,"ĠØªØ¯Ø±ÙĬØ³":9100,"ĠØªØ¹Ø¨Ø¦Ø©":9101,"ĠÙĩÙħØ§":9102,"ĠØ®ÙĦÙĬØ¬":9103,"ĠØ³ÙĪØ¡":9104,"ĠÙĦØªÙĪÙģÙĬØ±":9105,"Ø§ÙĪÙĬÙĦ":9106,"ĠØ§ÙĦØ¹Ø«ÙĬÙħ":9107,"ĠÙħÙĨØµØ¨":9108,"Ø±ÙĤØ§Ø¡":9109,"ĠØ§ÙĦØ¬ÙħØ§ÙĩÙĬØ±":9110,"Ø§ÙĬØ±Ø§ÙĨ":9111,"ĠÙħØŃØ§ÙģØ¸Ø§Øª":9112,"ĠØªÙĥØª":9113,"ĠØ§ÙĦØ¹Ø¶ÙĦØ§Øª":9114,"ĠØ¬ÙĦØ³":9115,"ĠÙĤØ¯Ø±Ø§Øª":9116,"ĠØªÙĪØ§ÙĦÙĬØª":9117,"ĠØ§ÙĦØ¹ÙĤÙĦÙĬØ©":9118,"ĠÙĪØ§ÙĦØ§Øµ":9119,"ĠÙģØ±ÙĨ":9120,"ĠÙĨØ¨ÙĬÙĦ":9121,"ĠØ¨ÙĦØºØª":9122,"ĠÙĥÙĬØ³":9123,"ĠØ§ÙĦØªÙĨÙģÙĬØ°ÙĬØ©":9124,"ÙĨØ¹Ø©":9125,"Ø§ÙĥØ§":9126,"ĠØ§ÙĦØ·ÙĪÙĬÙĦ":9127,"ĠÙĦØªØŃÙħÙĬÙĦ":9128,"ĠØ¨ÙĪÙĦÙĪ":9129,"ĠØ±Ø§Øª":9130,"ĠØ§ÙĦÙĥØ§Øª":9131,"Ø±Ø§Ø¦Ø·":9132,"ĠØ¨Ø§ÙĨÙĬØª":9133,"ĠÙĩØ§Ø´Ùħ":9134,"Ø¦Ùĥ":9135,"ĠØ§ÙĦØ§ÙĦÙĩ":9136,"ĠÙħØ³ØªÙħØ±Ø©":9137,"ĠØ§ÙĦÙħÙģØ§ØµÙĦ":9138,"Ø«ÙĤ":9139,"ĠØŃØ¨ÙĬ":9140,"ĠØ§ÙĦØ³ÙĦØ·Ø§ÙĨ":9141,"ĠØ¯ÙĬÙĨÙĬØ©":9142,"ĠØ§ÙĦØ¯ÙĪØŃØ©":9143,"Ø¨Ø±ÙĬ":9144,"ĠÙĥØ¨Ø±Ùī":9145,"Ø§Ø³Ùĥ":9146,"Ø§Ø¶Ùī":9147,"ĠØ§ÙĦØ²ÙĬØ§Ø±Ø§Øª":9148,"ĠØ³ÙĬØ§ØŃÙĬØ©":9149,"ĠØ§ÙĦØ´Ø±ÙĤÙĬ":9150,"Ø²Ø§ÙĬØ§":9151,"ĠØ§ÙħØ§ÙĨ":9152,"ĠÙĥÙĦÙħØ§":9153,"ĠØ§ÙĦØºØ±Ø¶":9154,"ĠØ¬ÙĬÙħ":9155,"ĠÙħÙĤØ§Ø·Ø¹Ø©":9156,"ĠÙĦØªØ¹Ø¯ÙĬÙĨ":9157,"ĠÙĪØ¬Ø§Ø¡":9158,"ĠØªØªÙĪÙģØ±":9159,"ĠÙĦÙĦØ¹ÙĦÙĪÙħ":9160,"Ø¹Ùĥ":9161,"ĠØ§ÙĦÙģØ§Ø¦ÙĤØ©":9162,"ĠØªØµÙģÙĬØ§Øª":9163,"ĠÙĪØ§ØµØ¨ØŃ":9164,"ÙĨÙĩØ§":9165,"ÙģÙĩ":9166,"ĠØ´Ø§ÙĥØ±":9167,"Ø¹Ø¯ÙĦ":9168,"ĠÙħØ´ØºÙĦ":9169,"ĠØ§ÙĦÙħØ³ØªØ«ÙħØ±ÙĬÙĨ":9170,"ĠÙĦØªÙĨØ¸ÙĬÙģ":9171,"ĠØ§ÙĦØ±ÙĪØ§ÙĬØ©":9172,"ØºØ§ÙģÙĪØ±Ø©":9173,"ĠØ§ÙĦÙģØŃØµ":9174,"ĠØ§ÙĦØªØ¹ÙĦÙĬÙħØ§Øª":9175,"ĠÙĨØ´Ø±Øª":9176,"ĠÙĪØ§ÙĦØµÙĪØ±":9177,"ÙĪØ¹ÙĬ":9178,"ĠØ§ÙĦÙħØŃØ±":9179,"ĠÙħØªØ§ØŃØ©":9180,"ĠØªØ¯ÙģØ¹":9181,"ĠØ§ÙĦØ·ÙĦØ¨Ø§Øª":9182,"ĠÙĨÙħØ´ÙĬ":9183,"ĠØ±Ø§Ùī":9184,"ĠØ§ÙĦØµØŃÙģÙĬÙĬÙĨ":9185,"ĠØ§Ø³ØªÙħ":9186,"ĠÙĬØ§Ø³Ø±":9187,"ĠØ§ÙĦÙĨØ¯":9188,"ĠØ¹ÙħÙĦØ©":9189,"Ø´ÙĬØŃ":9190,"ĠÙĪØ§ÙĦØ«ÙĦØ§Ø«":9191,"ĠØ§ÙĦØ±ØŃÙħ":9192,"ÙĥØ±Ø§":9193,"ĠØ§ÙĦØ¶ÙģØ©":9194,"ÙĩØ±Ø¨Ø§Ø¡":9195,"ĠÙĨØ¬ÙĬØ¨":9196,"ĠÙĪÙĬÙħÙĥÙĨÙĥ":9197,"ĠØ±Ø´ÙĬØ¯":9198,"ĠØªÙĤØ¯ÙĬØ±":9199,"ĠÙĬØ§Ø¨":9200,"Ø±ÙĬØ§ÙĨ":9201,"ĠØ§ÙĦØ§Ø³ÙĦØŃØ©":9202,"ĠÙĦÙĦÙħÙĪÙĤØ¹":9203,"ĠØ§ÙĦØ¶Ø±ÙĪØ±ÙĬ":9204,"ĠØŃØµÙĬÙĦØ©":9205,"ĠØ§ÙĦÙħØ«Ø§ÙĦÙĬØ©":9206,"ØªÙģØ¹ÙĬÙĦ":9207,"ĠØ§ÙĦØ§Ø¦ØªÙħ":9208,"ĠÙħØµÙĨÙĪØ¹Ø©":9209,"ĠØ¨Ø§Ø²":9210,"ĠØ¨Ø§ÙĦØ²":9211,"Ø§Ø±ÙĬØ§":9212,"ØªØ®Ø±Ø§Ø¬":9213,"ĠÙĬÙĩØ¯Ø¯":9214,"ĠÙĬØªÙĥÙĪÙĨ":9215,"ĠØ§ÙĦØªÙĨÙĤÙĦ":9216,"ĠÙģØ§ÙĨÙĥ":9217,"ĠØµÙģÙĪÙģ":9218,"ĠØ¬ÙĩØ§Ø²Ùĥ":9219,"ĠÙĦÙĦØµØ¯Ø§":9220,"ĠØ§ÙĦØ¨ÙĤØ§Ø¡":9221,"ĠÙĪÙĪØ³":9222,"ĠÙĦØ§ÙĦØ©":9223,"ĠØ§ÙĦÙħØ³Ø¨":9224,"ĠØ®ÙĦÙĬ":9225,"Ø§Ø´ÙĬØ©":9226,"ĠØ®Ø³Ø§Ø¦Ø±":9227,"ĠÙħØ®Ø§ÙĦÙģ":9228,"ÙĪÙħØ§ØªÙĬÙĥ":9229,"2021":9230,"ĠØ§Ø³ØªØ´Ø§Ø±Ø©":9231,"ĠØ§ÙĦÙħØªØ®ØµØµ":9232,"ĠÙħØµØ±Ø¹":9233,"ĠØ§ÙĦØªØŃØ¯ÙĬØ§Øª":9234,"ĠØªÙĩØ¯ÙĬØ¯":9235,"ĠÙĦÙĦØµØŃØ©":9236,"Ø§Ø¤ÙĩØ§":9237,"ĠØ§ÙĦÙħØ¬ÙħÙĪØ¹Ø§Øª":9238,"ĠØ§ÙĪØ¯":9239,"Ø°ÙĬÙĨ":9240,"ĠØºØ§ÙĬØ©":9241,"ĠÙĤÙĬØ³":9242,"ĠØ§ÙĦØ®Ø·ÙĬØ¨":9243,"ĠØ§ÙĦØªÙĪØ¬ÙĬÙĩ":9244,"ĠØ§ÙĦØ§ÙħØ¨Ø±Ø§Ø·":9245,"ĠØ§ÙĦÙħØŃØªØ±ÙģÙĬÙĨ":9246,"ĠÙĪØ§ÙĦØªØ¹":9247,"ĠÙĦØ¨ÙĦ":9248,"Ø«ÙĬ":9249,"Ø«ÙĪØ±":9250,"ĠÙĬØ¹ÙĤØ¯":9251,"ĠØ±ÙĪÙĦ":9252,"ĠØ§ÙĦØ³Ø§ØŃ":9253,"ĠØ§ÙĦØ¨ÙĦØ¯ÙĬØ©":9254,"ĠÙĬÙģØ¹ÙĦ":9255,"ÙģÙĦÙĪÙĨØ²Ø§":9256,"ĠØ¨Ø§Ø±Ø¯":9257,"ĠØ§ÙĦÙħØªØ¬":9258,"ĠØ¬ÙĦÙĬ":9259,"ĠØ³Ø¨ØŃ":9260,"ĠØ°Ø§ØªÙĩ":9261,"ĠØ§ÙĦÙħØªÙĪØ§Ø¬Ø¯ÙĪÙĨ":9262,"100":9263,"ÙĪØ§Øµ":9264,"ĠÙĪØ±ÙĪ":9265,"ĠÙĦØ©":9266,"ĠØ§ÙĦØ´Ø§ÙģØ¹ÙĬ":9267,"ĠÙħÙĪØ±ÙĬØªØ§ÙĨÙĬØ§":9268,"ĠØ§ÙĦÙħÙĨÙĬØ§":9269,"ĠØ§ÙĦØ¨ÙĬØªÙĥÙĪÙĬÙĨ":9270,"ĠØ§ÙĦØªØŃØªÙĬØ©":9271,"ÙĩÙĬØ²Ø§Øª":9272,"ĠØ¬ÙĩØ§Øª":9273,"Ġ010":9274,"ĠØ§ÙĦØ§ÙģØªØ±Ø§Ø¶ÙĬ":9275,"Ø§Ùī":9276,"ĠØ§ÙĦØ¹Ø¸Ø§Ùħ":9277,"ÙĪØ§ÙĬØ§":9278,"ĠØ§ÙĦØ§Ø±ÙĩØ§Ø¨ÙĬØ©":9279,"ĠÙĨØ§ÙĬÙĥ":9280,"ĠØ¹ÙĪØ§ÙħÙĦ":9281,"ĠØ§ÙĦØ±Ø¶":9282,"ĠØ§ÙĦØ§Ø¨Ø·Ø§ÙĦ":9283,"ĠØªÙĪØ¶ØŃ":9284,"ĠÙĨØ³Ø§Ø¦ÙĬ":9285,"ĠØ§Ø³ØªØ±Ø¯Ø§Ø¯":9286,"ÙĬØ¯ÙĬÙĨ":9287,"ĠØ®ÙĦÙĬØ©":9288,"Ø³ÙĬØ·Ø±":9289,"ĠÙħØ¹Ø¯ÙĦØ§Øª":9290,"Ø«Ùī":9291,"ĠØ§ÙĨØ¶Ùħ":9292,"ĠØ§ÙĦØ¨ÙĨÙĬØ©":9293,"ĠØ§ÙĦØ·ÙĦØ§ÙĤ":9294,"ĠØ¬ÙĪØ§Ø¦Ø²":9295,"ĠÙĦØ¹ÙħÙĦÙĬØ©":9296,"ĠØ§ÙĦØªÙħÙĬ":9297,"ĠØ±Ø§Ø¦ØŃØ©":9298,"ĠØ§ÙĦØŃÙĦÙĬØ¨":9299,"ĠÙħØªØµÙģ":9300,"Ø±ÙĪØ³ÙĬØ§":9301,"ĠØ§ÙĦØ¨ÙĨØ§Øª":9302,"ĠÙĦÙĦØ§ÙħÙħ":9303,"ĠØ§ÙĦÙĨØªÙĬØ¬Ø©":9304,"ĠÙĨÙĩØ§Ø¦ÙĬØ§":9305,"ĠØ§ÙĨØ¬ÙĦØªØ±Ø§":9306,"ĠÙħØ§Ø±ÙĥØ©":9307,"ĠØ§ÙĦÙħØ¨ÙĦØº":9308,"ĠØ´Ø±Ø¨":9309,"ÙĪÙĤÙĬ":9310,"ĠØ§Ø³ÙħÙĥ":9311,"ĠØ§ÙĦØ¨ØŃØ±ÙĬÙĨÙĬØ©":9312,"Ø§ØªØ§":9313,"Ø®Ø±Ø¬":9314,"ĠØ¯ÙĤØ©":9315,"ĠÙĪØ²ÙĬØ§Ø¯Ø©":9316,"ĠØ§ØºØªÙĬØ§ÙĦ":9317,"ĠØ§ÙĦØ´ÙħÙĪØ®":9318,"ĠØ§ÙħÙĬ":9319,"ĠÙĪÙĩÙĨØ§":9320,"ĠØ§ÙĦØªÙĪØªØ±":9321,"ĠÙĬØ´ÙĩØ¯":9322,"ĠØ§ÙĦØ¹ÙĤÙĬØ¯Ø©":9323,"Ø§Ø¯Ø«Ø©":9324,"ĠØ§ÙĦÙĪØ³Ø§Ø¦ÙĦ":9325,"ĠÙĪØ§ÙĦÙĪ":9326,"ĠÙĤØ±ÙĬØ¨Ø©":9327,"ĠØ´Ø§ÙħØ¨ÙĪ":9328,"ĠØ¨Ø§ÙĦØ¬Ø³Ùħ":9329,"ÙĪÙĥØ³":9330,"ĠÙħØ¦Ø§Øª":9331,"ĠØªØªØ¬":9332,"ĠØªØ±ÙģÙĬÙĩ":9333,"ĠØ§ÙĦÙħØ®ØµØµØ©":9334,"ĠØ§ÙĦÙĪØ¹ÙĬ":9335,"ĠØ§Ø´Ø§Ø±Ø©":9336,"ĠØ§ÙĤØ±Ø§Øµ":9337,"ĠØ³Ø±ÙĬØ±":9338,"ĠØ®ÙģØ¶":9339,"ĠØµØ§ÙĨØ¹":9340,"Ø¦ÙĨ":9341,"Ø§Ø®Ø§Øª":9342,"ĠØºØ²":9343,"ĠØ¶Ø®ÙħØ©":9344,"ĠØ§ÙĦÙħØ¹ÙĨÙĬØ©":9345,"ĠÙģÙĬÙĦ":9346,"ĠÙĥÙĬØª":9347,"ĠØ´Ø¹Ø¨Ø©":9348,"ĠØ¨Ø·Ø±":9349,"ØµØ±ÙĬØ©":9350,"ĠÙĤØ§Ø¹Ø©":9351,"ĠØ§ÙĦÙĨÙĩØ±":9352,"ĠØ§ÙĦØ±Ø§Ø³ÙĬ":9353,"ĠÙħØªÙĤ":9354,"ĠØ´ÙĩØ¯Ø§Ø¡":9355,"ĠØªØ¬Ùħ":9356,"ĠØ±Ø§Ø¬":9357,"ĠÙħØŃØ¯ÙĪØ¯Ø©":9358,"Ø³ÙĬÙĤÙĬ":9359,"ĠØ¶ÙĪ":9360,"ĠØ¨ØŃÙĦÙĪÙĦ":9361,"ĠØŃØ±Øµ":9362,"Ø§ÙĦÙĬÙģÙĪØ±":9363,"ĠØ§ÙĦØµØ¹ÙĬØ¯":9364,"ĠØ§ÙĦØ§Ø¬ÙħØ§ÙĦÙĬ":9365,"ĠÙĦØ§ÙĥØ«Ø±":9366,"ĠØªÙĤØ¨ÙĦ":9367,"ĠØ§ÙĦÙģÙĪØ§Ø¦Ø¯":9368,"Ø·ÙĬØ©":9369,"ĠØ§ÙĦÙĩØ§Ø¯ÙĬ":9370,"ĠØ§ÙĦØ§Ø®Ø·Ø§Ø¡":9371,"ĠÙĪØ¬Ø¨Ø©":9372,"Ø§ÙĦÙĦ":9373,"ĠØªÙĤØ³ÙĬÙħ":9374,"ĠÙĬØ®ØªÙĦÙģ":9375,"Ø´Ø§Ø±Ø§Øª":9376,"ĠØŃÙĦÙĬØ¨":9377,"ĠØ¹ÙĨØ¯ÙĬ":9378,"ĠÙħØªÙĩÙħ":9379,"ĠØªØ¹ÙĤÙĬÙħ":9380,"ĠØ§ÙĦØ§Ø±Ø¨Ø§ØŃ":9381,"ĠÙĤØµÙĬØ±":9382,"ĠÙĦÙĦØ§Ø¹ÙĦØ§Ùħ":9383,"ĠØ§Ø®ØµØ§Ø¦ÙĬ":9384,"ĠØ§ÙĦØ¹Ø§Ø¯ÙĬ":9385,"Ø§Ø«ÙĦØ©":9386,"ĠÙĪØªØµÙħÙĬÙħ":9387,"ÙĥÙĪÙħ":9388,"ĠÙĦÙī":9389,"ĠØ§ÙĦØ¬ÙĨØ³ÙĬ":9390,"ĠØ§ÙĦØ¨Ø·Ø§ÙĤØ©":9391,"ĠØ§ÙĦØ§Ø³ÙħØ§Ùĥ":9392,"ĠÙĤØ§Ø¦ÙĦØ§":9393,"ĠØŃÙĦØ§":9394,"ĠØ§ÙĦÙģÙĦÙģÙĦ":9395,"ĠØ§Ø³ØªØ·Ø§Ø¹":9396,"ĠØ§ÙĦØ²ÙĨ":9397,"ĠÙĪØ§ÙĦØµÙĦ":9398,"ĠØ§ÙĦÙĥØ±ÙĬ":9399,"ĠÙħÙĪØ¶Ø©":9400,"ĠØªÙĪÙĤÙĬÙģ":9401,"ĠÙĦÙħØ´Ø±ÙĪØ¹":9402,"ĠÙħÙĬØ´":9403,"ĠØªØ®ÙĦ":9404,"ĠØ³Ø§Ø¨ÙĤØ©":9405,"Ø¨Ø±ÙĬØ©":9406,"ĠØ§ÙĦÙĤÙħØ©":9407,"ĠØ§ÙĦÙĨØµÙģ":9408,"ĠØ§ÙĦØµÙģØ±":9409,"ĠØ§ÙĦØ¨Ø±ÙĬØ©":9410,"ĠØ§ÙĦØªØµÙĪÙĬØª":9411,"ĠÙĪÙĦÙĥÙĨÙĩØ§":9412,"ÙĨØ§Ùħ":9413,"ĠÙĪØŃÙĤÙĪÙĤ":9414,"Ø§ØµÙĬ":9415,"ĠØ§ÙĦØ®ÙħØ³":9416,"ÙĤØ¯Ø§Ùħ":9417,"ĠØ¹Ø²ÙĬØ²ÙĬ":9418,"ØªØª":9419,"ĠÙĪØ§ÙĦØ¹Ùħ":9420,"ĠØ§ÙĦØ¬ÙĩÙĪØ¯":9421,"ĠØ§Ø³ÙĩÙħ":9422,"ĠØ§ÙĦØ§ÙĪÙĤØ§Ùģ":9423,"ĠÙĦÙĦÙĥØ§ØªØ¨":9424,"ĠØ¨ÙĦØ§Ø¯Ùĩ":9425,"ĠØ³Ø§ÙħÙĬ":9426,"Ø±ÙĪØŃØ©":9427,"ĠØ§ÙĦÙĩØ§Ùħ":9428,"ĠØªÙĨØªØ¬":9429,"ĠÙħÙĥØªÙĪØ¨":9430,"ĠØ¨ÙĪÙĪØªØ³":9431,"ĠØµÙĨØ§Ø¯ÙĦ":9432,"ÙĬØ¯Ø³":9433,"ĠØ§ÙĦØ²ÙħØ§ÙĨ":9434,"ĠØ¨Ø§ÙĨÙĪØ±":9435,"ĠØ¹Ø·ÙĦØ©":9436,"ĠÙĩØ§Ø¯ÙĬ":9437,"ĠØ§Ø³ÙĨØ§ÙĨ":9438,"ÙĦÙħÙĬØ¹":9439,"ĠØ§ÙĦØ¨Ø®Ø§Ø±ÙĬ":9440,"ØµØ§Ø¨":9441,"ĠØ³Ø§ÙĦ":9442,"ĠÙĨØ§ÙĤÙĦØ©":9443,"ĠÙĦÙĦØ§Øµ":9444,"ĠØ§ÙĦÙĤØµÙĬÙħ":9445,"ĠÙĥØ±ÙĬÙħØ©":9446,"ĠÙĪÙĨØ¸Ø§Ùħ":9447,"ĠØ§ÙĦØ§ÙĨØ³Ø§ÙĨÙĬ":9448,"ĠØ§ÙĦØ³ÙĥØ±ÙĬ":9449,"ĠØ§ÙĦÙĨØ§ÙģØ°Ø©":9450,"ĠÙħØªÙĪÙģØ±Ø©":9451,"ĠØ±ÙĪÙħØ§ÙĨØ³ÙĬØ©":9452,"ĠØ§ÙĦÙħÙĤØ¯Ø³Ø©":9453,"ĠØ§ÙĦØ§Ø¦ØªÙħØ§ÙĨ":9454,"ĠØ§ÙĦØ¬Ø§ÙĨØ¨ÙĬØ©":9455,"ĠØ¨ÙĦØ¬ÙĬÙĥØ§":9456,"ĠØªØ±ÙģØ¶":9457,"ĠØ¬ÙĬØ¬Ø§":9458,"ĠØ°ÙĥÙĬØ©":9459,"ÙĥØ³Ø§Ø±Ø§Øª":9460,"ĠØ¹Ø§ÙħØ±":9461,"Ġ2002":9462,"ĠØ§ÙĦØ¬ÙĨÙĪØ¨ÙĬ":9463,"ĠÙĪØ§ÙĦØµØŃØ©":9464,"ĠÙĪØ§Ø¬ÙĩØ©":9465,"ĠÙģÙĪØ±Ø§":9466,"ĠÙĦÙĦØ§ÙĤ":9467,"ĠØ¬Ø±Ùī":9468,"ĠÙĤÙĬØ±":9469,"ĠØ§ÙĦØ¨Øº":9470,"ĠÙĦØ³Øª":9471,"ĠØªÙĪØ±ÙĬØ¯":9472,"ĠØ§ÙĨØº":9473,"ĠÙħØªÙĨØ§ÙĩÙĬØ©":9474,"ØªÙĨÙĬ":9475,"ĠÙĦÙĬØ¨":9476,"ĠÙģØ§ÙĦÙħ":9477,"ĠØ³Ø§ØŃ":9478,"ĠØ§ÙĦÙħØ±Ø§ÙĤØ¨Ø©":9479,"ĠÙĪØªØŃØ³ÙĬÙĨ":9480,"ĠØ§ÙĨØ³Ø§ÙĨÙĬØ©":9481,"ĠÙĦÙĪÙĦÙĪ":9482,"ĠÙĦÙĦØ¨ÙĦ":9483,"ĠØ§ÙĨØ¨Ø§Ø¡":9484,"ĠÙĪØ§ÙĨÙĪØ§Ø¹":9485,"ĠÙĦÙĦØ¹Ø±Ø¨ÙĬØ©":9486,"ĠØ±Ø¬Ø¨":9487,"ĠØ§ÙĦØ¬Ø¯ÙĦ":9488,"ĠØ§ÙĦØ¨Ø§Ø¨Ø§":9489,"ĠÙħØ²Ø¯ÙĪØ¬":9490,"ĠÙĬØ«ÙĬØ±":9491,"ĠØªØ·ÙĦØ¨":9492,"ĠÙĬØ³Ø¹Ùī":9493,"ĠÙĪØ·Ø±ÙĬÙĤØ©":9494,"ĠØ®Ø³Ø§Ø±Ø©":9495,"ĠÙħÙĨØªØ¯ÙĬ":9496,"ĠØ¨Ø§ÙĦØ¶Ø±ÙĪØ±Ø©":9497,"ĠÙħØ¹Ø§ÙĦÙħ":9498,"ĠØ§ÙĦÙĥÙĬØ§ÙĨ":9499,"ĠØ¨Ø±Ùĥ":9500,"Ø®Ø§Ø¡":9501,"ĠØ¨Ø§ÙĨØª":9502,"ĠØ±ÙĬØ§Ø¶ÙĬ":9503,"ĠØ¨Ø§ÙĦÙĦÙĪÙĨ":9504,"ĠØ§ÙĦÙħÙĥØ±ÙħØ©":9505,"ĠÙĥØ³ÙĩØ§":9506,"ĠØ²Ø¹ÙĬÙħ":9507,"Ø°ÙĥØ±Ø§Øª":9508,"ĠÙĪØ§ÙģÙĤ":9509,"ĠØªØ§Ø®Ø°":9510,"ÙīØ¡":9511,"Ø§Ø¹ÙĬØ§Øª":9512,"ĠØ®ØªÙħ":9513,"ĠØ¨Ø§ÙĦÙħØ¹":9514,"ĠØºØ°Ø§Ø¦ÙĬØ©":9515,"ĠØ§ÙĦÙħØ±ÙĬ":9516,"ĠÙģÙĬØ±":9517,"ĠØ¨Ø§ÙĦØªØ³Ø¬ÙĬÙĦ":9518,"ĠÙĪØ¹ÙĦÙħ":9519,"ĠØ§ÙĦÙĥØ§ÙĪÙĦÙĬÙĨ":9520,"ĠØ§ÙĥÙĦ":9521,"ĠØªÙĤÙĪÙĬÙħ":9522,"ĠÙĬØ´ÙĥÙĦ":9523,"Ø§Ø¸Ø±":9524,"ĠØŃÙĤØ§Ø¦Ø¨":9525,"ĠØ§ÙĦÙĨØ¸Ø§ÙģØ©":9526,"ĠÙħÙĨØ§Ùĩ":9527,"ĠØ¬Ø§Ø³Ùħ":9528,"ĠØ§ÙĦØ´Ø¯ÙĬØ¯":9529,"ĠØ§ÙĦØ±Ùģ":9530,"ÙģÙĬÙĪÙħ":9531,"Ø¹Ø§Ø±Ùģ":9532,"ĠØ§ÙĦÙħÙĩÙĨØ¯Ø³ÙĬÙĨ":9533,"ĠØ§ÙĦÙģÙĬØ±ÙĪØ³Ø§Øª":9534,"ĠÙĨØ§ÙĤ":9535,"Ø¨Ø±Ø§ÙħØ¬":9536,"ĠØ§ÙĦÙĨÙĤØ±":9537,"ĠÙĦÙĨÙģØ³":9538,"ĠÙĥÙħÙĬØ§Øª":9539,"ĠÙħØ§ÙĬÙĥØ±ÙĪØ³ÙĪÙģØª":9540,"ĠØ§ÙĦØ±Ø§ØŃØ©":9541,"ÙĥØ±Ø§ÙĨÙĬØ§":9542,"ĠØ§ÙĦØ§ÙĩØªØ²Ø§Ø²":9543,"ĠÙĦØ§Ø¬Ø±Ø§Ø¡":9544,"ĠÙĤØ¶ÙĬØ¨":9545,"ĠÙĦÙĬÙĥÙĪÙĨ":9546,"Ø§Ø¬Ø§":9547,"ĠØ§Ø³Ø§ÙħØ©":9548,"ĠØ§Ø¹ÙħØ§Ø±":9549,"ĠØ¹Ø´ÙĤ":9550,"ĠÙħØ¯Ùħ":9551,"ĠØ³Ø¯Ø§Ø¯":9552,"ĠØ´Ø¬Ø±Ø©":9553,"ĠÙħØ·ÙĦÙĤ":9554,"ĠØ§ÙĦÙģØ±ØµØ©":9555,"ĠØ§ÙĦÙħÙĦØ§ØŃ":9556,"ĠÙģØ³ØªØ§ÙĨ":9557,"ĠÙĩÙĦØ§ÙĦ":9558,"ĠØ§ÙĦØ¬ÙĩØ©":9559,"ĠØ§ÙĦØ±Ø§Ø¯":9560,"ĠØ¨ÙĥØ§ÙģØ©":9561,"ĠÙĦÙĦØ´Ø¨Ø§Ø¨":9562,"ĠØ¯ÙĬØ³Ùĥ":9563,"ĠÙĦØµÙĨØ¹":9564,"ĠØ§ÙĦØ§Ø°ÙĨ":9565,"ĠÙĪØ§ÙĦØ¹Ø§ÙĦÙħÙĬØ©":9566,"ĠØ¨ÙĤÙĬØ§Ø¯Ø©":9567,"ĠØ¨Ø§ÙĦØªÙĤ":9568,"ĠØ§ÙĬÙĩØ§":9569,"ĠØ¨Ø¯Ø¹Ùħ":9570,"ĠÙĪØ§ÙĦØ«ÙĤ":9571,"ĠØµØ§ÙĦÙĪÙĨ":9572,"ĠÙħØ§ÙĩÙĬ":9573,"ĠÙĥÙĬÙħ":9574,"ĠØ´Ø±ÙĪØŃØ§Øª":9575,"ÙĦÙĬØµ":9576,"ĠØ§ÙĦØ°Ø§ØªÙĬ":9577,"ĠØ¨ÙĥØ±Ø©":9578,"ĠÙħØ§ÙĥØ³":9579,"ØªØ±ÙģÙĬÙĩ":9580,"83":9581,"ÙĩÙĪØ±ÙĬ":9582,"Ø´Ø±ÙĥØ©":9583,"ĠØ§ÙĦÙħÙĨØŃ":9584,"ĠØªÙĪØ¶ÙĬØŃ":9585,"ĠØ§ÙĦÙĤØ§Ø¨Ø¶Ø©":9586,"Ø´Ø§ÙĦ":9587,"Ø´ÙĬØ±ÙĬ":9588,"ĠØ§ÙĦØ§ØŃØ°ÙĬØ©":9589,"ĠÙħØºÙĦÙĤØ©":9590,"ĠÙĦÙĦØ³ÙĨØ©":9591,"ĠØ§ØªÙħÙĨÙī":9592,"ĠØŃØ§ÙģØ¸":9593,"ĠØ¯ÙħÙĬ":9594,"ĠØ§Ø³ØªÙĤØ¨ÙĦ":9595,"ĠÙħÙĪØ§ÙĦÙĬØ¯":9596,"ĠØ¨Ø¯ÙĬÙĦ":9597,"ĠØ§ÙĦØªØŃÙĪÙĦ":9598,"ĠØŃÙĤØ§":9599,"ĠÙĩÙĪØ§ÙĪÙĬ":9600,"ĠØ¯Ø±ÙĪ":9601,"Ø§ÙģØ°":9602,"Ø±ÙĥÙħ":9603,"ĠØªØŃØ§ÙĦÙģ":9604,"ĠØ¯Ø±Ø§ÙħØ§":9605,"ĠÙħØ§ÙĥØ±ÙĪÙĨ":9606,"ĠØ§ÙĦØ¯ÙĪØ§Ø¦Ø±":9607,"ĠÙĪÙĥÙħ":9608,"ĠØ³Ø±ÙĬØ©":9609,"ÙĦØ§ÙħÙĬØ°":9610,"ĠØ§ÙĦÙħØ¹Ø§ØµØ±":9611,"ĠÙĦØ¯Ø®ÙĪÙĦ":9612,"Ø³Ø§ÙĦØ©":9613,"ĠÙħØ¹ØªÙħØ¯Ø©":9614,"ĠØ§ÙĦØ±Ø§Ø¦Ø¹":9615,"ĠØ§ÙĦØ¬ÙħØ§Ø¹Ø©":9616,"Ø§Ø¨Ø±Ø§Øª":9617,"ĠÙħÙĥØ§ÙģØ§Øª":9618,"Ġ240":9619,"ĠØ¹ÙħØ§Ø±":9620,"ĠØ§ÙĦÙĤÙĬØ§Ø³ÙĬØ©":9621,"ĠØ§ÙĦØµØ¯ÙĬÙĤ":9622,"ĠØ¨ØªØµÙħÙĬÙħ":9623,"ĠØ§Ø©":9624,"ĠÙħÙħÙĦ":9625,"ĠÙĦØ§Ø²Ø§ÙĦØ©":9626,"ĠÙħÙĥÙĬÙģØ§Øª":9627,"ĠÙħÙĩØªÙħ":9628,"ĠÙģÙĦÙĨ":9629,"ĠÙħÙĬÙĨØ§Ø¡":9630,"ĠÙĥØ§":9631,"Ø§Ø¯ÙĤØ©":9632,"ĠÙĩØ§Øª":9633,"ĠØ·ÙĬØ²":9634,"ĠØ§Ø®ØªØ§Ø±":9635,"Ġ174":9636,"ĠÙĦÙĦØ´Ø±ÙĥØ©":9637,"Ø§ÙĦÙĬÙģÙĪØ±ÙĨÙĬØ§":9638,"ØµÙĬØ±":9639,"ĠØ³Ø§ÙĩÙħ":9640,"ĠÙĪÙģÙī":9641,"ĠØ§ÙĦÙĪØ§Ø³":9642,"ĠØªÙĥØ±ÙĬÙħ":9643,"ĠØŃÙħÙĬØ¯":9644,"ĠØ§ÙĦÙģÙĬØ¯ÙĬÙĪÙĩØ§Øª":9645,"ĠØªØµØ¯ÙĬØ±":9646,"ĠÙĪØ¹ÙĨØ¯ÙħØ§":9647,"ĠÙĨØ¶":9648,"ĠØµÙĨØ¯ÙĦ":9649,"ĠØ§ÙĦØ¯Ø§ÙĨ":9650,"ÙĦÙĥÙħ":9651,"ĠÙĦÙħØ·ØŃÙĨØ©":9652,"ĠØ§ÙĦØ§Ø±Ø¨Ø¹Ø©":9653,"ĠØ¨Ø§ÙĥØ«Ø±":9654,"Ø§ÙĪØ±Ø©":9655,"ĠÙĬÙĥØª":9656,"ĠØ§ÙĦØŃØ´":9657,"ĠØ®Ø§Ø¯Ùħ":9658,"ÙĪÙģØ§ÙĨ":9659,"ĠØ§ÙĦØ§Ø®ØªØ¨Ø§Ø±":9660,"ĠÙĬØªÙħÙĥÙĨ":9661,"ĠØ¹Ø§ØµÙħØ©":9662,"ĠÙĬØ±ÙģØ¹":9663,"ÙĤÙĦÙĤ":9664,"ĠØ¹ÙħØ±Ø§ÙĨ":9665,"ĠÙĪØ§Ø®Ø±":9666,"ĠØ§ÙĦÙħØ²Ø¹":9667,"Ø§ÙĦÙħÙĨ":9668,"ĠÙĪØªØ§Ø¨Ø¹":9669,"ØªØ±ÙĥØ§Ø±Ø¯":9670,"ĠØ§ÙĦÙħØµÙĨÙĪØ¹Ø©":9671,"ĠÙĪØ§ÙĦØºØ§Ø²":9672,"Ø¯Ø§Ø¯ÙĬØ©":9673,"ĠØ§ÙĦÙħØªÙĥ":9674,"Ø²ÙĬÙĬÙĨ":9675,"ĠÙĪØªØŃØ¯ÙĬØ¯":9676,"ĠØ¨ÙĪØªÙĬÙĨ":9677,"ĠØµØ±Ø§Ø¹":9678,"ÙĬØ§Ùĥ":9679,"ĠØ§ÙĦØ§Ø³Ø±":9680,"ØªØ²Ø§":9681,"ĠØ§ÙĦØ¬Ø§ÙĩØ²Ø©":9682,"ĠÙĥÙĦÙĪØ¨":9683,"ĠØªØªÙħØªØ¹":9684,"ĠÙĪÙĬÙĤÙĪÙĦ":9685,"ĠØ¨Ø¨Ø·":9686,"ĠØ§ÙĦØ¬Ø±Ø¹Ø©":9687,"ĠØ§ÙĦÙĥÙĪØ¨":9688,"ĠØ§Ø¹Ø¬Ø§Ø¨":9689,"ĠØ³ÙĬØŃ":9690,"ĠØ§ÙĦØ§Ø³ØªØ¹ÙĦØ§Ùħ":9691,"ĠØ§Ø®ÙģØ§Ø¡":9692,"ĠØ§Ø±Ø¬ÙĪ":9693,"ĠØ¬ÙĨØ¨":9694,"ĠØ§ÙĦÙħÙĦØªÙĤÙī":9695,"ĠØ±ØŃÙħØ©":9696,"ĠØ§ÙĦÙģØªÙĬØ§Øª":9697,"ĠÙĦÙĦØ§ØªØŃØ§Ø¯":9698,"ĠØ³Ø¨ØŃØ§ÙĨÙĩ":9699,"ÙħÙĬØ±":9700,"ĠØ§ÙĦØ®ÙģÙĬÙģØ©":9701,"ĠØ§ÙĪØ¶ØŃ":9702,"ÙħØ§ÙĦØ©":9703,"ĠØ§ÙĦØ¹Ø§Ø´Ø±Ø©":9704,"ĠØ§ÙĦØµÙĪÙĬØ§":9705,"ÙĨØ§ÙĪÙĬÙĨ":9706,"ĠÙħÙĦØŃ":9707,"ÙħÙĬØµ":9708,"ĠÙĥÙĪÙĦÙĪÙħØ¨ÙĬØ§":9709,"ÙĤÙĪØ·":9710,"ĠÙĦØ³ÙĬ":9711,"ĠØ§Ø³ØªÙĩØ¯Ùģ":9712,"ĠÙĦÙĥØ§ÙģØ©":9713,"ĠØ¸Ø¨ÙĬ":9714,"ĠØªØ¬Ø§ÙĩÙĦÙĩ":9715,"ĠØ·Ø±Ø¯":9716,"ĠÙĦÙħÙĤ":9717,"Ø±Ø¶Ùī":9718,"ĠØ«Ø§Ø¨ØªØ©":9719,"ĠÙħØ²ÙĬØ¬":9720,"ĠØ§ÙĦØªÙĤÙĨÙĬ":9721,"ĠØ§ÙĦÙħØ¬ØªÙħØ¹Ø§Øª":9722,"ÙħÙħØ©":9723,"ÙĪØ§Ø²":9724,"ĠÙħØ®ØµØµØ©":9725,"ĠÙĪØ§ÙĪÙĦ":9726,"ĠØ¹ÙĬÙĨØ©":9727,"ĠÙĬØ§Ø®Ø°":9728,"ĠØ§Ø³ÙĪØ§ÙĨ":9729,"ĠÙĪØŃØ¯Ùĩ":9730,"ĠÙħØ§Ø³ØªØ±ÙĥØ§Ø±Ø¯":9731,"ĠÙĨØ¨Ø°Ø©":9732,"ĠØªÙĥÙĦ":9733,"ĠØªØŃØ°Ø±":9734,"ĠØ§Ø°Ø§Ø¹Ø©":9735,"ĠØ§ÙĦØ¯ÙħÙĪÙĬØ©":9736,"ÙĥØ§ÙĦÙĬÙģ":9737,"ĠØ¨ÙĬØ¬":9738,"ĠØ¨Ø§ÙĪÙĦ":9739,"ĠØ´Ø§ØŃÙĨØ©":9740,"ĠØ¨Ø§ÙĦØ§Ø´":9741,"ĠØ§ÙĦÙģÙĬ":9742,"ĠØ§ÙĦØ²ÙĨÙĥ":9743,"ĠØ³ÙĬØ§Ø³Ø§Øª":9744,"ĠØ¨Ø§ØŃØ«":9745,"ĠÙĦØ¶":9746,"ĠØ§ÙĦØ¨ØªØ±ÙĪÙĦ":9747,"Ø§Ø·Ø³":9748,"ĠÙħØ±Ø§Ùĩ":9749,"ĠÙħÙĪÙĦØ¯":9750,"Ø±ÙĥÙĬ":9751,"ĠØ§ÙĦØ§Ø³ØªÙĩÙĦØ§Ùĥ":9752,"ĠØ§Ø¹Ø·":9753,"Ġ255":9754,"ĠÙĪÙĨØ´Ø±":9755,"ĠØµÙĬØºØ©":9756,"ĠØ§Ø³ØªÙĥÙħØ§ÙĦ":9757,"Ø§ÙĦÙħØ©":9758,"ĠÙħØŃÙĬØ·":9759,"ĠØ·ÙĦØ¨Ùĥ":9760,"ĠØ§ÙĨØªØ®Ø§Ø¨":9761,"Ġ107":9762,"ĠÙĥÙĪØ±Ø³":9763,"Ø¯Ø§Ø¯Ø§Øª":9764,"Ø§ÙĦØ¯ÙĬÙĨ":9765,"ÙĤÙĪØ¨":9766,"ĠØ§Ø±ØªØ¨Ø§Ø·":9767,"ĠØ§ÙĦØ§ØŃØªØ¬":9768,"ĠØ§ÙĦØ¹ÙĦÙĪÙĬ":9769,"ĠØ§ÙĦØ³ÙĪØ¨Ø±":9770,"Ø¹Ø§Ø´":9771,"ĠØªØ«ÙĬØ±":9772,"ĠØªÙĤØ±Ø±":9773,"ĠØ¯Ø§Ùħ":9774,"ĠØ§ÙĦÙĥÙĩ":9775,"ĠØ§ÙĦÙĦØŃÙħ":9776,"ÙĨÙĬÙĩØ§":9777,"ĠØªÙħÙĬØ²":9778,"ĠÙĪÙĤÙĪØ¹":9779,"ĠÙĪØ§Ø¬Ùĩ":9780,"ĠÙħØ«Ø§ÙĦÙĬØ©":9781,"Ġ446":9782,"ĠÙħÙħÙĦÙĥØ©":9783,"ĠÙģÙĨØ§ÙĨ":9784,"ĠÙĦÙĦØ¶":9785,"ĠØ§ÙĥØ´ÙĨ":9786,"ĠØ¨Ø¹ÙĨØ§ÙĬØ©":9787,"ĠÙħØ«Ø§ÙĦÙĬ":9788,"ĠØ¬ÙĬØ±ÙħØ§ÙĨ":9789,"ĠØ§Ø³ØªÙģØ³Ø§Ø±Ø§Øª":9790,"ÙĨØº":9791,"ĠØ§ÙĦÙħØ¹Ø±Ø¶":9792,"ĠØ¯Ø§Ùģ":9793,"Ø§ØµØ¨":9794,"ĠØ§ÙĦÙħØ³Ø§ÙĦØ©":9795,"ĠÚ¤Ø§ÙĬØ¨Ø±":9796,"ĠÙĩØ¬Ø±Ø©":9797,"Ø§Ø·Ø¦Ø©":9798,"ĠØªÙĪØ«ÙĬÙĤ":9799,"ĠØ·ÙģÙĦÙĥ":9800,"ĠÙĩØ§ÙĨÙĬ":9801,"ØªØ±ÙĥÙĬØ¨":9802,"ĠÙĦÙĦØ§ÙĨØªØ®Ø§Ø¨Ø§Øª":9803,"ĠØªÙĥØ³Ø§Ø³":9804,"ĠØ¨ØªÙģ":9805,"ĠØªÙĪØ¯":9806,"Ø§Ø¨Ø§ÙĬØª":9807,"ĠØ¬Ø¨Ø±":9808,"ĠØ§ÙĦØ§Ø®ØªØ¨Ø§Ø±Ø§Øª":9809,"ĠØªÙħØ§Ø±Ø³":9810,"ĠØ§ÙĦØ¹Ø±Ø¨Ùī":9811,"ĠÙĪØ§ÙĦÙħØ¹Ø§Ø¯ÙĨ":9812,"ĠÙĪØ±ÙģØ¹":9813,"Ġ450":9814,"ØªÙĥØ±Ø©":9815,"ĠÙĬØ§Ø³ÙĬÙĨ":9816,"ĠØ§ÙĦØ¨ÙĪØ±ØµØ©":9817,"ĠØ¬ÙĬØ¬":9818,"ĠØ§ÙĦØ±Ø¤":9819,"ĠÙħØ±Ø§Ø³ÙĦ":9820,"ĠØ§ÙĦØ¹ÙĤØ§Ø±":9821,"ĠØªØºØ·ÙĬØ©":9822,"ĠØ§ÙĦÙħØ±Ø§ÙĥØ²":9823,"ĠØ§Ø¬ÙĪØ§Ø¡":9824,"ĠØªØ³ØªØ¹Ø¯":9825,"ĠØ´ÙĩØ±ÙĬÙĨ":9826,"ĠØ§ÙĦØ³ÙĥÙĨÙĬØ©":9827,"ÙĬØ¡":9828,"ĠÙĪØ¹Ùħ":9829,"ĠØ§ÙĦØªØ¹Ø¯":9830,"ĠØ¨Ø§ÙĦØ³ÙĦ":9831,"ĠØ·Ø§ÙĪÙĦØ©":9832,"ĠØ§ÙĦÙĤØ§Ø¦Ø¯":9833,"ĠØ§ÙĦØ§Ø¬ÙĨØ¨ÙĬ":9834,"ĠØ¨ÙĪØ³Øª":9835,"ĠØ§ÙĦØªÙĨÙģØ³":9836,"ĠØ§ÙĨØªØ¸Ø§Ø±":9837,"Ø¯Ø§Ø«":9838,"ĠÙħØ§Ø¬":9839,"ĠØ¹Ùģ":9840,"ĠÙĦÙĦØªØ¬":9841,"ĠØ±Ø§Ø¨":9842,"ĠØ§ÙĦÙĥØ§Ø±":9843,"ĠØºØ·Ø§Ø¡":9844,"ÙĪØ²Ø©":9845,"ĠÙĪØ·ÙĦØ¨":9846,"ĠØ§ÙĦØŃØ¬Ø²":9847,"ĠØ§ÙĦØµÙĪÙħ":9848,"ĠÙħØµØ¨Ø§ØŃ":9849,"ĠÙĪØªÙĨØ¸ÙĬÙģ":9850,"ĠØ±ÙĪØª":9851,"ĠØ§ÙĨØªÙĤØ§ÙĦ":9852,"ĠØ¨Ø§ÙĦØ§Ø±":9853,"ĠØ§ÙĦØ§Ø®Ø¨Ø§Ø±ÙĬ":9854,"ĠØŃÙĤØ§Ø¦ÙĤ":9855,"ĠØ¹ØµØ§Ùħ":9856,"ĠØ§ÙĦØªÙĦÙĤÙĬØŃ":9857,"ĠØªÙĤØ±":9858,"ĠÙģØ±Ø¬":9859,"ĠÙĬÙĩÙħ":9860,"ĠØ¨Ø§ÙĦØŃÙĤ":9861,"ĠØ§ÙħØ§Ø±Ø§Øª":9862,"ĠØ§ÙĦØ´ÙĩÙĬØ±":9863,"ĠÙĪÙĪØ±":9864,"ĠÙĪØ¸ÙĬÙģ":9865,"ĠØ§ÙĦØ³Ø±ÙĬØ©":9866,"ĠØ§ÙĦØ·ÙĬØ¨Ø©":9867,"ĠØ§ÙĦØ§ÙĬÙģÙĪÙĨ":9868,"ĠØ§ØŃØ§Ø¯ÙĬØ©":9869,"ĠØ§Ø³ØªÙĤØ±Ø§Ø±":9870,"ĠØ¨Ø§ÙĨØ´Ø§Ø¡":9871,"ĠØ³ÙĪÙĩØ§Ø¬":9872,"ĠÙĬÙĥÙģÙĬ":9873,"ÙĨÙĪØ´":9874,"Ø§ÙĨØ§Ø©":9875,"Ø´Ø§Ø·":9876,"ĠØ§ÙĨØ¸Ø±":9877,"ĠØ¯ÙģØ§Ø¹":9878,"ĠØªØªÙĥÙĪÙĨ":9879,"Ø±Ø¨ÙĬØ¬Ø§ÙĨ":9880,"ĠØ§ÙĦÙħÙĥÙĬØ§Ø¬":9881,"ĠØ·ÙĦØ¨Ø©":9882,"ĠÙħÙĦÙĥÙĬØ©":9883,"ĠØ¨Ø§ÙĦØ·Ø¨Ø¹":9884,"ĠØªØªØ±Ø¯Ø¯":9885,"Ø§ÙĦØ¨Ø©":9886,"ĠÙĩØ±Ùħ":9887,"ĠÙħØŃØ§Ø³Ø¨Ø©":9888,"Ø¤ÙĦ":9889,"ĠÙħØ³ØªÙĤÙĦ":9890,"ĠÙģØ¹Ø§ÙĦØ©":9891,"ĠØ§ÙĦØ¨ÙĨØ¯":9892,"ĠØ§ÙĦÙħØ´Ø±ÙĪØ¨Ø§Øª":9893,"ĠØŃØ±ÙĪÙģ":9894,"Ø³ØªÙĨ":9895,"ĠÙħØ¹Ø§Ø±Ø¶":9896,"ØªÙħØ±Ø§Øª":9897,"ĠØ§ÙĦÙĩØ§ÙħØ©":9898,"ĠØ§ÙĨÙģØ³ÙĩÙħ":9899,"ĠØ¨ÙĪØªØ§Ø¬Ø§Ø²":9900,"ĠÙĦÙĦØ·ÙĦØ§Ø¨":9901,"ĠØ§ÙĥÙĪØ§Ø¯":9902,"ÙĬØ¯Ø±ÙĪÙĦÙĬÙĥÙĬ":9903,"ĠØ¨Ø®ÙĦ":9904,"ĠØ³ÙħØ±Ø§Ø¡":9905,"ĠÙĨØ©":9906,"Ø§Ø¦Ø³":9907,"ĠØ§Ø´Ø¹Ø§Ø±":9908,"ĠØ¨ÙĪÙĬÙĨØª":9909,"ĠØ¹ØµÙĬØ±":9910,"Ø¬ÙĪÙĩØ±Ø§Øª":9911,"ĠÙħØŃØ§Ø¶Ø±Ø©":9912,"ĠØ¨ÙĪØ²Ø§Ø±Ø©":9913,"ÙĪÙĨÙĬÙĥ":9914,"ĠØ¬Ø§Ø²Ø§ÙĨ":9915,"ĠØ·Ø§Ø¦Ø±Ø§Øª":9916,"ĠØ§Ø³Ø§ÙĦ":9917,"ĠØªØµØŃÙĬØŃ":9918,"ĠÙĤÙĦÙĪØ¨":9919,"Ø§Ø³ÙĬØ³":9920,"ĠØ§ÙĦÙĨØ§Ø±ÙĬØ©":9921,"ĠÙħÙĤØ§ÙĦØ©":9922,"ĠÙĬØªÙħØªØ¹":9923,"ĠØ§ÙĦÙħÙĩØ§Ø±Ø§Øª":9924,"ĠÙĬÙĩØªÙħ":9925,"ĠØ§ÙĨØªØŃ":9926,"ĠÙĤØ¯ÙĬÙħØ©":9927,"ĠÙĤØ·Ø§Ø±":9928,"ĠÙĥØ§ÙħÙĦØ§":9929,"ĠØ§ÙĦØ¨ÙĦØ¯ÙĬÙĨ":9930,"ĠØ§ÙĦÙĨÙħØ³Ø§":9931,"ĠØ§ÙĦØ¯ÙĪØ±Ø§Øª":9932,"ĠØ§ÙĦÙĪØ§ÙĤ":9933,"ĠØ§ÙĦÙħØ±Ø§Ø¯":9934,"ĠÙĬØ¬Ø¯":9935,"ĠØ¨ÙĪÙĦØ§ÙĬØ©":9936,"ĠÙħØ©":9937,"ĠÙĪØ§ÙĦØªÙī":9938,"Ø§ÙĩÙĨ":9939,"ĠØ§ÙĦÙħØŃØ§ÙħÙĬ":9940,"ĠØŃØµØ±ÙĬØ§":9941,"ĠØ±Ø¬Ùī":9942,"ĠØ³ÙĪÙĦ":9943,"ĠØµØ¯ÙĤ":9944,"ĠØ§Ø³Ø§ÙĦÙĬØ¨":9945,"ĠÙĦÙħØµØ±":9946,"ĠØ§ÙĦÙħØ±Ø§ÙģÙĤ":9947,"ĠÙħÙĦØŃÙĤØ§Øª":9948,"ĠØªÙĩØªÙħ":9949,"ĠØ´ÙĬØ±ØªØ§Øª":9950,"ĠØ¯ÙģØ¹Ø©":9951,"ĠÙĪØ§ÙĦØ±ÙĬØ§Ø¶Ø©":9952,"ĠÙĪÙĨØ¹":9953,"ĠÙĪØ¹Ø±Ø¶":9954,"ĠÙĬÙĩØ¯Ùģ":9955,"ĠØ®Ø§ÙĨ":9956,"ĠØ§ÙĦÙģØ®":9957,"ĠØ§ÙĦØ¯ÙĪØ§Ø±":9958,"ØªØ¯Ø§Ø¯":9959,"ĠØ§ÙĦÙĤØµÙĬØ±Ø©":9960,"ÙĪÙĥØ©":9961,"ĠØ±Ø§Ø¬Ø¹":9962,"ĠØ§ÙĦÙĤØ§Ø¨ÙĦØ©":9963,"ĠØ§ÙĦØ®Ø·Ø©":9964,"ĠØ§ÙĦÙħØ´ÙģØ±Ø©":9965,"ĠØ§ØµØºØ±":9966,"ĠØ¯Ø®ÙĦØª":9967,"ÙĥØ§Ø©":9968,"ĠØ¯Ø§ÙĨ":9969,"ĠØ§ÙĦØ§Ø¯Ø¨ÙĬ":9970,"ĠØ§ÙĦØªØ¬Ø±Ø¨Ø©":9971,"ĠØ¨ÙĪØ¬ÙĪØ¯":9972,"ĠÙĥØ§ÙĦÙĬÙģÙĪØ±ÙĨÙĬØ§":9973,"ĠØ¯Ø¨ÙĦÙĪÙħ":9974,"ĠØ§ÙĦÙĪÙĩØ§Ø¨":9975,"ØªØŃØ¯Ø«":9976,"ĠØ§ÙģØ§ÙĤ":9977,"ØªÙĩØ§Ø¨":9978,"ĠØ§ÙĦÙħØ®ØªØ¨Ø±":9979,"ĠØ§ÙĦØªØº":9980,"ĠØŃØ¯Ø©":9981,"ĠØ§ÙĦØ¹ÙĬØ´":9982,"ĠØ§ÙħÙĩØ§Øª":9983,"ĠØ¨ØŃØ±ÙĬØ©":9984,"ĠÙĦØ§ÙĨØ¯":9985,"Ø¨Ø³Ø§Ø·Ø©":9986,"ĠØ¨Ø´Ø±ØªÙĥ":9987,"ĠØŃØ§ÙħØ¯":9988,"ĠØ³ÙĬØ¨":9989,"ĠØ§ÙĦØ³Ø±ÙĬØ±":9990,"ĠØ§Ø³ØªØ¹Ø±Ø§Ø¶":9991,"ĠØ§Ø±Ø¬Ø§Ø¹":9992,"ĠØªÙĨØ²":9993,"ĠØ®Ø·ÙĬØ±":9994,"Ø§Ø¤Ùĩ":9995,"ĠØ§ÙĦÙħØªÙĨÙĪØ¹Ø©":9996,"ĠØ³ÙĪØ±":9997,"ĠØ´Ø¯ÙĬØ¯Ø©":9998,"ĠØ§ÙĦÙĤØ§Ø¯Ø±":9999}